{"O": {"des": 1, "Fach": 13, "##lernen": 1, "##s": 5, "(": 96, "angel": 1, "##ehnt": 1, "an": 22, "Ta": 1, "##jm": 1, "##el": 2, "&": 2, "Voll": 3, "##mer": 3, "/": 25, "Th\u00fcr": 3, "##mann": 3, ";": 7, "Lo": 1, "##hs": 1, "##e": 5, ")": 73, "1": 13, ".": 267, "Gibt": 5, "es": 44, "sprach": 13, "##liche": 1, "H\u00fcrden": 0, ",": 354, "die": 3, "das": 2, "fach": 7, "Lernen": 3, "beh": 1, "##indern": 1, "k\u00f6nnten": 1, "?": 136, "2": 14, "Lern": 6, "##gelegen": 0, "##heiten": 0, "in": 72, "der": 425, "Stunde": 3, "f\u00fcr": 30, "typische": 0, "\u201e": 9, "Ritu": 1, "##ale": 0, "\u201c": 9, "Unterricht": 6, "##liches": 0, "Sprach": 14, "##handel": 1, "##n": 10, "Typ": 1, "##ische": 1, "Disk": 0, "##urs": 0, "##funktionen": 0, "Materialien": 0, "Rezeption": 0, "Mittel": 2, "Produktion": 2, "Zu": 0, "erstellen": 0, "##de": 2, "Texte": 0, "\u2022": 53, "Muss": 2, "m\u00fcnd": 3, "Unterrichts": 2, "-": 38, "inter": 1, "##aktion": 0, "gest\u00fctzt": 0, "werden": 81, "M\u00fc": 1, "##ssen": 1, "SU": 0, "##S": 0, "Informationen": 0, "besch": 0, "##affen": 0, "eine": 4, "Ergebnis": 1, "##pr\u00e4sent": 0, "##ation": 0, "##lich": 23, "Ist": 1, "Met": 1, "##ako": 1, "##mm": 2, "##uni": 1, "##kat": 2, "##ion": 1, "\u00fcber": 8, "##prozess": 0, "geplant": 0, "Wie": 8, "gehe": 0, "ich": 23, "mit": 22, "Fehler": 7, "um": 24, "K\u00f6nnen": 1, "##er": 2, "im": 1, "Laufe": 1, "##funktion": 0, "ein": 112, "##\u00fcben": 0, "Etwas": 1, "beschreiben": 3, "erkl\u00e4ren": 4, "diskutieren": 1, "aus": 10, "argumen": 1, "##tieren": 1, "oder": 18, "bewerten": 1, "Spiel": 0, "##t": 1, "Text": 4, "##sor": 0, "##te": 0, "Rolle": 5, "deren": 1, "Merkmale": 1, "explizit": 7, "gemacht": 1, "m\u00fcssen": 34, "re": 0, "##zept": 0, "##iven": 0, "Kern": 0, "##wort": 0, "sch": 0, "##atz": 2, "unbekannt": 1, "ist": 1, "Stehen": 0, "bestimmte": 0, "##begriff": 0, "Wort": 9, "##feld": 0, "Zentrum": 0, "Welche": 2, "konkreten": 0, "##schatz": 2, "ben\u00f6tigen": 9, "Sch\u00fcler": 21, "Aufgabe": 10, "zu": 65, "l\u00f6sen": 2, "Art": 0, "Bereitstellung": 0, "domin": 1, "##ante": 1, "gra": 1, "##atische": 0, "Form": 9, "ben\u00f6tigt": 0, "wird": 0, "typischen": 0, "Rede": 0, "##mittel": 0, "meines": 0, "##es": 1, "k\u00f6nnte": 0, "fokuss": 2, "##ieren": 5, "und": 117, "##fordern": 3, "Wird": 1, "bestimmtes": 0, "Register": 1, "erfordert": 0, "einzu": 2, "##halten": 2, "struktur": 1, "Kann": 1, "Erste": 0, "##llen": 0, "von": 45, "##ko": 0, "##h\u00e4re": 0, "##z": 0, "\u201a": 0, "rote": 0, "##r": 0, "Faden": 0, "\u2018": 0, "einge": 0, "##\u00fcbt": 0, "Wann": 1, "gebe": 1, "Feed": 2, "##back": 2, "##bilden": 1, "##d": 19, "planen": 2, "identifizieren": 0, "sie": 71, "Aspekt": 5, "schwierig": 0, "sein": 117, "nennen": 2, "daraus": 3, "folgen": 7, "m\u00f6glich": 13, "##ziel": 0, "=": 25, "Bedarfs": 1, "##analyse": 1, "+": 1, "##bestimmung": 0, "3": 14, "erl\u00e4u": 2, "##tern": 2, "wie": 42, "dieser": 26, "Schwerpunkt": 0, "konkret": 9, "umgehen": 0, "welche": 17, "Hilfs": 2, "##angebot": 0, "bereits": 5, "##telle": 1, "Zusatz": 0, "##material": 1, "innov": 1, "##ativ": 2, "spieler": 0, "##isch": 9, "Methode": 0, "sehen": 7, ":": 121, "Teil": 5, "kommen": 5, "Milch": 1, "##ku": 1, "##h": 1, "lesen": 1, "dabei": 3, "besprechen": 0, "Vor": 1, "##wissen": 1, "aktiv": 3, "Haltung": 1, "genau": 11, "sich": 37, "[UNK]": 74, "vorstellen": 1, "einfach": 6, "Plen": 1, "##um": 1, "eher": 7, "Lese": 0, "##stra": 0, "##teg": 0, "##ia": 0, "Leser": 0, "##out": 0, "##ine": 0, "Kind": 4, "eigens": 1, "##t\u00e4": 2, "##nd": 1, "##ig": 10, "vermitteln": 1, "Artikel": 0, "bei": 30, "Begriff": 3, "denken": 1, "noch": 19, "Schlei": 0, "##fe": 0, "##bauen": 1, "gern": 4, "##hilfe": 0, "nicht": 39, "falsch": 3, "aber": 23, "individ": 1, "##ualisiert": 1, "auf": 29, "Differenz": 0, "##ierungs": 1, "stehen": 3, "sollen": 13, "so": 9, "k\u00f6nnen": 53, "jed": 4, "passend": 1, "Sc": 1, "##aff": 1, "##old": 1, "##suchen": 2, "che": 2, "##ck": 2, "_": 4, "mark": 2, "Aufgaben": 3, "##stellung": 3, "erstmal": 3, "wo": 5, "finden": 8, "Hilfe": 4, "Z": 10, "##sa": 1, "##ktiv": 1, "##ierung": 1, "n\u00f6tig": 3, "relevant": 2, "hier": 24, "ganz": 8, "transparent": 0, "Ok": 1, "Vari": 0, "oben": 1, "Vorgang": 1, "nochmals": 1, "was": 19, "als": 24, "zus\u00e4tzlich": 2, "differenz": 0, "einig": 3, "K\u00e4se": 1, "machen": 5, "!": 22, "unklar": 1, "Muster": 1, "##l\u00f6sung": 0, "aussehen": 0, "Stelle": 1, "sinnvoll": 2, "vorhanden": 1, "geben": 22, "klar": 6, "Ziel": 2, "allerdings": 3, "zeigen": 3, "mir": 9, "stark": 0, "Ein": 0, "##bindung": 0, "M\u00fcn": 0, "##dlich": 0, "##keit": 2, "ab": 5, "##zielen": 2, "durch": 14, "paar": 1, "Austausch": 0, "##runde": 0, "locker": 1, "denkbar": 4, "weil": 4, "De": 2, "Fac": 2, "##to": 2, "nur": 22, "drei": 5, "##aufgabe": 5, "gehen": 5, "insgesamt": 4, "wirken": 3, "ihr": 28, "Idee": 6, "etwas": 6, "z": 1, "##\u00f6ger": 0, "trauen": 2, "ruhig": 2, "auch": 42, "kre": 3, "##ativer": 2, "lebendig": 2, "aufnehmen": 2, "solange": 2, "zentral": 1, "##bildungs": 0, "##prinzip": 0, "Inter": 1, "##produkt": 0, "schon": 11, "gut": 9, "Material": 3, "Umsetzung": 0, "Entlastung": 1, "sowie": 4, "\u00c4nderung": 1, "Sozial": 0, "##form": 1, "viele": 2, "dennoch": 3, "vollst\u00e4ndig": 0, "Potential": 0, "##bildung": 10, "##nu": 0, "##tz": 1, "##en": 4, "##kart": 2, "vorrangig": 1, "##in": 5, "##halt": 1, "nutzen": 7, "ohne": 5, "diese": 2, "nochmal": 4, "daf\u00fcr": 3, "all": 8, "Opera": 1, "##tor": 1, "zumindest": 1, "Definition": 2, "liefern": 1, "wichtig": 3, "Thema": 7, "versammel": 0, "B": 9, "##zw": 3, "wenn": 12, "kritisch": 4, "dann": 6, "wiederum": 2, "H\u00fcr": 0, "mein": 13, "\u00dcber": 5, "##legen": 2, "wieso": 0, "aufs": 0, "##ch": 2, "##reiben": 0, "erfolgen": 2, "Pr\u00e4sentation": 1, "gerade": 8, "Schrift": 2, "##sprache": 2, "Funktion": 1, "haben": 19, "schlie\u00dfen": 1, "letzt": 1, "Punkt": 6, "wann": 3, "Fazit": 1, "erkennbar": 0, "mittels": 2, "##ta": 1, "##rk": 1, "Liebe": 2, "Kir": 2, "##sten": 2, "##idee": 0, "jetzt": 0, "viel": 6, "knapp": 0, "leider": 4, "deutlich": 0, "man": 15, "sehr": 8, "Erwart": 0, "##ung": 3, "vieler": 2, "ihnen": 3, "Proze\u00df": 1, "Wissens": 0, "##aufbau": 0, "woher": 1, "##sicherung": 0, "Informations": 0, "##besch": 0, "##affung": 0, "\u00fcberhaupt": 3, "##leiten": 0, "Ende": 3, "aufbauen": 2, "zwischen": 3, "##dr": 1, "passieren": 2, "innerhalb": 1, "Klassen": 2, "##stufe": 1, "st\u00fctzen": 0, "kein": 13, "erst": 6, "Versp": 0, "##rach": 0, "Alltags": 0, "statt": 3, "Unterst\u00fctzung": 0, "Bildungs": 1, "Gef\u00fchl": 1, "inner": 3, "Bild": 2, "##sens": 0, "##ib": 1, "##l": 4, "alle": 9, "abstra": 1, "##kt": 1, "##orientierung": 0, "fast": 1, "nichts": 2, "sagen": 2, "bleiben": 1, "dargestellt": 1, "Vorgehensweise": 0, "Hinsicht": 0, "allgemein": 0, "heraus": 0, "fehlen": 7, "##uliert": 1, "Kooperation": 0, "##vern": 0, "##etzung": 0, "Umgang": 0, "Richtung": 1, "gleich": 2, "Dreier": 0, "##gruppe": 1, "plus": 1, "weit": 10, "Person": 2, "mindestens": 1, "schauen": 4, "Ans": 1, "##cha": 2, "##uu": 1, "##ng": 1, "##sm": 1, "##aterial": 1, "wir": 14, "gemeinsam": 4, "G": 1, "##gf": 1, "Ab": 1, "Drei": 1, "##eck": 2, "Gemeinsam": 1, "vorn": 2, "##oti": 1, "##eren": 1, "m\u00f6gen": 1, "spielen": 7, "Aktivit\u00e4t": 2, "inhaltlich": 0, "Vis": 1, "##ualisierung": 1, "\u00fcberlegen": 4, "Symbol": 1, "Arbeits": 2, "##auftrag": 0, "hinter": 1, "stif": 1, "##ten": 2, "Sprech": 1, "##bl": 1, "##ase": 1, ">": 7, "welcher": 4, "w\u00e4hlen": 1, "Modus": 0, "schwer": 1, "legitim": 1, "##ierbar": 1, "einzeln": 6, "neu": 4, "vorher": 4, "##ungs": 2, "##hor": 0, "##izont": 0, "Verf\u00fcgung": 0, "stellen": 2, "Formulierung": 1, "##shi": 1, "##lf": 1, "##speicher": 1, "Kontext": 2, "dass": 18, "zwei": 1, "Buch": 1, "##seite": 1, "Gruppe": 1, "Beschreibung": 1, "sprechen": 3, "klein": 3, "Bilder": 1, "##folg": 1, "Plak": 1, "##at": 3, "ander": 10, "##schritt": 0, "di": 0, "##da": 1, "##ktisch": 1, "T": 1, "ausf\u00fchrlich": 3, "sp\u00e4t": 3, "Klarheit": 1, "dar\u00fcber": 2, "Fokus": 1, "insbesondere": 10, "M\u00f6glichkeit": 3, "eigen": 7, "tats\u00e4chlich": 1, "vorbereiten": 1, "Denken": 1, "vielleicht": 2, "achten": 2, "einsetzen": 1, "Vorhaben": 1, "ans": 3, "##weise": 2, "jedoch": 3, "ausb": 1, "##auf": 2, "##\u00e4h": 1, "jetz": 2, "Verlauf": 0, "k": 0, "##ind": 0, "##gerecht": 0, "motiv": 0, "##ierend": 1, "Komp": 0, "##osit": 0, "##a": 0, "dazu": 7, "mich": 2, "eindeutig": 1, "##pers": 0, "##pekt": 0, "##ive": 0, "Darstellung": 0, "Map": 2, "unter": 4, "Vorgehen": 0, "ben": 3, "##ennen": 3, "Blick": 2, "'": 1, "s": 1, "mater": 1, "##ial": 1, "##side": 0, "vergessen": 1, "\u2192": 1, "Planung": 1, "Fest": 1, "##igungs": 1, "##stunde": 1, "unbedingt": 2, "Produkt": 1, "entstehen": 4, "hervorragend": 1, "Kommentar": 1, "wertvoll": 1, "passen": 0, "##stand": 0, "Klasse": 3, "string": 0, "##ent": 0, "##iert": 0, "nat\u00fcrlich": 2, "reduzieren": 2, "perfekt": 1, "s\u00e4m": 0, "##tlich": 0, "aussch": 0, "##\u00f6pfen": 0, "ebenfalls": 1, "strukturiert": 0, "fein": 0, "gestalten": 1, "selbst": 2, "u": 2, "un": 2, "##kon": 0, "##kret": 0, "g\u00e4ng": 3, "Schritt": 1, "##isieren": 0, "vier": 3, "Ablauf": 0, "##arbeitung": 2, "mehr": 5, "Kreativit\u00e4t": 0, "Bereich": 4, "Ideal": 1, "##erweise": 1, "wer": 3, "anschlie\u00dfend": 2, "Lesen": 0, "immer": 6, "grob": 1, "Aufbau": 0, "sch\u00f6n": 1, "Einstieg": 2, "##heitlich": 1, "##fahrung": 0, "Ha": 1, "##pt": 1, "##ik": 3, "pr\u00e4zise": 0, "usw": 2, "beob": 1, "##acht": 1, "##bar": 2, "men": 1, "##tal": 1, "Was": 3, "Verhaltens": 0, "*": 1, "innen": 14, "verwenden": 2, "indem": 3, "gew": 0, "##i\u00df": 0, "##sie": 0, "##rung": 0, "hei\u00dfen": 11, "##\u00fcbung": 0, "Jahrgang": 1, "##sst": 2, "##ufe": 1, "niedrig": 0, "erm\u00f6glichen": 2, "##nach": 1, "sichern": 0, "form": 1, "##ulieren": 2, "Zusammenfassung": 1, "richtig": 1, "zwar": 0, "damit": 12, "somit": 6, "unbe": 1, "##wu": 1, "rot": 0, "##be": 0, "##zug": 0, "kooper": 0, "kl\u00e4ren": 1, "Bauer": 1, "Reflex": 0, "wieder": 2, "irgendwie": 1, "unterst\u00fctzen": 0, "diagnost": 0, "Wissen": 1, "brauchen": 4, "##anteil": 0, "betrachten": 2, "##regen": 3, "##aktiv": 1, "\u00dcbungs": 0, "##schlei": 0, "lassen": 3, "wider": 1, "##spiegel": 0, "Diskussion": 1, "##and": 1, "Seminar": 1, "fro": 2, "##nt": 2, "##al": 5, "##uns": 2, "##ens": 1, "bauen": 1, "traurig": 1, "##leistung": 1, "Us": 2, "##w": 3, "punkt": 1, "##uell": 1, "Haupt": 0, "##rede": 0, "Lehr": 11, "##kraft": 10, "sondern": 11, "vorge": 1, "##ben": 1, "Inhalt": 2, "f\u00f6rdern": 2, "Denk": 0, "Holz": 2, "##stern": 2, "bas": 1, "##teln": 1, "komplex": 4, "wor": 1, "Anf": 0, "##order": 0, "bestehen": 0, "not": 1, "[": 5, "Nur": 1, "Mo": 3, "##od": 3, "##le": 3, "]": 6, "f\u00fc": 1, "##gen": 5, "Gedanke": 1, "For": 1, "##beitrag": 1, "hinzu": 2, "erkennen": 0, "nun": 3, "festgestellt": 1, "Element": 1, "##unterricht": 4, "gelangen": 1, "Seite": 12, "7": 3, "Modell": 4, "Kommunikation": 0, "gro\u00df": 2, "##pro": 2, "##ze\u00df": 2, "verb": 2, "##alisieren": 0, "Sprache": 4, "##bei": 1, "##spiel": 1, "verstehen": 2, "w\u00e4hrend": 2, "Rechn": 0, "kommunizieren": 0, "Rechen": 0, "##weg": 0, "darstellen": 2, "4": 8, "##ae": 0, "mathemat": 0, "reden": 0, "gar": 1, "leisten": 1, "sorgen": 2, "\u00dcbersch": 1, "##u\u00df": 1, "problematisch": 1, "##liste": 0, "Gruppen": 1, "##arbeits": 0, "##phase": 0, "Kommun": 0, "##izieren": 0, "wollen": 3, "unser": 5, "also": 7, "Verf\u00fcg": 0, "##mach": 0, "gelingen": 3, "Block": 3, "erfahren": 1, "Abschnitt": 2, "##f\u00fchren": 0, "wobei": 1, "bild": 1, "##sprach": 3, "F\u00e4higkeit": 1, "Beginn": 0, "ausw\u00e4hlen": 1, "alter": 1, "##sg": 1, "##erecht": 1, "\u00fcben": 4, "8": 2, "24": 4, "beitragen": 0, "Erwerb": 0, "5": 9, "##forderung": 1, "nei": 1, "frei": 1, "verk": 1, "##\u00e4uf": 1, "Internet": 1, "detaill": 0, "fund": 0, "Analyse": 6, "notwendig": 1, "Problems": 0, "##tell": 0, "anbieten": 1, "diver": 0, "##si": 1, "##ts": 1, "diskrimin": 0, "##krit": 0, "Diver": 1, "Diskriminierung": 0, "tun": 2, "Mehr": 0, "##igkeit": 2, "Handeln": 3, "Schuls": 1, "##ystem": 1, "sozial": 1, "Herkunft": 1, "nachweisen": 1, "Beh": 0, "##err": 0, "##schen": 0, "akadem": 1, "daher": 3, "ster": 0, "##eo": 0, "##typ": 1, "\u00dcberzeugung": 0, "Bezug": 1, "auseinander": 2, "##setzen": 2, "Selbst": 1, "##ref": 2, "##lex": 0, "Rassismus": 1, "##bezogen": 0, "institution": 0, "##ell": 1, "##literatur": 2, "h\u00e4ufig": 5, "Ausdruck": 2, "tief": 2, "systematisch": 2, "##ktiert": 2, "rass": 2, "##istisch": 2, "Struktur": 3, "ansehen": 2, "jemand": 1, "##konstruktion": 0, "##dimension": 1, "unters": 2, "##agen": 2, "d\u00fcrfen": 1, "Ph\u00e4nomen": 5, "Ben": 1, "##achteil": 1, "##igung": 1, "12": 2, "##rel": 0, "##ev": 0, "##ant": 0, "##eg": 0, "##orie": 0, "Dimension": 4, "beachten": 0, "bestimmen": 2, "weiterer": 2, "##nehmen": 0, "korre": 0, "##sp": 0, "##ond": 0, "##ner": 1, "gesellschaft": 0, "Position": 1, "Folge": 0, "lern": 0, "verh\u00e4lt": 0, "##nis": 0, "ausreichend": 0, "refle": 1, "##ktieren": 1, "##format": 1, "schlimm": 1, "Fall": 1, "sogar": 1, "anderer": 2, "Weg": 3, "Nad": 1, "##ol": 1, "##ny": 1, "Stefan": 1, "2021": 1, "##sek": 1, "##tional": 1, "##it\u00e4t": 2, "auftreten": 1, "aufgrund": 8, "versch": 0, "##r\u00e4nkt": 0, "geschehen": 0, "##beziehen": 1, "Spannungs": 0, "##verh\u00e4ltnis": 0, "individuell": 0, "Faktor": 0, "Herrschafts": 0, "##ef": 0, "##fekt": 0, "Mart": 1, "Busch": 1, "Er": 2, "##achten": 2, "P\u00e4dagog": 2, "darum": 3, "Kompetenz": 2, "Komplexit\u00e4t": 0, "erarbeiten": 0, "Viel": 2, "##schicht": 2, "ber\u00fccksichtigen": 2, "Handlungs": 1, "##f\u00e4higkeit": 0, "trotz": 1, "##icherheit": 1, "dies": 5, "f\u00fchren": 6, "Weise": 0, "p\u00e4dagog": 3, "f\u00f6rder": 2, "Neut": 1, "##ral": 1, "nachdenken": 0, "einst": 1, "schl": 1, "##uss": 1, "##folger": 1, "metho": 1, "##dis": 1, "zun\u00e4chst": 2, "Regel": 0, "setzen": 0, "Wider": 0, "##sprechen": 0, "ersch": 0, "##weren": 0, "\u2013": 3, "Un": 1, "konvention": 1, "gegen": 1, "Ice": 1, "##rd": 1, "Rasse": 0, "Menschen": 0, "##rasse": 0, "Power": 1, "Rass": 0, "##ismen": 0, "##ismus": 0, "geh\u00f6ren": 1, "heute": 1, "echt": 1, "vorliegen": 4, "vor": 14, "Ungleich": 0, "##behandlung": 0, "handeln": 0, "##sf": 0, "##orm": 0, "unterschiedlich": 4, "is": 1, "##men": 1, "Ad": 1, "##ult": 1, "##ism": 1, "##u": 1, "Zusammenhang": 2, "Ot": 0, "##her": 3, "##ing": 1, "Kultur": 1, "##alisierung": 1, "Abbildung": 1, "Lin": 0, "##gu": 0, "##iz": 0, "bedeuten": 2, "Gymnasium": 2, "erteilen": 2, "Merkmal": 1, "hinweg": 1, "Anerkennung": 0, "mitgebracht": 0, "##verm\u00f6gen": 0, "wahrscheinlich": 1, "##ibel": 0, "agieren": 0, "bek\u00e4mpfen": 2, "Aus": 0, "##pr\u00e4": 0, "##gung": 0, "Schule": 1, "annehmen": 2, "m\u00f6chten": 5, "potenzie": 1, "##ll": 1, "##muster": 0, "dr\u00fccken": 0, "ohn": 0, "##m\u00e4chtig": 0, "Opfer": 0, "##rolle": 0, "Familie": 0, "ver": 0, "##erb": 0, "##zwei": 0, "##fel": 0, "best\u00e4": 0, "emp": 0, "##ath": 0, "kompens": 0, "versuchen": 1, "Betroffene": 0, "wirklich": 3, "h\u00e4ngen": 1, "Verfasst": 0, "##heit": 0, "Gesellschaft": 0, "zusammen": 2, "Fortbildung": 1, "besuchen": 1, "Gesellschafts": 1, "##zusammen": 1, "##hang": 1, "erwerben": 1, "b": 1, "##\u00fcr": 0, "##den": 0, "dem": 0, "r": 1, "wecken": 0, "Hoffnung": 0, "Welt": 1, "meist": 3, "Wirtschafts": 1, "##unternehmen": 1, "Bew": 1, "##usste": 1, "Isa": 1, "##llo": 1, "##we": 1, "y": 1, "##sk": 0, "##rit": 0, "unterrichten": 0, "beginnen": 3, "folglich": 2, "inkl": 0, "##us": 0, "##iv": 0, "sensi": 0, "##bel": 0, "Auswahl": 0, "Gegenstand": 0, "w\u00fcnschen": 1, "besonders": 3, "hoch": 1, "verringern": 0, "Mehrfach": 0, "##eh": 0, "##\u00f6r": 0, "anerkennen": 0, "Ebene": 7, "organisieren": 1, "euch": 1, "Information": 0, "21": 3, "2010": 1, "Herausforderung": 2, "sp\u00e4testens": 1, "Sekundar": 1, "##stuf": 1, "bal": 1, "##len": 1, "treffen": 1, "Ausbau": 0, "##lichkeit": 0, "##kompetenz": 0, "verf\u00fcgen": 3, "Grund": 2, "##schul": 1, "##zeit": 5, "bis": 1, "sechs": 1, "kon": 0, "##zeption": 0, "vertraut": 0, "Res": 0, "##so": 0, "##urce": 0, "h\u00f6ren": 1, "Bestimmung": 0, "Hindernis": 0, "Schwier": 0, "Anzeichen": 1, "##ulierung": 0, "durchs": 1, "##uen": 1, "analysieren": 2, "solch": 7, "bew\u00e4ltigen": 0, "##ungsbereich": 0, "##decken": 1, "Ausf\u00fchrung": 0, "Videos": 1, "##fassen": 1, "Feld": 0, "##handlung": 0, "W": 1, "##dh": 1, "Genre": 0, "Video": 4, "10": 1, "Erkl\u00e4rung": 4, "vorgeschlagen": 1, "Frage": 4, "##inter": 0, "darauf": 2, "##hen": 1, "ko": 3, "##gn": 3, "##itiv": 3, "Operation": 0, "bestimmt": 9, "11": 2, "bezeichnen": 4, "ausgel\u00f6st": 1, "liegen": 1, "##struktur": 0, "meinen": 3, "Festlegung": 0, "el": 1, "##ement": 1, "##ar": 1, "umsetzen": 1, "##antwort": 1, "erforderlich": 1, "s\u00e4": 1, "existieren": 1, "##uster": 0, "helfen": 3, "Qualit\u00e4t": 0, "jewei": 2, "##lig": 2, "erh\u00f6hen": 3, "Arbeit": 2, "Lauf": 1, "typisch": 4, "v": 1, "##an": 0, "##weisung": 0, "bedienen": 1, "oftmals": 2, "erwarten": 1, "rein": 2, "enthalten": 1, "ideal": 1, "Schreiben": 0, "Sprechen": 0, "Handlung": 1, "schul": 1, "##p\u00e4dagog": 1, "Funktions": 1, "##verb": 1, "##gef\u00fc": 1, "##g": 3, "wissen": 3, "##ener": 0, "Bearbeitung": 0, "initi": 0, "lenken": 1, "i": 1, "R": 1, "erfordern": 1, "##lei": 1, "Problem": 1, "verbinden": 1, "##ordnung": 0, "gew\u00e4hrleisten": 1, "theoretisch": 0, "Fund": 0, "Sinn": 0, "Referenz": 0, "##rahmen": 0, "Kategorie": 0, "realisiert": 0, "etwa": 1, "Anlehnung": 1, "2002": 1, "verschw": 1, "##eigen": 1, "Realisierung": 0, "feststellen": 1, "fest": 1, "untersuchen": 1, "erscheinen": 2, "Inst": 1, "##ru": 1, "##ktion": 1, "beinhalten": 2, "bearbeiten": 0, "Zeichen": 0, "##system": 0, "##merk": 0, "##mal": 1, "unsicher": 1, "f\u00fchlen": 1, "##sch\u00fcler": 0, "zusammenh\u00e4ngen": 0, "schriftlich": 1, "18": 1, "erw\u00e4hnt": 1, "##se": 1, "einher": 0, "##gehend": 0, "##\u00fc": 0, "##pfen": 0, "##strategie": 0, "Koh": 0, "##\u00e4ren": 0, "spezif": 2, "Strategie": 2, "endlich": 1, "tauchen": 1, "##atik": 0, "##alisch": 0, "auff\u00e4llig": 1, "##atisch": 1, "schlie\u00dflich": 3, "kommun": 0, "##ikat": 0, "##sb": 0, "##erei": 0, "m": 1, "##dl": 1, "H\u00f6ren": 0, "gelungen": 1, "Leit": 1, "##frage": 1, "Pl": 1, "##uri": 1, "##lit": 1, "##era": 1, "##ci": 1, "ec": 1, "##ml": 1, "at": 1, "Fak": 0, "Konzept": 0, "Fertig": 1, "inne": 1, "n": 1, "am": 2, "##tik": 1, "d": 2, "e": 1, "eignen": 2, "Einzel": 1, "##arbeit": 3, "Partner": 1, "zum": 1, "verbessern": 1, "Beweis": 0, "Se": 0, "##quenz": 0, "erhalten": 2, "Gelegenheit": 1, "##reichte": 0, "##fort": 0, "messen": 0, "Erg\u00e4nzung": 1, "##bringen": 1, "Vermittlung": 0, "Ko": 0, "##ition": 0, "allen": 1, "fa": 1, "##ech": 1, "##ern": 1, "p": 1, "##df": 1, "begegnen": 1, "Name": 1, "Ger": 0, "##\u00fcst": 0, "dienen": 2, "selbstst\u00e4ndig": 0, "bewegen": 0, "kalk": 2, "pr\u00e4gen": 1, "##di": 1, "nach": 1, "So": 1, "##das": 1, "optimal": 1, "##situation": 1, "eigentlich": 1, "Aufrechter": 0, "Development": 1, "Zone": 1, "Offensive": 0, "defen": 0, "##siv": 0, "##praxis": 1, "prinzip": 1, "##iell": 1, "ent": 1, "##lasten": 1, "R\u00fcck": 0, "##meldung": 0, "##melde": 0, "##technische": 0, "lernen": 1, "besch\u00e4ftigen": 2, "betreffen": 1, "##here": 1, "ind": 0, "##uk": 3, "##tiv": 0, "28": 3, "Mikro": 0, "Mak": 0, "##ros": 0, "##ca": 0, "##ff": 0, "beide": 2, "mod": 2, "separ": 2, "Phase": 1, "stattfinden": 1, "neben": 1, "##planung": 0, "hierzu": 1, "z\u00e4hlen": 1, "verst\u00e4ndlich": 0, "##erium": 0, "formuliert": 0, "Bedarf": 0, "##stands": 0, "aktuell": 1, "gelten": 3, "behalten": 0, "oft": 2, "genannt": 1, "umfassen": 4, "Gesamtheit": 1, "##technik": 0, "anhand": 1, "13": 2, "##st\u00e4ndigkeit": 0, "vielf\u00e4ltig": 1, "##sc": 0, "hingegen": 2, "hierbei": 1, "Technik": 6, "##kommun": 0, "##ikation": 0, "mitge": 1, "##stal": 1, "unvoll": 1, "##st\u00e4ndig": 1, "lauten": 1, "Grundlage": 1, "Sog": 4, "vorgegeben": 1, "bedenken": 1, "schreiben": 0, "pr\u00e4sentieren": 2, "beherrschen": 1, "Schreib": 1, "besonder": 1, "##verk": 0, "##pfung": 0, "Gramm": 0, "leicht": 1, "Zuwachs": 0, "bewirken": 1, "Medium": 1, "sicherstellen": 1, "bew": 1, "##ussen": 1, "Zir": 1, "##kel": 1, "Besch\u00e4ftigung": 0, "Beispiel": 8, "Leistung": 0, "da": 1, "verschieden": 4, "Bedeutung": 2, "fallen": 1, "gesamt": 1, "Planungs": 0, "##vorgang": 0, "a": 1, "vornehmen": 1, "geeignet": 1, "Unterst\u00fctzungs": 0, "abl": 1, "##eiten": 1, "Grundschule": 1, "sim": 0, "##pel": 0, "\u00fcbersehen": 1, "er": 3, "##proben": 2, "Antwort": 2, "durchf\u00fchren": 1, "m\u00f6glichst": 3, "##bereich": 3, "Neben": 0, "##s\u00e4tz": 0, "Bruch": 1, "##teil": 1, "mal": 2, "Sach": 1, "##text": 2, "##werk": 1, "zweit": 1, "##best": 1, "##h\u00fc": 0, "##blatt": 1, "do": 1, "##wn": 1, "ar": 1, "##row": 1, "Tipp": 2, "Hinweis": 3, "herausfinden": 1, "ti": 1, "##ppen": 1, "verf\u00fcgbar": 2, "frage": 0, "Konzentration": 0, "Schacht": 0, "##els": 0, "Eind": 0, "##eu": 0, "##tigkeit": 0, "##deu": 0, "offen": 0, "##fra": 0, "##cht": 0, "Transfer": 0, "Rep": 0, "##rod": 0, "##tion": 0, "Ei": 1, "Ca": 2, "60": 1, "Min": 2, "dazuge": 1, "##h\u00f6r": 1, "Erinnerung": 1, "##sw": 1, "ausgew\u00e4hlt": 1, "sc": 0, "Nutzen": 0, "Bitte": 2, "Pr\u00e4z": 0, "##isierung": 0, "##verw": 1, "##endung": 1, "Ziels": 3, "##tr": 3, "##tur": 3, "gezielt": 1, "Kontrast": 0, "vergleichen": 1, "##vergleich": 3, "##kunft": 3, "Auf": 3, "##greifen": 4, "\u00c4u\u00dfer": 1, "korrig": 1, "Wieder": 1, "##holen": 1, "ziel": 0, "Re": 2, "##cast": 1, "Aufforderung": 1, "##kor": 1, "##rektur": 1, "Kl\u00e4r": 1, "impl": 1, "##izit": 1, "Eliz": 1, "##iti": 1, "##erung": 1, "##wieder": 1, "##holung": 1, "Einsatz": 1, "26": 10, "Folgende": 1, "ow": 2, "Gespr\u00e4ch": 0, "##ss": 0, "##ituation": 0, "halten": 0, "##ie": 2, "##altern": 0, "##ative": 0, "Motiv": 0, "o": 3, "uns": 3, "Ma\u00dfnahme": 0, "F\u00fchrung": 0, "##gespr\u00e4ch": 0, "erleichtern": 0, "veran": 1, "##schau": 1, "##lichen": 1, "S": 5, "##iede": 1, "##ln": 2, "Unsicherheit": 0, "##wissenschaftler": 1, "Knapp": 1, "beobachten": 1, "vielfach": 1, "bemerken": 1, "nett": 1, "l\u00e4": 1, "##che": 1, "ni": 1, "##cken": 1, "Verst\u00e4ndnis": 0, "##schwier": 0, "schnell": 2, "unent": 0, "##\u00fchrung": 0, "beziehen": 3, "ebenso": 1, "##tem": 0, "##po": 0, "Beton": 0, "##pause": 0, "Beziehung": 1, "##sebene": 1, "Gestaltung": 0, "##gst": 0, "##frei": 0, "##gebung": 0, "ermu": 0, "##nte": 0, "##rn": 0, "wert": 0, "##sch": 0, "##\u00e4tzen": 0, "Werkzeuge": 1, "##schullehrer": 0, "40": 1, "Daniela": 1, "Rotter": 1, "einer": 4, "auffallen": 1, "ziemlich": 0, "wenig": 1, "zust": 0, "##ehen": 0, "konstru": 0, "##\u00e4g": 0, "##sver": 0, "##lauf": 0, "natur": 0, "##wissenschaft": 0, "Sachver": 0, "angemessen": 0, "Lehrer": 0, "##sau": 0, "##sz": 0, "##ug": 0, "bereit": 1, "A": 1, "Versuch": 1, "Erkenntnis": 1, "verp": 1, "##acken": 1, "##elli": 1, "##ert": 1, "##tags": 1, "Bericht": 1, "##atten": 1, "sinn": 0, "##stift": 0, "##end": 0, "Prinzip": 2, "orientieren": 1, "pro": 3, "##xi": 1, "kennenlernen": 3, "wesentlich": 0, "trennen": 0, "##zeigen": 0, "Peer": 0, "Cor": 0, "##re": 1, "##ction": 0, "Angst": 1, "eventuell": 1, "blo\u00df": 1, "##stellen": 1, "Interesse": 0, "automatisch": 1, "positiv": 0, "##kultur": 0, "erlauben": 3, "D": 1, "H": 1, "unauf": 0, "##dring": 0, "nebenbei": 0, "res": 0, "##ns": 0, "##cho": 0, "##nen": 0, "halb": 1, "O": 4, "Situation": 2, "einzig": 2, "wirksam": 2, "L\u00f6sung": 2, "klass": 1, "lang": 3, "anstelle": 0, "direkt": 0, "Prom": 0, "sau": 3, "Nutzung": 0, "##und": 0, "Themen": 2, "erfassen": 2, "##echsel": 0, "Option": 1, "14": 1, "Schau": 1, "dort": 1, "##pla": 1, "##ions": 0, "##bewusst": 1, "##sei": 1, "begleiten": 1, "Satz": 1, "beispielsweise": 1, "Kor": 1, "##ktive": 1, "##kod": 1, "##ier": 1, "Monitor": 2, "wiederauf": 3, "denn": 1, "Periode": 4, "dauern": 4, "Sekunde": 4, "Mi": 0, "##mi": 0, "##k": 0, "Gest": 0, "Hand": 1, "##bewegung": 1, "Heb": 1, "Augen": 1, "##bra": 1, "##ue": 1, "korrekt": 1, "##ur": 1, "16": 1, "Grundsatz": 0, "Studium": 1, "bisher": 2, "Korrektur": 0, "vorgehen": 0, "##rw": 0, "he": 0, "##mmen": 0, "Umstand": 1, "Foss": 0, "##ili": 0, "Abbruch": 1, "Erwerbs": 0, "Sta": 0, "##gna": 0, "erworben": 0, "Niveau": 0, "demnach": 1, "werfen": 0, "verde": 1, "##utlich": 1, "gleicherma\u00dfen": 1, "##\u00fcler": 0, "##freundlich": 0, "##verh": 0, "##alte": 0, "etablieren": 0, "##bau": 0, "##rate": 0, "##gie": 0, "20": 1, "Auge": 1, "##\u00e4u\u00dfer": 0, "einsch": 0, "beurteilen": 0, "herange": 1, "Ann\u00e4herung": 0, "##sweise": 0, "regelm\u00e4\u00dfig": 1, "recht": 1, "neutr": 0, "gewinnen": 0, "##durch": 1, "ermitteln": 0, "einerseits": 0, "gegen\u00fcber": 1, "Zeitpunkt": 1, "x": 1, "Regen": 0, "weiter": 1, "##nor": 0, "##ient": 0, "fe": 0, "##ed": 0, "##dia": 0, "##ose": 0, "flexibel": 1, "Fol": 2, "##ien": 1, "##na": 2, "##ly": 1, "##ruf": 1, "Kriterien": 1, "##ras": 1, "##ter": 1, "sub": 0, "##jektiv": 0, "Eindruck": 0, "verf": 0, "##\u00e4l": 0, "ob": 0, "unum": 1, "##g\u00e4ng": 1, "anpassen": 0, "pr\u00fc": 0, "##fungs": 0, "cu": 0, "##rr": 0, "##ic": 0, "##ular": 0, "##gabe": 0, "pers\u00f6nlich": 0, "legen": 1, "##orientiert": 0, "davon": 1, "Kriterium": 1, "le": 1, "##hre": 1, "##rf": 1, "##ort": 1, "22": 1, "Ressourcen": 0, "##orientierte": 0, "E": 1, "wahrnehmen": 0, "Verw": 0, "##enden": 0, "stets": 1, "auswirken": 0, "erinnern": 1, "R\u00fcckgabe": 1, "Klaus": 1, "Schulzeit": 1, "##f\u00f6rder": 0, "kennen": 1, "Auseinander": 0, "##setzung": 0, "##satz": 1, "Halbjahr": 1, "einmal": 1, "zur\u00fcck": 1, "Formul": 0, "##inn": 0, "Transparenz": 0, "jeweils": 1, "merken": 1, "Memor": 1, "##y": 1, "Grafik": 1, "keiner": 1, "Papier": 1, "gelegentlich": 1, "Mangel": 0, "vermuten": 1, "erf\u00fcllen": 0, "interessant": 0, "inform": 0, "Argument": 0, "Vorsicht": 0, "wa": 0, "##lt": 0, "Hed": 0, "##ging": 0, "Behauptung": 1, "Schluss": 0, "definieren": 0, "ausbauen": 1, "Einf\u00fchrung": 0, "Organisation": 0, "Le": 0, "##\u00fcre": 0, "Ess": 1, "##ay": 1}, "B-Feedback_Criteria": {"des": 0, "Fach": 5, "##lernen": 0, "##s": 1, "(": 0, "angel": 0, "##ehnt": 0, "an": 3, "Ta": 0, "##jm": 0, "##el": 0, "&": 0, "Voll": 0, "##mer": 0, "/": 0, "Th\u00fcr": 0, "##mann": 0, ";": 0, "Lo": 0, "##hs": 0, "##e": 8, ")": 0, "1": 0, ".": 0, "Gibt": 0, "es": 0, "sprach": 108, "##liche": 3, "H\u00fcrden": 0, ",": 0, "die": 0, "das": 0, "fach": 7, "Lernen": 0, "beh": 0, "##indern": 0, "k\u00f6nnten": 0, "?": 0, "2": 0, "Lern": 9, "##gelegen": 2, "##heiten": 1, "in": 2, "der": 2, "Stunde": 0, "f\u00fcr": 2, "typische": 1, "\u201e": 2, "Ritu": 0, "##ale": 0, "\u201c": 0, "Unterricht": 3, "##liches": 2, "Sprach": 47, "##handel": 0, "##n": 2, "Typ": 0, "##ische": 0, "Disk": 24, "##urs": 24, "##funktionen": 1, "Materialien": 1, "Rezeption": 0, "Mittel": 2, "Produktion": 1, "Zu": 1, "erstellen": 0, "##de": 2, "Texte": 0, "\u2022": 0, "Muss": 0, "m\u00fcnd": 6, "Unterrichts": 7, "-": 3, "inter": 1, "##aktion": 6, "gest\u00fctzt": 0, "werden": 0, "M\u00fc": 0, "##ssen": 0, "SU": 1, "##S": 1, "Informationen": 0, "besch": 0, "##affen": 0, "eine": 0, "Ergebnis": 8, "##pr\u00e4sent": 3, "##ation": 4, "##lich": 103, "Ist": 0, "Met": 2, "##ako": 2, "##mm": 4, "##uni": 2, "##kat": 2, "##ion": 10, "\u00fcber": 1, "##prozess": 0, "geplant": 1, "Wie": 0, "gehe": 1, "ich": 0, "mit": 8, "Fehler": 5, "um": 0, "K\u00f6nnen": 0, "##er": 1, "im": 0, "Laufe": 0, "##funktion": 21, "ein": 2, "##\u00fcben": 0, "Etwas": 0, "beschreiben": 0, "erkl\u00e4ren": 1, "diskutieren": 0, "aus": 0, "argumen": 0, "##tieren": 0, "oder": 0, "bewerten": 0, "Spiel": 2, "##t": 9, "Text": 14, "##sor": 4, "##te": 0, "Rolle": 0, "deren": 0, "Merkmale": 0, "explizit": 0, "gemacht": 0, "m\u00fcssen": 0, "re": 2, "##zept": 3, "##iven": 1, "Kern": 0, "##wort": 1, "sch": 2, "##atz": 0, "unbekannt": 0, "ist": 0, "Stehen": 1, "bestimmte": 0, "##begriff": 5, "Wort": 6, "##feld": 3, "Zentrum": 0, "Welche": 0, "konkreten": 1, "##schatz": 3, "ben\u00f6tigen": 0, "Sch\u00fcler": 9, "Aufgabe": 4, "zu": 1, "l\u00f6sen": 0, "Art": 4, "Bereitstellung": 1, "domin": 3, "##ante": 0, "gra": 2, "##atische": 1, "Form": 4, "ben\u00f6tigt": 0, "wird": 0, "typischen": 1, "Rede": 5, "##mittel": 5, "meines": 0, "##es": 0, "k\u00f6nnte": 0, "fokuss": 1, "##ieren": 9, "und": 0, "##fordern": 0, "Wird": 0, "bestimmtes": 1, "Register": 0, "erfordert": 0, "einzu": 1, "##halten": 2, "struktur": 1, "Kann": 0, "Erste": 5, "##llen": 5, "von": 0, "##ko": 0, "##h\u00e4re": 1, "##z": 0, "\u201a": 0, "rote": 0, "##r": 0, "Faden": 0, "\u2018": 0, "einge": 0, "##\u00fcbt": 0, "Wann": 0, "gebe": 0, "Feed": 16, "##back": 16, "##bilden": 13, "##d": 16, "planen": 0, "identifizieren": 2, "sie": 0, "Aspekt": 0, "schwierig": 1, "sein": 0, "nennen": 0, "daraus": 0, "folgen": 0, "m\u00f6glich": 1, "##ziel": 3, "=": 0, "Bedarfs": 16, "##analyse": 22, "+": 0, "##bestimmung": 1, "3": 0, "erl\u00e4u": 0, "##tern": 0, "wie": 2, "dieser": 0, "Schwerpunkt": 0, "konkret": 7, "umgehen": 1, "welche": 16, "Hilfs": 1, "##angebot": 0, "bereits": 0, "##telle": 0, "Zusatz": 1, "##material": 2, "innov": 0, "##ativ": 2, "spieler": 1, "##isch": 10, "Methode": 3, "sehen": 1, ":": 0, "Teil": 0, "kommen": 0, "Milch": 0, "##ku": 0, "##h": 0, "lesen": 2, "dabei": 0, "besprechen": 0, "Vor": 12, "##wissen": 12, "aktiv": 1, "Haltung": 0, "genau": 1, "sich": 1, "[UNK]": 14, "vorstellen": 0, "einfach": 0, "Plen": 0, "##um": 0, "eher": 0, "Lese": 2, "##stra": 2, "##teg": 2, "##ia": 2, "Leser": 1, "##out": 1, "##ine": 1, "Kind": 1, "eigens": 0, "##t\u00e4": 10, "##nd": 0, "##ig": 3, "vermitteln": 0, "Artikel": 1, "bei": 1, "Begriff": 2, "denken": 0, "noch": 0, "Schlei": 0, "##fe": 1, "##bauen": 0, "gern": 0, "##hilfe": 19, "nicht": 0, "falsch": 0, "aber": 0, "individ": 0, "##ualisiert": 0, "auf": 2, "Differenz": 4, "##ierungs": 6, "stehen": 0, "sollen": 0, "so": 0, "k\u00f6nnen": 0, "jed": 0, "passend": 1, "Sc": 6, "##aff": 14, "##old": 16, "##suchen": 0, "che": 0, "##ck": 0, "_": 0, "mark": 0, "Aufgaben": 19, "##stellung": 18, "erstmal": 0, "wo": 1, "finden": 0, "Hilfe": 3, "Z": 0, "##sa": 8, "##ktiv": 8, "##ierung": 21, "n\u00f6tig": 0, "relevant": 1, "hier": 0, "ganz": 0, "transparent": 5, "Ok": 0, "Vari": 1, "oben": 0, "Vorgang": 0, "nochmals": 0, "was": 2, "als": 2, "zus\u00e4tzlich": 0, "differenz": 5, "einig": 0, "K\u00e4se": 0, "machen": 0, "!": 0, "unklar": 3, "Muster": 3, "##l\u00f6sung": 3, "aussehen": 1, "Stelle": 2, "sinnvoll": 0, "vorhanden": 0, "geben": 0, "klar": 8, "Ziel": 0, "allerdings": 0, "zeigen": 1, "mir": 0, "stark": 2, "Ein": 2, "##bindung": 0, "M\u00fcn": 0, "##dlich": 0, "##keit": 1, "ab": 0, "##zielen": 0, "durch": 0, "paar": 0, "Austausch": 0, "##runde": 0, "locker": 0, "denkbar": 0, "weil": 0, "De": 0, "Fac": 0, "##to": 0, "nur": 0, "drei": 0, "##aufgabe": 1, "gehen": 0, "insgesamt": 0, "wirken": 1, "ihr": 0, "Idee": 9, "etwas": 0, "z": 0, "##\u00f6ger": 0, "trauen": 0, "ruhig": 0, "auch": 0, "kre": 0, "##ativer": 0, "lebendig": 0, "aufnehmen": 0, "solange": 0, "zentral": 1, "##bildungs": 3, "##prinzip": 2, "Inter": 5, "##produkt": 2, "schon": 0, "gut": 1, "Material": 6, "Umsetzung": 2, "Entlastung": 1, "sowie": 0, "\u00c4nderung": 0, "Sozial": 5, "##form": 7, "viele": 0, "dennoch": 0, "vollst\u00e4ndig": 1, "Potential": 1, "##bildung": 1, "##nu": 0, "##tz": 0, "##en": 2, "##kart": 0, "vorrangig": 0, "##in": 0, "##halt": 0, "nutzen": 1, "ohne": 0, "diese": 0, "nochmal": 0, "daf\u00fcr": 0, "all": 0, "Opera": 24, "##tor": 24, "zumindest": 0, "Definition": 1, "liefern": 0, "wichtig": 1, "Thema": 0, "versammel": 0, "B": 0, "##zw": 0, "wenn": 0, "kritisch": 1, "dann": 0, "wiederum": 0, "H\u00fcr": 1, "mein": 0, "\u00dcber": 0, "##legen": 0, "wieso": 1, "aufs": 0, "##ch": 0, "##reiben": 0, "erfolgen": 0, "Pr\u00e4sentation": 7, "gerade": 0, "Schrift": 2, "##sprache": 2, "Funktion": 0, "haben": 0, "schlie\u00dfen": 0, "letzt": 0, "Punkt": 1, "wann": 0, "Fazit": 0, "erkennbar": 0, "mittels": 0, "##ta": 0, "##rk": 0, "Liebe": 0, "Kir": 0, "##sten": 0, "##idee": 2, "jetzt": 0, "viel": 0, "knapp": 2, "leider": 0, "deutlich": 4, "man": 0, "sehr": 0, "Erwart": 2, "##ung": 7, "vieler": 0, "ihnen": 0, "Proze\u00df": 1, "Wissens": 4, "##aufbau": 3, "woher": 1, "##sicherung": 3, "Informations": 2, "##besch": 2, "##affung": 2, "\u00fcberhaupt": 0, "##leiten": 0, "Ende": 0, "aufbauen": 0, "zwischen": 0, "##dr": 0, "passieren": 0, "innerhalb": 0, "Klassen": 0, "##stufe": 0, "st\u00fctzen": 0, "kein": 0, "erst": 0, "Versp": 2, "##rach": 2, "Alltags": 0, "statt": 0, "Unterst\u00fctzung": 1, "Bildungs": 0, "Gef\u00fchl": 0, "inner": 0, "Bild": 0, "##sens": 7, "##ib": 7, "##l": 7, "alle": 0, "abstra": 1, "##kt": 1, "##orientierung": 2, "fast": 0, "nichts": 0, "sagen": 0, "bleiben": 1, "dargestellt": 0, "Vorgehensweise": 2, "Hinsicht": 0, "allgemein": 0, "heraus": 0, "fehlen": 1, "##uliert": 0, "Kooperation": 2, "##vern": 1, "##etzung": 1, "Umgang": 4, "Richtung": 0, "gleich": 0, "Dreier": 0, "##gruppe": 0, "plus": 0, "weit": 0, "Person": 0, "mindestens": 0, "schauen": 0, "Ans": 0, "##cha": 0, "##uu": 0, "##ng": 0, "##sm": 1, "##aterial": 0, "wir": 0, "gemeinsam": 0, "G": 0, "##gf": 0, "Ab": 0, "Drei": 0, "##eck": 0, "Gemeinsam": 0, "vorn": 0, "##oti": 0, "##eren": 0, "m\u00f6gen": 0, "spielen": 0, "Aktivit\u00e4t": 0, "inhaltlich": 3, "Vis": 0, "##ualisierung": 0, "\u00fcberlegen": 0, "Symbol": 0, "Arbeits": 11, "##auftrag": 4, "hinter": 0, "stif": 0, "##ten": 0, "Sprech": 3, "##bl": 0, "##ase": 0, ">": 0, "welcher": 1, "w\u00e4hlen": 1, "Modus": 0, "schwer": 0, "legitim": 0, "##ierbar": 0, "einzeln": 0, "neu": 3, "vorher": 0, "##ungs": 5, "##hor": 1, "##izont": 1, "Verf\u00fcgung": 0, "stellen": 1, "Formulierung": 5, "##shi": 3, "##lf": 3, "##speicher": 1, "Kontext": 0, "dass": 0, "zwei": 0, "Buch": 0, "##seite": 0, "Gruppe": 0, "Beschreibung": 0, "sprechen": 3, "klein": 2, "Bilder": 0, "##folg": 0, "Plak": 0, "##at": 0, "ander": 0, "##schritt": 4, "di": 1, "##da": 1, "##ktisch": 1, "T": 0, "ausf\u00fchrlich": 0, "sp\u00e4t": 0, "Klarheit": 0, "dar\u00fcber": 0, "Fokus": 0, "insbesondere": 0, "M\u00f6glichkeit": 0, "eigen": 1, "tats\u00e4chlich": 0, "vorbereiten": 0, "Denken": 0, "vielleicht": 0, "achten": 0, "einsetzen": 0, "Vorhaben": 0, "ans": 0, "##weise": 0, "jedoch": 0, "ausb": 0, "##auf": 0, "##\u00e4h": 0, "jetz": 0, "Verlauf": 4, "k": 1, "##ind": 1, "##gerecht": 1, "motiv": 2, "##ierend": 6, "Komp": 1, "##osit": 1, "##a": 1, "dazu": 0, "mich": 0, "eindeutig": 1, "##pers": 1, "##pekt": 1, "##ive": 1, "Darstellung": 3, "Map": 0, "unter": 0, "Vorgehen": 0, "ben": 0, "##ennen": 0, "Blick": 0, "'": 0, "s": 0, "mater": 0, "##ial": 0, "##side": 1, "vergessen": 0, "\u2192": 0, "Planung": 5, "Fest": 0, "##igungs": 0, "##stunde": 0, "unbedingt": 0, "Produkt": 1, "entstehen": 0, "hervorragend": 0, "Kommentar": 0, "wertvoll": 0, "passen": 1, "##stand": 3, "Klasse": 0, "string": 1, "##ent": 1, "##iert": 5, "nat\u00fcrlich": 0, "reduzieren": 0, "perfekt": 0, "s\u00e4m": 1, "##tlich": 1, "aussch": 0, "##\u00f6pfen": 0, "ebenfalls": 0, "strukturiert": 1, "fein": 1, "gestalten": 0, "selbst": 0, "u": 0, "un": 3, "##kon": 3, "##kret": 3, "g\u00e4ng": 0, "Schritt": 0, "##isieren": 1, "vier": 0, "Ablauf": 1, "##arbeitung": 0, "mehr": 0, "Kreativit\u00e4t": 0, "Bereich": 0, "Ideal": 0, "##erweise": 0, "wer": 0, "anschlie\u00dfend": 0, "Lesen": 7, "immer": 0, "grob": 0, "Aufbau": 2, "sch\u00f6n": 0, "Einstieg": 1, "##heitlich": 0, "##fahrung": 1, "Ha": 0, "##pt": 4, "##ik": 0, "pr\u00e4zise": 1, "usw": 0, "beob": 1, "##acht": 1, "##bar": 1, "men": 0, "##tal": 0, "Was": 0, "Verhaltens": 0, "*": 0, "innen": 0, "verwenden": 0, "indem": 0, "gew": 2, "##i\u00df": 1, "##sie": 0, "##rung": 0, "hei\u00dfen": 0, "##\u00fcbung": 1, "Jahrgang": 0, "##sst": 0, "##ufe": 0, "niedrig": 0, "erm\u00f6glichen": 0, "##nach": 0, "sichern": 0, "form": 0, "##ulieren": 0, "Zusammenfassung": 0, "richtig": 0, "zwar": 0, "damit": 0, "somit": 0, "unbe": 0, "##wu": 0, "rot": 0, "##be": 2, "##zug": 3, "kooper": 1, "kl\u00e4ren": 0, "Bauer": 0, "Reflex": 6, "wieder": 0, "irgendwie": 0, "unterst\u00fctzen": 0, "diagnost": 1, "Wissen": 4, "brauchen": 0, "##anteil": 5, "betrachten": 0, "##regen": 0, "##aktiv": 1, "\u00dcbungs": 1, "##schlei": 1, "lassen": 0, "wider": 1, "##spiegel": 1, "Diskussion": 0, "##and": 0, "Seminar": 0, "fro": 0, "##nt": 1, "##al": 1, "##uns": 0, "##ens": 0, "bauen": 0, "traurig": 0, "##leistung": 0, "Us": 0, "##w": 0, "punkt": 0, "##uell": 1, "Haupt": 1, "##rede": 1, "Lehr": 2, "##kraft": 2, "sondern": 0, "vorge": 0, "##ben": 0, "Inhalt": 1, "f\u00f6rdern": 1, "Denk": 2, "Holz": 0, "##stern": 0, "bas": 0, "##teln": 0, "komplex": 0, "wor": 0, "Anf": 1, "##order": 1, "bestehen": 0, "not": 0, "[": 0, "Nur": 0, "Mo": 0, "##od": 0, "##le": 0, "]": 0, "f\u00fc": 0, "##gen": 0, "Gedanke": 0, "For": 0, "##beitrag": 0, "hinzu": 0, "erkennen": 0, "nun": 0, "festgestellt": 0, "Element": 2, "##unterricht": 1, "gelangen": 0, "Seite": 0, "7": 0, "Modell": 9, "Kommunikation": 2, "gro\u00df": 0, "##pro": 2, "##ze\u00df": 2, "verb": 0, "##alisieren": 0, "Sprache": 2, "##bei": 0, "##spiel": 0, "verstehen": 0, "w\u00e4hrend": 1, "Rechn": 0, "kommunizieren": 0, "Rechen": 1, "##weg": 1, "darstellen": 1, "4": 0, "##ae": 0, "mathemat": 0, "reden": 0, "gar": 0, "leisten": 0, "sorgen": 0, "\u00dcbersch": 0, "##u\u00df": 0, "problematisch": 0, "##liste": 1, "Gruppen": 0, "##arbeits": 0, "##phase": 0, "Kommun": 0, "##izieren": 0, "wollen": 0, "unser": 0, "also": 0, "Verf\u00fcg": 0, "##mach": 0, "gelingen": 0, "Block": 0, "erfahren": 0, "Abschnitt": 0, "##f\u00fchren": 1, "wobei": 0, "bild": 4, "##sprach": 13, "F\u00e4higkeit": 0, "Beginn": 0, "ausw\u00e4hlen": 0, "alter": 0, "##sg": 1, "##erecht": 0, "\u00fcben": 0, "8": 0, "24": 0, "beitragen": 1, "Erwerb": 1, "5": 0, "##forderung": 1, "nei": 0, "frei": 0, "verk": 0, "##\u00e4uf": 0, "Internet": 0, "detaill": 1, "fund": 0, "Analyse": 1, "notwendig": 0, "Problems": 0, "##tell": 0, "anbieten": 1, "diver": 1, "##si": 10, "##ts": 7, "diskrimin": 9, "##krit": 4, "Diver": 9, "Diskriminierung": 24, "tun": 1, "Mehr": 3, "##igkeit": 5, "Handeln": 0, "Schuls": 0, "##ystem": 0, "sozial": 0, "Herkunft": 0, "nachweisen": 0, "Beh": 1, "##err": 1, "##schen": 1, "akadem": 2, "daher": 0, "ster": 0, "##eo": 0, "##typ": 0, "\u00dcberzeugung": 0, "Bezug": 0, "auseinander": 0, "##setzen": 0, "Selbst": 2, "##ref": 5, "##lex": 5, "Rassismus": 9, "##bezogen": 3, "institution": 0, "##ell": 2, "##literatur": 0, "h\u00e4ufig": 0, "Ausdruck": 0, "tief": 0, "systematisch": 0, "##ktiert": 0, "rass": 5, "##istisch": 4, "Struktur": 0, "ansehen": 0, "jemand": 0, "##konstruktion": 2, "##dimension": 4, "unters": 0, "##agen": 0, "d\u00fcrfen": 0, "Ph\u00e4nomen": 0, "Ben": 0, "##achteil": 0, "##igung": 0, "12": 0, "##rel": 4, "##ev": 4, "##ant": 7, "##eg": 0, "##orie": 0, "Dimension": 2, "beachten": 0, "bestimmen": 0, "weiterer": 0, "##nehmen": 0, "korre": 0, "##sp": 0, "##ond": 0, "##ner": 0, "gesellschaft": 1, "Position": 0, "Folge": 0, "lern": 0, "verh\u00e4lt": 0, "##nis": 0, "ausreichend": 0, "refle": 0, "##ktieren": 0, "##format": 0, "schlimm": 0, "Fall": 0, "sogar": 0, "anderer": 0, "Weg": 0, "Nad": 0, "##ol": 0, "##ny": 0, "Stefan": 0, "2021": 0, "##sek": 0, "##tional": 0, "##it\u00e4t": 0, "auftreten": 0, "aufgrund": 0, "versch": 0, "##r\u00e4nkt": 0, "geschehen": 0, "##beziehen": 0, "Spannungs": 1, "##verh\u00e4ltnis": 1, "individuell": 0, "Faktor": 0, "Herrschafts": 0, "##ef": 0, "##fekt": 0, "Mart": 0, "Busch": 0, "Er": 0, "##achten": 0, "P\u00e4dagog": 0, "darum": 0, "Kompetenz": 4, "Komplexit\u00e4t": 2, "erarbeiten": 0, "Viel": 0, "##schicht": 0, "ber\u00fccksichtigen": 0, "Handlungs": 4, "##f\u00e4higkeit": 1, "trotz": 0, "##icherheit": 0, "dies": 0, "f\u00fchren": 0, "Weise": 0, "p\u00e4dagog": 0, "f\u00f6rder": 0, "Neut": 0, "##ral": 0, "nachdenken": 0, "einst": 2, "schl": 0, "##uss": 0, "##folger": 1, "metho": 0, "##dis": 0, "zun\u00e4chst": 0, "Regel": 1, "setzen": 1, "Wider": 1, "##sprechen": 1, "ersch": 0, "##weren": 0, "\u2013": 0, "Un": 0, "konvention": 0, "gegen": 0, "Ice": 0, "##rd": 2, "Rasse": 1, "Menschen": 2, "##rasse": 2, "Power": 0, "Rass": 5, "##ismen": 3, "##ismus": 1, "geh\u00f6ren": 0, "heute": 0, "echt": 0, "vorliegen": 2, "vor": 0, "Ungleich": 1, "##behandlung": 1, "handeln": 0, "##sf": 2, "##orm": 2, "unterschiedlich": 0, "is": 0, "##men": 0, "Ad": 0, "##ult": 0, "##ism": 11, "##u": 9, "Zusammenhang": 0, "Ot": 3, "##her": 3, "##ing": 22, "Kultur": 4, "##alisierung": 4, "Abbildung": 0, "Lin": 9, "##gu": 9, "##iz": 9, "bedeuten": 1, "Gymnasium": 0, "erteilen": 0, "Merkmal": 0, "hinweg": 0, "Anerkennung": 1, "mitgebracht": 0, "##verm\u00f6gen": 0, "wahrscheinlich": 0, "##ibel": 0, "agieren": 0, "bek\u00e4mpfen": 0, "Aus": 0, "##pr\u00e4": 0, "##gung": 0, "Schule": 0, "annehmen": 0, "m\u00f6chten": 0, "potenzie": 0, "##ll": 0, "##muster": 0, "dr\u00fccken": 1, "ohn": 0, "##m\u00e4chtig": 0, "Opfer": 0, "##rolle": 0, "Familie": 1, "ver": 0, "##erb": 1, "##zwei": 0, "##fel": 0, "best\u00e4": 0, "emp": 1, "##ath": 1, "kompens": 0, "versuchen": 0, "Betroffene": 0, "wirklich": 0, "h\u00e4ngen": 0, "Verfasst": 0, "##heit": 1, "Gesellschaft": 0, "zusammen": 0, "Fortbildung": 0, "besuchen": 0, "Gesellschafts": 0, "##zusammen": 0, "##hang": 0, "erwerben": 0, "b": 1, "##\u00fcr": 1, "##den": 1, "dem": 0, "r": 0, "wecken": 1, "Hoffnung": 0, "Welt": 0, "meist": 0, "Wirtschafts": 0, "##unternehmen": 0, "Bew": 0, "##usste": 0, "Isa": 0, "##llo": 0, "##we": 0, "y": 0, "##sk": 1, "##rit": 1, "unterrichten": 0, "beginnen": 0, "folglich": 0, "inkl": 1, "##us": 1, "##iv": 3, "sensi": 1, "##bel": 1, "Auswahl": 0, "Gegenstand": 0, "w\u00fcnschen": 0, "besonders": 0, "hoch": 0, "verringern": 0, "Mehrfach": 2, "##eh": 2, "##\u00f6r": 2, "anerkennen": 0, "Ebene": 0, "organisieren": 0, "euch": 0, "Information": 3, "21": 0, "2010": 0, "Herausforderung": 1, "sp\u00e4testens": 0, "Sekundar": 0, "##stuf": 0, "bal": 0, "##len": 0, "treffen": 0, "Ausbau": 2, "##lichkeit": 1, "##kompetenz": 4, "verf\u00fcgen": 0, "Grund": 0, "##schul": 0, "##zeit": 0, "bis": 0, "sechs": 0, "kon": 2, "##zeption": 1, "vertraut": 0, "Res": 0, "##so": 2, "##urce": 2, "h\u00f6ren": 2, "Bestimmung": 2, "Hindernis": 0, "Schwier": 0, "Anzeichen": 0, "##ulierung": 2, "durchs": 0, "##uen": 0, "analysieren": 0, "solch": 0, "bew\u00e4ltigen": 0, "##ungsbereich": 0, "##decken": 0, "Ausf\u00fchrung": 2, "Videos": 0, "##fassen": 0, "Feld": 1, "##handlung": 6, "W": 0, "##dh": 0, "Genre": 4, "Video": 0, "10": 0, "Erkl\u00e4rung": 2, "vorgeschlagen": 0, "Frage": 5, "##inter": 1, "darauf": 0, "##hen": 0, "ko": 2, "##gn": 1, "##itiv": 1, "Operation": 0, "bestimmt": 1, "11": 0, "bezeichnen": 0, "ausgel\u00f6st": 0, "liegen": 0, "##struktur": 1, "meinen": 0, "Festlegung": 1, "el": 1, "##ement": 1, "##ar": 1, "umsetzen": 0, "##antwort": 0, "erforderlich": 0, "s\u00e4": 0, "existieren": 0, "##uster": 1, "helfen": 1, "Qualit\u00e4t": 1, "jewei": 0, "##lig": 0, "erh\u00f6hen": 0, "Arbeit": 0, "Lauf": 0, "typisch": 4, "v": 0, "##an": 9, "##weisung": 8, "bedienen": 0, "oftmals": 0, "erwarten": 0, "rein": 0, "enthalten": 0, "ideal": 0, "Schreiben": 5, "Sprechen": 4, "Handlung": 3, "schul": 0, "##p\u00e4dagog": 0, "Funktions": 0, "##verb": 0, "##gef\u00fc": 0, "##g": 0, "wissen": 1, "##ener": 1, "Bearbeitung": 1, "initi": 0, "lenken": 0, "i": 0, "R": 0, "erfordern": 0, "##lei": 0, "Problem": 0, "verbinden": 0, "##ordnung": 0, "gew\u00e4hrleisten": 0, "theoretisch": 1, "Fund": 0, "Sinn": 0, "Referenz": 1, "##rahmen": 0, "Kategorie": 0, "realisiert": 0, "etwa": 0, "Anlehnung": 0, "2002": 0, "verschw": 0, "##eigen": 2, "Realisierung": 0, "feststellen": 0, "fest": 0, "untersuchen": 0, "erscheinen": 0, "Inst": 0, "##ru": 0, "##ktion": 0, "beinhalten": 0, "bearbeiten": 0, "Zeichen": 2, "##system": 2, "##merk": 1, "##mal": 1, "unsicher": 0, "f\u00fchlen": 0, "##sch\u00fcler": 0, "zusammenh\u00e4ngen": 1, "schriftlich": 1, "18": 0, "erw\u00e4hnt": 0, "##se": 1, "einher": 1, "##gehend": 1, "##\u00fc": 1, "##pfen": 0, "##strategie": 1, "Koh": 0, "##\u00e4ren": 0, "spezif": 0, "Strategie": 5, "endlich": 0, "tauchen": 0, "##atik": 3, "##alisch": 1, "auff\u00e4llig": 0, "##atisch": 0, "schlie\u00dflich": 0, "kommun": 1, "##ikat": 1, "##sb": 0, "##erei": 0, "m": 0, "##dl": 0, "H\u00f6ren": 4, "gelungen": 0, "Leit": 0, "##frage": 0, "Pl": 0, "##uri": 0, "##lit": 0, "##era": 0, "##ci": 0, "ec": 0, "##ml": 0, "at": 0, "Fak": 1, "Konzept": 1, "Fertig": 1, "inne": 0, "n": 0, "am": 0, "##tik": 0, "d": 0, "e": 0, "eignen": 0, "Einzel": 0, "##arbeit": 0, "Partner": 0, "zum": 0, "verbessern": 0, "Beweis": 1, "Se": 0, "##quenz": 0, "erhalten": 0, "Gelegenheit": 1, "##reichte": 0, "##fort": 1, "messen": 0, "Erg\u00e4nzung": 0, "##bringen": 1, "Vermittlung": 2, "Ko": 0, "##ition": 0, "allen": 0, "fa": 0, "##ech": 0, "##ern": 0, "p": 0, "##df": 0, "begegnen": 0, "Name": 0, "Ger": 1, "##\u00fcst": 1, "dienen": 0, "selbstst\u00e4ndig": 0, "bewegen": 0, "kalk": 0, "pr\u00e4gen": 0, "##di": 0, "nach": 0, "So": 0, "##das": 0, "optimal": 0, "##situation": 0, "eigentlich": 0, "Aufrechter": 1, "Development": 0, "Zone": 0, "Offensive": 1, "defen": 0, "##siv": 0, "##praxis": 0, "prinzip": 0, "##iell": 0, "ent": 0, "##lasten": 0, "R\u00fcck": 2, "##meldung": 1, "##melde": 1, "##technische": 1, "lernen": 0, "besch\u00e4ftigen": 0, "betreffen": 0, "##here": 0, "ind": 0, "##uk": 0, "##tiv": 0, "28": 0, "Mikro": 9, "Mak": 2, "##ros": 2, "##ca": 2, "##ff": 2, "beide": 0, "mod": 0, "separ": 0, "Phase": 0, "stattfinden": 0, "neben": 0, "##planung": 3, "hierzu": 0, "z\u00e4hlen": 0, "verst\u00e4ndlich": 0, "##erium": 0, "formuliert": 0, "Bedarf": 1, "##stands": 2, "aktuell": 0, "gelten": 0, "behalten": 0, "oft": 0, "genannt": 0, "umfassen": 0, "Gesamtheit": 0, "##technik": 14, "anhand": 0, "13": 0, "##st\u00e4ndigkeit": 0, "vielf\u00e4ltig": 0, "##sc": 8, "hingegen": 0, "hierbei": 0, "Technik": 2, "##kommun": 0, "##ikation": 0, "mitge": 0, "##stal": 0, "unvoll": 0, "##st\u00e4ndig": 0, "lauten": 0, "Grundlage": 0, "Sog": 0, "vorgegeben": 0, "bedenken": 0, "schreiben": 2, "pr\u00e4sentieren": 1, "beherrschen": 0, "Schreib": 0, "besonder": 0, "##verk": 1, "##pfung": 1, "Gramm": 2, "leicht": 0, "Zuwachs": 1, "bewirken": 0, "Medium": 0, "sicherstellen": 0, "bew": 0, "##ussen": 0, "Zir": 0, "##kel": 0, "Besch\u00e4ftigung": 1, "Beispiel": 0, "Leistung": 0, "da": 0, "verschieden": 0, "Bedeutung": 0, "fallen": 0, "gesamt": 0, "Planungs": 1, "##vorgang": 1, "a": 0, "vornehmen": 0, "geeignet": 0, "Unterst\u00fctzungs": 0, "abl": 0, "##eiten": 0, "Grundschule": 0, "sim": 0, "##pel": 0, "\u00fcbersehen": 0, "er": 0, "##proben": 0, "Antwort": 0, "durchf\u00fchren": 0, "m\u00f6glichst": 0, "##bereich": 0, "Neben": 1, "##s\u00e4tz": 1, "Bruch": 0, "##teil": 0, "mal": 0, "Sach": 0, "##text": 0, "##werk": 0, "zweit": 0, "##best": 0, "##h\u00fc": 2, "##blatt": 0, "do": 0, "##wn": 0, "ar": 0, "##row": 0, "Tipp": 0, "Hinweis": 0, "herausfinden": 0, "ti": 0, "##ppen": 0, "verf\u00fcgbar": 0, "frage": 0, "Konzentration": 0, "Schacht": 0, "##els": 0, "Eind": 1, "##eu": 1, "##tigkeit": 1, "##deu": 0, "offen": 1, "##fra": 0, "##cht": 0, "Transfer": 1, "Rep": 0, "##rod": 0, "##tion": 1, "Ei": 0, "Ca": 0, "60": 0, "Min": 0, "dazuge": 0, "##h\u00f6r": 0, "Erinnerung": 0, "##sw": 2, "ausgew\u00e4hlt": 0, "sc": 0, "Nutzen": 4, "Bitte": 0, "Pr\u00e4z": 1, "##isierung": 1, "##verw": 1, "##endung": 1, "Ziels": 0, "##tr": 0, "##tur": 0, "gezielt": 0, "Kontrast": 3, "vergleichen": 0, "##vergleich": 0, "##kunft": 0, "Auf": 0, "##greifen": 0, "\u00c4u\u00dfer": 0, "korrig": 0, "Wieder": 0, "##holen": 0, "ziel": 1, "Re": 4, "##cast": 4, "Aufforderung": 9, "##kor": 0, "##rektur": 0, "Kl\u00e4r": 0, "impl": 0, "##izit": 0, "Eliz": 0, "##iti": 0, "##erung": 2, "##wieder": 0, "##holung": 0, "Einsatz": 0, "26": 0, "Folgende": 0, "ow": 0, "Gespr\u00e4ch": 1, "##ss": 1, "##ituation": 1, "halten": 0, "##ie": 0, "##altern": 1, "##ative": 1, "Motiv": 0, "o": 0, "uns": 0, "Ma\u00dfnahme": 0, "F\u00fchrung": 1, "##gespr\u00e4ch": 1, "erleichtern": 0, "veran": 0, "##schau": 0, "##lichen": 0, "S": 0, "##iede": 0, "##ln": 0, "Unsicherheit": 0, "##wissenschaftler": 0, "Knapp": 0, "beobachten": 0, "vielfach": 0, "bemerken": 0, "nett": 0, "l\u00e4": 0, "##che": 0, "ni": 0, "##cken": 0, "Verst\u00e4ndnis": 0, "##schwier": 0, "schnell": 0, "unent": 0, "##\u00fchrung": 0, "beziehen": 0, "ebenso": 0, "##tem": 1, "##po": 1, "Beton": 1, "##pause": 0, "Beziehung": 0, "##sebene": 0, "Gestaltung": 1, "##gst": 0, "##frei": 0, "##gebung": 0, "ermu": 1, "##nte": 1, "##rn": 1, "wert": 0, "##sch": 0, "##\u00e4tzen": 0, "Werkzeuge": 0, "##schullehrer": 0, "40": 0, "Daniela": 0, "Rotter": 0, "einer": 0, "auffallen": 0, "ziemlich": 0, "wenig": 0, "zust": 0, "##ehen": 0, "konstru": 0, "##\u00e4g": 0, "##sver": 2, "##lauf": 2, "natur": 0, "##wissenschaft": 0, "Sachver": 0, "angemessen": 0, "Lehrer": 1, "##sau": 0, "##sz": 0, "##ug": 0, "bereit": 0, "A": 0, "Versuch": 0, "Erkenntnis": 0, "verp": 0, "##acken": 0, "##elli": 0, "##ert": 0, "##tags": 0, "Bericht": 0, "##atten": 0, "sinn": 0, "##stift": 0, "##end": 0, "Prinzip": 0, "orientieren": 0, "pro": 0, "##xi": 0, "kennenlernen": 0, "wesentlich": 1, "trennen": 1, "##zeigen": 0, "Peer": 2, "Cor": 0, "##re": 0, "##ction": 0, "Angst": 0, "eventuell": 0, "blo\u00df": 0, "##stellen": 1, "Interesse": 0, "automatisch": 0, "positiv": 5, "##kultur": 0, "erlauben": 0, "D": 0, "H": 0, "unauf": 0, "##dring": 0, "nebenbei": 0, "res": 2, "##ns": 0, "##cho": 0, "##nen": 0, "halb": 0, "O": 0, "Situation": 0, "einzig": 0, "wirksam": 0, "L\u00f6sung": 0, "klass": 0, "lang": 0, "anstelle": 2, "direkt": 0, "Prom": 4, "sau": 0, "Nutzung": 2, "##und": 0, "Themen": 0, "erfassen": 0, "##echsel": 2, "Option": 0, "14": 0, "Schau": 0, "dort": 0, "##pla": 0, "##ions": 3, "##bewusst": 0, "##sei": 0, "begleiten": 0, "Satz": 1, "beispielsweise": 0, "Kor": 0, "##ktive": 0, "##kod": 0, "##ier": 0, "Monitor": 0, "wiederauf": 0, "denn": 0, "Periode": 0, "dauern": 0, "Sekunde": 0, "Mi": 0, "##mi": 0, "##k": 0, "Gest": 0, "Hand": 0, "##bewegung": 0, "Heb": 0, "Augen": 0, "##bra": 0, "##ue": 0, "korrekt": 1, "##ur": 1, "16": 0, "Grundsatz": 1, "Studium": 0, "bisher": 0, "Korrektur": 0, "vorgehen": 0, "##rw": 1, "he": 0, "##mmen": 0, "Umstand": 0, "Foss": 2, "##ili": 2, "Abbruch": 0, "Erwerbs": 1, "Sta": 1, "##gna": 1, "erworben": 0, "Niveau": 0, "demnach": 0, "werfen": 0, "verde": 0, "##utlich": 0, "gleicherma\u00dfen": 0, "##\u00fcler": 2, "##freundlich": 1, "##verh": 0, "##alte": 0, "etablieren": 0, "##bau": 1, "##rate": 0, "##gie": 0, "20": 0, "Auge": 0, "##\u00e4u\u00dfer": 1, "einsch": 0, "beurteilen": 0, "herange": 0, "Ann\u00e4herung": 0, "##sweise": 0, "regelm\u00e4\u00dfig": 0, "recht": 0, "neutr": 1, "gewinnen": 0, "##durch": 0, "ermitteln": 1, "einerseits": 0, "gegen\u00fcber": 0, "Zeitpunkt": 0, "x": 0, "Regen": 1, "weiter": 0, "##nor": 2, "##ient": 2, "fe": 0, "##ed": 0, "##dia": 0, "##ose": 0, "flexibel": 0, "Fol": 0, "##ien": 0, "##na": 0, "##ly": 0, "##ruf": 0, "Kriterien": 3, "##ras": 3, "##ter": 3, "sub": 0, "##jektiv": 0, "Eindruck": 0, "verf": 0, "##\u00e4l": 0, "ob": 0, "unum": 0, "##g\u00e4ng": 0, "anpassen": 0, "pr\u00fc": 1, "##fungs": 1, "cu": 1, "##rr": 1, "##ic": 1, "##ular": 1, "##gabe": 0, "pers\u00f6nlich": 1, "legen": 0, "##orientiert": 1, "davon": 0, "Kriterium": 0, "le": 0, "##hre": 0, "##rf": 0, "##ort": 0, "22": 0, "Ressourcen": 2, "##orientierte": 2, "E": 0, "wahrnehmen": 0, "Verw": 1, "##enden": 1, "stets": 0, "auswirken": 0, "erinnern": 0, "R\u00fcckgabe": 0, "Klaus": 0, "Schulzeit": 0, "##f\u00f6rder": 0, "kennen": 0, "Auseinander": 0, "##setzung": 0, "##satz": 0, "Halbjahr": 0, "einmal": 0, "zur\u00fcck": 0, "Formul": 1, "##inn": 1, "Transparenz": 1, "jeweils": 0, "merken": 0, "Memor": 0, "##y": 0, "Grafik": 0, "keiner": 0, "Papier": 0, "gelegentlich": 0, "Mangel": 1, "vermuten": 0, "erf\u00fcllen": 0, "interessant": 1, "inform": 1, "Argument": 1, "Vorsicht": 0, "wa": 0, "##lt": 0, "Hed": 1, "##ging": 1, "Behauptung": 0, "Schluss": 1, "definieren": 0, "ausbauen": 0, "Einf\u00fchrung": 0, "Organisation": 1, "Le": 0, "##\u00fcre": 0, "Ess": 0, "##ay": 0}, "I-Feedback_Criteria": {"des": 3, "Fach": 18, "##lernen": 0, "##s": 2, "(": 18, "angel": 0, "##ehnt": 0, "an": 9, "Ta": 0, "##jm": 0, "##el": 0, "&": 0, "Voll": 0, "##mer": 0, "/": 19, "Th\u00fcr": 0, "##mann": 0, ";": 0, "Lo": 0, "##hs": 0, "##e": 3, ")": 18, "1": 0, ".": 4, "Gibt": 0, "es": 3, "sprach": 53, "##liche": 1, "H\u00fcrden": 1, ",": 18, "die": 2, "das": 0, "fach": 6, "Lernen": 5, "beh": 0, "##indern": 0, "k\u00f6nnten": 0, "?": 0, "2": 3, "Lern": 20, "##gelegen": 0, "##heiten": 0, "in": 44, "der": 95, "Stunde": 3, "f\u00fcr": 11, "typische": 2, "\u201e": 7, "Ritu": 1, "##ale": 1, "\u201c": 9, "Unterricht": 9, "##liches": 0, "Sprach": 20, "##handel": 1, "##n": 16, "Typ": 0, "##ische": 0, "Disk": 4, "##urs": 4, "##funktionen": 0, "Materialien": 0, "Rezeption": 1, "Mittel": 16, "Produktion": 1, "Zu": 1, "erstellen": 2, "##de": 19, "Texte": 1, "\u2022": 0, "Muss": 0, "m\u00fcnd": 4, "Unterrichts": 13, "-": 9, "inter": 1, "##aktion": 11, "gest\u00fctzt": 2, "werden": 5, "M\u00fc": 0, "##ssen": 0, "SU": 0, "##S": 0, "Informationen": 1, "besch": 4, "##affen": 4, "eine": 2, "Ergebnis": 3, "##pr\u00e4sent": 1, "##ation": 1, "##lich": 62, "Ist": 0, "Met": 1, "##ako": 0, "##mm": 4, "##uni": 0, "##kat": 2, "##ion": 3, "\u00fcber": 5, "##prozess": 1, "geplant": 1, "Wie": 0, "gehe": 0, "ich": 7, "mit": 17, "Fehler": 16, "um": 2, "K\u00f6nnen": 1, "##er": 0, "im": 1, "Laufe": 0, "##funktion": 4, "ein": 27, "##\u00fcben": 7, "Etwas": 0, "beschreiben": 0, "erkl\u00e4ren": 1, "diskutieren": 0, "aus": 6, "argumen": 0, "##tieren": 0, "oder": 9, "bewerten": 1, "Spiel": 0, "##t": 5, "Text": 15, "##sor": 5, "##te": 2, "Rolle": 1, "deren": 0, "Merkmale": 0, "explizit": 0, "gemacht": 0, "m\u00fcssen": 2, "re": 0, "##zept": 0, "##iven": 0, "Kern": 3, "##wort": 5, "sch": 1, "##atz": 2, "unbekannt": 0, "ist": 0, "Stehen": 0, "bestimmte": 1, "##begriff": 5, "Wort": 6, "##feld": 2, "Zentrum": 1, "Welche": 0, "konkreten": 0, "##schatz": 4, "ben\u00f6tigen": 1, "Sch\u00fcler": 23, "Aufgabe": 5, "zu": 68, "l\u00f6sen": 0, "Art": 0, "Bereitstellung": 3, "domin": 0, "##ante": 0, "gra": 4, "##atische": 0, "Form": 7, "ben\u00f6tigt": 1, "wird": 1, "typischen": 0, "Rede": 10, "##mittel": 8, "meines": 1, "##es": 1, "k\u00f6nnte": 1, "fokuss": 1, "##ieren": 19, "und": 41, "##fordern": 3, "Wird": 0, "bestimmtes": 0, "Register": 2, "erfordert": 1, "einzu": 0, "##halten": 0, "struktur": 1, "Kann": 0, "Erste": 0, "##llen": 0, "von": 41, "##ko": 5, "##h\u00e4re": 5, "##z": 6, "\u201a": 5, "rote": 1, "##r": 1, "Faden": 6, "\u2018": 5, "einge": 1, "##\u00fcbt": 1, "Wann": 0, "gebe": 0, "Feed": 15, "##back": 16, "##bilden": 6, "##d": 11, "planen": 2, "identifizieren": 1, "sie": 6, "Aspekt": 3, "schwierig": 1, "sein": 7, "nennen": 0, "daraus": 0, "folgen": 0, "m\u00f6glich": 0, "##ziel": 7, "=": 0, "Bedarfs": 0, "##analyse": 0, "+": 0, "##bestimmung": 0, "3": 0, "erl\u00e4u": 0, "##tern": 0, "wie": 1, "dieser": 6, "Schwerpunkt": 3, "konkret": 4, "umgehen": 4, "welche": 2, "Hilfs": 2, "##angebot": 2, "bereits": 5, "##telle": 4, "Zusatz": 0, "##material": 4, "innov": 1, "##ativ": 1, "spieler": 1, "##isch": 5, "Methode": 4, "sehen": 0, ":": 23, "Teil": 3, "kommen": 0, "Milch": 0, "##ku": 0, "##h": 0, "lesen": 0, "dabei": 2, "besprechen": 2, "Vor": 5, "##wissen": 5, "aktiv": 9, "Haltung": 2, "genau": 1, "sich": 0, "[UNK]": 66, "vorstellen": 1, "einfach": 1, "Plen": 0, "##um": 1, "eher": 1, "Lese": 0, "##stra": 0, "##teg": 0, "##ia": 0, "Leser": 0, "##out": 0, "##ine": 0, "Kind": 4, "eigens": 2, "##t\u00e4": 4, "##nd": 2, "##ig": 3, "vermitteln": 0, "Artikel": 1, "bei": 4, "Begriff": 8, "denken": 3, "noch": 5, "Schlei": 1, "##fe": 1, "##bauen": 2, "gern": 0, "##hilfe": 6, "nicht": 10, "falsch": 2, "aber": 2, "individ": 0, "##ualisiert": 0, "auf": 12, "Differenz": 3, "##ierungs": 2, "stehen": 2, "sollen": 1, "so": 3, "k\u00f6nnen": 7, "jed": 0, "passend": 1, "Sc": 7, "##aff": 9, "##old": 10, "##suchen": 0, "che": 0, "##ck": 0, "_": 3, "mark": 0, "Aufgaben": 3, "##stellung": 4, "erstmal": 0, "wo": 0, "finden": 2, "Hilfe": 15, "Z": 0, "##sa": 0, "##ktiv": 0, "##ierung": 6, "n\u00f6tig": 0, "relevant": 0, "hier": 1, "ganz": 0, "transparent": 1, "Ok": 0, "Vari": 0, "oben": 0, "Vorgang": 0, "nochmals": 0, "was": 2, "als": 1, "zus\u00e4tzlich": 0, "differenz": 1, "einig": 1, "K\u00e4se": 0, "machen": 1, "!": 0, "unklar": 0, "Muster": 1, "##l\u00f6sung": 0, "aussehen": 1, "Stelle": 2, "sinnvoll": 1, "vorhanden": 3, "geben": 5, "klar": 3, "Ziel": 6, "allerdings": 1, "zeigen": 1, "mir": 0, "stark": 1, "Ein": 2, "##bindung": 2, "M\u00fcn": 2, "##dlich": 2, "##keit": 2, "ab": 1, "##zielen": 0, "durch": 9, "paar": 0, "Austausch": 3, "##runde": 1, "locker": 0, "denkbar": 0, "weil": 0, "De": 0, "Fac": 0, "##to": 0, "nur": 2, "drei": 0, "##aufgabe": 1, "gehen": 0, "insgesamt": 1, "wirken": 0, "ihr": 9, "Idee": 3, "etwas": 3, "z": 2, "##\u00f6ger": 2, "trauen": 0, "ruhig": 0, "auch": 5, "kre": 0, "##ativer": 0, "lebendig": 0, "aufnehmen": 0, "solange": 0, "zentral": 2, "##bildungs": 3, "##prinzip": 2, "Inter": 7, "##produkt": 4, "schon": 2, "gut": 2, "Material": 1, "Umsetzung": 0, "Entlastung": 0, "sowie": 0, "\u00c4nderung": 0, "Sozial": 2, "##form": 8, "viele": 0, "dennoch": 0, "vollst\u00e4ndig": 0, "Potential": 2, "##bildung": 1, "##nu": 1, "##tz": 1, "##en": 5, "##kart": 0, "vorrangig": 0, "##in": 1, "##halt": 2, "nutzen": 0, "ohne": 1, "diese": 1, "nochmal": 1, "daf\u00fcr": 0, "all": 1, "Opera": 9, "##tor": 9, "zumindest": 0, "Definition": 0, "liefern": 0, "wichtig": 0, "Thema": 5, "versammel": 1, "B": 1, "##zw": 1, "wenn": 0, "kritisch": 0, "dann": 0, "wiederum": 0, "H\u00fcr": 13, "mein": 0, "\u00dcber": 7, "##legen": 1, "wieso": 0, "aufs": 1, "##ch": 3, "##reiben": 1, "erfolgen": 1, "Pr\u00e4sentation": 2, "gerade": 0, "Schrift": 4, "##sprache": 15, "Funktion": 0, "haben": 3, "schlie\u00dfen": 0, "letzt": 0, "Punkt": 0, "wann": 1, "Fazit": 0, "erkennbar": 3, "mittels": 0, "##ta": 0, "##rk": 1, "Liebe": 0, "Kir": 0, "##sten": 0, "##idee": 1, "jetzt": 1, "viel": 3, "knapp": 3, "leider": 1, "deutlich": 0, "man": 2, "sehr": 3, "Erwart": 0, "##ung": 22, "vieler": 0, "ihnen": 1, "Proze\u00df": 0, "Wissens": 2, "##aufbau": 1, "woher": 0, "##sicherung": 0, "Informations": 1, "##besch": 1, "##affung": 1, "\u00fcberhaupt": 4, "##leiten": 1, "Ende": 0, "aufbauen": 3, "zwischen": 0, "##dr": 0, "passieren": 0, "innerhalb": 0, "Klassen": 0, "##stufe": 0, "st\u00fctzen": 10, "kein": 0, "erst": 1, "Versp": 0, "##rach": 0, "Alltags": 3, "statt": 5, "Unterst\u00fctzung": 5, "Bildungs": 4, "Gef\u00fchl": 0, "inner": 0, "Bild": 0, "##sens": 4, "##ib": 2, "##l": 3, "alle": 0, "abstra": 0, "##kt": 1, "##orientierung": 0, "fast": 0, "nichts": 0, "sagen": 0, "bleiben": 1, "dargestellt": 0, "Vorgehensweise": 0, "Hinsicht": 1, "allgemein": 1, "heraus": 2, "fehlen": 0, "##uliert": 1, "Kooperation": 0, "##vern": 1, "##etzung": 1, "Umgang": 4, "Richtung": 1, "gleich": 0, "Dreier": 1, "##gruppe": 2, "plus": 0, "weit": 2, "Person": 0, "mindestens": 0, "schauen": 0, "Ans": 0, "##cha": 0, "##uu": 0, "##ng": 0, "##sm": 0, "##aterial": 0, "wir": 1, "gemeinsam": 1, "G": 1, "##gf": 1, "Ab": 0, "Drei": 0, "##eck": 0, "Gemeinsam": 0, "vorn": 0, "##oti": 0, "##eren": 0, "m\u00f6gen": 0, "spielen": 0, "Aktivit\u00e4t": 1, "inhaltlich": 0, "Vis": 1, "##ualisierung": 1, "\u00fcberlegen": 1, "Symbol": 0, "Arbeits": 2, "##auftrag": 1, "hinter": 0, "stif": 0, "##ten": 0, "Sprech": 1, "##bl": 0, "##ase": 0, ">": 0, "welcher": 2, "w\u00e4hlen": 0, "Modus": 1, "schwer": 1, "legitim": 0, "##ierbar": 0, "einzeln": 1, "neu": 3, "vorher": 0, "##ungs": 4, "##hor": 0, "##izont": 0, "Verf\u00fcgung": 3, "stellen": 5, "Formulierung": 1, "##shi": 0, "##lf": 0, "##speicher": 0, "Kontext": 2, "dass": 1, "zwei": 0, "Buch": 0, "##seite": 0, "Gruppe": 1, "Beschreibung": 0, "sprechen": 0, "klein": 1, "Bilder": 0, "##folg": 0, "Plak": 0, "##at": 0, "ander": 2, "##schritt": 2, "di": 1, "##da": 1, "##ktisch": 1, "T": 0, "ausf\u00fchrlich": 1, "sp\u00e4t": 0, "Klarheit": 2, "dar\u00fcber": 0, "Fokus": 2, "insbesondere": 0, "M\u00f6glichkeit": 0, "eigen": 1, "tats\u00e4chlich": 0, "vorbereiten": 0, "Denken": 3, "vielleicht": 0, "achten": 0, "einsetzen": 4, "Vorhaben": 0, "ans": 0, "##weise": 2, "jedoch": 0, "ausb": 0, "##auf": 1, "##\u00e4h": 0, "jetz": 0, "Verlauf": 0, "k": 0, "##ind": 0, "##gerecht": 0, "motiv": 1, "##ierend": 1, "Komp": 0, "##osit": 0, "##a": 0, "dazu": 0, "mich": 0, "eindeutig": 0, "##pers": 0, "##pekt": 0, "##ive": 0, "Darstellung": 2, "Map": 0, "unter": 2, "Vorgehen": 2, "ben": 0, "##ennen": 0, "Blick": 3, "'": 0, "s": 0, "mater": 0, "##ial": 0, "##side": 0, "vergessen": 1, "\u2192": 0, "Planung": 0, "Fest": 0, "##igungs": 0, "##stunde": 0, "unbedingt": 0, "Produkt": 2, "entstehen": 1, "hervorragend": 0, "Kommentar": 0, "wertvoll": 0, "passen": 0, "##stand": 6, "Klasse": 0, "string": 0, "##ent": 0, "##iert": 2, "nat\u00fcrlich": 0, "reduzieren": 2, "perfekt": 0, "s\u00e4m": 0, "##tlich": 0, "aussch": 1, "##\u00f6pfen": 1, "ebenfalls": 0, "strukturiert": 0, "fein": 0, "gestalten": 3, "selbst": 0, "u": 0, "un": 0, "##kon": 0, "##kret": 0, "g\u00e4ng": 0, "Schritt": 0, "##isieren": 0, "vier": 0, "Ablauf": 0, "##arbeitung": 0, "mehr": 0, "Kreativit\u00e4t": 1, "Bereich": 1, "Ideal": 0, "##erweise": 0, "wer": 0, "anschlie\u00dfend": 0, "Lesen": 0, "immer": 0, "grob": 0, "Aufbau": 0, "sch\u00f6n": 0, "Einstieg": 1, "##heitlich": 0, "##fahrung": 0, "Ha": 0, "##pt": 2, "##ik": 1, "pr\u00e4zise": 0, "usw": 0, "beob": 0, "##acht": 0, "##bar": 1, "men": 0, "##tal": 0, "Was": 0, "Verhaltens": 1, "*": 3, "innen": 25, "verwenden": 2, "indem": 0, "gew": 0, "##i\u00df": 0, "##sie": 1, "##rung": 1, "hei\u00dfen": 0, "##\u00fcbung": 0, "Jahrgang": 0, "##sst": 2, "##ufe": 0, "niedrig": 1, "erm\u00f6glichen": 0, "##nach": 0, "sichern": 2, "form": 1, "##ulieren": 1, "Zusammenfassung": 0, "richtig": 3, "zwar": 1, "damit": 1, "somit": 0, "unbe": 0, "##wu": 0, "rot": 5, "##be": 0, "##zug": 0, "kooper": 0, "kl\u00e4ren": 0, "Bauer": 0, "Reflex": 0, "wieder": 0, "irgendwie": 0, "unterst\u00fctzen": 3, "diagnost": 0, "Wissen": 6, "brauchen": 0, "##anteil": 1, "betrachten": 0, "##regen": 0, "##aktiv": 0, "\u00dcbungs": 0, "##schlei": 0, "lassen": 1, "wider": 0, "##spiegel": 0, "Diskussion": 1, "##and": 1, "Seminar": 0, "fro": 0, "##nt": 0, "##al": 0, "##uns": 0, "##ens": 0, "bauen": 0, "traurig": 0, "##leistung": 0, "Us": 0, "##w": 0, "punkt": 0, "##uell": 0, "Haupt": 0, "##rede": 0, "Lehr": 3, "##kraft": 2, "sondern": 0, "vorge": 0, "##ben": 1, "Inhalt": 1, "f\u00f6rdern": 2, "Denk": 7, "Holz": 0, "##stern": 0, "bas": 0, "##teln": 0, "komplex": 0, "wor": 0, "Anf": 18, "##order": 18, "bestehen": 1, "not": 0, "[": 2, "Nur": 0, "Mo": 0, "##od": 0, "##le": 0, "]": 2, "f\u00fc": 0, "##gen": 0, "Gedanke": 1, "For": 0, "##beitrag": 0, "hinzu": 0, "erkennen": 5, "nun": 1, "festgestellt": 0, "Element": 0, "##unterricht": 7, "gelangen": 0, "Seite": 0, "7": 0, "Modell": 1, "Kommunikation": 1, "gro\u00df": 0, "##pro": 3, "##ze\u00df": 3, "verb": 1, "##alisieren": 1, "Sprache": 9, "##bei": 0, "##spiel": 0, "verstehen": 3, "w\u00e4hrend": 0, "Rechn": 1, "kommunizieren": 2, "Rechen": 0, "##weg": 1, "darstellen": 2, "4": 0, "##ae": 1, "mathemat": 3, "reden": 1, "gar": 0, "leisten": 0, "sorgen": 0, "\u00dcbersch": 0, "##u\u00df": 0, "problematisch": 0, "##liste": 0, "Gruppen": 1, "##arbeits": 1, "##phase": 1, "Kommun": 1, "##izieren": 1, "wollen": 0, "unser": 4, "also": 0, "Verf\u00fcg": 1, "##mach": 1, "gelingen": 0, "Block": 0, "erfahren": 0, "Abschnitt": 0, "##f\u00fchren": 0, "wobei": 0, "bild": 3, "##sprach": 4, "F\u00e4higkeit": 1, "Beginn": 1, "ausw\u00e4hlen": 0, "alter": 0, "##sg": 0, "##erecht": 0, "\u00fcben": 0, "8": 0, "24": 0, "beitragen": 0, "Erwerb": 1, "5": 0, "##forderung": 3, "nei": 0, "frei": 0, "verk": 1, "##\u00e4uf": 0, "Internet": 0, "detaill": 0, "fund": 1, "Analyse": 3, "notwendig": 0, "Problems": 1, "##tell": 1, "anbieten": 0, "diver": 0, "##si": 2, "##ts": 2, "diskrimin": 1, "##krit": 2, "Diver": 2, "Diskriminierung": 8, "tun": 0, "Mehr": 0, "##igkeit": 2, "Handeln": 2, "Schuls": 1, "##ystem": 1, "sozial": 0, "Herkunft": 0, "nachweisen": 0, "Beh": 0, "##err": 0, "##schen": 1, "akadem": 0, "daher": 0, "ster": 2, "##eo": 2, "##typ": 2, "\u00dcberzeugung": 2, "Bezug": 3, "auseinander": 2, "##setzen": 2, "Selbst": 13, "##ref": 3, "##lex": 3, "Rassismus": 2, "##bezogen": 0, "institution": 2, "##ell": 2, "##literatur": 0, "h\u00e4ufig": 2, "Ausdruck": 0, "tief": 0, "systematisch": 0, "##ktiert": 0, "rass": 0, "##istisch": 0, "Struktur": 8, "ansehen": 0, "jemand": 0, "##konstruktion": 0, "##dimension": 0, "unters": 0, "##agen": 0, "d\u00fcrfen": 0, "Ph\u00e4nomen": 0, "Ben": 2, "##achteil": 2, "##igung": 2, "12": 0, "##rel": 0, "##ev": 0, "##ant": 0, "##eg": 2, "##orie": 2, "Dimension": 0, "beachten": 1, "bestimmen": 1, "weiterer": 0, "##nehmen": 2, "korre": 2, "##sp": 2, "##ond": 2, "##ner": 0, "gesellschaft": 1, "Position": 1, "Folge": 1, "lern": 2, "verh\u00e4lt": 1, "##nis": 1, "ausreichend": 1, "refle": 2, "##ktieren": 2, "##format": 0, "schlimm": 0, "Fall": 0, "sogar": 0, "anderer": 0, "Weg": 0, "Nad": 0, "##ol": 0, "##ny": 0, "Stefan": 0, "2021": 0, "##sek": 0, "##tional": 0, "##it\u00e4t": 0, "auftreten": 0, "aufgrund": 3, "versch": 1, "##r\u00e4nkt": 1, "geschehen": 1, "##beziehen": 0, "Spannungs": 0, "##verh\u00e4ltnis": 0, "individuell": 1, "Faktor": 1, "Herrschafts": 1, "##ef": 1, "##fekt": 1, "Mart": 0, "Busch": 0, "Er": 1, "##achten": 0, "P\u00e4dagog": 0, "darum": 0, "Kompetenz": 2, "Komplexit\u00e4t": 2, "erarbeiten": 3, "Viel": 1, "##schicht": 0, "ber\u00fccksichtigen": 1, "Handlungs": 3, "##f\u00e4higkeit": 1, "trotz": 0, "##icherheit": 0, "dies": 0, "f\u00fchren": 1, "Weise": 2, "p\u00e4dagog": 0, "f\u00f6rder": 0, "Neut": 0, "##ral": 0, "nachdenken": 1, "einst": 0, "schl": 0, "##uss": 0, "##folger": 0, "metho": 0, "##dis": 0, "zun\u00e4chst": 0, "Regel": 0, "setzen": 1, "Wider": 0, "##sprechen": 0, "ersch": 1, "##weren": 1, "\u2013": 0, "Un": 0, "konvention": 0, "gegen": 1, "Ice": 0, "##rd": 0, "Rasse": 0, "Menschen": 0, "##rasse": 0, "Power": 0, "Rass": 0, "##ismen": 0, "##ismus": 0, "geh\u00f6ren": 0, "heute": 0, "echt": 0, "vorliegen": 0, "vor": 1, "Ungleich": 0, "##behandlung": 0, "handeln": 1, "##sf": 4, "##orm": 1, "unterschiedlich": 0, "is": 0, "##men": 0, "Ad": 0, "##ult": 0, "##ism": 0, "##u": 0, "Zusammenhang": 0, "Ot": 0, "##her": 0, "##ing": 7, "Kultur": 0, "##alisierung": 0, "Abbildung": 0, "Lin": 0, "##gu": 0, "##iz": 0, "bedeuten": 0, "Gymnasium": 0, "erteilen": 0, "Merkmal": 2, "hinweg": 0, "Anerkennung": 0, "mitgebracht": 1, "##verm\u00f6gen": 2, "wahrscheinlich": 0, "##ibel": 2, "agieren": 2, "bek\u00e4mpfen": 0, "Aus": 3, "##pr\u00e4": 2, "##gung": 2, "Schule": 2, "annehmen": 0, "m\u00f6chten": 0, "potenzie": 0, "##ll": 0, "##muster": 2, "dr\u00fccken": 0, "ohn": 1, "##m\u00e4chtig": 1, "Opfer": 1, "##rolle": 1, "Familie": 0, "ver": 1, "##erb": 3, "##zwei": 1, "##fel": 1, "best\u00e4": 1, "emp": 0, "##ath": 0, "kompens": 1, "versuchen": 0, "Betroffene": 1, "wirklich": 0, "h\u00e4ngen": 0, "Verfasst": 1, "##heit": 1, "Gesellschaft": 1, "zusammen": 0, "Fortbildung": 0, "besuchen": 0, "Gesellschafts": 0, "##zusammen": 0, "##hang": 0, "erwerben": 2, "b": 0, "##\u00fcr": 0, "##den": 0, "dem": 1, "r": 2, "wecken": 0, "Hoffnung": 1, "Welt": 0, "meist": 0, "Wirtschafts": 0, "##unternehmen": 0, "Bew": 0, "##usste": 0, "Isa": 0, "##llo": 0, "##we": 0, "y": 0, "##sk": 0, "##rit": 0, "unterrichten": 1, "beginnen": 0, "folglich": 0, "inkl": 0, "##us": 0, "##iv": 0, "sensi": 0, "##bel": 0, "Auswahl": 1, "Gegenstand": 1, "w\u00fcnschen": 0, "besonders": 0, "hoch": 3, "verringern": 1, "Mehrfach": 0, "##eh": 0, "##\u00f6r": 0, "anerkennen": 2, "Ebene": 0, "organisieren": 1, "euch": 0, "Information": 0, "21": 0, "2010": 0, "Herausforderung": 1, "sp\u00e4testens": 0, "Sekundar": 0, "##stuf": 0, "bal": 0, "##len": 0, "treffen": 0, "Ausbau": 0, "##lichkeit": 3, "##kompetenz": 0, "verf\u00fcgen": 0, "Grund": 2, "##schul": 0, "##zeit": 1, "bis": 0, "sechs": 0, "kon": 0, "##zeption": 0, "vertraut": 1, "Res": 1, "##so": 4, "##urce": 4, "h\u00f6ren": 0, "Bestimmung": 0, "Hindernis": 1, "Schwier": 1, "Anzeichen": 0, "##ulierung": 1, "durchs": 0, "##uen": 0, "analysieren": 0, "solch": 1, "bew\u00e4ltigen": 1, "##ungsbereich": 2, "##decken": 2, "Ausf\u00fchrung": 0, "Videos": 0, "##fassen": 0, "Feld": 0, "##handlung": 1, "W": 1, "##dh": 0, "Genre": 1, "Video": 0, "10": 0, "Erkl\u00e4rung": 2, "vorgeschlagen": 0, "Frage": 8, "##inter": 3, "darauf": 0, "##hen": 1, "ko": 2, "##gn": 4, "##itiv": 2, "Operation": 2, "bestimmt": 0, "11": 0, "bezeichnen": 0, "ausgel\u00f6st": 0, "liegen": 1, "##struktur": 0, "meinen": 0, "Festlegung": 0, "el": 0, "##ement": 0, "##ar": 0, "umsetzen": 1, "##antwort": 1, "erforderlich": 0, "s\u00e4": 0, "existieren": 0, "##uster": 0, "helfen": 0, "Qualit\u00e4t": 0, "jewei": 1, "##lig": 1, "erh\u00f6hen": 0, "Arbeit": 0, "Lauf": 0, "typisch": 0, "v": 1, "##an": 1, "##weisung": 1, "bedienen": 0, "oftmals": 0, "erwarten": 1, "rein": 0, "enthalten": 0, "ideal": 1, "Schreiben": 1, "Sprechen": 2, "Handlung": 0, "schul": 0, "##p\u00e4dagog": 0, "Funktions": 0, "##verb": 0, "##gef\u00fc": 0, "##g": 0, "wissen": 3, "##ener": 0, "Bearbeitung": 0, "initi": 1, "lenken": 0, "i": 1, "R": 0, "erfordern": 1, "##lei": 0, "Problem": 0, "verbinden": 0, "##ordnung": 1, "gew\u00e4hrleisten": 0, "theoretisch": 0, "Fund": 1, "Sinn": 1, "Referenz": 1, "##rahmen": 1, "Kategorie": 1, "realisiert": 1, "etwa": 0, "Anlehnung": 0, "2002": 0, "verschw": 0, "##eigen": 0, "Realisierung": 1, "feststellen": 1, "fest": 0, "untersuchen": 0, "erscheinen": 0, "Inst": 0, "##ru": 0, "##ktion": 0, "beinhalten": 1, "bearbeiten": 1, "Zeichen": 1, "##system": 1, "##merk": 0, "##mal": 0, "unsicher": 0, "f\u00fchlen": 0, "##sch\u00fcler": 1, "zusammenh\u00e4ngen": 0, "schriftlich": 1, "18": 0, "erw\u00e4hnt": 0, "##se": 0, "einher": 0, "##gehend": 0, "##\u00fc": 1, "##pfen": 1, "##strategie": 0, "Koh": 1, "##\u00e4ren": 1, "spezif": 0, "Strategie": 1, "endlich": 0, "tauchen": 0, "##atik": 1, "##alisch": 1, "auff\u00e4llig": 0, "##atisch": 3, "schlie\u00dflich": 0, "kommun": 0, "##ikat": 0, "##sb": 1, "##erei": 1, "m": 0, "##dl": 0, "H\u00f6ren": 0, "gelungen": 0, "Leit": 0, "##frage": 0, "Pl": 0, "##uri": 0, "##lit": 0, "##era": 0, "##ci": 0, "ec": 0, "##ml": 0, "at": 0, "Fak": 0, "Konzept": 0, "Fertig": 0, "inne": 0, "n": 0, "am": 0, "##tik": 0, "d": 0, "e": 0, "eignen": 0, "Einzel": 0, "##arbeit": 0, "Partner": 0, "zum": 0, "verbessern": 0, "Beweis": 1, "Se": 1, "##quenz": 1, "erhalten": 0, "Gelegenheit": 0, "##reichte": 1, "##fort": 1, "messen": 1, "Erg\u00e4nzung": 0, "##bringen": 1, "Vermittlung": 0, "Ko": 1, "##ition": 1, "allen": 0, "fa": 0, "##ech": 0, "##ern": 0, "p": 0, "##df": 0, "begegnen": 0, "Name": 0, "Ger": 2, "##\u00fcst": 2, "dienen": 0, "selbstst\u00e4ndig": 1, "bewegen": 1, "kalk": 0, "pr\u00e4gen": 0, "##di": 0, "nach": 1, "So": 0, "##das": 0, "optimal": 0, "##situation": 0, "eigentlich": 0, "Aufrechter": 0, "Development": 0, "Zone": 0, "Offensive": 0, "defen": 1, "##siv": 1, "##praxis": 0, "prinzip": 0, "##iell": 0, "ent": 0, "##lasten": 0, "R\u00fcck": 1, "##meldung": 1, "##melde": 0, "##technische": 0, "lernen": 0, "besch\u00e4ftigen": 0, "betreffen": 0, "##here": 0, "ind": 1, "##uk": 2, "##tiv": 1, "28": 0, "Mikro": 2, "Mak": 1, "##ros": 1, "##ca": 1, "##ff": 1, "beide": 1, "mod": 0, "separ": 0, "Phase": 0, "stattfinden": 0, "neben": 0, "##planung": 0, "hierzu": 0, "z\u00e4hlen": 0, "verst\u00e4ndlich": 1, "##erium": 1, "formuliert": 1, "Bedarf": 0, "##stands": 1, "aktuell": 1, "gelten": 0, "behalten": 1, "oft": 0, "genannt": 0, "umfassen": 0, "Gesamtheit": 0, "##technik": 0, "anhand": 0, "13": 0, "##st\u00e4ndigkeit": 1, "vielf\u00e4ltig": 0, "##sc": 1, "hingegen": 0, "hierbei": 0, "Technik": 0, "##kommun": 1, "##ikation": 1, "mitge": 0, "##stal": 0, "unvoll": 0, "##st\u00e4ndig": 0, "lauten": 0, "Grundlage": 0, "Sog": 0, "vorgegeben": 0, "bedenken": 0, "schreiben": 0, "pr\u00e4sentieren": 2, "beherrschen": 0, "Schreib": 0, "besonder": 0, "##verk": 0, "##pfung": 0, "Gramm": 0, "leicht": 0, "Zuwachs": 0, "bewirken": 0, "Medium": 0, "sicherstellen": 0, "bew": 0, "##ussen": 0, "Zir": 0, "##kel": 0, "Besch\u00e4ftigung": 0, "Beispiel": 0, "Leistung": 1, "da": 0, "verschieden": 2, "Bedeutung": 1, "fallen": 0, "gesamt": 0, "Planungs": 0, "##vorgang": 0, "a": 0, "vornehmen": 0, "geeignet": 0, "Unterst\u00fctzungs": 1, "abl": 0, "##eiten": 0, "Grundschule": 1, "sim": 1, "##pel": 1, "\u00fcbersehen": 0, "er": 0, "##proben": 0, "Antwort": 1, "durchf\u00fchren": 0, "m\u00f6glichst": 4, "##bereich": 0, "Neben": 0, "##s\u00e4tz": 0, "Bruch": 0, "##teil": 0, "mal": 3, "Sach": 0, "##text": 1, "##werk": 0, "zweit": 0, "##best": 0, "##h\u00fc": 0, "##blatt": 0, "do": 0, "##wn": 0, "ar": 0, "##row": 0, "Tipp": 0, "Hinweis": 0, "herausfinden": 0, "ti": 0, "##ppen": 0, "verf\u00fcgbar": 0, "frage": 1, "Konzentration": 1, "Schacht": 1, "##els": 1, "Eind": 0, "##eu": 0, "##tigkeit": 1, "##deu": 1, "offen": 0, "##fra": 1, "##cht": 1, "Transfer": 0, "Rep": 1, "##rod": 1, "##tion": 1, "Ei": 0, "Ca": 0, "60": 0, "Min": 0, "dazuge": 0, "##h\u00f6r": 0, "Erinnerung": 0, "##sw": 1, "ausgew\u00e4hlt": 0, "sc": 1, "Nutzen": 0, "Bitte": 0, "Pr\u00e4z": 1, "##isierung": 1, "##verw": 0, "##endung": 0, "Ziels": 0, "##tr": 1, "##tur": 0, "gezielt": 0, "Kontrast": 2, "vergleichen": 0, "##vergleich": 0, "##kunft": 0, "Auf": 0, "##greifen": 0, "\u00c4u\u00dfer": 0, "korrig": 1, "Wieder": 0, "##holen": 0, "ziel": 0, "Re": 0, "##cast": 0, "Aufforderung": 0, "##kor": 9, "##rektur": 9, "Kl\u00e4r": 1, "impl": 0, "##izit": 0, "Eliz": 1, "##iti": 1, "##erung": 1, "##wieder": 2, "##holung": 2, "Einsatz": 2, "26": 0, "Folgende": 0, "ow": 0, "Gespr\u00e4ch": 3, "##ss": 0, "##ituation": 0, "halten": 1, "##ie": 0, "##altern": 0, "##ative": 0, "Motiv": 1, "o": 0, "uns": 0, "Ma\u00dfnahme": 1, "F\u00fchrung": 0, "##gespr\u00e4ch": 2, "erleichtern": 1, "veran": 0, "##schau": 0, "##lichen": 0, "S": 0, "##iede": 0, "##ln": 0, "Unsicherheit": 4, "##wissenschaftler": 0, "Knapp": 0, "beobachten": 0, "vielfach": 0, "bemerken": 0, "nett": 0, "l\u00e4": 0, "##che": 0, "ni": 0, "##cken": 0, "Verst\u00e4ndnis": 1, "##schwier": 1, "schnell": 1, "unent": 1, "##\u00fchrung": 3, "beziehen": 0, "ebenso": 0, "##tem": 0, "##po": 0, "Beton": 0, "##pause": 1, "Beziehung": 0, "##sebene": 0, "Gestaltung": 1, "##gst": 1, "##frei": 1, "##gebung": 1, "ermu": 1, "##nte": 1, "##rn": 1, "wert": 1, "##sch": 1, "##\u00e4tzen": 2, "Werkzeuge": 0, "##schullehrer": 1, "40": 0, "Daniela": 0, "Rotter": 0, "einer": 0, "auffallen": 0, "ziemlich": 1, "wenig": 1, "zust": 1, "##ehen": 1, "konstru": 1, "##\u00e4g": 1, "##sver": 0, "##lauf": 0, "natur": 1, "##wissenschaft": 1, "Sachver": 1, "angemessen": 2, "Lehrer": 0, "##sau": 1, "##sz": 1, "##ug": 1, "bereit": 1, "A": 0, "Versuch": 0, "Erkenntnis": 0, "verp": 0, "##acken": 0, "##elli": 0, "##ert": 0, "##tags": 0, "Bericht": 0, "##atten": 0, "sinn": 1, "##stift": 1, "##end": 1, "Prinzip": 0, "orientieren": 0, "pro": 0, "##xi": 0, "kennenlernen": 0, "wesentlich": 0, "trennen": 0, "##zeigen": 1, "Peer": 0, "Cor": 1, "##re": 1, "##ction": 1, "Angst": 0, "eventuell": 1, "blo\u00df": 0, "##stellen": 0, "Interesse": 1, "automatisch": 0, "positiv": 0, "##kultur": 3, "erlauben": 0, "D": 0, "H": 0, "unauf": 1, "##dring": 1, "nebenbei": 1, "res": 3, "##ns": 1, "##cho": 1, "##nen": 1, "halb": 0, "O": 0, "Situation": 0, "einzig": 0, "wirksam": 0, "L\u00f6sung": 0, "klass": 0, "lang": 0, "anstelle": 0, "direkt": 2, "Prom": 2, "sau": 0, "Nutzung": 0, "##und": 1, "Themen": 0, "erfassen": 0, "##echsel": 1, "Option": 0, "14": 0, "Schau": 0, "dort": 0, "##pla": 0, "##ions": 0, "##bewusst": 0, "##sei": 0, "begleiten": 0, "Satz": 0, "beispielsweise": 0, "Kor": 0, "##ktive": 0, "##kod": 0, "##ier": 0, "Monitor": 0, "wiederauf": 0, "denn": 0, "Periode": 0, "dauern": 0, "Sekunde": 0, "Mi": 1, "##mi": 1, "##k": 1, "Gest": 1, "Hand": 0, "##bewegung": 0, "Heb": 0, "Augen": 0, "##bra": 0, "##ue": 0, "korrekt": 0, "##ur": 0, "16": 0, "Grundsatz": 0, "Studium": 0, "bisher": 0, "Korrektur": 2, "vorgehen": 1, "##rw": 2, "he": 1, "##mmen": 1, "Umstand": 0, "Foss": 0, "##ili": 0, "Abbruch": 0, "Erwerbs": 0, "Sta": 0, "##gna": 0, "erworben": 1, "Niveau": 1, "demnach": 0, "werfen": 1, "verde": 0, "##utlich": 0, "gleicherma\u00dfen": 0, "##\u00fcler": 0, "##freundlich": 0, "##verh": 1, "##alte": 1, "etablieren": 1, "##bau": 0, "##rate": 1, "##gie": 1, "20": 0, "Auge": 0, "##\u00e4u\u00dfer": 0, "einsch": 1, "beurteilen": 1, "herange": 0, "Ann\u00e4herung": 1, "##sweise": 1, "regelm\u00e4\u00dfig": 0, "recht": 0, "neutr": 0, "gewinnen": 1, "##durch": 0, "ermitteln": 0, "einerseits": 1, "gegen\u00fcber": 0, "Zeitpunkt": 0, "x": 0, "Regen": 0, "weiter": 2, "##nor": 2, "##ient": 2, "fe": 1, "##ed": 1, "##dia": 1, "##ose": 1, "flexibel": 0, "Fol": 0, "##ien": 0, "##na": 0, "##ly": 0, "##ruf": 0, "Kriterien": 2, "##ras": 3, "##ter": 3, "sub": 1, "##jektiv": 2, "Eindruck": 1, "verf": 1, "##\u00e4l": 1, "ob": 1, "unum": 0, "##g\u00e4ng": 0, "anpassen": 1, "pr\u00fc": 0, "##fungs": 0, "cu": 0, "##rr": 0, "##ic": 0, "##ular": 0, "##gabe": 1, "pers\u00f6nlich": 0, "legen": 0, "##orientiert": 0, "davon": 0, "Kriterium": 0, "le": 0, "##hre": 0, "##rf": 0, "##ort": 0, "22": 0, "Ressourcen": 0, "##orientierte": 0, "E": 0, "wahrnehmen": 1, "Verw": 0, "##enden": 0, "stets": 0, "auswirken": 1, "erinnern": 0, "R\u00fcckgabe": 0, "Klaus": 0, "Schulzeit": 0, "##f\u00f6rder": 1, "kennen": 0, "Auseinander": 1, "##setzung": 1, "##satz": 0, "Halbjahr": 0, "einmal": 0, "zur\u00fcck": 0, "Formul": 0, "##inn": 0, "Transparenz": 0, "jeweils": 0, "merken": 0, "Memor": 0, "##y": 0, "Grafik": 0, "keiner": 0, "Papier": 0, "gelegentlich": 0, "Mangel": 0, "vermuten": 0, "erf\u00fcllen": 1, "interessant": 0, "inform": 0, "Argument": 0, "Vorsicht": 1, "wa": 1, "##lt": 1, "Hed": 0, "##ging": 0, "Behauptung": 0, "Schluss": 0, "definieren": 1, "ausbauen": 1, "Einf\u00fchrung": 1, "Organisation": 0, "Le": 1, "##\u00fcre": 1, "Ess": 0, "##ay": 0}}