{"O": {"des": 1, "Fach": 12, "##lernen": 1, "##s": 5, "(": 102, "angel": 1, "##ehnt": 1, "an": 21, "Ta": 1, "##jm": 1, "##el": 2, "&": 2, "Voll": 2, "##mer": 2, "/": 24, "Th\u00fcr": 2, "##mann": 2, ";": 8, "Lo": 1, "##hs": 1, "##e": 4, ")": 70, "1": 13, ".": 262, "Gibt": 5, "es": 43, "sprach": 7, "##liche": 1, "H\u00fcrden": 0, ",": 359, "die": 2, "das": 2, "fach": 7, "Lernen": 4, "beh": 1, "##indern": 1, "k\u00f6nnten": 1, "?": 127, "2": 13, "Lern": 6, "##gelegen": 0, "##heiten": 0, "in": 75, "der": 452, "Stunde": 3, "f\u00fcr": 35, "typische": 0, "\u201e": 9, "Ritu": 1, "##ale": 0, "\u201c": 9, "Unterricht": 7, "##liches": 0, "Sprach": 13, "##handel": 1, "##n": 10, "Typ": 1, "##ische": 1, "Disk": 0, "##urs": 0, "##funktionen": 0, "Materialien": 0, "Rezeption": 0, "Mittel": 0, "Produktion": 0, "Zu": 0, "erstellen": 0, "##de": 2, "Texte": 1, "\u2022": 51, "Muss": 2, "m\u00fcnd": 3, "Unterrichts": 2, "-": 41, "inter": 1, "##aktion": 0, "gest\u00fctzt": 0, "werden": 83, "M\u00fc": 1, "##ssen": 1, "SU": 0, "##S": 0, "Informationen": 0, "besch": 0, "##affen": 0, "eine": 4, "Ergebnis": 1, "##pr\u00e4sent": 0, "##ation": 2, "##lich": 19, "Ist": 1, "Met": 0, "##ako": 0, "##mm": 1, "##uni": 0, "##kat": 2, "##ion": 0, "\u00fcber": 8, "##prozess": 0, "geplant": 0, "Wie": 8, "gehe": 0, "ich": 23, "mit": 26, "Fehler": 6, "um": 24, "K\u00f6nnen": 1, "##er": 2, "im": 1, "Laufe": 1, "##funktion": 0, "ein": 124, "##\u00fcben": 0, "Etwas": 1, "beschreiben": 3, "erkl\u00e4ren": 4, "diskutieren": 1, "aus": 11, "argumen": 1, "##tieren": 1, "oder": 16, "bewerten": 1, "Spiel": 0, "##t": 1, "Text": 7, "##sor": 0, "##te": 0, "Rolle": 4, "deren": 1, "Merkmale": 1, "explizit": 7, "gemacht": 1, "m\u00fcssen": 34, "re": 0, "##zept": 0, "##iven": 0, "Kern": 0, "##wort": 1, "sch": 0, "##atz": 2, "unbekannt": 2, "ist": 1, "Stehen": 0, "bestimmte": 0, "##begriff": 0, "Wort": 7, "##feld": 0, "Zentrum": 0, "Welche": 2, "konkreten": 0, "##schatz": 1, "ben\u00f6tigen": 9, "Art": 0, "Bereitstellung": 0, "domin": 1, "##ante": 1, "gra": 1, "##atische": 0, "Form": 11, "ben\u00f6tigt": 1, "wird": 0, "typischen": 0, "Rede": 0, "##mittel": 0, "meines": 0, "##es": 1, "k\u00f6nnte": 0, "fokuss": 2, "##ieren": 4, "und": 129, "##fordern": 3, "Wird": 1, "bestimmtes": 0, "Register": 1, "erfordert": 0, "einzu": 2, "##halten": 2, "struktur": 1, "Kann": 1, "Erste": 0, "##llen": 0, "von": 50, "##ko": 0, "##h\u00e4re": 0, "##z": 0, "\u201a": 0, "rote": 0, "##r": 0, "Faden": 0, "\u2018": 0, "einge": 0, "##\u00fcbt": 0, "Wann": 1, "##bilden": 0, "##d": 20, "planen": 3, "identifizieren": 0, "sie": 70, "Aspekt": 4, "schwierig": 0, "sein": 115, "nennen": 2, "daraus": 3, "folgen": 7, "m\u00f6glich": 12, "##ziel": 0, "=": 36, "Bedarfs": 0, "##analyse": 0, "+": 1, "##bestimmung": 0, "3": 14, "erl\u00e4u": 1, "##tern": 1, "wie": 40, "dieser": 28, "Schwerpunkt": 0, "konkret": 20, "umgehen": 0, "welche": 17, "Hilfs": 3, "##angebot": 0, "bereits": 5, "##telle": 2, "Zusatz": 0, "##material": 1, "zu": 70, "sehen": 7, ":": 127, "Teil": 4, "kommen": 6, "lesen": 1, "dabei": 4, "besprechen": 0, "Vor": 1, "##wissen": 1, "aktiv": 3, "Haltung": 1, "!": 23, "genau": 11, "sich": 38, "[UNK]": 82, "vorstellen": 1, "einfach": 6, "Plen": 5, "##um": 5, "eher": 7, "Lese": 0, "##stra": 0, "##teg": 0, "##ia": 0, "Leser": 0, "##out": 0, "##ine": 0, "Kind": 5, "vermitteln": 1, "Artikel": 0, "bei": 28, "Begriff": 2, "denken": 1, "noch": 20, "Schlei": 0, "##fe": 0, "##bauen": 1, "gern": 5, "##hilfe": 0, "einzeln": 6, "erst": 6, "Vorber": 1, "##eiten": 3, "Pr\u00e4sentation": 0, "nicht": 38, "falsch": 3, "aber": 22, "individ": 1, "##ualisiert": 1, "auf": 30, "Differenz": 0, "##ierungs": 1, "stehen": 3, "sollen": 12, "so": 10, "k\u00f6nnen": 52, "jed": 4, "passend": 0, "Sc": 1, "##aff": 1, "##old": 1, "##suchen": 1, "che": 2, "##ck": 2, "_": 5, "mark": 2, "Aufgaben": 2, "##stellung": 2, "erstmal": 4, "wo": 5, "finden": 7, "Hilfe": 2, "Z": 10, "B": 6, "Nutz": 1, "##tier": 1, "##sa": 1, "##ktiv": 1, "##ierung": 1, "n\u00f6tig": 3, "relevant": 3, "hier": 25, "ganz": 7, "transparent": 0, "Ok": 1, "Vari": 0, "oben": 1, "gut": 9, "Idee": 0, "Bild": 3, "Vorgang": 1, "nochmals": 2, "was": 22, "als": 22, "zus\u00e4tzlich": 2, "differenz": 0, "einig": 3, "pr\u00e4sentieren": 2, "damit": 12, "K\u00e4se": 1, "machen": 5, "unklar": 0, "Muster": 1, "##l\u00f6sung": 0, "aussehen": 1, "Stelle": 1, "sinnvoll": 2, "vorhanden": 1, "geben": 22, "klar": 1, "Ziel": 2, "allerdings": 3, "zeigen": 3, "Aufgabe": 10, "mir": 9, "stark": 0, "Ein": 0, "##bindung": 0, "M\u00fcn": 0, "##dlich": 0, "##keit": 1, "ab": 4, "##zielen": 2, "durch": 16, "paar": 1, "Austausch": 0, "##runde": 0, "locker": 1, "denkbar": 4, "ihr": 35, "insgesamt": 5, "Dreier": 1, "##gruppe": 2, "knapp": 0, "weil": 3, "De": 2, "Fac": 2, "##to": 2, "nur": 20, "drei": 3, "##aufgabe": 4, "##arbeit": 2, "Planung": 0, "aufnehmen": 4, "##isieren": 2, "plus": 2, "wirken": 2, "etwas": 6, "z": 1, "##\u00f6ger": 0, "trauen": 2, "innov": 2, "##ativ": 3, "lebendig": 2, "solange": 2, "zentral": 1, "##bildungs": 0, "##prinzip": 0, "Inter": 1, "##produkt": 0, "schon": 11, "Material": 2, "Umsetzung": 0, "auch": 40, "Entlastung": 1, "sowie": 4, "\u00c4nderung": 1, "Sozial": 0, "##form": 1, "viele": 2, "dennoch": 3, "vollst\u00e4ndig": 0, "Potential": 0, "##bildung": 8, "##nu": 0, "##tz": 0, "##en": 3, "##kart": 2, "vorrangig": 1, "##in": 6, "##halt": 1, "nutzen": 7, "ohne": 6, "diese": 2, "nochmal": 5, "daf\u00fcr": 3, "all": 9, "Opera": 0, "##tor": 0, "zumindest": 1, "Definition": 2, "liefern": 1, "wichtig": 3, "Thema": 8, "versammel": 0, "##zw": 4, "wenn": 11, "eigen": 8, "Sche": 1, "##ma": 1, "durchge": 1, "##hen": 2, "kritisch": 4, "dann": 9, "wiederum": 2, "H\u00fcr": 0, "mein": 12, "\u00dcber": 5, "##legen": 2, "wieso": 0, "aufs": 0, "##ch": 2, "##reiben": 0, "erfolgen": 2, "gerade": 7, "Schrift": 2, "##sprache": 2, "Funktion": 1, "haben": 22, "schlie\u00dfen": 1, "letzt": 1, "Punkt": 5, "wann": 3, "Feed": 2, "##back": 3, "Fazit": 1, "erkennbar": 0, "v": 2, "a": 3, "weniger": 1, "Sicht": 0, "Liebe": 2, "Kir": 2, "##sten": 2, "##idee": 0, "jetzt": 0, "viel": 7, "leider": 5, "deutlich": 0, "man": 14, "spontan": 1, "falls": 1, "sehr": 8, "Erwart": 0, "##ung": 3, "vieler": 2, "ihnen": 3, "Proze\u00df": 1, "Wissens": 0, "##aufbau": 0, "woher": 1, "##sicherung": 0, "Informations": 0, "##besch": 0, "##affung": 0, "\u00fcberhaupt": 3, "##leiten": 0, "Ende": 2, "aufbauen": 2, "zwischen": 3, "##dr": 1, "passieren": 2, "innerhalb": 1, "Klassen": 1, "##stufe": 1, "st\u00fctzen": 0, "kein": 14, "Versp": 0, "##rach": 0, "Alltags": 0, "statt": 3, "Unterst\u00fctzung": 0, "Bildungs": 1, "Gef\u00fchl": 1, "inner": 3, "##sens": 0, "##ib": 0, "##l": 4, "alle": 7, "abstra": 1, "##kt": 1, "##orientierung": 0, "fast": 1, "nichts": 2, "sagen": 2, "bleiben": 2, "dargestellt": 1, "Vorgehensweise": 0, "Hinsicht": 0, "allgemein": 1, "heraus": 0, "fehlen": 7, "##uliert": 1, "Kooperation": 0, "##vern": 0, "##etzung": 0, "Umgang": 1, "Richtung": 1, "gleich": 2, "weit": 10, "Person": 2, "mindestens": 1, "ruhig": 1, "kre": 2, "##ativer": 1, "gehen": 3, "schauen": 5, "wir": 13, "gemeinsam": 4, "G": 1, "##gf": 1, "Ab": 1, "Drei": 1, "##eck": 2, "Gemeinsam": 1, "vorn": 2, "##oti": 1, "##eren": 3, "m\u00f6gen": 1, "spielen": 7, "nat\u00fcrlich": 3, "Einstieg": 2, "gestalten": 0, "inhaltlich": 0, "Vis": 1, "##ualisierung": 1, "\u00fcberlegen": 4, "Symbol": 1, "Arbeits": 2, "##auftrag": 0, "hinter": 1, "stif": 1, "##ten": 2, "Sprech": 1, "##bl": 1, "##ase": 1, ">": 9, "welcher": 4, "w\u00e4hlen": 1, "Modus": 0, "unter": 6, "##ziehen": 2, "schwer": 1, "legitim": 1, "##ierbar": 1, "neu": 8, "vorher": 4, "##ungs": 2, "##hor": 0, "##izont": 0, "Verf\u00fcgung": 0, "stellen": 2, "Formulierung": 1, "##shi": 1, "##lf": 1, "##speicher": 1, "dass": 17, "Produkt": 0, "Vorbereitung": 1, "Lieblings": 1, "##jahres": 1, "##zeit": 5, "Ursache": 0, "Jahreszeit": 1, "Beschreibung": 1, "sprechen": 3, "klein": 2, "Plak": 1, "##at": 3, "ander": 9, "##schritt": 0, "##ig": 8, "di": 0, "##da": 1, "##ktisch": 1, "T": 1, "ausf\u00fchrlich": 2, "sp\u00e4t": 2, "En": 1, "Klarheit": 1, "dar\u00fcber": 2, "Fokus": 1, "insbesondere": 9, "M\u00f6glichkeit": 1, "tats\u00e4chlich": 1, "vorbereiten": 1, "Denken": 1, "vielleicht": 2, "achten": 2, "einsetzen": 1, "Vorhaben": 1, "ans": 3, "##weise": 2, "jedoch": 3, "ausb": 1, "##auf": 2, "##\u00e4h": 1, "jetz": 2, "Verlauf": 0, "k": 0, "##ind": 0, "##gerecht": 0, "motiv": 0, "##ierend": 1, "Komp": 0, "##osit": 0, "##a": 0, "dazu": 7, "mich": 2, "eindeutig": 1, "##pers": 0, "##pekt": 0, "##ive": 0, "Darstellung": 0, "Map": 2, "Vorgehen": 0, "ben": 2, "##ennen": 2, "Blick": 2, "'": 1, "s": 1, "mater": 1, "##ial": 1, "##side": 0, "vergessen": 1, "\u2192": 1, "Te": 1, "##acher": 1, "fe": 1, "##ed": 1, "Fest": 1, "##igungs": 1, "##stunde": 1, "unbedingt": 2, "entstehen": 4, "gegenseitig": 1, "wirklich": 4, "hervorragend": 1, "Kommentar": 1, "wertvoll": 1, "passen": 0, "##stand": 0, "Klasse": 2, "string": 0, "##ent": 0, "##iert": 0, "reduzieren": 2, "mathemat": 1, "##isch": 10, "weiterhin": 1, "versch": 1, "##rift": 1, "perfekt": 1, "s\u00e4m": 0, "##tlich": 0, "aussch": 0, "##\u00f6pfen": 0, "kl\u00e4ren": 1, "Orts": 1, "##plan": 1, "ebenfalls": 1, "strukturiert": 0, "fein": 0, "selbst": 3, "un": 0, "##kon": 0, "##kret": 0, "g\u00e4ng": 3, "Schritt": 1, "vier": 3, "Ablauf": 0, "##arbeitung": 2, "mehr": 5, "Kreativit\u00e4t": 0, "Bereich": 4, "Ideal": 1, "##erweise": 1, "wer": 3, "anschlie\u00dfend": 1, "Lesen": 0, "immer": 4, "hinsichtlich": 1, "ent": 2, "##lasten": 2, "grob": 2, "Aufbau": 0, "sch\u00f6n": 1, "##heitlich": 0, "##fahrung": 0, "Ha": 1, "##pt": 1, "##ik": 3, "pr\u00e4zise": 1, "bis": 2, "##sch": 1, "##blatt": 2, "Ritter": 1, "##schlag": 1, "Herr": 1, "Page": 1, "##sf": 1, "##orm": 1, "men": 1, "##tal": 1, "Was": 3, "beob": 0, "##acht": 0, "##bar": 1, "Verhaltens": 0, "Sch\u00fcler": 37, "*": 3, "innen": 26, "verwenden": 2, "indem": 3, "gew": 0, "##i\u00df": 0, "##sie": 0, "##rung": 0, "hei\u00dfen": 11, "##\u00fcbung": 0, "mg": 1, "Aktiv": 0, "Jahrgang": 1, "##sst": 2, "##ufe": 1, "niedrig": 0, "erm\u00f6glichen": 2, "Niveau": 0, "fordern": 1, "##nach": 1, "sichern": 0, "form": 1, "##ulieren": 2, "Zusammenfassung": 1, "4": 10, "Lehr": 11, "##kraft": 10, "Karte": 1, "Gruppe": 1, "zwar": 0, "somit": 4, "unbe": 1, "##wu": 1, "rot": 0, "##be": 0, "##zug": 0, "rein": 3, "##bringen": 2, "kooper": 0, "recher": 1, "##chi": 1, "Bauer": 1, "##muster": 1, "Reflex": 0, "wieder": 2, "irgendwie": 1, "unterst\u00fctzen": 0, "##pla": 2, "O": 5, "diagnost": 0, "Wissen": 1, "brauchen": 4, "##anteil": 0, "betrachten": 2, "##regen": 2, "##aktiv": 1, "\u00dcbungs": 0, "##schlei": 0, "lassen": 3, "wider": 1, "##spiegel": 0, "Diskussion": 1, "##and": 1, "Seminar": 1, "Schilder": 1, "ja": 1, "Us": 2, "##w": 2, "f\u00f6rdern": 2, "Denk": 0, "Holz": 2, "##stern": 2, "bas": 1, "##teln": 1, "wor": 1, "Anf": 0, "##order": 0, "bestehen": 0, "Gedanke": 1, "For": 1, "##beitrag": 1, "hinzu": 2, "erkennen": 0, "nun": 3, "festgestellt": 1, "Element": 1, "##unterricht": 4, "gelangen": 1, "Seite": 13, "7": 2, "Modell": 4, "Kommunikation": 0, "gro\u00df": 2, "##pro": 2, "##ze\u00df": 2, "verb": 2, "##alisieren": 0, "Sprache": 4, "##bei": 1, "##spiel": 1, "verstehen": 1, "w\u00e4hrend": 2, "Rechn": 0, "kommunizieren": 0, "Rechen": 0, "##weg": 0, "darstellen": 2, "##ae": 0, "##ben": 0, "reden": 0, "gar": 1, "l\u00f6sen": 1, "sorgen": 2, "\u00dcbersch": 1, "##u\u00df": 1, "problematisch": 1, "##liste": 0, "Gruppen": 0, "##arbeits": 0, "##phase": 0, "Kommun": 0, "##izieren": 0, "also": 7, "Verf\u00fcg": 0, "##mach": 0, "gelingen": 3, "Block": 2, "erfahren": 1, "Abschnitt": 2, "##f\u00fchren": 0, "wobei": 2, "bild": 1, "##sprach": 2, "F\u00e4higkeit": 1, "Beginn": 0, "ausw\u00e4hlen": 1, "alter": 1, "##sg": 1, "##erecht": 1, "\u00fcben": 4, "8": 2, "24": 3, "beitragen": 0, "Erwerb": 0, "##forderung": 1, "frei": 1, "verk": 1, "##\u00e4uf": 1, "Internet": 1, "detaill": 0, "fund": 0, "Analyse": 6, "notwendig": 1, "Problems": 0, "##tell": 0, "anbieten": 1, "diver": 0, "##si": 1, "##t\u00e4": 1, "##ts": 1, "diskrimin": 0, "##krit": 0, "Diver": 1, "Diskriminierung": 0, "tun": 2, "Mehr": 0, "##igkeit": 2, "Handeln": 3, "Schuls": 0, "##ystem": 0, "sozial": 1, "Herkunft": 1, "nachweisen": 1, "Beh": 0, "##err": 0, "##schen": 0, "akadem": 1, "daher": 3, "ster": 0, "##eo": 0, "##typ": 1, "\u00dcberzeugung": 0, "Bezug": 1, "auseinander": 2, "##setzen": 2, "sondern": 10, "Selbst": 0, "##ref": 0, "##lex": 0, "Rassismus": 1, "##bezogen": 0, "institution": 0, "##ell": 1, "jemand": 1, "##konstruktion": 0, "##dimension": 1, "unters": 2, "##agen": 2, "Ben": 0, "##achteil": 0, "##igung": 0, "##rel": 0, "##ev": 0, "##ant": 0, "##eg": 0, "##orie": 0, "Dimension": 4, "beachten": 0, "unser": 4, "bestimmen": 2, "weiterer": 2, "##nehmen": 0, "korre": 0, "##sp": 0, "##ond": 0, "##ner": 1, "gesellschaft": 0, "Position": 1, "Folge": 0, "lern": 0, "verh\u00e4lt": 0, "##nis": 0, "ausreichend": 0, "refle": 1, "##ktieren": 1, "##format": 1, "schlimm": 1, "Fall": 1, "sogar": 1, "anderer": 2, "Weg": 3, "Nad": 1, "##ol": 1, "##ny": 1, "Stefan": 1, "2021": 1, "##sek": 1, "##tional": 1, "##it\u00e4t": 1, "auftreten": 1, "aufgrund": 8, "##r\u00e4nkt": 0, "geschehen": 0, "##beziehen": 1, "Spannungs": 0, "##verh\u00e4ltnis": 0, "individuell": 0, "Faktor": 0, "Herrschafts": 0, "##ef": 0, "##fekt": 0, "Mart": 1, "Busch": 1, "Er": 2, "##achten": 2, "P\u00e4dagog": 2, "darum": 3, "Kompetenz": 2, "Komplexit\u00e4t": 0, "erarbeiten": 0, "Viel": 2, "##schicht": 2, "ber\u00fccksichtigen": 2, "Handlungs": 1, "##f\u00e4higkeit": 0, "trotz": 1, "##uns": 1, "##icherheit": 1, "dies": 5, "f\u00fchren": 6, "Weise": 0, "p\u00e4dagog": 2, "f\u00f6rder": 2, "einst": 1, "schl": 1, "##uss": 1, "##folger": 1, "metho": 1, "##dis": 1, "zun\u00e4chst": 2, "Regel": 0, "setzen": 0, "Wider": 0, "##sprechen": 0, "ersch": 0, "##weren": 0, "\u2013": 3, "Un": 1, "konvention": 1, "gegen": 1, "rass": 0, "##istisch": 0, "Ice": 1, "##rd": 1, "Rasse": 0, "Menschen": 0, "##rasse": 0, "Power": 1, "Rass": 0, "##ismen": 0, "##ismus": 0, "geh\u00f6ren": 1, "heute": 1, "echt": 1, "vorliegen": 4, "vor": 14, "Ungleich": 0, "##behandlung": 0, "handeln": 0, "Zusammenhang": 2, "##ism": 0, "Ot": 0, "##her": 1, "##ing": 1, "Kultur": 0, "##alisierung": 0, "Abbildung": 1, "Lin": 0, "##gu": 0, "##iz": 0, "##u": 0, "Ph\u00e4nomen": 4, "bedeuten": 2, "komplex": 3, "Gymnasium": 2, "erteilen": 2, "Merkmal": 1, "hinweg": 1, "Anerkennung": 0, "mitgebracht": 0, "##verm\u00f6gen": 0, "schwach": 0, "wahrscheinlich": 1, "##ibel": 0, "agieren": 0, "bek\u00e4mpfen": 2, "Aus": 0, "##pr\u00e4": 0, "##gung": 0, "Schule": 1, "annehmen": 2, "m\u00f6chten": 5, "potenzie": 1, "##ll": 1, "dr\u00fccken": 0, "ohn": 0, "##m\u00e4chtig": 0, "Opfer": 0, "##rolle": 0, "Familie": 0, "ver": 0, "##erb": 0, "##zwei": 0, "##fel": 0, "best\u00e4": 0, "##rk": 0, "emp": 0, "##ath": 0, "kompens": 0, "versuchen": 2, "Betroffene": 0, "h\u00e4ngen": 1, "Verfasst": 0, "##heit": 0, "Gesellschaft": 0, "zusammen": 2, "Fortbildung": 1, "besuchen": 1, "Gesellschafts": 1, "##zusammen": 1, "##hang": 1, "erwerben": 2, "b": 0, "##\u00fcr": 0, "##den": 0, "dem": 0, "r": 0, "wecken": 0, "Hoffnung": 0, "Welt": 1, "meist": 3, "Wirtschafts": 1, "##unternehmen": 1, "Bew": 1, "##usste": 1, "Isa": 1, "##llo": 1, "##we": 1, "y": 1, "##sk": 0, "##rit": 0, "unterrichten": 0, "beginnen": 3, "folglich": 2, "inkl": 0, "##us": 0, "##iv": 0, "Methode": 0, "sensi": 0, "##bel": 0, "Auswahl": 0, "Inhalt": 1, "Gegenstand": 0, "w\u00fcnschen": 1, "besonders": 3, "hoch": 2, "verringern": 0, "Mehrfach": 0, "##eh": 0, "##\u00f6r": 0, "anerkennen": 0, "Ebene": 7, "organisieren": 1, "euch": 1, "Information": 0, "21": 3, "2010": 1, "Herausforderung": 1, "Ausbau": 0, "##lichkeit": 0, "##kompetenz": 0, "verf\u00fcgen": 4, "Grund": 2, "##schul": 1, "sechs": 1, "kon": 0, "##zeption": 0, "vertraut": 0, "##spezif": 1, "Res": 0, "##so": 0, "##urce": 0, "h\u00f6ren": 1, "Bestimmung": 0, "Hindernis": 0, "Schwier": 0, "Kontext": 1, "Anzeichen": 1, "##ulierung": 0, "durchs": 1, "##cha": 1, "##uen": 1, "analysieren": 2, "solch": 8, "bew\u00e4ltigen": 0, "##ungsbereich": 0, "##decken": 1, "Ausf\u00fchrung": 0, "Videos": 1, "##fassen": 1, "Feld": 0, "[": 4, "##handlung": 0, "W": 1, "##dh": 1, "Genre": 0, "Video": 3, "10": 1, "Erkl\u00e4rung": 4, "vorgeschlagen": 1, "Frage": 4, "##inter": 0, "darauf": 2, "ko": 3, "##gn": 3, "##itiv": 3, "Operation": 0, "bestimmt": 9, "11": 2, "bezeichnen": 3, "ausgel\u00f6st": 1, "liegen": 1, "##struktur": 0, "meinen": 3, "Festlegung": 0, "el": 1, "##ement": 1, "##ar": 1, "umsetzen": 1, "##antwort": 1, "Struktur": 1, "erforderlich": 1, "existieren": 1, "##sm": 0, "##uster": 0, "helfen": 4, "Qualit\u00e4t": 0, "jewei": 2, "##lig": 2, "erh\u00f6hen": 3, "Lauf": 1, "typisch": 4, "##an": 0, "##weisung": 0, "bedienen": 1, "oftmals": 2, "erwarten": 1, "unterschiedlich": 3, "enthalten": 1, "ideal": 1, "Schreiben": 0, "Sprechen": 0, "Handlung": 0, "schul": 1, "##p\u00e4dagog": 1, "Funktions": 1, "##verb": 1, "##gef\u00fc": 1, "##g": 3, "wissen": 3, "##ener": 0, "Bearbeitung": 0, "initi": 0, "lenken": 1, "i": 1, "R": 1, "erfordern": 1, "##lei": 1, "Problem": 1, "verbinden": 1, "##ordnung": 0, "gew\u00e4hrleisten": 1, "theoretisch": 0, "##uell": 0, "Fund": 0, "Sinn": 0, "Referenz": 0, "##rahmen": 0, "Kategorie": 0, "realisiert": 0, "etwa": 1, "Anlehnung": 1, "2002": 1, "Tax": 1, "##onom": 1, "##i": 1, "grundlegend": 2, "verschw": 1, "##eigen": 1, "Realisierung": 0, "erscheinen": 2, "Inst": 1, "##ru": 1, "##ktion": 1, "beinhalten": 1, "bearbeiten": 0, "Zeichen": 0, "##system": 0, "##merk": 0, "##mal": 1, "usw": 1, "unsicher": 1, "f\u00fchlen": 1, "##sch\u00fcler": 0, "zusammenh\u00e4ngen": 0, "schriftlich": 1, "18": 1, "erw\u00e4hnt": 1, "##se": 1, "einher": 0, "##gehend": 0, "##\u00fc": 0, "##pfen": 0, "##strategie": 0, "Koh": 0, "##\u00e4ren": 0, "spezif": 2, "Strategie": 1, "endlich": 1, "tauchen": 1, "##atik": 0, "##alisch": 0, "auff\u00e4llig": 1, "##atisch": 1, "schlie\u00dflich": 3, "kommun": 0, "##ikat": 0, "Aktivit\u00e4t": 1, "##sb": 0, "##erei": 0, "unterscheiden": 1, "Fertig": 0, "##fertig": 0, "m": 1, "##dl": 1, "H\u00f6ren": 0, "gelungen": 1, "Leit": 1, "##frage": 1, "Pl": 1, "##uri": 1, "##lit": 1, "##era": 1, "##ci": 1, "ec": 1, "##ml": 1, "at": 1, "]": 5, "Fak": 0, "Konzept": 0, "inne": 1, "n": 1, "am": 2, "##tik": 1, "d": 1, "e": 1, "eignen": 2, "Beweis": 0, "Se": 0, "##quenz": 0, "erhalten": 2, "Gelegenheit": 1, "##reichte": 0, "5": 8, "##fort": 0, "messen": 0, "Erg\u00e4nzung": 1, "##al": 3, "Vermittlung": 0, "allen": 1, "fa": 1, "##ech": 1, "##ern": 1, "p": 1, "##df": 1, "begegnen": 1, "Name": 1, "Ger": 0, "##\u00fcst": 0, "dienen": 2, "selbstst\u00e4ndig": 0, "bewegen": 0, "eigens": 0, "##nd": 0, "9": 1, "28": 4, "er": 3, "kalk": 2, "pr\u00e4gen": 1, "##di": 1, "nach": 1, "hingegen": 3, "ev": 1, "##ozi": 1, "Fr": 2, "##ustr": 2, "Zone": 2, "optimal": 1, "##situation": 1, "eigentlich": 1, "Aufrechter": 0, "Development": 1, "Offensive": 0, "defen": 0, "##siv": 0, "##praxis": 1, "prinzip": 1, "##iell": 1, "R\u00fcck": 0, "##meldung": 0, "##melde": 0, "##technische": 0, "lernen": 1, "besch\u00e4ftigen": 2, "betreffen": 1, "##here": 1, "ind": 0, "##uk": 3, "##tiv": 0, "12": 1, "Mikro": 0, "Mak": 0, "##ros": 0, "##ca": 0, "##ff": 0, "beide": 2, "mod": 1, "separ": 2, "Phase": 1, "stattfinden": 1, "neben": 1, "##planung": 0, "hierzu": 1, "z\u00e4hlen": 1, "verst\u00e4ndlich": 0, "##erium": 0, "formuliert": 0, "Bedarf": 0, "##stands": 0, "feststellen": 0, "aktuell": 1, "gelten": 3, "behalten": 0, "oft": 2, "genannt": 1, "umfassen": 4, "Gesamtheit": 1, "##technik": 0, "anhand": 1, "13": 2, "##st\u00e4ndigkeit": 0, "vielf\u00e4ltig": 1, "##sc": 0, "hierbei": 1, "Technik": 6, "##kommun": 0, "##ikation": 0, "mitge": 1, "##stal": 1, "unvoll": 1, "##st\u00e4ndig": 1, "lauten": 1, "verschieden": 5, "16": 2, "Grundlage": 1, "vorgegeben": 1, "abl": 2, "bedenken": 1, "schreiben": 0, "beherrschen": 1, "Schreib": 1, "besonder": 1, "##verk": 0, "##pfung": 0, "Gramm": 0, "leicht": 1, "Zuwachs": 0, "bewirken": 1, "Medium": 1, "sicherstellen": 1, "bew": 2, "##ussen": 2, "Zir": 1, "##kel": 1, "Besch\u00e4ftigung": 0, "Beispiel": 8, "Leistung": 0, "da": 1, "Bedeutung": 2, "meiste": 1, "##rn": 1, "fallen": 1, "gesamt": 1, "Planungs": 0, "##vorgang": 0, "vornehmen": 1, "geeignet": 1, "Unterst\u00fctzungs": 0, "Grundschule": 1, "sim": 0, "##pel": 0, "\u00fcbersehen": 1, "h\u00e4ufig": 3, "##proben": 2, "Antwort": 3, "durchf\u00fchren": 1, "mittels": 1, "m\u00f6glichst": 4, "##bereich": 3, "Neben": 0, "##s\u00e4tz": 0, "Bruch": 1, "##teil": 1, "mal": 2, "Sach": 1, "##text": 3, "##werk": 1, "zweit": 1, "##best": 1, "##h\u00fc": 0, "do": 1, "##wn": 1, "ar": 1, "##row": 1, "Nutzen": 1, "Hinweis": 4, "Tipp": 2, "Vergleich": 1, "link": 1, "recht": 2, "herausfinden": 1, "ti": 1, "##ppen": 1, "Mo": 2, "##od": 2, "verf\u00fcgbar": 2, "frage": 0, "Konzentration": 0, "Schacht": 0, "##els": 0, "Eind": 0, "##eu": 0, "##tigkeit": 0, "##deu": 0, "offen": 0, "##fra": 0, "##cht": 0, "Transfer": 0, "Rep": 0, "##rod": 0, "##tion": 0, "Erinnerung": 1, "##sw": 1, "ausgew\u00e4hlt": 1, "sc": 0, "lang": 4, "Bitte": 1, "Pr\u00e4z": 0, "##isierung": 0, "Zug": 1, "##zwang": 1, "##verw": 1, "##endung": 1, "Ziels": 3, "##tr": 3, "##tur": 3, "gezielt": 1, "Kontrast": 0, "systematisch": 1, "abweichen": 1, "vergleichen": 1, "##vergleich": 3, "##kunft": 1, "Auf": 3, "##greifen": 4, "\u00c4u\u00dfer": 1, "korrig": 1, "Wieder": 1, "##holen": 1, "ziel": 0, "Re": 1, "##cast": 1, "Aufforderung": 1, "##kor": 0, "##rektur": 0, "Kl\u00e4r": 1, "impl": 1, "##izit": 1, "Eliz": 1, "##iti": 1, "##erung": 1, "##wieder": 1, "##holung": 1, "Einsatz": 1, "Mi": 1, "##mi": 1, "##k": 1, "26": 10, "Folgende": 1, "ow": 2, "Gespr\u00e4ch": 0, "##ss": 0, "##ituation": 0, "halten": 0, "##ie": 1, "##altern": 0, "##ative": 0, "Motiv": 0, "o": 2, "uns": 3, "Ma\u00dfnahme": 0, "F\u00fchrung": 0, "##gespr\u00e4ch": 0, "erleichtern": 0, "veran": 1, "##schau": 1, "##lichen": 1, "S": 5, "##iede": 1, "##ln": 2, "Unsicherheit": 0, "##wissenschaftler": 1, "Knapp": 1, "nett": 1, "l\u00e4": 1, "##che": 1, "ni": 1, "##cken": 1, "Verst\u00e4ndnis": 0, "##schwier": 0, "schnell": 2, "unent": 0, "##\u00fchrung": 0, "beziehen": 3, "ebenso": 1, "##wahl": 1, "hinaus": 1, "erfassen": 3, "##tem": 0, "##po": 0, "Beton": 0, "##pause": 0, "Beziehung": 1, "##sebene": 1, "Gestaltung": 0, "##gst": 0, "##frei": 0, "##gebung": 0, "ermu": 0, "##nte": 0, "wert": 0, "##\u00e4tzen": 0, "Angst": 2, "nehmen": 1, "\u00e4u\u00dfern": 0, "Werkzeuge": 1, "##schullehrer": 0, "Ca": 1, "Daniela": 1, "Rotter": 1, "einer": 4, "auffallen": 1, "ziemlich": 0, "wenig": 1, "zust": 0, "##ehen": 0, "konstru": 0, "los": 1, "##l\u00f6sen": 1, "Bildung": 0, "frag": 1, "konstruiert": 1, "##\u00e4g": 0, "##sver": 0, "##lauf": 0, "natur": 0, "##wissenschaft": 0, "Sachver": 0, "angemessen": 0, "Lehrer": 0, "##sau": 0, "##sz": 0, "##ug": 0, "bereit": 1, "A": 1, "Versuch": 1, "Erkenntnis": 0, "verp": 0, "##acken": 0, "##elli": 0, "##ert": 0, "##tags": 0, "Bericht": 1, "##atten": 1, "sinn": 0, "##stift": 0, "##end": 0, "Prinzip": 2, "orientieren": 1, "pro": 1, "##xi": 1, "kennenlernen": 2, "wesentlich": 0, "trennen": 0, "##zeigen": 0, "Peer": 0, "Cor": 0, "##re": 1, "##ction": 0, "eventuell": 1, "blo\u00df": 1, "##stellen": 1, "Interesse": 0, "automatisch": 1, "positiv": 0, "##kultur": 0, "erlauben": 3, "D": 1, "H": 1, "unauf": 0, "##dring": 0, "nebenbei": 0, "res": 0, "##ns": 0, "##cho": 0, "##nen": 0, "halb": 1, "Situation": 2, "einzig": 2, "wirksam": 2, "L\u00f6sung": 2, "richtig": 0, "klass": 1, "anstelle": 0, "direkt": 0, "Prom": 0, "Nutzung": 0, "##und": 0, "wollen": 2, "Themen": 2, "##echsel": 0, "Option": 1, "14": 1, "Schau": 1, "dort": 1, "##ions": 0, "##bewusst": 1, "##sei": 1, "begleiten": 1, "Satz": 1, "##bene": 1, "beispielsweise": 1, "Sog": 1, "Kor": 1, "##ktive": 1, "Monitor": 2, "wiederauf": 3, "denn": 1, "Periode": 3, "dauern": 3, "Sekunde": 3, "Gest": 0, "korrekt": 1, "##ur": 1, "Grundsatz": 0, "Studium": 1, "bisher": 2, "Korrektur": 0, "vorgehen": 0, "##rw": 0, "he": 0, "##mmen": 0, "Umstand": 1, "Foss": 0, "##ili": 0, "Abbruch": 1, "Erwerbs": 0, "Sta": 0, "##gna": 0, "erworben": 0, "demnach": 1, "werfen": 0, "verde": 1, "##utlich": 1, "gleicherma\u00dfen": 1, "##\u00fcler": 0, "##freundlich": 0, "##verh": 0, "##alte": 0, "etablieren": 0, "sau": 1, "##gen": 1, "##bau": 0, "##rate": 0, "##gie": 0, "20": 1, "Auge": 1, "##\u00e4u\u00dfer": 0, "einsch": 0, "beurteilen": 0, "herange": 1, "Ann\u00e4herung": 0, "##sweise": 0, "regelm\u00e4\u00dfig": 1, "neutr": 0, "gewinnen": 0, "##durch": 1, "ermitteln": 0, "einerseits": 0, "gegen\u00fcber": 1, "Zeitpunkt": 1, "x": 1, "Regen": 0, "weiter": 1, "##nor": 0, "##ient": 0, "##dia": 0, "##ose": 0, "Fol": 1, "##ien": 1, "##na": 2, "##ly": 1, "##ruf": 1, "Kriterien": 1, "##ras": 1, "##ter": 1, "sub": 0, "##jektiv": 0, "Eindruck": 0, "verf": 0, "##\u00e4l": 0, "ob": 0, "unum": 1, "##g\u00e4ng": 1, "anpassen": 0, "pr\u00fc": 0, "##fungs": 0, "cu": 0, "##rr": 0, "##ic": 0, "##ular": 0, "##gabe": 0, "pers\u00f6nlich": 0, "legen": 1, "##orientiert": 0, "22": 1, "Ressourcen": 0, "##orientierte": 0, "wahrnehmen": 0, "Verw": 0, "##enden": 0, "stets": 1, "auswirken": 0, "erinnern": 1, "R\u00fcckgabe": 1, "Klaus": 1, "Schulzeit": 1, "##f\u00f6rder": 0, "kennen": 1, "Auseinander": 0, "##setzung": 0, "zur\u00fcck": 1, "Formul": 0, "##inn": 0, "Transparenz": 0, "jeweils": 1, "merken": 1, "Memor": 1, "##y": 1, "spieler": 0, "Grafik": 1, "Papier": 1, "gelegentlich": 1, "Mangel": 0, "vermuten": 1, "erf\u00fcllen": 0, "interessant": 0, "Arbeit": 1, "##nt": 0, "inform": 0, "Argument": 0, "Vorsicht": 0, "wa": 0, "##lt": 0, "Hed": 0, "##ging": 0, "Behauptung": 1, "Schluss": 0, "definieren": 0, "ausbauen": 1, "Einf\u00fchrung": 0, "Organisation": 0, "Le": 0, "##\u00fcre": 0}, "Feedback_Criteria": {"des": 3, "Fach": 25, "##lernen": 0, "##s": 3, "(": 18, "angel": 0, "##ehnt": 0, "an": 11, "Ta": 0, "##jm": 0, "##el": 0, "&": 0, "Voll": 0, "##mer": 0, "/": 16, "Th\u00fcr": 0, "##mann": 0, ";": 0, "Lo": 0, "##hs": 0, "##e": 11, ")": 18, "1": 0, ".": 4, "Gibt": 0, "es": 2, "sprach": 176, "##liche": 4, "H\u00fcrden": 1, ",": 18, "die": 1, "das": 0, "fach": 16, "Lernen": 5, "beh": 0, "##indern": 0, "k\u00f6nnten": 0, "?": 0, "2": 3, "Lern": 30, "##gelegen": 2, "##heiten": 1, "in": 45, "der": 95, "Stunde": 3, "f\u00fcr": 13, "typische": 3, "\u201e": 9, "Ritu": 1, "##ale": 1, "\u201c": 9, "Unterricht": 12, "##liches": 1, "Sprach": 67, "##handel": 1, "##n": 17, "Typ": 0, "##ische": 0, "Disk": 31, "##urs": 31, "##funktionen": 1, "Materialien": 1, "Rezeption": 2, "Mittel": 19, "Produktion": 2, "Zu": 2, "erstellen": 2, "##de": 21, "Texte": 1, "\u2022": 0, "Muss": 0, "m\u00fcnd": 10, "Unterrichts": 20, "-": 12, "inter": 2, "##aktion": 17, "gest\u00fctzt": 2, "werden": 4, "M\u00fc": 0, "##ssen": 0, "SU": 1, "##S": 1, "Informationen": 1, "besch": 4, "##affen": 4, "eine": 2, "Ergebnis": 11, "##pr\u00e4sent": 4, "##ation": 5, "##lich": 180, "Ist": 0, "Met": 4, "##ako": 3, "##mm": 9, "##uni": 3, "##kat": 5, "##ion": 14, "\u00fcber": 6, "##prozess": 1, "geplant": 2, "Wie": 0, "gehe": 1, "ich": 7, "mit": 25, "Fehler": 21, "um": 2, "K\u00f6nnen": 1, "##er": 1, "im": 1, "Laufe": 0, "##funktion": 28, "ein": 26, "##\u00fcben": 7, "Etwas": 0, "beschreiben": 0, "erkl\u00e4ren": 2, "diskutieren": 0, "aus": 6, "argumen": 0, "##tieren": 0, "oder": 7, "bewerten": 1, "Spiel": 2, "##t": 19, "Text": 33, "##sor": 14, "##te": 2, "Rolle": 1, "deren": 0, "Merkmale": 0, "explizit": 0, "gemacht": 0, "m\u00fcssen": 1, "re": 2, "##zept": 3, "##iven": 1, "Kern": 3, "##wort": 7, "sch": 3, "##atz": 2, "unbekannt": 0, "ist": 0, "Stehen": 1, "bestimmte": 1, "##begriff": 11, "Wort": 16, "##feld": 5, "Zentrum": 1, "Welche": 0, "konkreten": 1, "##schatz": 11, "ben\u00f6tigen": 1, "Art": 4, "Bereitstellung": 4, "domin": 3, "##ante": 0, "gra": 6, "##atische": 1, "Form": 11, "ben\u00f6tigt": 1, "wird": 1, "typischen": 1, "Rede": 15, "##mittel": 13, "meines": 1, "##es": 1, "k\u00f6nnte": 1, "fokuss": 2, "##ieren": 27, "und": 39, "##fordern": 3, "Wird": 0, "bestimmtes": 1, "Register": 2, "erfordert": 1, "einzu": 1, "##halten": 2, "struktur": 2, "Kann": 0, "Erste": 5, "##llen": 5, "von": 36, "##ko": 5, "##h\u00e4re": 6, "##z": 6, "\u201a": 5, "rote": 1, "##r": 1, "Faden": 6, "\u2018": 5, "einge": 1, "##\u00fcbt": 1, "Wann": 0, "##bilden": 23, "##d": 31, "planen": 2, "identifizieren": 3, "sie": 6, "Aspekt": 4, "schwierig": 2, "sein": 7, "nennen": 0, "daraus": 0, "folgen": 0, "m\u00f6glich": 1, "##ziel": 10, "=": 0, "Bedarfs": 21, "##analyse": 27, "+": 0, "##bestimmung": 1, "3": 0, "erl\u00e4u": 0, "##tern": 0, "wie": 3, "dieser": 7, "Schwerpunkt": 3, "konkret": 5, "umgehen": 5, "welche": 17, "Hilfs": 3, "##angebot": 2, "bereits": 4, "##telle": 3, "Zusatz": 1, "##material": 6, "zu": 67, "sehen": 1, ":": 12, "Teil": 4, "kommen": 0, "lesen": 2, "dabei": 1, "besprechen": 2, "Vor": 16, "##wissen": 16, "aktiv": 9, "Haltung": 2, "!": 0, "genau": 2, "sich": 1, "[UNK]": 80, "vorstellen": 1, "einfach": 1, "Plen": 0, "##um": 1, "eher": 1, "Lese": 2, "##stra": 2, "##teg": 2, "##ia": 2, "Leser": 1, "##out": 1, "##ine": 1, "Kind": 5, "vermitteln": 0, "Artikel": 2, "bei": 5, "Begriff": 21, "denken": 3, "noch": 5, "Schlei": 1, "##fe": 2, "##bauen": 2, "gern": 0, "##hilfe": 24, "einzeln": 1, "erst": 1, "Vorber": 0, "##eiten": 0, "Pr\u00e4sentation": 18, "nicht": 9, "falsch": 2, "aber": 2, "individ": 0, "##ualisiert": 0, "auf": 14, "Differenz": 7, "##ierungs": 8, "stehen": 2, "sollen": 1, "so": 3, "k\u00f6nnen": 6, "jed": 0, "passend": 3, "Sc": 13, "##aff": 23, "##old": 26, "##suchen": 0, "che": 0, "##ck": 0, "_": 3, "mark": 0, "Aufgaben": 22, "##stellung": 22, "erstmal": 0, "wo": 1, "finden": 2, "Hilfe": 19, "Z": 0, "B": 1, "Nutz": 0, "##tier": 0, "##sa": 8, "##ktiv": 8, "##ierung": 28, "n\u00f6tig": 0, "relevant": 1, "hier": 1, "ganz": 1, "transparent": 6, "Ok": 0, "Vari": 1, "oben": 0, "gut": 3, "Idee": 24, "Bild": 0, "Vorgang": 0, "nochmals": 0, "was": 4, "als": 3, "zus\u00e4tzlich": 0, "differenz": 6, "einig": 1, "pr\u00e4sentieren": 8, "damit": 1, "K\u00e4se": 0, "machen": 1, "unklar": 4, "Muster": 4, "##l\u00f6sung": 3, "aussehen": 1, "Stelle": 4, "sinnvoll": 1, "vorhanden": 3, "geben": 4, "klar": 16, "Ziel": 6, "allerdings": 1, "zeigen": 2, "Aufgabe": 9, "mir": 0, "stark": 3, "Ein": 4, "##bindung": 2, "M\u00fcn": 2, "##dlich": 2, "##keit": 5, "ab": 1, "##zielen": 0, "durch": 9, "paar": 0, "Austausch": 3, "##runde": 1, "locker": 0, "denkbar": 0, "ihr": 9, "insgesamt": 1, "Dreier": 1, "##gruppe": 2, "knapp": 10, "weil": 0, "De": 0, "Fac": 0, "##to": 0, "nur": 2, "drei": 0, "##aufgabe": 3, "##arbeit": 0, "Planung": 11, "aufnehmen": 0, "##isieren": 1, "plus": 0, "wirken": 1, "etwas": 3, "z": 2, "##\u00f6ger": 2, "trauen": 0, "innov": 0, "##ativ": 2, "lebendig": 0, "solange": 0, "zentral": 3, "##bildungs": 6, "##prinzip": 4, "Inter": 12, "##produkt": 6, "schon": 2, "Material": 7, "Umsetzung": 2, "auch": 5, "Entlastung": 1, "sowie": 0, "\u00c4nderung": 0, "Sozial": 7, "##form": 15, "viele": 0, "dennoch": 0, "vollst\u00e4ndig": 1, "Potential": 3, "##bildung": 2, "##nu": 1, "##tz": 1, "##en": 7, "##kart": 0, "vorrangig": 0, "##in": 1, "##halt": 2, "nutzen": 1, "ohne": 1, "diese": 1, "nochmal": 1, "daf\u00fcr": 0, "all": 2, "Opera": 33, "##tor": 33, "zumindest": 0, "Definition": 1, "liefern": 0, "wichtig": 1, "Thema": 6, "versammel": 1, "##zw": 1, "wenn": 0, "eigen": 2, "Sche": 0, "##ma": 0, "durchge": 0, "##hen": 1, "kritisch": 1, "dann": 0, "wiederum": 0, "H\u00fcr": 14, "mein": 0, "\u00dcber": 7, "##legen": 1, "wieso": 1, "aufs": 1, "##ch": 3, "##reiben": 1, "erfolgen": 1, "gerade": 0, "Schrift": 6, "##sprache": 17, "Funktion": 0, "haben": 3, "schlie\u00dfen": 0, "letzt": 0, "Punkt": 1, "wann": 1, "Feed": 30, "##back": 31, "Fazit": 0, "erkennbar": 3, "v": 1, "a": 0, "weniger": 0, "Sicht": 1, "Liebe": 0, "Kir": 0, "##sten": 0, "##idee": 3, "jetzt": 1, "viel": 3, "leider": 1, "deutlich": 4, "man": 2, "spontan": 0, "falls": 0, "sehr": 3, "Erwart": 2, "##ung": 30, "vieler": 0, "ihnen": 1, "Proze\u00df": 1, "Wissens": 6, "##aufbau": 4, "woher": 1, "##sicherung": 3, "Informations": 3, "##besch": 3, "##affung": 3, "\u00fcberhaupt": 4, "##leiten": 1, "Ende": 0, "aufbauen": 3, "zwischen": 0, "##dr": 0, "passieren": 0, "innerhalb": 0, "Klassen": 0, "##stufe": 0, "st\u00fctzen": 10, "kein": 0, "Versp": 2, "##rach": 2, "Alltags": 3, "statt": 5, "Unterst\u00fctzung": 7, "Bildungs": 4, "Gef\u00fchl": 0, "inner": 0, "##sens": 11, "##ib": 9, "##l": 10, "alle": 0, "abstra": 1, "##kt": 2, "##orientierung": 2, "fast": 0, "nichts": 0, "sagen": 0, "bleiben": 2, "dargestellt": 0, "Vorgehensweise": 2, "Hinsicht": 1, "allgemein": 1, "heraus": 2, "fehlen": 0, "##uliert": 1, "Kooperation": 2, "##vern": 2, "##etzung": 2, "Umgang": 8, "Richtung": 1, "gleich": 0, "weit": 2, "Person": 0, "mindestens": 0, "ruhig": 0, "kre": 0, "##ativer": 0, "gehen": 0, "schauen": 0, "wir": 1, "gemeinsam": 1, "G": 1, "##gf": 1, "Ab": 0, "Drei": 0, "##eck": 0, "Gemeinsam": 0, "vorn": 0, "##oti": 0, "##eren": 0, "m\u00f6gen": 0, "spielen": 0, "nat\u00fcrlich": 0, "Einstieg": 3, "gestalten": 5, "inhaltlich": 3, "Vis": 1, "##ualisierung": 1, "\u00fcberlegen": 1, "Symbol": 0, "Arbeits": 13, "##auftrag": 5, "hinter": 0, "stif": 0, "##ten": 0, "Sprech": 4, "##bl": 0, "##ase": 0, ">": 0, "welcher": 3, "w\u00e4hlen": 1, "Modus": 1, "unter": 2, "##ziehen": 0, "schwer": 1, "legitim": 0, "##ierbar": 0, "neu": 6, "vorher": 0, "##ungs": 8, "##hor": 1, "##izont": 1, "Verf\u00fcgung": 3, "stellen": 6, "Formulierung": 6, "##shi": 3, "##lf": 3, "##speicher": 1, "dass": 1, "Produkt": 7, "Vorbereitung": 0, "Lieblings": 0, "##jahres": 0, "##zeit": 1, "Ursache": 1, "Jahreszeit": 0, "Beschreibung": 0, "sprechen": 3, "klein": 3, "Plak": 0, "##at": 0, "ander": 1, "##schritt": 6, "##ig": 6, "di": 3, "##da": 3, "##ktisch": 3, "T": 0, "ausf\u00fchrlich": 1, "sp\u00e4t": 0, "En": 0, "Klarheit": 2, "dar\u00fcber": 0, "Fokus": 2, "insbesondere": 0, "M\u00f6glichkeit": 0, "tats\u00e4chlich": 0, "vorbereiten": 0, "Denken": 3, "vielleicht": 0, "achten": 0, "einsetzen": 4, "Vorhaben": 0, "ans": 0, "##weise": 2, "jedoch": 0, "ausb": 0, "##auf": 1, "##\u00e4h": 0, "jetz": 0, "Verlauf": 4, "k": 1, "##ind": 1, "##gerecht": 1, "motiv": 3, "##ierend": 7, "Komp": 1, "##osit": 1, "##a": 1, "dazu": 0, "mich": 0, "eindeutig": 1, "##pers": 1, "##pekt": 1, "##ive": 1, "Darstellung": 5, "Map": 0, "Vorgehen": 2, "ben": 0, "##ennen": 0, "Blick": 3, "'": 0, "s": 0, "mater": 0, "##ial": 0, "##side": 1, "vergessen": 1, "\u2192": 0, "Te": 0, "##acher": 0, "fe": 1, "##ed": 1, "Fest": 0, "##igungs": 0, "##stunde": 0, "unbedingt": 0, "entstehen": 1, "gegenseitig": 0, "wirklich": 0, "hervorragend": 0, "Kommentar": 0, "wertvoll": 0, "passen": 1, "##stand": 9, "Klasse": 0, "string": 1, "##ent": 1, "##iert": 7, "reduzieren": 2, "mathemat": 3, "##isch": 14, "weiterhin": 0, "versch": 1, "##rift": 0, "perfekt": 0, "s\u00e4m": 1, "##tlich": 1, "aussch": 1, "##\u00f6pfen": 1, "kl\u00e4ren": 1, "Orts": 0, "##plan": 0, "ebenfalls": 0, "strukturiert": 1, "fein": 1, "selbst": 0, "un": 3, "##kon": 3, "##kret": 3, "g\u00e4ng": 0, "Schritt": 0, "vier": 0, "Ablauf": 1, "##arbeitung": 0, "mehr": 0, "Kreativit\u00e4t": 1, "Bereich": 1, "Ideal": 0, "##erweise": 0, "wer": 0, "anschlie\u00dfend": 0, "Lesen": 7, "immer": 0, "hinsichtlich": 0, "ent": 0, "##lasten": 0, "grob": 0, "Aufbau": 2, "sch\u00f6n": 0, "##heitlich": 1, "##fahrung": 1, "Ha": 0, "##pt": 6, "##ik": 1, "pr\u00e4zise": 1, "bis": 0, "##sch": 1, "##blatt": 0, "Ritter": 0, "##schlag": 0, "Herr": 0, "Page": 0, "##sf": 6, "##orm": 3, "men": 0, "##tal": 0, "Was": 0, "beob": 1, "##acht": 1, "##bar": 2, "Verhaltens": 1, "Sch\u00fcler": 17, "*": 1, "innen": 12, "verwenden": 2, "indem": 0, "gew": 2, "##i\u00df": 1, "##sie": 1, "##rung": 1, "hei\u00dfen": 0, "##\u00fcbung": 1, "mg": 0, "Aktiv": 1, "Jahrgang": 0, "##sst": 2, "##ufe": 0, "niedrig": 1, "erm\u00f6glichen": 0, "Niveau": 2, "fordern": 0, "##nach": 0, "sichern": 2, "form": 1, "##ulieren": 1, "Zusammenfassung": 0, "4": 0, "Lehr": 5, "##kraft": 4, "Karte": 0, "Gruppe": 0, "zwar": 1, "somit": 0, "unbe": 0, "##wu": 0, "rot": 5, "##be": 2, "##zug": 3, "rein": 0, "##bringen": 2, "kooper": 1, "recher": 0, "##chi": 0, "Bauer": 0, "##muster": 1, "Reflex": 6, "wieder": 0, "irgendwie": 0, "unterst\u00fctzen": 3, "##pla": 0, "O": 0, "diagnost": 1, "Wissen": 10, "brauchen": 0, "##anteil": 5, "betrachten": 0, "##regen": 0, "##aktiv": 1, "\u00dcbungs": 3, "##schlei": 1, "lassen": 1, "wider": 1, "##spiegel": 1, "Diskussion": 1, "##and": 1, "Seminar": 0, "Schilder": 0, "ja": 0, "Us": 0, "##w": 0, "f\u00f6rdern": 3, "Denk": 8, "Holz": 0, "##stern": 0, "bas": 0, "##teln": 0, "wor": 0, "Anf": 20, "##order": 20, "bestehen": 1, "Gedanke": 1, "For": 0, "##beitrag": 0, "hinzu": 0, "erkennen": 5, "nun": 0, "festgestellt": 0, "Element": 2, "##unterricht": 8, "gelangen": 0, "Seite": 0, "7": 0, "Modell": 10, "Kommunikation": 3, "gro\u00df": 0, "##pro": 5, "##ze\u00df": 5, "verb": 1, "##alisieren": 1, "Sprache": 11, "##bei": 0, "##spiel": 0, "verstehen": 3, "w\u00e4hrend": 1, "Rechn": 1, "kommunizieren": 3, "Rechen": 1, "##weg": 2, "darstellen": 4, "##ae": 1, "##ben": 1, "reden": 1, "gar": 0, "l\u00f6sen": 0, "sorgen": 0, "\u00dcbersch": 0, "##u\u00df": 0, "problematisch": 0, "##liste": 1, "Gruppen": 1, "##arbeits": 1, "##phase": 1, "Kommun": 1, "##izieren": 1, "also": 0, "Verf\u00fcg": 1, "##mach": 1, "gelingen": 0, "Block": 0, "erfahren": 0, "Abschnitt": 0, "##f\u00fchren": 1, "wobei": 0, "bild": 6, "##sprach": 17, "F\u00e4higkeit": 2, "Beginn": 1, "ausw\u00e4hlen": 0, "alter": 0, "##sg": 1, "##erecht": 0, "\u00fcben": 0, "8": 0, "24": 0, "beitragen": 1, "Erwerb": 1, "##forderung": 4, "frei": 0, "verk": 1, "##\u00e4uf": 0, "Internet": 0, "detaill": 1, "fund": 1, "Analyse": 5, "notwendig": 0, "Problems": 1, "##tell": 1, "anbieten": 1, "diver": 1, "##si": 12, "##t\u00e4": 14, "##ts": 9, "diskrimin": 10, "##krit": 6, "Diver": 11, "Diskriminierung": 32, "tun": 1, "Mehr": 3, "##igkeit": 7, "Handeln": 2, "Schuls": 1, "##ystem": 1, "sozial": 0, "Herkunft": 0, "nachweisen": 0, "Beh": 1, "##err": 1, "##schen": 2, "akadem": 2, "daher": 0, "ster": 2, "##eo": 2, "##typ": 2, "\u00dcberzeugung": 2, "Bezug": 3, "auseinander": 2, "##setzen": 2, "sondern": 0, "Selbst": 15, "##ref": 8, "##lex": 8, "Rassismus": 11, "##bezogen": 3, "institution": 2, "##ell": 4, "jemand": 0, "##konstruktion": 2, "##dimension": 4, "unters": 0, "##agen": 0, "Ben": 3, "##achteil": 3, "##igung": 3, "##rel": 4, "##ev": 4, "##ant": 7, "##eg": 2, "##orie": 2, "Dimension": 2, "beachten": 1, "unser": 4, "bestimmen": 1, "weiterer": 0, "##nehmen": 2, "korre": 2, "##sp": 2, "##ond": 2, "##ner": 0, "gesellschaft": 1, "Position": 1, "Folge": 1, "lern": 2, "verh\u00e4lt": 1, "##nis": 1, "ausreichend": 1, "refle": 2, "##ktieren": 2, "##format": 0, "schlimm": 0, "Fall": 0, "sogar": 0, "anderer": 0, "Weg": 0, "Nad": 0, "##ol": 0, "##ny": 0, "Stefan": 0, "2021": 0, "##sek": 0, "##tional": 0, "##it\u00e4t": 0, "auftreten": 0, "aufgrund": 3, "##r\u00e4nkt": 1, "geschehen": 1, "##beziehen": 0, "Spannungs": 1, "##verh\u00e4ltnis": 1, "individuell": 1, "Faktor": 1, "Herrschafts": 1, "##ef": 1, "##fekt": 1, "Mart": 0, "Busch": 0, "Er": 1, "##achten": 0, "P\u00e4dagog": 0, "darum": 0, "Kompetenz": 6, "Komplexit\u00e4t": 4, "erarbeiten": 3, "Viel": 1, "##schicht": 0, "ber\u00fccksichtigen": 1, "Handlungs": 7, "##f\u00e4higkeit": 2, "trotz": 0, "##uns": 0, "##icherheit": 0, "dies": 0, "f\u00fchren": 1, "Weise": 2, "p\u00e4dagog": 0, "f\u00f6rder": 0, "einst": 2, "schl": 0, "##uss": 0, "##folger": 1, "metho": 0, "##dis": 0, "zun\u00e4chst": 0, "Regel": 1, "setzen": 2, "Wider": 1, "##sprechen": 1, "ersch": 1, "##weren": 1, "\u2013": 0, "Un": 0, "konvention": 0, "gegen": 1, "rass": 5, "##istisch": 4, "Ice": 0, "##rd": 2, "Rasse": 1, "Menschen": 2, "##rasse": 2, "Power": 0, "Rass": 5, "##ismen": 3, "##ismus": 1, "geh\u00f6ren": 0, "heute": 0, "echt": 0, "vorliegen": 2, "vor": 1, "Ungleich": 1, "##behandlung": 1, "handeln": 1, "Zusammenhang": 0, "##ism": 11, "Ot": 3, "##her": 3, "##ing": 29, "Kultur": 4, "##alisierung": 4, "Abbildung": 0, "Lin": 9, "##gu": 9, "##iz": 9, "##u": 9, "Ph\u00e4nomen": 0, "bedeuten": 1, "komplex": 0, "Gymnasium": 0, "erteilen": 0, "Merkmal": 2, "hinweg": 0, "Anerkennung": 1, "mitgebracht": 1, "##verm\u00f6gen": 2, "schwach": 1, "wahrscheinlich": 0, "##ibel": 2, "agieren": 2, "bek\u00e4mpfen": 0, "Aus": 3, "##pr\u00e4": 2, "##gung": 2, "Schule": 2, "annehmen": 0, "m\u00f6chten": 0, "potenzie": 0, "##ll": 0, "dr\u00fccken": 1, "ohn": 1, "##m\u00e4chtig": 1, "Opfer": 1, "##rolle": 1, "Familie": 1, "ver": 1, "##erb": 4, "##zwei": 1, "##fel": 1, "best\u00e4": 1, "##rk": 1, "emp": 1, "##ath": 1, "kompens": 1, "versuchen": 0, "Betroffene": 1, "h\u00e4ngen": 0, "Verfasst": 1, "##heit": 2, "Gesellschaft": 1, "zusammen": 0, "Fortbildung": 0, "besuchen": 0, "Gesellschafts": 0, "##zusammen": 0, "##hang": 0, "erwerben": 1, "b": 1, "##\u00fcr": 1, "##den": 1, "dem": 1, "r": 2, "wecken": 1, "Hoffnung": 1, "Welt": 0, "meist": 0, "Wirtschafts": 0, "##unternehmen": 0, "Bew": 0, "##usste": 0, "Isa": 0, "##llo": 0, "##we": 0, "y": 0, "##sk": 1, "##rit": 1, "unterrichten": 1, "beginnen": 0, "folglich": 0, "inkl": 1, "##us": 1, "##iv": 3, "Methode": 6, "sensi": 1, "##bel": 1, "Auswahl": 1, "Inhalt": 2, "Gegenstand": 1, "w\u00fcnschen": 0, "besonders": 0, "hoch": 3, "verringern": 1, "Mehrfach": 2, "##eh": 2, "##\u00f6r": 2, "anerkennen": 2, "Ebene": 0, "organisieren": 1, "euch": 0, "Information": 3, "21": 0, "2010": 0, "Herausforderung": 3, "Ausbau": 2, "##lichkeit": 4, "##kompetenz": 4, "verf\u00fcgen": 0, "Grund": 2, "##schul": 0, "sechs": 0, "kon": 2, "##zeption": 1, "vertraut": 1, "##spezif": 0, "Res": 1, "##so": 6, "##urce": 6, "h\u00f6ren": 2, "Bestimmung": 2, "Hindernis": 1, "Schwier": 1, "Kontext": 2, "Anzeichen": 0, "##ulierung": 3, "durchs": 0, "##cha": 0, "##uen": 0, "analysieren": 0, "solch": 0, "bew\u00e4ltigen": 1, "##ungsbereich": 2, "##decken": 2, "Ausf\u00fchrung": 2, "Videos": 0, "##fassen": 0, "Feld": 1, "[": 2, "##handlung": 7, "W": 1, "##dh": 0, "Genre": 5, "Video": 0, "10": 0, "Erkl\u00e4rung": 4, "vorgeschlagen": 0, "Frage": 13, "##inter": 4, "darauf": 0, "ko": 4, "##gn": 4, "##itiv": 3, "Operation": 2, "bestimmt": 1, "11": 0, "bezeichnen": 0, "ausgel\u00f6st": 0, "liegen": 1, "##struktur": 1, "meinen": 0, "Festlegung": 1, "el": 1, "##ement": 1, "##ar": 1, "umsetzen": 1, "##antwort": 1, "Struktur": 7, "erforderlich": 0, "existieren": 0, "##sm": 1, "##uster": 1, "helfen": 1, "Qualit\u00e4t": 1, "jewei": 1, "##lig": 1, "erh\u00f6hen": 0, "Lauf": 0, "typisch": 4, "##an": 10, "##weisung": 9, "bedienen": 0, "oftmals": 0, "erwarten": 1, "unterschiedlich": 0, "enthalten": 0, "ideal": 1, "Schreiben": 6, "Sprechen": 6, "Handlung": 4, "schul": 0, "##p\u00e4dagog": 0, "Funktions": 0, "##verb": 0, "##gef\u00fc": 0, "##g": 0, "wissen": 4, "##ener": 1, "Bearbeitung": 1, "initi": 1, "lenken": 0, "i": 1, "R": 0, "erfordern": 1, "##lei": 0, "Problem": 0, "verbinden": 0, "##ordnung": 1, "gew\u00e4hrleisten": 0, "theoretisch": 1, "##uell": 1, "Fund": 1, "Sinn": 1, "Referenz": 2, "##rahmen": 1, "Kategorie": 1, "realisiert": 1, "etwa": 0, "Anlehnung": 0, "2002": 0, "Tax": 0, "##onom": 0, "##i": 0, "grundlegend": 0, "verschw": 0, "##eigen": 2, "Realisierung": 1, "erscheinen": 0, "Inst": 0, "##ru": 0, "##ktion": 0, "beinhalten": 1, "bearbeiten": 1, "Zeichen": 3, "##system": 3, "##merk": 1, "##mal": 1, "usw": 0, "unsicher": 0, "f\u00fchlen": 0, "##sch\u00fcler": 1, "zusammenh\u00e4ngen": 1, "schriftlich": 2, "18": 0, "erw\u00e4hnt": 0, "##se": 1, "einher": 1, "##gehend": 1, "##\u00fc": 2, "##pfen": 1, "##strategie": 1, "Koh": 1, "##\u00e4ren": 1, "spezif": 0, "Strategie": 6, "endlich": 0, "tauchen": 0, "##atik": 4, "##alisch": 2, "auff\u00e4llig": 0, "##atisch": 3, "schlie\u00dflich": 0, "kommun": 1, "##ikat": 1, "Aktivit\u00e4t": 1, "##sb": 1, "##erei": 1, "unterscheiden": 0, "Fertig": 2, "##fertig": 1, "m": 0, "##dl": 0, "H\u00f6ren": 4, "gelungen": 0, "Leit": 0, "##frage": 0, "Pl": 0, "##uri": 0, "##lit": 0, "##era": 0, "##ci": 0, "ec": 0, "##ml": 0, "at": 0, "]": 2, "Fak": 1, "Konzept": 1, "inne": 0, "n": 0, "am": 0, "##tik": 0, "d": 0, "e": 0, "eignen": 0, "Beweis": 2, "Se": 1, "##quenz": 1, "erhalten": 0, "Gelegenheit": 1, "##reichte": 1, "5": 0, "##fort": 2, "messen": 1, "Erg\u00e4nzung": 0, "##al": 1, "Vermittlung": 2, "allen": 0, "fa": 0, "##ech": 0, "##ern": 0, "p": 0, "##df": 0, "begegnen": 0, "Name": 0, "Ger": 3, "##\u00fcst": 3, "dienen": 0, "selbstst\u00e4ndig": 1, "bewegen": 1, "eigens": 2, "##nd": 2, "9": 0, "28": 0, "er": 0, "kalk": 0, "pr\u00e4gen": 0, "##di": 0, "nach": 1, "hingegen": 0, "ev": 0, "##ozi": 0, "Fr": 0, "##ustr": 0, "Zone": 0, "optimal": 0, "##situation": 2, "eigentlich": 0, "Aufrechter": 1, "Development": 0, "Offensive": 1, "defen": 1, "##siv": 1, "##praxis": 0, "prinzip": 0, "##iell": 0, "R\u00fcck": 3, "##meldung": 2, "##melde": 1, "##technische": 1, "lernen": 0, "besch\u00e4ftigen": 0, "betreffen": 0, "##here": 0, "ind": 1, "##uk": 2, "##tiv": 1, "12": 0, "Mikro": 11, "Mak": 3, "##ros": 3, "##ca": 3, "##ff": 3, "beide": 1, "mod": 1, "separ": 0, "Phase": 0, "stattfinden": 0, "neben": 0, "##planung": 3, "hierzu": 0, "z\u00e4hlen": 0, "verst\u00e4ndlich": 1, "##erium": 1, "formuliert": 1, "Bedarf": 1, "##stands": 3, "feststellen": 1, "aktuell": 1, "gelten": 0, "behalten": 1, "oft": 0, "genannt": 0, "umfassen": 0, "Gesamtheit": 0, "##technik": 14, "anhand": 0, "13": 0, "##st\u00e4ndigkeit": 1, "vielf\u00e4ltig": 0, "##sc": 9, "hierbei": 0, "Technik": 2, "##kommun": 1, "##ikation": 1, "mitge": 0, "##stal": 0, "unvoll": 0, "##st\u00e4ndig": 0, "lauten": 0, "verschieden": 2, "16": 0, "Grundlage": 0, "vorgegeben": 0, "abl": 0, "bedenken": 0, "schreiben": 2, "beherrschen": 0, "Schreib": 0, "besonder": 0, "##verk": 1, "##pfung": 1, "Gramm": 2, "leicht": 0, "Zuwachs": 1, "bewirken": 0, "Medium": 0, "sicherstellen": 0, "bew": 0, "##ussen": 0, "Zir": 0, "##kel": 0, "Besch\u00e4ftigung": 1, "Beispiel": 0, "Leistung": 1, "da": 0, "Bedeutung": 1, "meiste": 0, "##rn": 2, "fallen": 0, "gesamt": 0, "Planungs": 1, "##vorgang": 1, "vornehmen": 0, "geeignet": 0, "Unterst\u00fctzungs": 1, "Grundschule": 1, "sim": 1, "##pel": 1, "\u00fcbersehen": 0, "h\u00e4ufig": 2, "##proben": 0, "Antwort": 1, "durchf\u00fchren": 0, "mittels": 0, "m\u00f6glichst": 3, "##bereich": 0, "Neben": 1, "##s\u00e4tz": 1, "Bruch": 0, "##teil": 0, "mal": 3, "Sach": 0, "##text": 0, "##werk": 0, "zweit": 0, "##best": 0, "##h\u00fc": 2, "do": 0, "##wn": 0, "ar": 0, "##row": 0, "Nutzen": 4, "Hinweis": 0, "Tipp": 0, "Vergleich": 0, "link": 0, "recht": 0, "herausfinden": 0, "ti": 0, "##ppen": 0, "Mo": 0, "##od": 0, "verf\u00fcgbar": 0, "frage": 1, "Konzentration": 1, "Schacht": 1, "##els": 1, "Eind": 1, "##eu": 1, "##tigkeit": 2, "##deu": 1, "offen": 1, "##fra": 1, "##cht": 1, "Transfer": 1, "Rep": 1, "##rod": 1, "##tion": 2, "Erinnerung": 0, "##sw": 3, "ausgew\u00e4hlt": 0, "sc": 1, "lang": 0, "Bitte": 0, "Pr\u00e4z": 2, "##isierung": 2, "Zug": 0, "##zwang": 0, "##verw": 1, "##endung": 1, "Ziels": 0, "##tr": 1, "##tur": 0, "gezielt": 0, "Kontrast": 5, "systematisch": 0, "abweichen": 0, "vergleichen": 0, "##vergleich": 0, "##kunft": 0, "Auf": 0, "##greifen": 0, "\u00c4u\u00dfer": 0, "korrig": 1, "Wieder": 0, "##holen": 0, "ziel": 1, "Re": 4, "##cast": 4, "Aufforderung": 9, "##kor": 9, "##rektur": 9, "Kl\u00e4r": 1, "impl": 0, "##izit": 0, "Eliz": 1, "##iti": 1, "##erung": 3, "##wieder": 2, "##holung": 2, "Einsatz": 2, "Mi": 1, "##mi": 1, "##k": 1, "26": 0, "Folgende": 0, "ow": 0, "Gespr\u00e4ch": 4, "##ss": 1, "##ituation": 1, "halten": 1, "##ie": 0, "##altern": 1, "##ative": 1, "Motiv": 1, "o": 0, "uns": 0, "Ma\u00dfnahme": 1, "F\u00fchrung": 1, "##gespr\u00e4ch": 3, "erleichtern": 1, "veran": 0, "##schau": 0, "##lichen": 0, "S": 0, "##iede": 0, "##ln": 0, "Unsicherheit": 3, "##wissenschaftler": 0, "Knapp": 0, "nett": 0, "l\u00e4": 0, "##che": 0, "ni": 0, "##cken": 0, "Verst\u00e4ndnis": 1, "##schwier": 1, "schnell": 1, "unent": 1, "##\u00fchrung": 3, "beziehen": 0, "ebenso": 0, "##wahl": 0, "hinaus": 0, "erfassen": 0, "##tem": 1, "##po": 1, "Beton": 1, "##pause": 1, "Beziehung": 0, "##sebene": 0, "Gestaltung": 2, "##gst": 1, "##frei": 1, "##gebung": 1, "ermu": 2, "##nte": 2, "wert": 1, "##\u00e4tzen": 2, "Angst": 0, "nehmen": 0, "\u00e4u\u00dfern": 1, "Werkzeuge": 0, "##schullehrer": 1, "Ca": 0, "Daniela": 0, "Rotter": 0, "einer": 0, "auffallen": 0, "ziemlich": 1, "wenig": 1, "zust": 1, "##ehen": 1, "konstru": 1, "los": 0, "##l\u00f6sen": 0, "Bildung": 1, "frag": 0, "konstruiert": 0, "##\u00e4g": 1, "##sver": 2, "##lauf": 2, "natur": 1, "##wissenschaft": 1, "Sachver": 1, "angemessen": 2, "Lehrer": 1, "##sau": 1, "##sz": 1, "##ug": 1, "bereit": 1, "A": 0, "Versuch": 0, "Erkenntnis": 1, "verp": 1, "##acken": 1, "##elli": 1, "##ert": 1, "##tags": 1, "Bericht": 0, "##atten": 0, "sinn": 1, "##stift": 1, "##end": 1, "Prinzip": 0, "orientieren": 0, "pro": 0, "##xi": 0, "kennenlernen": 0, "wesentlich": 1, "trennen": 1, "##zeigen": 1, "Peer": 2, "Cor": 1, "##re": 1, "##ction": 1, "eventuell": 1, "blo\u00df": 0, "##stellen": 1, "Interesse": 1, "automatisch": 0, "positiv": 5, "##kultur": 3, "erlauben": 0, "D": 0, "H": 0, "unauf": 1, "##dring": 1, "nebenbei": 1, "res": 5, "##ns": 1, "##cho": 1, "##nen": 1, "halb": 0, "Situation": 0, "einzig": 0, "wirksam": 0, "L\u00f6sung": 0, "richtig": 3, "klass": 0, "anstelle": 2, "direkt": 2, "Prom": 6, "Nutzung": 2, "##und": 1, "wollen": 0, "Themen": 0, "##echsel": 3, "Option": 0, "14": 0, "Schau": 0, "dort": 0, "##ions": 3, "##bewusst": 0, "##sei": 0, "begleiten": 0, "Satz": 1, "##bene": 0, "beispielsweise": 0, "Sog": 0, "Kor": 0, "##ktive": 0, "Monitor": 0, "wiederauf": 0, "denn": 0, "Periode": 0, "dauern": 0, "Sekunde": 0, "Gest": 1, "korrekt": 1, "##ur": 1, "Grundsatz": 1, "Studium": 0, "bisher": 0, "Korrektur": 2, "vorgehen": 1, "##rw": 3, "he": 1, "##mmen": 1, "Umstand": 0, "Foss": 2, "##ili": 2, "Abbruch": 0, "Erwerbs": 1, "Sta": 1, "##gna": 1, "erworben": 1, "demnach": 0, "werfen": 1, "verde": 0, "##utlich": 0, "gleicherma\u00dfen": 0, "##\u00fcler": 2, "##freundlich": 1, "##verh": 1, "##alte": 1, "etablieren": 1, "sau": 0, "##gen": 0, "##bau": 1, "##rate": 1, "##gie": 1, "20": 0, "Auge": 0, "##\u00e4u\u00dfer": 1, "einsch": 1, "beurteilen": 1, "herange": 0, "Ann\u00e4herung": 1, "##sweise": 1, "regelm\u00e4\u00dfig": 0, "neutr": 1, "gewinnen": 1, "##durch": 0, "ermitteln": 1, "einerseits": 1, "gegen\u00fcber": 0, "Zeitpunkt": 0, "x": 0, "Regen": 1, "weiter": 2, "##nor": 4, "##ient": 4, "##dia": 1, "##ose": 1, "Fol": 0, "##ien": 0, "##na": 0, "##ly": 0, "##ruf": 0, "Kriterien": 5, "##ras": 6, "##ter": 6, "sub": 1, "##jektiv": 2, "Eindruck": 1, "verf": 1, "##\u00e4l": 1, "ob": 1, "unum": 0, "##g\u00e4ng": 0, "anpassen": 1, "pr\u00fc": 1, "##fungs": 1, "cu": 1, "##rr": 1, "##ic": 1, "##ular": 1, "##gabe": 1, "pers\u00f6nlich": 1, "legen": 0, "##orientiert": 1, "22": 0, "Ressourcen": 2, "##orientierte": 2, "wahrnehmen": 1, "Verw": 1, "##enden": 1, "stets": 0, "auswirken": 1, "erinnern": 0, "R\u00fcckgabe": 0, "Klaus": 0, "Schulzeit": 0, "##f\u00f6rder": 1, "kennen": 0, "Auseinander": 1, "##setzung": 1, "zur\u00fcck": 0, "Formul": 1, "##inn": 1, "Transparenz": 1, "jeweils": 0, "merken": 0, "Memor": 0, "##y": 0, "spieler": 1, "Grafik": 0, "Papier": 0, "gelegentlich": 0, "Mangel": 1, "vermuten": 0, "erf\u00fcllen": 1, "interessant": 1, "Arbeit": 0, "##nt": 1, "inform": 1, "Argument": 1, "Vorsicht": 1, "wa": 1, "##lt": 1, "Hed": 1, "##ging": 1, "Behauptung": 0, "Schluss": 1, "definieren": 1, "ausbauen": 1, "Einf\u00fchrung": 1, "Organisation": 1, "Le": 1, "##\u00fcre": 1}}