{"O": {":": 2758, "ye": 15, "##llo": 19, "##w": 132, "_": 472, "cir": 15, "##cle": 15, "3": 343, ")": 2760, "Analyse": 131, "##rahmen": 18, "zur": 15, "Sprach": 421, "##lichkeit": 24, "des": 15, "Fach": 403, "##lernen": 15, "##s": 98, "(": 2604, "angel": 15, "##ehnt": 15, "an": 585, "Ta": 21, "##jm": 21, "##el": 68, "&": 60, "Voll": 84, "##mer": 84, "/": 1096, "Th\u00fcr": 86, "##mann": 88, ";": 188, "Lo": 15, "##hs": 15, "##e": 207, "1": 423, ".": 7139, "Gibt": 174, "es": 1102, "sprach": 370, "##liche": 43, "H\u00fcrden": 0, ",": 8054, "die": 149, "das": 54, "fach": 170, "Lernen": 120, "beh": 18, "##indern": 18, "k\u00f6nnten": 15, "?": 3442, "2": 351, "Lern": 266, "##gelegen": 14, "##heiten": 0, "in": 2152, "der": 9355, "Stunde": 127, "f\u00fcr": 708, "typische": 0, "\u201e": 145, "Ritu": 5, "##ale": 0, "\u201c": 201, "Unterricht": 198, "##liches": 0, "##handel": 66, "##n": 326, "Typ": 66, "##ische": 66, "Disk": 72, "##urs": 72, "##funktionen": 0, "Materialien": 0, "Rezeption": 5, "Mittel": 33, "Produktion": 23, "Zu": 15, "erstellen": 70, "##de": 53, "Texte": 18, "\u2022": 1934, "Muss": 132, "m\u00fcnd": 60, "Unterrichts": 154, "-": 1331, "inter": 65, "##aktion": 5, "gest\u00fctzt": 0, "werden": 1861, "M\u00fc": 66, "##ssen": 66, "SU": 0, "##S": 0, "Informationen": 0, "besch": 5, "##affen": 0, "eine": 210, "Ergebnis": 35, "##pr\u00e4sent": 4, "##ation": 27, "##lich": 613, "Ist": 66, "Met": 42, "##ako": 23, "##mm": 69, "##uni": 42, "##kat": 36, "##ion": 43, "\u00fcber": 223, "##prozess": 0, "geplant": 0, "Wie": 166, "gehe": 0, "ich": 527, "mit": 776, "Fehler": 224, "um": 611, "K\u00f6nnen": 66, "##er": 112, "im": 66, "Laufe": 66, "##funktion": 69, "ein": 2553, "##\u00fcben": 5, "Etwas": 66, "beschreiben": 200, "erkl\u00e4ren": 165, "diskutieren": 72, "aus": 520, "argumen": 95, "##tieren": 106, "oder": 675, "bewerten": 98, "Spiel": 0, "##t": 94, "Text": 341, "##sor": 28, "##te": 15, "Rolle": 69, "deren": 66, "Merkmale": 66, "explizit": 158, "gemacht": 66, "m\u00fcssen": 694, "re": 32, "##zept": 19, "##iven": 0, "Kern": 0, "##wort": 64, "sch": 8, "##atz": 56, "unbekannt": 83, "ist": 66, "Stehen": 0, "bestimmte": 0, "##begriff": 14, "Wort": 194, "##feld": 2, "Zentrum": 6, "Welche": 105, "konkreten": 0, "##schatz": 87, "ben\u00f6tigen": 106, "Sch\u00fcler": 551, "Aufgabe": 458, "zu": 1860, "l\u00f6sen": 79, "Art": 17, "Bereitstellung": 0, "domin": 39, "##ante": 39, "gra": 46, "##atische": 0, "Form": 156, "ben\u00f6tigt": 4, "wird": 0, "typischen": 0, "Rede": 32, "##mittel": 0, "meines": 0, "##es": 55, "k\u00f6nnte": 0, "fokuss": 61, "##ieren": 312, "und": 2905, "##fordern": 73, "Wird": 39, "bestimmtes": 0, "Register": 53, "erfordert": 0, "einzu": 10, "##halten": 83, "struktur": 15, "Kann": 39, "Erste": 2, "##llen": 2, "von": 1186, "##ko": 0, "##h\u00e4re": 0, "##z": 13, "\u201a": 0, "rote": 0, "##r": 7, "Faden": 8, "\u2018": 0, "einge": 0, "##\u00fcbt": 3, "Wann": 39, "gebe": 39, "Feed": 55, "##back": 333, "##bilden": 93, "##d": 584, "planen": 29, "identifizieren": 0, "sie": 2051, "Aspekt": 74, "schwierig": 21, "sein": 2421, "nennen": 35, "daraus": 30, "folgen": 198, "m\u00f6glich": 222, "##ziel": 33, "=": 2958, "Bedarfs": 43, "##analyse": 53, "+": 74, "##bestimmung": 0, "erl\u00e4u": 36, "##tern": 36, "wie": 900, "dieser": 494, "Schwerpunkt": 25, "konkret": 297, "umgehen": 24, "welche": 269, "Hilfs": 49, "##angebot": 0, "bereits": 161, "##telle": 24, "Zusatz": 12, "##material": 69, "denkbar": 81, "innov": 53, "##ativ": 81, "spieler": 6, "##isch": 249, "Methode": 20, "*": 68, "innen": 420, "k\u00f6nnen": 1108, "Kurz": 4, "anhand": 53, "selbst": 205, "produziert": 4, "Plak": 135, "##at": 200, "begr\u00fcnden": 58, "warum": 27, "Milch": 110, "##ku": 45, "##h": 45, "Nutz": 86, "##tier": 86, "Te": 264, "##acher": 264, "fe": 264, "##ed": 278, "che": 48, "##ck": 48, "mark": 57, "mich": 36, "jetzt": 41, "Teil": 166, "Einheit": 23, "spannend": 4, "noch": 632, "sehen": 137, "kommen": 153, "Ziel": 49, "Klasse": 121, "gemeinsam": 92, "Informations": 24, "##text": 83, "Thema": 226, "lesen": 62, "dabei": 55, "besprechen": 12, "Vor": 93, "##wissen": 57, "aktiv": 34, "Haltung": 34, "Herstellung": 18, "[UNK]": 2756, ">": 240, "hier": 812, "man": 380, "nochmal": 210, "genau": 244, "schauen": 117, "was": 511, "!": 654, "sich": 793, "vorstellen": 27, "einfach": 158, "Plen": 136, "##um": 151, "eher": 147, "Lese": 13, "##stra": 0, "##teg": 0, "##ia": 0, "Leser": 0, "##out": 0, "##ine": 3, "Kind": 676, "eigens": 18, "##t\u00e4": 50, "##nd": 30, "##ig": 234, "Erl": 18, "##esen": 18, "vermitteln": 23, "Artikel": 4, "bei": 594, "Begriff": 171, "denken": 70, "Schlei": 0, "##fe": 5, "##bauen": 71, "euch": 24, "Verlauf": 25, "##produkt": 14, "nun": 72, "gegenseitig": 56, "nutzen": 127, "gern": 94, "##hilfe": 42, "Material": 131, "##the": 4, "##ke": 4, "Stufe": 15, "einzeln": 99, "erst": 181, "dann": 284, "Ende": 75, "produzieren": 17, "herstellen": 14, "Us": 102, "differenz": 9, "##iert": 17, "Satz": 102, "##baus": 4, "##in": 129, "##anfang": 41, "L\u00fccken": 27, "Vorber": 8, "##eiten": 22, "Pr\u00e4sentation": 66, "nicht": 819, "falsch": 132, "aber": 462, "individ": 10, "##ualisiert": 10, "auf": 751, "Differenz": 6, "##ierungs": 13, "stehen": 44, "sollen": 351, "so": 201, "jed": 169, "passend": 39, "Sc": 57, "##aff": 60, "##old": 64, "##suchen": 22, "Aufgaben": 97, "##stellung": 115, "erstmal": 69, "Ok": 17, "wichtig": 95, "wo": 151, "finden": 185, "Hilfe": 63, "Z": 330, "B": 388, "einst": 13, "##eigen": 37, "auch": 867, "##sa": 12, "##ktiv": 18, "##ierung": 35, "n\u00f6tig": 57, "einzig": 27, "relevant": 86, "daf\u00fcr": 37, "ebenfalls": 13, "ob": 53, "wirklich": 42, "Unterschied": 3, "unterschiedlich": 59, "Reihenfolge": 5, "kl\u00e4ren": 19, "ganz": 105, "transparent": 0, "Vari": 0, "oben": 16, "In": 28, "Zwei": 16, "##erte": 16, "##am": 5, "jeweils": 29, "vorgegeben": 7, "Bild": 176, "Pfeil": 27, "Verf\u00fcgung": 19, "stellen": 83, "##\u00fcte": 5, "diver": 9, "Lebensmittel": 5, "quasi": 9, "Proze\u00df": 58, "Produkt": 54, "gut": 313, "Idee": 167, "hoffentlich": 5, "##riften": 5, "lassen": 75, "doch": 38, "super": 5, "Vorgang": 10, "nochmals": 18, "schon": 360, "zeigen": 47, "als": 472, "zus\u00e4tzlich": 51, "wer": 166, "brauchen": 62, "nehmen": 29, "einig": 62, "reichen": 5, "vielleicht": 103, "nur": 459, "##sprach": 102, "Verb": 42, "verstehen": 89, "nach": 73, "Ein": 25, "Partner": 63, "##arbeit": 199, "pr\u00e4sentieren": 53, "also": 138, "klar": 117, "Wiederholung": 26, "##ss": 11, "##ch": 106, "##lei": 33, "gleich": 88, "Auf": 94, "##schreiben": 18, "anfangen": 5, "##ams": 11, "Anordnung": 25, "bestimmen": 30, "##ordnen": 46, "erwarten": 70, "Antwort": 118, "Begr\u00fcndung": 11, "gerade": 159, "fallen": 26, "mir": 230, "schwer": 59, "Mehrwert": 11, "erkennen": 25, "sehr": 199, "anspruchs": 11, "##voll": 18, "ba": 11, "##na": 47, "##l": 215, "weil": 140, "Kuh": 37, "geben": 318, "damit": 214, "K\u00e4se": 11, "machen": 213, "unklar": 14, "Muster": 20, "##l\u00f6sung": 13, "aussehen": 12, "Stelle": 68, "sinnvoll": 95, "Fazit": 80, "insgesamt": 177, "gehen": 254, "richtig": 80, "Richtung": 37, "vorhanden": 43, "allerdings": 42, "kurz": 92, "wieso": 64, "Tier": 57, "fehlen": 178, "stark": 13, "##bindung": 0, "M\u00fcn": 0, "##dlich": 0, "##keit": 62, "ab": 124, "##zielen": 26, "alle": 158, "Fest": 42, "durch": 470, "paar": 28, "Austausch": 35, "##runde": 13, "locker": 26, "ausf\u00fchrlich": 72, "Diskussion": 33, "indem": 99, "Recherche": 26, "Beitrag": 26, "Rinder": 26, "##haltung": 26, "Klimawandel": 26, "usw": 143, "Pod": 26, "##iums": 26, "##disk": 30, "##ussion": 26, "zwischen": 94, "Bauer": 107, "Klima": 26, "##aktiv": 47, "##ist": 26, "Veg": 26, "##aner": 26, "gegeneinander": 26, "vorbereiten": 56, "st\u00fctzen": 28, "nat\u00fcrlich": 93, "da": 122, "Potential": 42, "ihr": 536, "Dreier": 22, "##gruppe": 86, "knapp": 45, "De": 56, "Fac": 53, "##to": 78, "drei": 171, "##aufgabe": 149, "w\u00fcnschen": 73, "##swert": 68, "haben": 656, "Planung": 96, "aufnehmen": 114, "##isieren": 91, "plus": 63, "weit": 216, "Person": 118, "mindestens": 53, "wirken": 51, "etwas": 200, "z": 25, "##\u00f6ger": 0, "trauen": 53, "ruhig": 53, "kre": 61, "##ativer": 53, "lebendig": 53, "solange": 53, "zentral": 37, "##bildungs": 20, "##prinzip": 6, "Inter": 21, "Ans": 62, "##cha": 74, "##uu": 63, "##ng": 130, "##sm": 77, "##aterial": 59, "Map": 166, "inspir": 53, "https": 72, "mo": 53, "##od": 171, "##le": 143, "##lab": 53, "hu": 53, "ber": 57, "##lin": 57, "de": 98, "mod": 103, "ur": 53, "view": 53, "ph": 53, "##p": 59, "id": 55, "111": 53, "##arbeiten": 9, "Umsetzung": 0, "Se": 9, "##quenz": 18, "Entlastung": 9, "sowie": 81, "\u00c4nderung": 9, "Sozial": 0, "##form": 70, "viele": 19, "umsetzen": 38, "Station": 18, "G": 123, "##gf": 123, "Check": 23, "i": 27, "Warm": 14, "up": 21, "bevor": 24, "verteilen": 46, "dennoch": 68, "vollst\u00e4ndig": 2, "##bildung": 157, "##nu": 0, "##tz": 25, "##en": 218, "##kart": 45, "vorrangig": 16, "##halt": 31, "ohne": 140, "diese": 83, "Formul": 23, "helfen": 67, "meist": 97, "wissen": 114, "ja": 72, "versprach": 29, "##g\u00e4ngig": 6, "all": 183, "Opera": 41, "##tor": 41, "schreiben": 33, "Definition": 51, "el": 30, "##ement": 25, "##ar": 25, "starten": 12, "Karte": 34, "Funktion": 39, "zumindest": 39, "liefern": 12, "versammel": 0, "enthalten": 36, "##speicher": 24, "Bruch": 22, "##teil": 24, "eindeutig": 23, "gr\u00f6\u00dftenteils": 29, "allein": 15, "einige": 35, "Bananen": 12, "##oper": 12, "##ator": 24, "ihnen": 94, "einsch": 12, "##mu": 21, "##gge": 12, "##ln": 26, "\u00fcberhaupt": 63, "keinerlei": 12, "Aussage": 37, "##kraft": 220, "v": 124, "a": 80, "meinen": 48, "passieren": 52, "##zw": 67, "wenn": 336, "Vergleich": 92, "Fall": 77, "dringend": 5, "##raten": 5, "analysieren": 46, "eigen": 164, "Sche": 13, "##ma": 17, "durchge": 5, "##hen": 15, "betrachten": 65, "kritisch": 36, "L\u00f6sung": 62, "lauten": 7, "wiederum": 11, "H\u00fcr": 0, "mein": 286, "vermutlich": 20, "form": 95, "##ulieren": 117, "irgendwie": 15, "vor": 209, "##sal": 7, "ander": 200, "Formulierung": 33, "##shi": 28, "##lf": 28, "\u00dcber": 162, "##legen": 68, "aufs": 0, "##reiben": 3, "erfolgen": 27, "Schrift": 26, "##sprache": 221, "not": 67, "sp\u00e4t": 53, "O": 90, "\u00c4": 21, "wozu": 17, "denn": 29, "sonst": 29, "daran": 50, "schlie\u00dfen": 17, "letzt": 37, "Punkt": 103, "wann": 14, "erkennbar": 2, "mittels": 27, "##ta": 11, "##rk": 14, "n\u00fctzlich": 5, "weniger": 10, "Sicht": 10, "schwach": 17, "unsicher": 28, "immer": 100, "gro\u00df": 45, "Herausforderung": 24, "##karte": 42, "Liebe": 91, "Kir": 91, "##sten": 91, "##idee": 9, "viel": 113, "leider": 87, "deutlich": 16, "Beschreibung": 70, "Vogel": 30, "erreichen": 13, "Schwier": 20, "##igkeit": 52, "Deutsch": 60, "hierf\u00fcr": 27, "##sehen": 13, "kn": 13, "##iff": 13, "##lig": 89, "komplex": 48, "vorge": 41, "##ben": 37, "wegen": 13, "hoch": 37, "##an": 16, "##forderung": 58, "sondern": 169, "klein": 94, "arbeiten": 50, "Farbe": 13, "ohnehin": 17, "Farb": 13, "Bestandteil": 20, "minim": 13, "##al": 142, "Anzahl": 20, "Feder": 13, "n": 18, "Schnabel": 26, "Brust": 13, "Steck": 25, "##brief": 25, "wollen": 48, "spontan": 27, "falls": 13, "##stehen": 15, "hoffen": 26, "ber\u00fccksichtigen": 50, "ansonsten": 32, "'": 21, "s": 21, "kla": 17, "##ppen": 41, "vorne": 6, "##weg": 8, "kein": 179, "Entwurf": 6, "4": 270, "mehr": 92, "5": 236, "6": 15, "fr\u00fche": 6, "##stens": 6, "sowohl": 15, "Erwart": 21, "##ung": 249, "anbieten": 12, "vieler": 55, "eingest": 2, "##\u00e4ndig": 2, "anschauen": 2, "vorher": 96, "intensiv": 2, "zurecht": 2, "vollkommen": 4, "au\u00dfen": 6, "##lassen": 5, "Wissens": 0, "##aufbau": 0, "woher": 4, "Info": 20, "Kopf": 4, "dort": 47, "bestehend": 4, "Wissen": 77, "vern": 4, "##etzen": 31, "Problem": 33, "Aus": 4, "##gan": 4, "##listen": 7, "##sicherung": 9, "##besch": 0, "##affung": 0, "hei\u00dfen": 138, "dass": 407, "Rest": 4, "##leiten": 0, "aufbauen": 11, "vergessen": 37, "##dr": 14, "innerhalb": 21, "Gruppe": 89, "Klassen": 24, "##stufe": 7, "Inhalt": 46, "zusammen": 48, "##fassen": 19, "erz\u00e4hlen": 3, "Ebene": 109, "neu": 99, "direkt": 8, "auffallen": 10, "Lesen": 11, "stattfinden": 62, "Versp": 4, "##rach": 4, "Alltags": 69, "statt": 77, "Unterst\u00fctzung": 10, "Bildungs": 42, "Gef\u00fchl": 13, "Moment": 11, "inner": 19, "##sens": 34, "##ib": 58, "daher": 115, "mechan": 5, "leb": 2, "##los": 2, "gl\u00fcck": 2, "zer": 6, "##spl": 2, "##ittern": 2, "abstra": 21, "##kt": 27, "Ah": 9, "##a": 16, "verbinden": 32, "Empfehlung": 10, "versuchen": 67, "rund": 8, "Ganze": 16, "Teils": 8, "##ritt": 8, "##orientierung": 5, "verste": 3, "##if": 3, "f\u00fchren": 88, "eben": 3, "Eindruck": 3, "au\u00dferdem": 10, "rau": 3, "##mg": 3, "##reifen": 3, "wir": 334, "gar": 25, "fast": 30, "nichts": 34, "sagen": 38, "bleiben": 40, "dargestellt": 21, "Vorgehensweise": 0, "Hinsicht": 7, "allgemein": 35, "heraus": 4, "##uliert": 18, "Kooperation": 10, "##vern": 0, "##etzung": 0, "Umgang": 21, "Ab": 30, "Drei": 16, "##eck": 18, "Gemeinsam": 16, "vorn": 35, "##oti": 16, "##eren": 42, "m\u00f6gen": 16, "spielen": 52, "gew\u00e4hlt": 5, "zudem": 34, "Vie": 5, "##ee": 37, "R\u00fcck": 23, "##meldung": 23, "grunds\u00e4tzlich": 10, "\u00fcberlegen": 120, "Einstieg": 67, "gestalten": 14, "Aktivit\u00e4t": 64, "inhaltlich": 14, "rot": 11, "bis": 39, "fortsetzen": 5, "h\u00e4ngen": 25, "los": 10, "Raum": 12, "mal": 39, "##be": 13, "##zug": 16, "Fokus": 51, "r\u00fccken": 5, "welcher": 82, "Themenk": 5, "##omp": 5, "##lex": 7, "passen": 12, "danach": 14, "##reihe": 7, "ober": 9, "##fl\u00e4ch": 9, "punkt": 17, "##uell": 43, "betreffen": 18, "Vis": 4, "##ualisierung": 4, "dazu": 199, "Symbol": 16, "Arbeits": 50, "##auftrag": 4, "hinter": 15, "stif": 51, "##ten": 29, "Sprech": 12, "##bl": 12, "##ase": 12, "Einzel": 51, "w\u00e4hlen": 14, "Modus": 0, "Geschichte": 3, "Merkmal": 53, "Jahreszeit": 34, "themat": 32, "unbedingt": 27, "##auf": 64, "##nehmen": 9, "Beispiel": 113, "suchen": 9, "unter": 92, "##ziehen": 18, "legitim": 3, "##ierbar": 3, "ta": 4, "##uschen": 4, "aktiviert": 4, "##lichen": 9, "experimente": 3, "##ll": 6, "Erf": 3, "##ors": 5, "##chen": 22, "##helfen": 18, "Taschen": 3, "##lam": 3, "##pe": 5, "Licht": 11, "##quelle": 3, "Glob": 3, "##us": 7, "Ball": 3, "Information": 3, "Videos": 7, "Tafel": 31, "##bild": 3, "##ungs": 82, "##hor": 21, "##izont": 21, "erg\u00e4nzen": 18, "umf": 4, "##orm": 31, "best": 10, "Kontext": 33, "zwei": 56, "Buch": 11, "##seite": 16, "wobei": 24, "Vorbereitung": 8, "Lieblings": 10, "##jahres": 8, "##zeit": 67, "##x": 18, "Sitz": 8, "##kreis": 28, "d\u00fcrfen": 19, "Anfang": 8, "Ursache": 19, "beide": 92, "lau": 10, "##schen": 10, "Hintergrund": 2, "Umlauf": 2, "Kreis": 2, "je": 8, "nachdem": 2, "m\u00f6glichst": 41, "vis": 26, "Syn": 2, "##onym": 2, "Erkl\u00e4r": 2, "experimen": 2, "S": 149, "8": 23, "Seite": 407, "durchs": 6, "##chi": 33, "##mmer": 2, "offenbar": 2, "Experiment": 4, "##ein": 2, "##beziehen": 39, "Experten": 21, "b": 54, "Frage": 230, "verschieden": 84, "Zeit": 25, "anderer": 65, "Suche": 11, "ideal": 23, "sprechen": 76, "Bilder": 9, "##folg": 9, "ggf": 9, "\u00dcbertragung": 9, "Heft": 16, "Abschluss": 9, "Reflex": 9, "##schritt": 2, "di": 19, "##da": 34, "##ktisch": 31, "T": 18, "unten": 29, "anf": 24, "##\u00fcgen": 18, "Kommentar": 46, "ignor": 18, "En": 24, "Klarheit": 18, "dar\u00fcber": 40, "insbesondere": 93, "M\u00f6glichkeit": 68, "Wasser": 20, "##lauf": 20, "verd": 22, "##unsten": 18, "flie\u00dfen": 18, "tats\u00e4chlich": 24, "Denken": 18, "seit": 18, "wenig": 39, "Monat": 18, "lernen": 41, "Kritik": 8, "##punkt": 22, "zwar": 27, "##fertigt": 4, "##mat": 4, "Stichwort": 12, "F\u00fcll": 4, "leisten": 42, "entsprechend": 4, "defen": 9, "##siv": 14, "Motivation": 4, "verlassen": 11, "einmal": 34, "##komplex": 4, "beantworten": 17, "recht": 87, "##ent": 28, "##lastung": 25, "Gruppen": 41, "##dehn": 4, "ents": 4, "##leun": 4, "##igen": 17, "ent": 23, "##lasten": 23, "ansprechen": 7, "Planungs": 12, "hinein": 2, "##schauen": 2, "achten": 15, "einsetzen": 11, "jewei": 76, "Ern\u00e4hrung": 6, "Ding": 10, "Lebe": 9, "##wesen": 9, "Mensch": 22, "essen": 9, "Frucht": 3, "Inse": 3, "Maus": 3, "Fisch": 3, "Nu": 3, "Blatt": 3, "Katalog": 3, "Kategorie": 35, "Lebensraum": 3, "Ort": 3, "leben": 9, "Vorhaben": 19, "ans": 58, "##weise": 62, "jedoch": 72, "ausb": 19, "##\u00e4h": 19, "##wie": 19, "##fern": 19, "urspr\u00fcnglich": 24, "jetz": 38, "k": 0, "##ind": 0, "##gerecht": 0, "motiv": 0, "##ierend": 103, "br\u00fc": 19, "##g": 110, "Komp": 2, "##osit": 0, "Lehr": 297, "##werk": 63, "sch\u00f6n": 39, "\u00dcbung": 27, "No": 23, "##me": 19, "bilden": 28, "Wald": 43, "Am": 19, "##eise": 22, "##ame": 19, "##ise": 19, "fro": 44, "##nt": 49, "##iv": 40, "##aw": 19, "##isse": 19, "win": 27, "##kin": 27, "fac": 27, "##pers": 4, "##pekt": 4, "##ive": 4, "mus": 9, "##ter": 73, "##g\u00fcltig": 9, "Blick": 26, "gelingen": 60, "Darstellung": 23, "Vorgehen": 13, "abl": 27, "##aufen": 13, "ben": 52, "##ennen": 55, "angemessen": 18, "soweit": 8, "doppelt": 8, "gr\u00fcn": 8, "w\u00e4hrend": 32, "##werkstatt": 8, "Grund": 47, "##voraus": 8, "##setzung": 8, "mater": 8, "##ial": 8, "##side": 0, "\u2192": 12, "##igungs": 12, "##stunde": 20, "entstehen": 37, "Zahlen": 22, "##geschichte": 12, "h": 15, "##\u00e4n": 12, "##seln": 12, "sieben": 12, "Leb": 12, "##kuchen": 12, "Gre": 12, "##tel": 12, "25": 27, "Gleich": 20, "aufstellen": 12, "7": 59, "Achtung": 15, "Peer": 21, "##feed": 14, "entfallen": 4, "dir": 8, "heute": 15, "unser": 79, "\u00dcbungs": 22, "Woche": 4, "schlecht": 17, "genauso": 6, "leicht": 27, "hervorragend": 19, "getr": 19, "##ost": 19, "Per": 19, "##fektion": 19, "##ism": 93, "##u": 127, "verb": 52, "##uchen": 24, "Fin": 21, "##et": 25, "wertvoll": 19, "##stand": 6, "besonders": 45, "f\u00e4l": 19, "##len": 37, "string": 0, "them": 19, "##bedingt": 19, "reduzieren": 27, "mathemat": 21, "weiterhin": 33, "versch": 39, "##rift": 47, "Besch": 28, "Reis": 19, "##haufen": 19, "perfekt": 19, "s\u00e4m": 0, "##tlich": 0, "aussch": 3, "##\u00f6pfen": 0, "abweichen": 48, "krei": 4, "mitten": 6, "Wanderung": 4, "##zimmer": 4, "Weg": 44, "sammeln": 28, "Erfahrung": 36, "Plan": 16, "halten": 6, "##stu": 4, "Re": 60, "Orts": 8, "##plan": 25, "Legende": 4, "z\u00e4hlen": 18, "strukturiert": 0, "fein": 0, "Abstra": 4, "##ktions": 4, "##verm\u00f6gen": 4, "Arbeit": 52, "##beschreibung": 13, "Ausflug": 4, "drau\u00dfen": 4, "schlie\u00dflich": 43, "##igung": 23, "Audio": 4, "##aufnahme": 4, "st": 10, "##\u00fcndig": 4, "##einheit": 50, "##fach": 4, "##handlung": 11, "fragen": 15, "Entschuldigung": 2, "links": 2, "rechts": 2, "##biegen": 2, "##as": 2, "Himmels": 2, "##richtung": 2, "n\u00f6rdlich": 2, "\u00f6stlich": 2, "feststellen": 31, "fest": 41, "u": 22, "un": 22, "##kon": 0, "##kret": 0, "g\u00e4ng": 23, "Schritt": 27, "##pro": 53, "##ze\u00df": 53, "vier": 68, "Ablauf": 0, "##arbeitung": 47, "erf\u00fcllen": 19, "Kriterium": 45, "Kreativit\u00e4t": 0, "Bereich": 61, "angehen": 29, "Ideal": 14, "##erweise": 14, "Impuls": 22, "Klein": 35, "bearbeiten": 14, "anschlie\u00dfend": 43, "ord": 16, "##nen": 16, "Herz": 14, "erfassen": 42, "##kod": 25, "zusammengefasst": 14, "hinsichtlich": 14, "kooper": 18, "komplett": 1, "weg": 6, "Doppel": 1, "##seit": 1, "grob": 22, "Aufbau": 0, "traurig": 30, "##heitlich": 17, "##fahrung": 17, "Ha": 17, "##pt": 17, "##ik": 89, "bas": 26, "##teln": 26, "pr\u00e4zise": 40, "##sch": 36, "##k\u00e4": 19, "##rt": 19, "##blatt": 31, "Block": 47, "Prinzip": 27, "erwerben": 67, "Ritter": 109, "##schlag": 25, "Herr": 16, "Page": 16, "##sf": 31, "Lan": 20, "##ze": 20, "Schild": 20, "Mittelalter": 34, "kennenlernen": 47, "erweitern": 20, "beob": 14, "##acht": 14, "##bar": 38, "men": 16, "##tal": 16, "Was": 76, "Verhaltens": 9, "verwenden": 91, "pass": 6, "spezif": 53, "Koll": 12, "##oka": 12, "##tion": 35, "erhalten": 51, "\u201d": 39, "Land": 6, "besitzen": 15, "christ": 6, "Glauben": 6, "erz": 6, "##ieh": 6, "hm": 6, "gew": 0, "##i\u00df": 0, "##sie": 6, "##rung": 2, "##bei": 28, "##gehen": 22, "merken": 37, "kombin": 6, "Funktions": 18, "##verb": 15, "##gef\u00fc": 15, "##ge": 6, "Work": 6, "##sh": 12, "Live": 6, "##work": 6, "##ts": 18, "com": 6, "Da": 6, "kinder": 6, "Pr\u00e4": 6, "##itu": 12, "##ms": 6, "Pr\u00e4sen": 6, "##\u00fcbung": 0, "dies": 122, "Gramm": 6, "##atik": 10, "liegen": 39, "mg": 4, "Aktiv": 2, "f\u00f6rdern": 22, "einsam": 2, "##mel": 9, "Sach": 30, "##buch": 53, "gerne": 9, "Kita": 13, "Jahrgang": 11, "##sst": 26, "##ufe": 11, "niedrig": 0, "erm\u00f6glichen": 29, "darauf": 30, "gr\u00fcndlich": 9, "Rollen": 71, "##spiel": 78, "Lebensweise": 25, "Stand": 43, "Verk": 21, "##leidung": 21, "schl\u00fc": 21, "##pfen": 21, "Lebens": 38, "##ums": 21, "##tan": 21, "Beginn": 21, "##gruppen": 21, "ausf\u00fchren": 21, "Rahmen": 21, "Qu": 21, "##atsch": 21, "##phase": 34, "Niveau": 25, "fordern": 21, "ad": 25, "##\u00e4qu": 21, "dienen": 57, "okay": 21, "gefallen": 21, "##nach": 21, "sichern": 0, "am": 59, "Zusammenfassung": 48, "\u00fcbers": 27, "einbringen": 27, "##laufen": 21, "wahrscheinlich": 44, "Vorschlag": 29, "Mal": 21, "dein": 86, "Figur": 105, "##sagen": 29, "verhalten": 21, "ausgest": 21, "##alten": 21, "Dialog": 21, "euer": 25, "Smart": 8, "##board": 8, "darstellen": 25, "typisch": 42, "Ausr\u00fcstung": 4, "##steil": 4, "Pferd": 4, "Schwert": 4, "hac": 4, "##ken": 4, "Schwein": 4, "Getreide": 4, "##durch": 25, "vergleichen": 50, "Variante": 4, "Platz": 7, "Tabl": 4, "klass": 23, "la": 8, "##min": 7, "somit": 54, "unbe": 15, "##wu": 15, "rein": 41, "##bringen": 23, "\u00dcberblick": 15, "##up": 6, "##id": 6, "Team": 12, "##sr": 20, "##ollen": 6, "erarbeiten": 10, "recher": 12, "##muster": 30, "Bauern": 6, "mehrere": 17, "Auswahl": 18, "\u00e4": 6, "analog": 6, "sitzen": 6, "\u00e4hnlich": 2, "Tabelle": 6, "fertig": 2, "##f\u00fcllen": 5, "jederzeit": 2, "holen": 2, "wieder": 37, "unterst\u00fctzen": 0, "Alters": 4, "##pla": 11, "erledigen": 4, "Hin": 8, "##f\u00fchrung": 13, "##enken": 20, "Mega": 8, "##poten": 8, "##tial": 8, "reden": 8, "##denken": 8, "wor": 27, "##h\u00f6ren": 13, "gen\u00fcgend": 8, "##f\u00e4higkeit": 8, "##h\u00e4ngen": 8, "verlieren": 8, "diagnost": 0, "n\u00e4mlich": 8, "##frage": 19, "Reihe": 10, "h\u00f6ren": 16, "##\u00fcchtern": 8, "Kollege": 8, "bezahlen": 8, "##eli": 8, "schl": 15, "##au": 8, "Gespr\u00e4ch": 13, "##anteil": 8, "L": 8, "antworten": 12, "mi": 8, "##\u00df": 8, "##brauch": 8, "Reiz": 8, "##geber": 8, "antwor": 8, "erlauben": 37, "Interview": 16, "Fernsehen": 8, "##regen": 72, "Vortrag": 11, "weiter": 36, "##f\u00fchren": 10, "##tragen": 8, "entdecken": 18, "ind": 8, "##uk": 109, "##tiv": 25, "Tisch": 4, "pro": 30, "bringen": 12, "fassen": 8, "darin": 13, "vermuten": 6, "10": 31, "Min": 69, "Zeitungs": 2, "##artikel": 2, "Aussch": 5, "##nitt": 2, "100": 14, "%": 5, "I": 4, "Mur": 7, "##f\u00e4llig": 8, "##aus": 2, "bestehen": 15, "Leit": 11, "Befra": 2, "##gte": 2, "befragt": 2, "tun": 37, "K\u00e4r": 2, "##tchen": 2, "Chance": 2, "ausmachen": 5, "##schlei": 0, "##arbeitungs": 10, "##m\u00f6glichkeit": 10, "\u00fcben": 63, "##satz": 34, "##lesen": 14, "runter": 10, "##bet": 10, "bereit": 21, "wider": 21, "##spiegel": 6, "##and": 40, "Seminar": 13, "##uns": 17, "##ens": 13, "bauen": 13, "##leistung": 13, "akzeptieren": 13, "umfangreich": 13, "Gedanke": 43, "##splan": 13, "Schilder": 13, "wonach": 13, "Haupt": 6, "##rede": 0, "Denk": 5, "Holz": 29, "##stern": 29, "Mathematik": 11, "##unterricht": 108, "Anf": 23, "##order": 23, "Forum": 9, "Praxis": 21, "[": 189, "Nur": 26, "Mo": 118, "]": 167, "f\u00fc": 29, "##gen": 64, "For": 26, "##beitrag": 31, "hinzu": 42, "festgestellt": 26, "Element": 13, "gelangen": 26, "24": 58, "Modell": 94, "Kommunikation": 0, "##alisieren": 0, "Sprache": 116, "Sachver": 4, "nachdenken": 6, "Rechn": 0, "kommunizieren": 43, "Rechen": 0, "##ae": 0, "uns": 79, "sorgen": 62, "\u00dcbersch": 22, "##u\u00df": 22, "problematisch": 34, "##liste": 17, "##arbeits": 0, "Kommun": 0, "##izieren": 4, "Summe": 14, "Tee": 7, "##licht": 7, "Ausgabe": 7, "Brett": 7, "add": 7, "verf\u00fcgbar": 51, "Verf\u00fcg": 0, "##mach": 6, "professionell": 8, "erfahren": 9, "Abschnitt": 9, "Sp": 16, "##ick": 33, "##zettel": 16, "Glo": 3, "##ssa": 3, "darum": 39, "H\u00e4lfte": 4, "verbringen": 4, "bild": 14, "F\u00e4higkeit": 23, "ausw\u00e4hlen": 7, "alter": 7, "##sg": 15, "##erecht": 7, "Kurs": 7, "praktisch": 9, "m\u00f6chten": 38, "beitragen": 2, "Erwerb": 2, "Jahr": 7, "Angebot": 7, "##schul": 23, "##bereich": 34, "stetig": 9, "steigen": 9, "scheinen": 7, "nei": 7, "schul": 58, "Alltag": 75, "angesichts": 12, "hor": 7, "##ren": 9, "##ff": 11, "##kos": 7, "Schul": 39, "explod": 7, "frei": 11, "verk": 7, "##\u00e4uf": 7, "Internet": 7, "detaill": 0, "fund": 4, "notwendig": 7, "beschrieben": 4, "##l\u00e4nge": 4, "Problems": 0, "##tell": 0, "##veranstaltung": 4, "pra": 12, "##xis": 4, "##orientiert": 4, "Verkn\u00fc": 4, "##pfung": 4, "9": 17, "##si": 32, "diskrimin": 8, "##krit": 2, "Diver": 32, "Diskriminierung": 19, "Klicken": 7, "herunterladen": 7, "##oo": 7, "##men": 20, "Zusammenhang": 21, "Mehr": 9, "11": 29, "Komponente": 2, "beding": 2, "Sinn": 42, "Bezug": 26, "National": 2, "Repertoire": 4, "##welt": 22, "Familie": 2, "Medium": 9, "##ref": 24, "##ktiert": 22, "ster": 4, "##eo": 10, "##typ": 17, "##geleitet": 4, "Handeln": 29, "Schuls": 7, "##ystem": 7, "##faktor": 7, "sozial": 45, "Herkunft": 22, "nachweisen": 7, "Beh": 0, "##err": 0, "akadem": 7, "Haushalt": 7, "##system": 10, "erfolglos": 7, "\u00dcberzeugung": 0, "auseinander": 22, "##setzen": 22, "Selbst": 28, "Rassismus": 40, "##bezogen": 0, "institution": 2, "##ell": 62, "##literatur": 18, "h\u00e4ufig": 107, "Ausdruck": 24, "tief": 18, "systematisch": 69, "rass": 21, "##istisch": 32, "Struktur": 74, "ansehen": 18, "heu": 2, "##tig": 2, "pla": 6, "Jahrzehnt": 2, "weshalb": 4, "jemand": 16, "zahl": 5, "##reich": 5, "##konstruktion": 19, "Vielzahl": 8, "##dimension": 8, "Individ": 15, "##uum": 15, "Identit\u00e4t": 27, "pr\u00e4gen": 24, "aufgrund": 99, "##behandlung": 16, "##sse": 14, "Ag": 26, "unters": 8, "##agen": 8, "straf": 8, "##rechtlich": 8, "verfolgen": 11, "Rasse": 11, "Ethn": 8, "##ie": 64, "Geschlecht": 8, "Religion": 8, "Welt": 28, "##ans": 30, "Alter": 8, "Behinderung": 8, "sexuell": 8, "Quelle": 26, "##ese": 32, "Berlin": 29, "Gesetz": 8, "Ausgrenzung": 8, "Ph\u00e4nomen": 47, "Ben": 19, "##achteil": 19, "12": 30, "ergeben": 3, "##rel": 3, "##ev": 3, "##ant": 14, "##eg": 0, "##orie": 0, "gezielt": 43, "\u2014": 6, "Tu": 6, "Dresden": 6, "tu": 3, "dre": 3, "##sd": 3, "d": 46, "Schule": 18, "hinaus": 29, "Dimension": 135, "Brand": 24, "Hab": 6, "Beg": 6, "##abu": 6, "Leistungs": 9, "bedeut": 6, "##sam": 6, "He": 6, "##ogen": 6, "##it\u00e4ts": 6, "##merkmale": 6, "2017": 13, "20": 23, "beachten": 0, "Leben": 13, "13": 31, "Lehre": 6, "Position": 20, "##ner": 54, "gesellschaft": 6, "Verh\u00e4ltnis": 6, "##linie": 6, "Methodik": 12, "zumeist": 12, "setzen": 15, "oftmals": 35, "verg": 12, "##egen": 12, "##w\u00e4rtig": 12, "inwieweit": 12, "##real": 15, "##it\u00e4t": 45, "Mit": 12, "weiterer": 14, "korre": 0, "##sp": 0, "##ond": 0, "Folge": 11, "lern": 7, "verh\u00e4lt": 0, "##nis": 0, "ausreichend": 5, "refle": 34, "##ktieren": 34, "##format": 16, "schlimm": 16, "sogar": 23, "Nad": 19, "##ol": 32, "##ny": 16, "Stefan": 16, "2021": 32, "##sek": 24, "##tional": 27, "politisch": 19, "15": 23, "ersch": 7, "##weren": 7, "##kommen": 7, "stets": 32, "Kombination": 7, "auftreten": 7, "##r\u00e4nkt": 0, "geschehen": 14, "Online": 2, "H": 18, "##ttp": 2, "www": 9, "ro": 2, "##ux": 2, "publ": 2, "##ikation": 2, "375": 2, "##78": 2, "##ita": 2, "zuletzt": 2, "pr\u00fcfen": 2, "01": 2, "07": 2, "Besch\u00e4ftigung": 2, "gelten": 37, "P\u00e4dagog": 36, "besch\u00e4ftigen": 31, "Zugeh\u00f6rigkeit": 9, "Spannungs": 0, "##verh\u00e4ltnis": 0, "individuell": 5, "Faktor": 0, "Herrschafts": 0, "##ef": 0, "##fekt": 0, "Mart": 7, "Busch": 7, "\u00ab": 24, "Sub": 7, "##jekt": 7, "\u00bb": 24, "Pers\u00f6nlichkeit": 11, "##sent": 11, "##wicklung": 11, "Lage": 7, "Er": 19, "##achten": 16, "Kompetenz": 22, "Komplexit\u00e4t": 14, "Viel": 16, "##schicht": 16, "Anlehnung": 30, "Andreas": 4, "Fo": 4, "##itz": 4, "vielmehr": 4, "eleg": 4, "scheiter": 4, "14": 11, "Handlungs": 8, "trotz": 4, "##icherheit": 4, "p\u00e4dagog": 32, "Weise": 6, "f\u00f6rder": 20, "Angst": 30, "mei": 14, "##den": 14, "Deb": 14, "Katharina": 14, "Stu": 14, "##ve": 14, "Olaf": 14, "Scheitern": 14, "##heit": 25, "gegen": 34, "Neut": 14, "##ral": 54, "##anst": 2, "##o\u00df": 2, "Wert": 2, "##freiheit": 7, "Grundsatz": 2, "##verst\u00e4ndnis": 2, "metho": 9, "##dis": 9, "Dog": 2, "dauerhaft": 2, "aufta": 2, "Ungleich": 2, "##heits": 2, "priv": 2, "##ileg": 2, "\u2013": 151, "Kosten": 6, "gesteckt": 2, "Regel": 12, "##sprechen": 2, "##uss": 9, "##folger": 7, "zun\u00e4chst": 41, "Wider": 0, "##here": 19, "offen": 9, "Verhalten": 4, "18": 34, "23": 11, "beziehen": 41, "Privileg": 12, "bew": 16, "##ussen": 16, "##ierte": 4, "luxuri": 4, "##\u00f6s": 7, "Situation": 70, "Reduzierung": 4, "Ster": 6, "##isierung": 9, "Gewalt": 4, "Marg": 4, "##ina": 4, "##li": 4, "##rte": 4, "Gut": 4, "lustig": 4, "f\u00fchlen": 12, "Un": 3, "konvention": 3, "Ice": 3, "##rd": 3, "1966": 3, "Haut": 7, "##farbe": 7, "Abstammung": 3, "national": 6, "Ursprung": 3, "Volks": 3, "##tum": 3, "beruhen": 3, "Unterscheidung": 3, "##lie\u00df": 3, "Beschr\u00e4nkung": 3, "Bevor": 3, "dadurch": 12, "##berechtigt": 3, "An": 5, "##erkennen": 3, "Genie\u00dfen": 3, "aus\u00fcben": 3, "Menschen": 3, "##recht": 3, "wirtschaftlich": 3, "kultur": 3, "\u00f6ffentlich": 3, "ver": 3, "##eite": 3, "beeintr\u00e4chtigen": 24, "abs": 5, "bemerken": 12, "Kategor": 3, "entlang": 3, "sog": 3, "aufrechter": 3, "sub": 3, "##jektiv": 3, "Wahrnehmung": 3, "verh": 23, "##\u00e4rten": 3, "impl": 46, "##rasse": 0, "wissenschaft": 4, "halt": 4, "Nach": 6, "##ew": 3, "##erk": 3, "Susan": 3, "Arn": 3, "##dt": 3, "##ja": 3, "Of": 3, "##ua": 3, "##y": 18, "al": 3, "##azar": 3, "vorschlagen": 3, "17": 15, "definieren": 6, "ra": 3, "##cis": 3, "##m": 14, "Pre": 3, "##ju": 3, "##di": 18, "##ce": 7, "Power": 3, "Rass": 0, "##ismen": 0, "##stuf": 23, "Bewertung": 11, "Macht": 11, "##ismus": 0, "geh\u00f6ren": 19, "##willig": 3, "##urteil": 3, "handeln": 3, "echt": 3, "vorliegen": 16, "ungleich": 4, "behandeln": 4, "##leich": 4, "er": 61, "Wei\u00df": 4, "##sein": 6, "bestimmt": 74, "genie\u00dfen": 4, "kontro": 4, "##vers": 4, "unterscheiden": 9, "Abbildung": 16, "Ali": 4, "Val": 4, "##jen": 4, "na": 4, "##zi": 4, "net": 4, "##ap": 4, "Ex": 4, "##kurs": 6, "positiv": 12, "19": 9, "eng": 7, "ethn": 7, "verwandt": 4, "Konzept": 6, "\u00f6fter": 6, "is": 13, "Look": 9, "Aussehen": 9, "##ili": 9, "Gesundheit": 9, "Ad": 18, "##ult": 16, "jung": 9, "Antisemitismus": 9, "Klass": 20, "Schicht": 17, "Tran": 9, "feind": 9, "##kei": 9, "Sex": 9, "Gen": 9, "##der": 9, "##eis": 18, "Alte": 9, "anti": 9, "##mus": 9, "##lim": 9, "Islam": 9, "##feind": 9, "Hom": 13, "##oph": 13, "##obi": 13, "Anti": 9, "##zig": 9, "##ani": 9, "Rom": 9, "Sin": 9, "Lin": 20, "##gu": 22, "##iz": 35, "gewalt": 7, "gering": 17, "Liter": 7, "##alit\u00e4t": 7, "##serfahrung": 7, "nieders": 7, "##lagen": 7, "##weisung": 13, "##f\u00f6rderung": 7, "irre": 10, "##lev": 7, "Ak": 17, "##zent": 22, "Aussprache": 12, "##gew": 7, "##ohn": 7, "wesentlich": 16, "Ot": 2, "##her": 56, "##ing": 101, "Kultur": 6, "##alisierung": 11, "Mech": 15, "##eri": 15, "Dir": 3, "##im": 3, "Mel": 3, "2010": 59, "42": 3, "det": 3, "Erkl\u00e4rung": 48, "Handlung": 37, "Einstellung": 3, "Konflikt": 3, "##sweise": 3, "Dich": 2, "##oto": 2, "##mi": 46, "Zweite": 2, "##il": 2, "Gesellschaft": 2, "Zuge": 2, "##h\u00f6rige": 4, "Nicht": 2, "zuge": 2, "verst\u00e4rkt": 2, "Zusch": 2, "##reibung": 2, "##produz": 2, "bedeuten": 8, "Ru": 4, "ko": 85, "Ne": 4, "##o": 4, "Datei": 4, "vielf\u00e4ltig": 8, "Dialekt": 10, "##\u00e4tzen": 19, "##tritt": 10, "##sem": 12, "##pfe": 10, "##hl": 10, "Gymnasium": 10, "erteilen": 10, "101": 12, "hinweg": 12, "Anerkennung": 5, "mitgebracht": 0, "##ibel": 4, "agieren": 0, "bek\u00e4mpfen": 12, "##pr\u00e4": 0, "##gung": 0, "annehmen": 14, "potenzie": 3, "##eh": 5, "##\u00f6r": 5, "dr\u00fccken": 0, "ohn": 0, "##m\u00e4chtig": 0, "Opfer": 0, "##rolle": 0, "##erb": 2, "##zwei": 0, "##fel": 0, "best\u00e4": 7, "emp": 0, "##ath": 0, "kompens": 0, "Betroffene": 0, "Verfasst": 0, "Fortbildung": 26, "besuchen": 20, "Gesellschafts": 20, "##zusammen": 20, "##hang": 20, "##\u00fcr": 0, "dem": 0, "r": 9, "wecken": 0, "Hoffnung": 0, "sit": 20, "##ui": 45, "##ert": 46, "Lehrer": 22, "##arm": 20, "##losen": 20, "2016": 20, "stand": 20, "web": 20, "p": 70, "##df": 64, "##tu": 44, "do": 25, "or": 20, "wirksam": 22, "Werkzeug": 2, "beispielsweise": 18, "Id": 4, "##b": 8, "##tage": 2, "##freie": 2, "|": 2, "Institut": 2, "Bildung": 31, "generell": 2, "Anlauf": 2, "##stelle": 2, "##klus": 4, "Demokratie": 4, "Wirtschafts": 4, "##unternehmen": 4, "Bew": 16, "##usste": 4, "##reh": 4, "F\u00f6rderung": 4, "sau": 26, "##ul": 4, "##able": 4, "derjenige": 4, "Landes": 4, "##anti": 4, "##rimin": 4, "##gesetz": 4, "62": 4, "##1": 4, "##fu": 4, "##bi": 4, "fu": 8, "bit": 4, "##stream": 4, "hand": 4, "##18": 4, "##8": 4, "169": 4, "##70": 4, "##dg": 4, "se": 7, "##quen": 4, "Isa": 4, "##we": 4, "y": 4, "##sk": 0, "##rit": 0, "unterrichten": 0, "beginnen": 15, "folglich": 10, "kolle": 4, "##gia": 4, "Beratung": 4, "Ereignis": 4, "nachtr\u00e4glich": 4, "k\u00fcnftig": 4, "inkl": 0, "sensi": 0, "##bel": 0, "Gegenstand": 13, "beinhalten": 39, "Schulen": 17, "##tw": 17, "##lung": 17, "demokrat": 5, "Stimme": 5, "##zieht": 5, "bef": 5, "##ragen": 5, "verringern": 0, "Mehrfach": 2, "anerkennen": 0, "oft": 48, "##wirken": 2, "organisieren": 4, "Erzieher": 3, "ihm": 3, "Zugang": 3, "verschaffen": 3, "wert": 3, "##\u00e4tzt": 3, "wahrnehmen": 24, "hin": 2, "##usst": 2, "##sei": 5, "##binden": 2, "fot": 2, "enorm": 2, "beschr\u00e4nken": 6, "Noten": 2, "##gebung": 2, "Sel": 2, "##ekt": 2, "F\u00f6rder": 2, "##ma\u00dfnahme": 2, "21": 113, "sp\u00e4testens": 18, "Sekundar": 20, "bal": 18, "treffen": 18, "meiste": 25, "##rn": 25, "Ausbau": 0, "##kompetenz": 3, "verf\u00fcgen": 15, "gewinnen": 3, "Mithilfe": 3, "Schm": 9, "##\u00f6lzer": 9, "eib": 9, "2006": 9, "179": 9, "Lauf": 17, "sechs": 9, "kon": 0, "##zeption": 0, "vertraut": 0, "separ": 33, "heran": 2, "aufweisen": 2, "##spezif": 2, "erweitert": 2, "Res": 0, "##so": 0, "##urce": 0, "zur\u00fcck": 10, "##greifen": 139, "##alisch": 4, "Bestimmung": 0, "Hindernis": 0, "##planung": 3, "beanspr": 3, "unge": 11, "warten": 3, "Anzeichen": 3, "Ges": 4, "##agte": 4, "##ulierung": 0, "##uen": 4, "stattdessen": 2, "sk": 6, "##izz": 6, "solch": 58, "bew\u00e4ltigen": 0, "Autor": 4, "vorlegen": 4, "##ungsbereich": 14, "##decken": 2, "Ausf\u00fchrung": 9, "Video": 127, "Zweck": 16, "Feld": 0, "##grenzen": 24, "W": 34, "##dh": 32, "Ba": 32, "Genre": 0, "Verst\u00e4ndnis": 18, "schriftlich": 57, "f\u00fcnf": 2, "vorgeschlagen": 2, "##inter": 0, "Vert": 11, "##ief": 11, "##gn": 91, "##itiv": 81, "Operation": 2, "2014": 27, "bezeichnen": 52, "ausgel\u00f6st": 6, "Verbindung": 3, "dahinter": 3, "##struktur": 6, "verarbeiten": 5, "##geben": 19, "invol": 7, "##vier": 7, "##ichern": 2, "dementsprechend": 7, "Festlegung": 0, "festlegen": 9, "##antwort": 17, "erforderlich": 14, "s\u00e4": 9, "vorkommen": 18, "deswegen": 4, "integrieren": 4, "welches": 3, "existieren": 3, "##uster": 0, "##iell": 8, "ka": 6, "##usa": 6, "multi": 3, "Wirkung": 5, "Qualit\u00e4t": 8, "erh\u00f6hen": 25, "Nomin": 8, "Pass": 8, "etc": 42, "pl": 24, "##uri": 33, "##lit": 33, "##era": 33, "##ci": 33, "ec": 17, "##ml": 17, "at": 24, "port": 8, "##als": 8, "54": 8, "##utt": 8, "app": 8, "##ro": 13, "##ach": 8, "into": 8, "##ctic": 8, "##erst": 23, "nah": 11, "bedienen": 11, "Schreiben": 2, "Sprechen": 0, "##p\u00e4dagog": 9, "##ener": 0, "Bearbeitung": 0, "initi": 0, "lenken": 16, "2019": 8, "D": 19, "R": 6, "erfordern": 3, "Chron": 3, "##ologie": 3, "Versuchs": 3, "zuerst": 3, "Vordergrund": 3, "hinten": 3, "ausdr\u00fcck": 7, "Regelung": 3, "Versuch": 14, "##ordnung": 3, "pr\u00fc": 3, "##fungs": 3, "Rep": 3, "##rod": 3, "Transfer": 3, "##organisation": 3, "sicherlich": 13, "Lehren": 9, "verst\u00e4nd": 3, "##bahnen": 3, "gew\u00e4hrleisten": 26, "theoretisch": 0, "Fund": 0, "Referenz": 0, "realisiert": 0, "etwa": 35, "2002": 36, "Tax": 26, "##onom": 26, "##i": 56, "grundlegend": 34, "verschw": 26, "Realisierung": 0, "untersuchen": 26, "indirekt": 6, "##izit": 42, "erscheinen": 20, "meistens": 2, "erwartet": 4, "Inst": 27, "##ru": 27, "##ktion": 27, "16": 34, "Projekt": 12, "Merc": 12, "Zeichen": 2, "int": 57, "vornehmen": 18, "##merk": 0, "##mal": 15, "bewusst": 9, "##sch\u00fcler": 0, "Ca": 67, "zusammenh\u00e4ngen": 0, "##zip": 7, "diesbez\u00fcglich": 4, "erw\u00e4hnt": 14, "##se": 21, "einher": 5, "##gehend": 0, "##\u00fc": 0, "Nam": 9, "Statistik": 9, "Lex": 3, "##ikon": 3, "##eint": 6, "##rag": 6, "W\u00f6rter": 3, "Bra": 3, "##inst": 3, "Mind": 3, "Des": 3, "##cr": 3, "Inhalts": 3, "##wieder": 43, "##gabe": 3, "Sum": 3, "##mar": 3, "##erz": 3, "##\u00e4hl": 3, "Gebrauch": 6, "##san": 6, "Anteil": 21, "User": 3, "Man": 3, "##ual": 43, "diskon": 6, "##tinuier": 6, "Dia": 3, "##gramm": 3, "Bericht": 15, "Zeitung": 3, "Radio": 3, "Fe": 3, "##ature": 3, "Protokoll": 3, "##modell": 6, "Bewerbung": 3, "Expl": 3, "##ain": 3, "Grafik": 5, "Refer": 3, "Hypoth": 3, "begr\u00fcndet": 3, "Vorher": 12, "##sage": 3, "Conc": 3, "##ep": 3, "Argument": 31, "Arg": 3, "##\u00f6rter": 3, "##tat": 3, "Ess": 8, "##ay": 8, "Tra": 3, "Quellen": 3, "Bes": 3, "##innung": 3, "##sau": 3, "##fs": 3, "ev": 13, "##iden": 3, "##zb": 3, "##asi": 3, "Natur": 3, "##wissenschaft": 5, "Interpretation": 3, "##utung": 3, "fik": 3, "viert": 3, "##ige": 3, "##\u00fcndel": 3, "Bachelor": 7, "##re": 13, "##strategie": 0, "Koh": 0, "##\u00e4ren": 0, "Int": 12, "Strategie": 40, "\u00fcblicherweise": 2, "lin": 2, "korrekt": 9, "endlich": 8, "tauchen": 8, "auff\u00e4llig": 8, "##atisch": 42, "kommun": 0, "##ikat": 0, "##sb": 0, "##erei": 0, "##ktik": 3, "##fertig": 8, "Fertig": 30, "m": 5, "##dl": 5, "H\u00f6ren": 0, "gelungen": 5, "ausgehend": 5, "Pl": 9, "A": 18, "Fak": 2, "C": 12, "inne": 5, "##tik": 25, "e": 25, "eignen": 28, "F": 25, "worauf": 25, "legen": 38, "##termin": 25, "Tipp": 36, "zum": 25, "verbessern": 38, "Beweis": 0, "Gelegenheit": 17, "##reichte": 0, "##fort": 0, "messen": 0, "Erg\u00e4nzung": 9, "Gel": 4, "##ernte": 4, "Vermittlung": 0, "##rufen": 5, "steuern": 5, "Ko": 0, "##ition": 0, "anwenden": 12, "mer": 7, "##cat": 7, "##or": 7, "con": 7, "##tent": 7, "##lo": 7, "##ads": 7, "allen": 7, "fa": 7, "##ech": 7, "##ern": 10, "Not": 15, "begegnen": 3, "Tag": 3, "Sport": 3, "kennen": 63, "Name": 2, "Begriffs": 3, "##kl\u00e4rung": 3, "zeitlich": 3, "begrenzt": 3, "##ziell": 3, "Unterst\u00fctzungs": 6, "##ker": 3, "f": 3, "2015": 5, "84": 3, "Ger": 0, "##\u00fcst": 0, "selbstst\u00e4ndig": 0, "bewegen": 0, "Pauli": 18, "##ne": 18, "Gib": 35, "##bon": 35, "\u00fcbertragen": 10, "Josef": 10, "leise": 10, "28": 80, "kalk": 20, "hingegen": 20, "##ozi": 10, "Fr": 20, "##ustr": 20, "Zone": 20, "##versuch": 10, "##f\u00fchl": 10, "So": 18, "##das": 18, "optimal": 10, "##situation": 20, "eigentlich": 18, "Aufrechter": 0, "Development": 10, "Offensive": 0, "##praxis": 5, "prinzip": 13, "Instrument": 10, "Erwerbs": 2, "voran": 10, "##melde": 0, "##technische": 0, "zweit": 13, "##ebene": 8, "durchaus": 15, "st\u00e4ndig": 4, "##person": 4, "Reduktion": 4, "zugunsten": 4, "Um": 4, "##kehr": 4, "Front": 4, "lang": 72, "##put": 4, "Mikro": 5, "Mak": 4, "##ros": 4, "##ca": 4, "Phase": 25, "neben": 23, "hierzu": 11, "verst\u00e4ndlich": 0, "##erium": 0, "formuliert": 0, "Teile": 4, "##ment": 4, "Bedarf": 0, "##stands": 10, "##let": 4, "##zt": 4, "aktuell": 8, "ermitteln": 2, "behalten": 0, "genannt": 23, "Geben": 13, "umfassen": 39, "Gesamtheit": 13, "##technik": 0, "##st\u00e4ndigkeit": 0, "Methoden": 2, "##vielfalt": 2, "##sc": 3, "plan": 2, "##gespr\u00e4ch": 42, "unvor": 2, "##gesehen": 2, "##schwier": 2, "Ho": 2, "##c": 2, "reagieren": 57, "hierbei": 8, "Technik": 47, "##kommun": 0, "mitge": 8, "##stal": 8, "unvoll": 2, "##st\u00e4ndig": 2, "Ahnung": 2, "##vor": 2, "vertrauen": 2, "Grundlage": 9, "bieten": 39, "Sog": 48, "##ding": 2, "The": 4, "Lang": 2, "##uage": 2, "Cur": 2, "##ric": 2, "##ulu": 2, "##gl": 26, "121": 2, "##f\u00fchrende": 3, "##rw": 5, "Beachtung": 3, "entwickeln": 12, "wof\u00fcr": 6, "bedenken": 6, "geleitet": 21, "\u00dcbersicht": 21, "Goethe": 21, "inst": 21, "##itut": 21, "Be": 21, "Et": 21, "Al": 21, "35": 21, "beherrschen": 21, "eingesetzt": 21, "Schreib": 25, "besonder": 21, "##verk": 0, "langfristig": 21, "Zuwachs": 0, "bewirken": 7, "##n\u00f6": 7, "sicherstellen": 4, "##disziplin": 4, "Zir": 14, "##kel": 14, "Leistung": 19, "Falle": 2, "Poly": 2, "##ium": 24, "##handen": 2, "Bedeutung": 19, "Kunst": 2, "Ge": 2, "##ometrie": 2, "umso": 5, "Kl\u00e4r": 46, "##\u00e4ltigung": 10, "gerecht": 4, "Tool": 4, "##entscheidung": 2, "Kasten": 3, "gesamt": 25, "##vorgang": 2, "M\u00fcnster": 4, "Wa": 2, "Verlag": 2, "49": 2, "##instrument": 29, "erw\u00e4hnen": 18, "berichten": 4, "Studierende": 2, "Master": 2, "parallel": 2, "laufen": 2, "gestellt": 2, "anders": 2, "inten": 2, "##die": 2, "System": 6, "Konkret": 33, "##isierungs": 33, "##ras": 49, "Hilfsmittel": 6, "geeignet": 6, "sogen": 6, "##annt": 6, "vorab": 4, "Rast": 4, "altern": 2, "befassen": 2, "n\u00e4chst": 2, "Unter": 7, "Grundschule": 4, "sim": 0, "##pel": 0, "Zwischen": 2, "Modul": 4, "##abschluss": 4, "##pr\u00fcfung": 4, "\u00fcbersehen": 15, "Abgabe": 4, "Vorteil": 9, "##proben": 21, "##eignet": 8, "lo": 8, "##hnen": 8, "Verwendung": 8, "Erfinder": 8, "ebenso": 22, "durchf\u00fchren": 8, "verkehren": 8, "Bord": 5, "Erl\u00e4u": 14, "##terung": 14, "##verw": 53, "##endung": 47, "Publikation": 7, "##bene": 18, "Neben": 0, "##s\u00e4tz": 0, "Trick": 6, "##best": 6, "Englisch": 6, "Franz\u00f6sisch": 6, "Erst": 6, "pl\u00f6tzlich": 4, "Deutsche": 4, "##h\u00fc": 0, "herausfinden": 26, "Unterseite": 5, "hilfreich": 14, "##wn": 5, "ar": 5, "##row": 5, "Nutzen": 5, "ange": 5, "##h\u00e4ngt": 5, "P": 5, "dat": 5, "##eie": 5, "Hinweis": 44, "Kollegin": 12, "Dr": 6, "Maria": 12, "Gro\u00dfe": 12, "##gaben": 6, "link": 24, "ti": 24, "frage": 2, "Konzentration": 0, "Schacht": 0, "##els": 0, "Eind": 0, "##eu": 0, "##tigkeit": 0, "##deu": 0, "##fra": 0, "##cht": 0, "Ei": 24, "60": 24, "dazuge": 24, "##h\u00f6r": 24, "##kur": 24, "Erinnerung": 40, "##sw": 40, "ausgew\u00e4hlt": 40, "sc": 0, "Bitte": 62, "Pr\u00e4z": 2, "Zug": 43, "##zwang": 43, "Ziels": 84, "##tr": 84, "##tur": 84, "Kontrast": 0, "##vergleich": 54, "##ingu": 40, "##ling": 40, "##kunft": 46, "\u00c4u\u00dfer": 56, "wiederauf": 89, "korrig": 91, "Wieder": 89, "##holen": 89, "ziel": 2, "##cast": 40, "##wahl": 49, "Aufforderung": 19, "##kor": 14, "##rektur": 14, "Verweis": 80, "Eliz": 40, "##iti": 40, "##erung": 40, "##holung": 40, "Einsatz": 40, "Mi": 44, "##k": 46, "Gest": 44, "26": 133, "Folgende": 40, "Einf\u00fchrung": 45, "##sv": 45, "##ideo": 45, "Daniela": 52, "Rotter": 52, "ow": 80, "##ituation": 0, "##altern": 0, "##ative": 0, "Motiv": 0, "o": 21, "##sz": 3, "##ena": 3, "##rio": 3, "Ma\u00dfnahme": 0, "F\u00fchrung": 0, "erleichtern": 5, "##\u00fchrung": 5, "ber\u00fchren": 5, "veran": 5, "##schau": 5, "gleichzeitig": 3, "person": 5, "Steuerung": 5, "Lei": 5, "##iede": 5, "Nacht": 2, "Unsicherheit": 0, "##wissenschaftler": 9, "Knapp": 9, "beobachten": 14, "vielfach": 9, "\u00fcbersch": 14, "konzentrieren": 17, "##sich": 5, "orientieren": 15, "##tre": 8, "##tags": 18, "nett": 6, "l\u00e4": 6, "##che": 6, "ni": 6, "##cken": 6, "schnell": 22, "unent": 0, "Version": 6, "voll": 10, "par": 6, "##aver": 6, "##bal": 6, "##tem": 0, "##po": 2, "Beton": 0, "##pause": 0, "Beziehung": 9, "##sebene": 9, "Gestaltung": 0, "##gst": 0, "##frei": 0, "ermu": 4, "##nte": 0, "\u00e4u\u00dfern": 7, "ak": 5, "langsam": 5, "gew\u00e4hren": 5, "Werkzeuge": 12, "##schullehrer": 0, "40": 12, "einer": 49, "ziemlich": 0, "zust": 0, "##ehen": 0, "Perspektive": 2, "##arch": 2, "as": 2, "##ym": 2, "##met": 2, "##ris": 2, "sozio": 5, "##kultur": 10, "##theorie": 5, "konstru": 0, "##l\u00f6sen": 7, "erzeugen": 5, "anscheinend": 5, "##erg": 5, "frag": 5, "konstruiert": 5, "traditionell": 5, "##\u00e4g": 3, "##sver": 0, "bitten": 2, "##10": 2, "ver\u00e4ndern": 2, "Zeitpunkt": 19, "verhaf": 2, "##ier": 13, "Vermutung": 2, "Kon": 2, "##junkt": 2, "##11": 2, "Schwe": 2, "##nk": 2, "Akte": 2, "##ur": 9, "natur": 0, "##ug": 0, "Erkenntnis": 11, "verp": 11, "##acken": 11, "Br\u00fccke": 3, "pers\u00f6nlich": 3, "allt\u00e4": 3, "##glich": 3, "Erk": 3, "##skon": 3, "##struktion": 3, "##information": 3, "ann\u00e4h": 3, "##elli": 12, "##atten": 12, "sinn": 0, "##stift": 0, "##end": 0, "vorgestellt": 10, "##xi": 10, "Entwicklung": 10, "einerseits": 2, "konfron": 2, "andererseits": 2, "kaum": 6, "produ": 6, "trennen": 0, "##zeigen": 0, "Cor": 0, "##ction": 0, "eventuell": 11, "blo\u00df": 11, "##stellen": 15, "Interesse": 0, "automatisch": 11, "Sicherheit": 3, "keiner": 5, "Regen": 3, "unauf": 0, "##dring": 0, "nebenbei": 0, "res": 0, "##ns": 0, "##cho": 0, "halb": 11, "Nenn": 2, "anstelle": 0, "Prom": 0, "zufrieden": 10, "bekommen": 6, "anstatt": 3, "Nutzung": 0, "du": 15, "##und": 0, "Themen": 22, "##gebrauch": 22, "##rieb": 22, "##med": 22, "##w\u00e4l": 3, "##zen": 3, "##\u00e4r": 3, "##fen": 13, "##echsel": 0, "Option": 4, "empfehlen": 4, "Periode": 46, "##auer": 4, "Schau": 7, "##ions": 0, "##bewusst": 3, "Aufmerksamkeit": 3, "##sl": 3, "##enkung": 3, "Inner": 4, "Di": 4, "##\u00e4t": 4, "Abgeordnete": 4, "##andt": 6, "##schaft": 6, "Alkohol": 6, "Chemie": 6, "End": 6, "Suf": 8, "##fi": 8, "##quis": 2, "##it": 2, "##ki": 2, "##tt": 2, "##dest": 2, "##ph": 2, "##on": 2, "begleiten": 2, "Sprachen": 2, "##omen": 2, "wel": 2, "Komposition": 2, "Der": 2, "##iva": 2, "aller": 2, "##las": 2, "funktionieren": 2, "Kor": 11, "##ktive": 11, "fehler": 16, "##haft": 16, "Korrektur": 2, "Monitor": 10, "##ona": 4, "wiederholen": 4, "kalt": 6, "Metall": 3, "##platte": 3, "ert": 3, "##rinken": 3, "dauern": 38, "Sekunde": 38, "Hand": 14, "##bewegung": 14, "Heb": 14, "Augen": 14, "##bra": 14, "##ue": 14, "aufmerksam": 14, "Studium": 13, "bisher": 26, "vorgehen": 0, "##lehr": 2, "he": 0, "##mmen": 0, "Umstand": 14, "Foss": 0, "Abbruch": 14, "Sta": 0, "##gna": 5, "erworben": 0, "##brechen": 2, "demnach": 11, "werfen": 0, "verde": 11, "##utlich": 11, "gleicherma\u00dfen": 4, "Defizit": 2, "St\u00e4rke": 2, "Ressourcen": 5, "##blick": 5, "sch\u00e4r": 10, "##\u00fcler": 0, "##freundlich": 0, "##verh": 0, "##alte": 0, "etablieren": 0, "Einsicht": 5, "durchsetzen": 5, "dokumen": 2, "Studie": 4, "Zweit": 2, "Kas": 2, "##bau": 0, "beeinfl": 2, "##rate": 0, "##gie": 0, "Auge": 9, "##\u00e4u\u00dfer": 0, "beurteilen": 15, "herange": 10, "##dia": 10, "##ose": 10, "Ann\u00e4herung": 0, "regelm\u00e4\u00dfig": 21, "neutr": 0, "gegen\u00fcber": 17, "x": 19, "##nor": 0, "##ient": 0, "flexibel": 7, "Fol": 32, "##ien": 16, "##ly": 16, "##ruf": 16, "Kriterien": 16, "verf": 0, "##\u00e4l": 0, "unum": 16, "##g\u00e4ng": 16, "kritisieren": 3, "Zielsetzung": 2, "anpassen": 0, "cu": 0, "##rr": 0, "##ic": 0, "##ular": 0, "davon": 17, "Erhebung": 15, "Anregung": 15, "le": 15, "##hre": 15, "##rf": 15, "##ort": 15, "22": 15, "##orientierte": 0, "E": 15, "Aller": 15, "Verw": 0, "##enden": 0, "basierend": 6, "auswirken": 0, "registrieren": 6, "V": 3, "2007": 3, "##verst\u00e4ndlich": 3, "erinnern": 7, "R\u00fcckgabe": 7, "Klaus": 7, "Schulzeit": 7, "##f\u00f6rder": 0, "Auseinander": 0, "eil": 3, "##tiert": 6, "##abelle": 3, "real": 9, "Halbjahr": 9, "melden": 5, "##art": 5, "sodass": 5, "##zu": 5, "##wachs": 5, "ausgehen": 5, "##inn": 0, "probieren": 3, "##abell": 3, "Transparenz": 0, "Memor": 12, "L\u00f6sungs": 2, "Y": 2, "Leg": 2, "##esp": 2, "##iel": 2, "Realit\u00e4t": 2, "Math": 2, "Zahl": 2, "verlangen": 2, "Ver": 2, "##r\u00e4ts": 2, "##eln": 2, "cle": 4, "##ver": 4, "##wand": 8, "Behauptung": 13, "aufeinander": 4, "enden": 4, "Schw\u00e4che": 4, "Papier": 9, "gelegentlich": 4, "Mangel": 0, "##tigen": 4, "##zentrum": 4, "Anspruch": 4, "Er\u00f6ffnung": 4, "Sorge": 4, "verraten": 4, "Philosophie": 4, "Sache": 4, "Sens": 4, "Erm": 4, "##angel": 4, "Standard": 4, "beeindruckt": 5, "pr\u00e4": 5, "##grenze": 5, "verdienen": 5, "au\u00dferhalb": 5, "Absatz": 5, "ausschlie\u00dflich": 5, "##\u00fcss": 5, "Fett": 5, "Auftrag": 5, "gro\u00dfartig": 5, "##imi": 5, "##nier": 5, "Linie": 5, "Philosoph": 5, "interessant": 0, "inform": 0, "Theo": 6, "##ret": 6, "##iker": 6, "##ana": 6, "##s\u00e4tzlich": 6, "Standpunkt": 6, "unterm": 6, "##auern": 6, "Vorsicht": 0, "wa": 0, "##lt": 0, "Hed": 0, "##ging": 0, "Schluss": 0, "Mitarbeiter": 2, "ausbauen": 6, "bed": 2, "##\u00fcrf": 2, "wohin": 3, "Organisation": 0, "Le": 0, "##\u00fcre": 0}, "B-Feedback_Criteria": {":": 0, "ye": 0, "##llo": 0, "##w": 0, "_": 0, "cir": 0, "##cle": 0, "3": 0, ")": 0, "Analyse": 23, "##rahmen": 0, "zur": 0, "Sprach": 480, "##lichkeit": 2, "des": 0, "Fach": 35, "##lernen": 0, "##s": 3, "(": 0, "angel": 0, "##ehnt": 0, "an": 71, "Ta": 0, "##jm": 0, "##el": 0, "&": 0, "Voll": 0, "##mer": 0, "/": 0, "Th\u00fcr": 0, "##mann": 0, ";": 0, "Lo": 0, "##hs": 0, "##e": 59, "1": 0, ".": 0, "Gibt": 0, "es": 0, "sprach": 978, "##liche": 147, "H\u00fcrden": 0, ",": 0, "die": 0, "das": 0, "fach": 55, "Lernen": 0, "beh": 0, "##indern": 0, "k\u00f6nnten": 0, "?": 0, "2": 0, "Lern": 71, "##gelegen": 20, "##heiten": 15, "in": 22, "der": 42, "Stunde": 0, "f\u00fcr": 21, "typische": 66, "\u201e": 10, "Ritu": 0, "##ale": 0, "\u201c": 0, "Unterricht": 87, "##liches": 105, "##handel": 0, "##n": 34, "Typ": 0, "##ische": 0, "Disk": 221, "##urs": 221, "##funktionen": 66, "Materialien": 66, "Rezeption": 0, "Mittel": 27, "Produktion": 2, "Zu": 66, "erstellen": 0, "##de": 43, "Texte": 0, "\u2022": 0, "Muss": 0, "m\u00fcnd": 108, "Unterrichts": 66, "-": 46, "inter": 10, "##aktion": 33, "gest\u00fctzt": 0, "werden": 0, "M\u00fc": 0, "##ssen": 0, "SU": 66, "##S": 66, "Informationen": 0, "besch": 0, "##affen": 0, "eine": 0, "Ergebnis": 141, "##pr\u00e4sent": 91, "##ation": 95, "##lich": 918, "Ist": 0, "Met": 74, "##ako": 74, "##mm": 117, "##uni": 74, "##kat": 74, "##ion": 209, "\u00fcber": 4, "##prozess": 0, "geplant": 9, "Wie": 0, "gehe": 66, "ich": 0, "mit": 82, "Fehler": 56, "um": 0, "K\u00f6nnen": 0, "##er": 17, "im": 0, "Laufe": 0, "##funktion": 150, "ein": 31, "##\u00fcben": 0, "Etwas": 0, "beschreiben": 0, "erkl\u00e4ren": 9, "diskutieren": 0, "aus": 0, "argumen": 0, "##tieren": 0, "oder": 0, "bewerten": 0, "Spiel": 83, "##t": 121, "Text": 143, "##sor": 27, "##te": 0, "Rolle": 0, "deren": 0, "Merkmale": 0, "explizit": 0, "gemacht": 0, "m\u00fcssen": 0, "re": 69, "##zept": 95, "##iven": 66, "Kern": 0, "##wort": 2, "sch": 18, "##atz": 0, "unbekannt": 0, "ist": 0, "Stehen": 66, "bestimmte": 0, "##begriff": 35, "Wort": 60, "##feld": 8, "Zentrum": 0, "Welche": 0, "konkreten": 66, "##schatz": 33, "ben\u00f6tigen": 0, "Sch\u00fcler": 125, "Aufgabe": 36, "zu": 9, "l\u00f6sen": 0, "Art": 73, "Bereitstellung": 11, "domin": 12, "##ante": 0, "gra": 43, "##atische": 39, "Form": 64, "ben\u00f6tigt": 0, "wird": 0, "typischen": 39, "Rede": 73, "##mittel": 73, "meines": 0, "##es": 0, "k\u00f6nnte": 0, "fokuss": 19, "##ieren": 46, "und": 0, "##fordern": 0, "Wird": 0, "bestimmtes": 39, "Register": 0, "erfordert": 0, "einzu": 39, "##halten": 49, "struktur": 20, "Kann": 0, "Erste": 83, "##llen": 83, "von": 0, "##ko": 0, "##h\u00e4re": 6, "##z": 0, "\u201a": 0, "rote": 0, "##r": 0, "Faden": 0, "\u2018": 0, "einge": 0, "##\u00fcbt": 0, "Wann": 0, "gebe": 0, "Feed": 153, "##back": 153, "##bilden": 104, "##d": 119, "planen": 0, "identifizieren": 19, "sie": 0, "Aspekt": 0, "schwierig": 12, "sein": 0, "nennen": 0, "daraus": 0, "folgen": 0, "m\u00f6glich": 6, "##ziel": 18, "=": 0, "Bedarfs": 95, "##analyse": 153, "+": 0, "##bestimmung": 12, "erl\u00e4u": 0, "##tern": 0, "wie": 26, "dieser": 0, "Schwerpunkt": 0, "konkret": 53, "umgehen": 15, "welche": 213, "Hilfs": 4, "##angebot": 0, "bereits": 0, "##telle": 0, "Zusatz": 2, "##material": 4, "denkbar": 0, "innov": 0, "##ativ": 12, "spieler": 12, "##isch": 82, "Methode": 25, "*": 0, "innen": 0, "k\u00f6nnen": 0, "Kurz": 0, "anhand": 0, "selbst": 0, "produziert": 0, "Plak": 0, "##at": 0, "begr\u00fcnden": 0, "warum": 0, "Milch": 0, "##ku": 0, "##h": 0, "Nutz": 0, "##tier": 0, "Te": 0, "##acher": 0, "fe": 0, "##ed": 0, "che": 0, "##ck": 0, "mark": 0, "mich": 0, "jetzt": 0, "Teil": 0, "Einheit": 0, "spannend": 0, "noch": 0, "sehen": 10, "kommen": 0, "Ziel": 0, "Klasse": 0, "gemeinsam": 0, "Informations": 10, "##text": 0, "Thema": 0, "lesen": 28, "dabei": 0, "besprechen": 0, "Vor": 115, "##wissen": 115, "aktiv": 5, "Haltung": 0, "Herstellung": 0, "[UNK]": 166, ">": 0, "hier": 0, "man": 0, "nochmal": 0, "genau": 3, "schauen": 0, "was": 35, "!": 0, "sich": 19, "vorstellen": 0, "einfach": 0, "Plen": 0, "##um": 0, "eher": 0, "Lese": 20, "##stra": 20, "##teg": 20, "##ia": 20, "Leser": 18, "##out": 18, "##ine": 18, "Kind": 3, "eigens": 0, "##t\u00e4": 55, "##nd": 0, "##ig": 39, "Erl": 0, "##esen": 0, "vermitteln": 0, "Artikel": 4, "bei": 13, "Begriff": 22, "denken": 0, "Schlei": 0, "##fe": 10, "##bauen": 0, "euch": 0, "Verlauf": 67, "##produkt": 5, "nun": 0, "gegenseitig": 0, "nutzen": 16, "gern": 0, "##hilfe": 149, "Material": 70, "##the": 0, "##ke": 0, "Stufe": 0, "einzeln": 0, "erst": 0, "dann": 0, "Ende": 0, "produzieren": 0, "herstellen": 0, "Us": 0, "differenz": 34, "##iert": 38, "Satz": 2, "##baus": 0, "##in": 0, "##anfang": 0, "L\u00fccken": 0, "Vorber": 0, "##eiten": 0, "Pr\u00e4sentation": 65, "nicht": 0, "falsch": 0, "aber": 0, "individ": 0, "##ualisiert": 0, "auf": 30, "Differenz": 22, "##ierungs": 62, "stehen": 0, "sollen": 0, "so": 0, "jed": 0, "passend": 19, "Sc": 24, "##aff": 115, "##old": 146, "##suchen": 0, "Aufgaben": 136, "##stellung": 144, "erstmal": 0, "Ok": 0, "wichtig": 12, "wo": 7, "finden": 0, "Hilfe": 37, "Z": 0, "B": 0, "einst": 30, "##eigen": 30, "auch": 0, "##sa": 61, "##ktiv": 61, "##ierung": 235, "n\u00f6tig": 0, "einzig": 0, "relevant": 2, "daf\u00fcr": 0, "ebenfalls": 0, "ob": 0, "wirklich": 0, "Unterschied": 0, "unterschiedlich": 0, "Reihenfolge": 0, "kl\u00e4ren": 0, "ganz": 0, "transparent": 38, "Vari": 4, "oben": 0, "In": 0, "Zwei": 0, "##erte": 0, "##am": 0, "jeweils": 0, "vorgegeben": 0, "Bild": 0, "Pfeil": 0, "Verf\u00fcgung": 0, "stellen": 12, "##\u00fcte": 0, "diver": 7, "Lebensmittel": 0, "quasi": 0, "Proze\u00df": 4, "Produkt": 22, "gut": 6, "Idee": 120, "hoffentlich": 0, "##riften": 0, "lassen": 0, "doch": 0, "super": 0, "Vorgang": 0, "nochmals": 0, "schon": 0, "zeigen": 11, "als": 16, "zus\u00e4tzlich": 0, "wer": 0, "brauchen": 0, "nehmen": 0, "einig": 0, "reichen": 0, "vielleicht": 0, "nur": 0, "##sprach": 96, "Verb": 0, "verstehen": 0, "nach": 0, "Ein": 19, "Partner": 0, "##arbeit": 0, "pr\u00e4sentieren": 21, "also": 0, "klar": 84, "Wiederholung": 0, "##ss": 40, "##ch": 0, "##lei": 0, "gleich": 0, "Auf": 0, "##schreiben": 0, "anfangen": 0, "##ams": 0, "Anordnung": 0, "bestimmen": 0, "##ordnen": 0, "erwarten": 0, "Antwort": 0, "Begr\u00fcndung": 0, "gerade": 0, "fallen": 0, "mir": 0, "schwer": 0, "Mehrwert": 0, "erkennen": 0, "sehr": 0, "anspruchs": 0, "##voll": 0, "ba": 0, "##na": 0, "##l": 67, "weil": 0, "Kuh": 0, "geben": 0, "damit": 0, "K\u00e4se": 0, "machen": 0, "unklar": 42, "Muster": 41, "##l\u00f6sung": 41, "aussehen": 12, "Stelle": 20, "sinnvoll": 0, "Fazit": 0, "insgesamt": 0, "gehen": 0, "richtig": 0, "Richtung": 0, "vorhanden": 0, "allerdings": 0, "kurz": 0, "wieso": 17, "Tier": 0, "fehlen": 5, "stark": 26, "##bindung": 0, "M\u00fcn": 0, "##dlich": 0, "##keit": 5, "ab": 0, "##zielen": 0, "alle": 0, "Fest": 0, "durch": 0, "paar": 0, "Austausch": 0, "##runde": 0, "locker": 0, "ausf\u00fchrlich": 0, "Diskussion": 0, "indem": 0, "Recherche": 0, "Beitrag": 0, "Rinder": 0, "##haltung": 0, "Klimawandel": 0, "usw": 0, "Pod": 0, "##iums": 0, "##disk": 0, "##ussion": 0, "zwischen": 0, "Bauer": 0, "Klima": 0, "##aktiv": 10, "##ist": 0, "Veg": 0, "##aner": 0, "gegeneinander": 0, "vorbereiten": 0, "st\u00fctzen": 0, "nat\u00fcrlich": 0, "da": 0, "Potential": 5, "ihr": 0, "Dreier": 0, "##gruppe": 0, "knapp": 19, "De": 0, "Fac": 0, "##to": 0, "drei": 0, "##aufgabe": 22, "w\u00fcnschen": 0, "##swert": 0, "haben": 0, "Planung": 55, "aufnehmen": 0, "##isieren": 15, "plus": 0, "weit": 0, "Person": 0, "mindestens": 0, "wirken": 31, "etwas": 0, "z": 0, "##\u00f6ger": 0, "trauen": 0, "ruhig": 0, "kre": 0, "##ativer": 0, "lebendig": 0, "solange": 0, "zentral": 8, "##bildungs": 14, "##prinzip": 11, "Inter": 28, "Ans": 0, "##cha": 0, "##uu": 0, "##ng": 0, "##sm": 3, "##aterial": 0, "Map": 0, "inspir": 0, "https": 0, "mo": 0, "##od": 0, "##le": 0, "##lab": 0, "hu": 0, "ber": 0, "##lin": 0, "de": 0, "mod": 0, "ur": 0, "view": 0, "ph": 0, "##p": 0, "id": 0, "111": 0, "##arbeiten": 0, "Umsetzung": 17, "Se": 0, "##quenz": 0, "Entlastung": 6, "sowie": 0, "\u00c4nderung": 0, "Sozial": 61, "##form": 67, "viele": 0, "umsetzen": 0, "Station": 0, "G": 0, "##gf": 0, "Check": 0, "i": 0, "Warm": 0, "up": 0, "bevor": 0, "verteilen": 0, "dennoch": 0, "vollst\u00e4ndig": 16, "##bildung": 5, "##nu": 0, "##tz": 0, "##en": 6, "##kart": 0, "vorrangig": 0, "##halt": 0, "ohne": 0, "diese": 0, "Formul": 5, "helfen": 21, "meist": 0, "wissen": 9, "ja": 0, "versprach": 0, "##g\u00e4ngig": 0, "all": 0, "Opera": 165, "##tor": 165, "schreiben": 28, "Definition": 4, "el": 4, "##ement": 4, "##ar": 4, "starten": 0, "Karte": 0, "Funktion": 0, "zumindest": 0, "liefern": 0, "versammel": 0, "enthalten": 0, "##speicher": 21, "Bruch": 0, "##teil": 0, "eindeutig": 26, "gr\u00f6\u00dftenteils": 0, "allein": 0, "einige": 0, "Bananen": 0, "##oper": 0, "##ator": 0, "ihnen": 0, "einsch": 0, "##mu": 0, "##gge": 0, "##ln": 0, "\u00fcberhaupt": 0, "keinerlei": 0, "Aussage": 0, "##kraft": 12, "v": 0, "a": 0, "meinen": 0, "passieren": 0, "##zw": 0, "wenn": 0, "Vergleich": 0, "Fall": 0, "dringend": 0, "##raten": 0, "analysieren": 0, "eigen": 16, "Sche": 0, "##ma": 0, "durchge": 0, "##hen": 0, "betrachten": 0, "kritisch": 2, "L\u00f6sung": 0, "lauten": 0, "wiederum": 0, "H\u00fcr": 4, "mein": 0, "vermutlich": 0, "form": 0, "##ulieren": 0, "irgendwie": 0, "vor": 0, "##sal": 0, "ander": 0, "Formulierung": 56, "##shi": 39, "##lf": 39, "\u00dcber": 0, "##legen": 0, "aufs": 0, "##reiben": 0, "erfolgen": 0, "Schrift": 20, "##sprache": 38, "not": 0, "sp\u00e4t": 0, "O": 0, "\u00c4": 0, "wozu": 0, "denn": 0, "sonst": 0, "daran": 0, "schlie\u00dfen": 0, "letzt": 0, "Punkt": 6, "wann": 0, "erkennbar": 0, "mittels": 0, "##ta": 0, "##rk": 0, "n\u00fctzlich": 0, "weniger": 0, "Sicht": 0, "schwach": 0, "unsicher": 0, "immer": 0, "gro\u00df": 0, "Herausforderung": 18, "##karte": 0, "Liebe": 0, "Kir": 0, "##sten": 0, "##idee": 15, "viel": 0, "leider": 0, "deutlich": 57, "Beschreibung": 0, "Vogel": 0, "erreichen": 0, "Schwier": 0, "##igkeit": 14, "Deutsch": 0, "hierf\u00fcr": 0, "##sehen": 0, "kn": 0, "##iff": 0, "##lig": 0, "komplex": 0, "vorge": 0, "##ben": 0, "wegen": 0, "hoch": 0, "##an": 59, "##forderung": 10, "sondern": 0, "klein": 35, "arbeiten": 0, "Farbe": 0, "ohnehin": 0, "Farb": 0, "Bestandteil": 0, "minim": 0, "##al": 21, "Anzahl": 0, "Feder": 0, "n": 0, "Schnabel": 0, "Brust": 0, "Steck": 0, "##brief": 0, "wollen": 0, "spontan": 0, "falls": 0, "##stehen": 0, "hoffen": 0, "ber\u00fccksichtigen": 0, "ansonsten": 0, "'": 0, "s": 0, "kla": 0, "##ppen": 0, "vorne": 0, "##weg": 20, "kein": 0, "Entwurf": 0, "4": 0, "mehr": 0, "5": 0, "6": 0, "fr\u00fche": 0, "##stens": 0, "sowohl": 0, "Erwart": 10, "##ung": 59, "anbieten": 6, "vieler": 0, "eingest": 0, "##\u00e4ndig": 0, "anschauen": 0, "vorher": 0, "intensiv": 0, "zurecht": 0, "vollkommen": 0, "au\u00dfen": 0, "##lassen": 0, "Wissens": 19, "##aufbau": 27, "woher": 22, "Info": 0, "Kopf": 0, "dort": 0, "bestehend": 0, "Wissen": 26, "vern": 0, "##etzen": 0, "Problem": 0, "Aus": 0, "##gan": 0, "##listen": 0, "##sicherung": 12, "##besch": 10, "##affung": 10, "hei\u00dfen": 0, "dass": 0, "Rest": 0, "##leiten": 0, "aufbauen": 0, "vergessen": 0, "##dr": 0, "innerhalb": 0, "Gruppe": 0, "Klassen": 0, "##stufe": 0, "Inhalt": 2, "zusammen": 0, "##fassen": 0, "erz\u00e4hlen": 0, "Ebene": 0, "neu": 27, "direkt": 0, "auffallen": 0, "Lesen": 60, "stattfinden": 0, "Versp": 15, "##rach": 15, "Alltags": 0, "statt": 0, "Unterst\u00fctzung": 9, "Bildungs": 0, "Gef\u00fchl": 0, "Moment": 0, "inner": 0, "##sens": 67, "##ib": 67, "daher": 0, "mechan": 0, "leb": 0, "##los": 0, "gl\u00fcck": 0, "zer": 0, "##spl": 0, "##ittern": 0, "abstra": 3, "##kt": 3, "Ah": 0, "##a": 19, "verbinden": 0, "Empfehlung": 0, "versuchen": 0, "rund": 0, "Ganze": 0, "Teils": 0, "##ritt": 0, "##orientierung": 6, "verste": 0, "##if": 0, "f\u00fchren": 0, "eben": 0, "Eindruck": 0, "au\u00dferdem": 0, "rau": 0, "##mg": 0, "##reifen": 0, "wir": 0, "gar": 0, "fast": 0, "nichts": 0, "sagen": 0, "bleiben": 6, "dargestellt": 0, "Vorgehensweise": 40, "Hinsicht": 0, "allgemein": 0, "heraus": 0, "##uliert": 0, "Kooperation": 13, "##vern": 8, "##etzung": 8, "Umgang": 25, "Ab": 0, "Drei": 0, "##eck": 0, "Gemeinsam": 0, "vorn": 0, "##oti": 0, "##eren": 0, "m\u00f6gen": 0, "spielen": 0, "gew\u00e4hlt": 0, "zudem": 0, "Vie": 0, "##ee": 0, "R\u00fcck": 6, "##meldung": 2, "grunds\u00e4tzlich": 0, "\u00fcberlegen": 0, "Einstieg": 17, "gestalten": 0, "Aktivit\u00e4t": 0, "inhaltlich": 38, "rot": 0, "bis": 0, "fortsetzen": 0, "h\u00e4ngen": 0, "los": 0, "Raum": 0, "mal": 0, "##be": 24, "##zug": 21, "Fokus": 0, "r\u00fccken": 0, "welcher": 8, "Themenk": 0, "##omp": 0, "##lex": 124, "passen": 19, "danach": 0, "##reihe": 0, "ober": 0, "##fl\u00e4ch": 0, "punkt": 0, "##uell": 26, "betreffen": 0, "Vis": 0, "##ualisierung": 0, "dazu": 0, "Symbol": 0, "Arbeits": 114, "##auftrag": 57, "hinter": 0, "stif": 0, "##ten": 0, "Sprech": 26, "##bl": 0, "##ase": 0, "Einzel": 0, "w\u00e4hlen": 12, "Modus": 0, "Geschichte": 0, "Merkmal": 0, "Jahreszeit": 0, "themat": 0, "unbedingt": 0, "##auf": 0, "##nehmen": 0, "Beispiel": 0, "suchen": 0, "unter": 0, "##ziehen": 0, "legitim": 0, "##ierbar": 0, "ta": 0, "##uschen": 0, "aktiviert": 0, "##lichen": 0, "experimente": 0, "##ll": 0, "Erf": 0, "##ors": 0, "##chen": 0, "##helfen": 0, "Taschen": 0, "##lam": 0, "##pe": 0, "Licht": 0, "##quelle": 0, "Glob": 0, "##us": 16, "Ball": 0, "Information": 27, "Videos": 0, "Tafel": 0, "##bild": 0, "##ungs": 30, "##hor": 4, "##izont": 4, "erg\u00e4nzen": 0, "umf": 0, "##orm": 6, "best": 0, "Kontext": 0, "zwei": 0, "Buch": 0, "##seite": 0, "wobei": 0, "Vorbereitung": 0, "Lieblings": 0, "##jahres": 0, "##zeit": 0, "##x": 0, "Sitz": 0, "##kreis": 0, "d\u00fcrfen": 0, "Anfang": 0, "Ursache": 0, "beide": 0, "lau": 0, "##schen": 7, "Hintergrund": 0, "Umlauf": 0, "Kreis": 0, "je": 0, "nachdem": 0, "m\u00f6glichst": 0, "vis": 0, "Syn": 0, "##onym": 0, "Erkl\u00e4r": 0, "experimen": 0, "S": 0, "8": 0, "Seite": 0, "durchs": 0, "##chi": 0, "##mmer": 0, "offenbar": 0, "Experiment": 0, "##ein": 0, "##beziehen": 0, "Experten": 0, "b": 20, "Frage": 33, "verschieden": 0, "Zeit": 0, "anderer": 0, "Suche": 0, "ideal": 0, "sprechen": 21, "Bilder": 0, "##folg": 0, "ggf": 0, "\u00dcbertragung": 0, "Heft": 0, "Abschluss": 0, "Reflex": 18, "##schritt": 42, "di": 4, "##da": 4, "##ktisch": 4, "T": 0, "unten": 0, "anf": 0, "##\u00fcgen": 0, "Kommentar": 0, "ignor": 0, "En": 0, "Klarheit": 0, "dar\u00fcber": 0, "insbesondere": 0, "M\u00f6glichkeit": 0, "Wasser": 0, "##lauf": 16, "verd": 0, "##unsten": 0, "flie\u00dfen": 0, "tats\u00e4chlich": 0, "Denken": 0, "seit": 0, "wenig": 0, "Monat": 0, "lernen": 0, "Kritik": 0, "##punkt": 0, "zwar": 0, "##fertigt": 0, "##mat": 0, "Stichwort": 0, "F\u00fcll": 0, "leisten": 0, "entsprechend": 0, "defen": 0, "##siv": 0, "Motivation": 0, "verlassen": 0, "einmal": 0, "##komplex": 0, "beantworten": 0, "recht": 0, "##ent": 19, "##lastung": 0, "Gruppen": 0, "##dehn": 0, "ents": 0, "##leun": 0, "##igen": 0, "ent": 0, "##lasten": 0, "ansprechen": 0, "Planungs": 3, "hinein": 0, "##schauen": 0, "achten": 0, "einsetzen": 0, "jewei": 0, "Ern\u00e4hrung": 0, "Ding": 0, "Lebe": 0, "##wesen": 0, "Mensch": 0, "essen": 0, "Frucht": 0, "Inse": 0, "Maus": 0, "Fisch": 0, "Nu": 0, "Blatt": 0, "Katalog": 0, "Kategorie": 0, "Lebensraum": 0, "Ort": 0, "leben": 0, "Vorhaben": 0, "ans": 0, "##weise": 0, "jedoch": 0, "ausb": 0, "##\u00e4h": 0, "##wie": 0, "##fern": 0, "urspr\u00fcnglich": 0, "jetz": 0, "k": 19, "##ind": 19, "##gerecht": 19, "motiv": 26, "##ierend": 42, "br\u00fc": 0, "##g": 0, "Komp": 19, "##osit": 19, "Lehr": 12, "##werk": 0, "sch\u00f6n": 0, "\u00dcbung": 0, "No": 0, "##me": 0, "bilden": 0, "Wald": 0, "Am": 0, "##eise": 0, "##ame": 0, "##ise": 0, "fro": 0, "##nt": 6, "##iv": 22, "##aw": 0, "##isse": 0, "win": 0, "##kin": 0, "fac": 0, "##pers": 3, "##pekt": 3, "##ive": 3, "mus": 0, "##ter": 24, "##g\u00fcltig": 0, "Blick": 0, "gelingen": 0, "Darstellung": 17, "Vorgehen": 0, "abl": 0, "##aufen": 0, "ben": 0, "##ennen": 0, "angemessen": 0, "soweit": 0, "doppelt": 0, "gr\u00fcn": 0, "w\u00e4hrend": 20, "##werkstatt": 0, "Grund": 0, "##voraus": 0, "##setzung": 0, "mater": 0, "##ial": 0, "##side": 8, "\u2192": 0, "##igungs": 0, "##stunde": 0, "entstehen": 0, "Zahlen": 0, "##geschichte": 0, "h": 0, "##\u00e4n": 0, "##seln": 0, "sieben": 0, "Leb": 0, "##kuchen": 0, "Gre": 0, "##tel": 0, "25": 0, "Gleich": 0, "aufstellen": 0, "7": 0, "Achtung": 0, "Peer": 17, "##feed": 0, "entfallen": 0, "dir": 0, "heute": 0, "unser": 0, "\u00dcbungs": 10, "Woche": 0, "schlecht": 0, "genauso": 0, "leicht": 0, "hervorragend": 0, "getr": 0, "##ost": 0, "Per": 0, "##fektion": 0, "##ism": 42, "##u": 34, "verb": 0, "##uchen": 0, "Fin": 0, "##et": 0, "wertvoll": 0, "##stand": 19, "besonders": 0, "f\u00e4l": 0, "##len": 0, "string": 19, "them": 0, "##bedingt": 0, "reduzieren": 0, "mathemat": 0, "weiterhin": 0, "versch": 0, "##rift": 0, "Besch": 0, "Reis": 0, "##haufen": 0, "perfekt": 0, "s\u00e4m": 19, "##tlich": 19, "aussch": 0, "##\u00f6pfen": 0, "abweichen": 0, "krei": 0, "mitten": 0, "Wanderung": 0, "##zimmer": 0, "Weg": 0, "sammeln": 0, "Erfahrung": 0, "Plan": 0, "halten": 0, "##stu": 0, "Re": 28, "Orts": 0, "##plan": 0, "Legende": 0, "z\u00e4hlen": 0, "strukturiert": 4, "fein": 4, "Abstra": 0, "##ktions": 0, "##verm\u00f6gen": 0, "Arbeit": 0, "##beschreibung": 0, "Ausflug": 0, "drau\u00dfen": 0, "schlie\u00dflich": 0, "##igung": 0, "Audio": 0, "##aufnahme": 0, "st": 0, "##\u00fcndig": 0, "##einheit": 0, "##fach": 0, "##handlung": 57, "fragen": 0, "Entschuldigung": 0, "links": 0, "rechts": 0, "##biegen": 0, "##as": 0, "Himmels": 0, "##richtung": 0, "n\u00f6rdlich": 0, "\u00f6stlich": 0, "feststellen": 0, "fest": 0, "u": 0, "un": 35, "##kon": 35, "##kret": 35, "g\u00e4ng": 0, "Schritt": 0, "##pro": 17, "##ze\u00df": 17, "vier": 0, "Ablauf": 15, "##arbeitung": 0, "erf\u00fcllen": 0, "Kriterium": 0, "Kreativit\u00e4t": 0, "Bereich": 0, "angehen": 0, "Ideal": 0, "##erweise": 0, "Impuls": 0, "Klein": 0, "bearbeiten": 0, "anschlie\u00dfend": 0, "ord": 0, "##nen": 0, "Herz": 0, "erfassen": 0, "##kod": 0, "zusammengefasst": 0, "hinsichtlich": 0, "kooper": 6, "komplett": 0, "weg": 0, "Doppel": 0, "##seit": 0, "grob": 0, "Aufbau": 42, "traurig": 0, "##heitlich": 0, "##fahrung": 17, "Ha": 0, "##pt": 23, "##ik": 0, "bas": 0, "##teln": 0, "pr\u00e4zise": 17, "##sch": 0, "##k\u00e4": 0, "##rt": 0, "##blatt": 0, "Block": 0, "Prinzip": 0, "erwerben": 0, "Ritter": 0, "##schlag": 0, "Herr": 0, "Page": 0, "##sf": 6, "Lan": 0, "##ze": 0, "Schild": 0, "Mittelalter": 0, "kennenlernen": 0, "erweitern": 0, "beob": 14, "##acht": 14, "##bar": 14, "men": 0, "##tal": 0, "Was": 0, "Verhaltens": 0, "verwenden": 0, "pass": 0, "spezif": 0, "Koll": 0, "##oka": 0, "##tion": 14, "erhalten": 0, "\u201d": 0, "Land": 0, "besitzen": 0, "christ": 0, "Glauben": 0, "erz": 0, "##ieh": 0, "hm": 0, "gew": 9, "##i\u00df": 6, "##sie": 0, "##rung": 0, "##bei": 0, "##gehen": 0, "merken": 0, "kombin": 0, "Funktions": 0, "##verb": 0, "##gef\u00fc": 0, "##ge": 0, "Work": 0, "##sh": 0, "Live": 0, "##work": 0, "##ts": 32, "com": 0, "Da": 0, "kinder": 0, "Pr\u00e4": 0, "##itu": 0, "##ms": 0, "Pr\u00e4sen": 0, "##\u00fcbung": 6, "dies": 0, "Gramm": 29, "##atik": 33, "liegen": 0, "mg": 0, "Aktiv": 0, "f\u00f6rdern": 9, "einsam": 0, "##mel": 0, "Sach": 0, "##buch": 0, "gerne": 0, "Kita": 0, "Jahrgang": 0, "##sst": 0, "##ufe": 0, "niedrig": 0, "erm\u00f6glichen": 0, "darauf": 0, "gr\u00fcndlich": 0, "Rollen": 0, "##spiel": 0, "Lebensweise": 0, "Stand": 0, "Verk": 0, "##leidung": 0, "schl\u00fc": 0, "##pfen": 0, "Lebens": 0, "##ums": 0, "##tan": 0, "Beginn": 0, "##gruppen": 0, "ausf\u00fchren": 0, "Rahmen": 0, "Qu": 0, "##atsch": 0, "##phase": 0, "Niveau": 0, "fordern": 0, "ad": 0, "##\u00e4qu": 0, "dienen": 0, "okay": 0, "gefallen": 0, "##nach": 0, "sichern": 0, "am": 0, "Zusammenfassung": 0, "\u00fcbers": 0, "einbringen": 0, "##laufen": 0, "wahrscheinlich": 0, "Vorschlag": 0, "Mal": 0, "dein": 0, "Figur": 0, "##sagen": 0, "verhalten": 0, "ausgest": 0, "##alten": 0, "Dialog": 0, "euer": 0, "Smart": 0, "##board": 0, "darstellen": 21, "typisch": 12, "Ausr\u00fcstung": 0, "##steil": 0, "Pferd": 0, "Schwert": 0, "hac": 0, "##ken": 0, "Schwein": 0, "Getreide": 0, "##durch": 0, "vergleichen": 0, "Variante": 0, "Platz": 0, "Tabl": 0, "klass": 0, "la": 0, "##min": 0, "somit": 0, "unbe": 0, "##wu": 0, "rein": 0, "##bringen": 3, "\u00dcberblick": 0, "##up": 0, "##id": 0, "Team": 0, "##sr": 0, "##ollen": 0, "erarbeiten": 0, "recher": 0, "##muster": 0, "Bauern": 0, "mehrere": 0, "Auswahl": 0, "\u00e4": 0, "analog": 0, "sitzen": 0, "\u00e4hnlich": 0, "Tabelle": 0, "fertig": 0, "##f\u00fcllen": 0, "jederzeit": 0, "holen": 0, "wieder": 0, "unterst\u00fctzen": 0, "Alters": 0, "##pla": 0, "erledigen": 0, "Hin": 0, "##f\u00fchrung": 0, "##enken": 0, "Mega": 0, "##poten": 0, "##tial": 0, "reden": 0, "##denken": 0, "wor": 0, "##h\u00f6ren": 0, "gen\u00fcgend": 0, "##f\u00e4higkeit": 3, "##h\u00e4ngen": 0, "verlieren": 0, "diagnost": 8, "n\u00e4mlich": 0, "##frage": 0, "Reihe": 0, "h\u00f6ren": 28, "##\u00fcchtern": 0, "Kollege": 0, "bezahlen": 0, "##eli": 0, "schl": 0, "##au": 0, "Gespr\u00e4ch": 40, "##anteil": 42, "L": 0, "antworten": 0, "mi": 0, "##\u00df": 0, "##brauch": 0, "Reiz": 0, "##geber": 0, "antwor": 0, "erlauben": 0, "Interview": 0, "Fernsehen": 0, "##regen": 0, "Vortrag": 0, "weiter": 0, "##f\u00fchren": 4, "##tragen": 0, "entdecken": 0, "ind": 0, "##uk": 0, "##tiv": 0, "Tisch": 0, "pro": 0, "bringen": 0, "fassen": 0, "darin": 0, "vermuten": 0, "10": 0, "Min": 0, "Zeitungs": 0, "##artikel": 0, "Aussch": 0, "##nitt": 0, "100": 0, "%": 0, "I": 0, "Mur": 0, "##f\u00e4llig": 0, "##aus": 0, "bestehen": 0, "Leit": 0, "Befra": 0, "##gte": 0, "befragt": 0, "tun": 6, "K\u00e4r": 0, "##tchen": 0, "Chance": 0, "ausmachen": 0, "##schlei": 10, "##arbeitungs": 0, "##m\u00f6glichkeit": 0, "\u00fcben": 0, "##satz": 0, "##lesen": 0, "runter": 0, "##bet": 0, "bereit": 0, "wider": 13, "##spiegel": 13, "##and": 0, "Seminar": 0, "##uns": 0, "##ens": 0, "bauen": 0, "##leistung": 0, "akzeptieren": 0, "umfangreich": 0, "Gedanke": 0, "##splan": 0, "Schilder": 0, "wonach": 0, "Haupt": 12, "##rede": 12, "Denk": 23, "Holz": 0, "##stern": 0, "Mathematik": 0, "##unterricht": 12, "Anf": 21, "##order": 21, "Forum": 0, "Praxis": 0, "[": 0, "Nur": 0, "Mo": 0, "]": 0, "f\u00fc": 0, "##gen": 0, "For": 0, "##beitrag": 0, "hinzu": 0, "festgestellt": 0, "Element": 33, "gelangen": 0, "24": 0, "Modell": 178, "Kommunikation": 30, "##alisieren": 0, "Sprache": 18, "Sachver": 0, "nachdenken": 0, "Rechn": 0, "kommunizieren": 0, "Rechen": 20, "##ae": 0, "uns": 0, "sorgen": 0, "\u00dcbersch": 0, "##u\u00df": 0, "problematisch": 0, "##liste": 22, "##arbeits": 0, "Kommun": 0, "##izieren": 0, "Summe": 0, "Tee": 0, "##licht": 0, "Ausgabe": 0, "Brett": 0, "add": 0, "verf\u00fcgbar": 0, "Verf\u00fcg": 0, "##mach": 0, "professionell": 0, "erfahren": 0, "Abschnitt": 0, "Sp": 0, "##ick": 0, "##zettel": 0, "Glo": 0, "##ssa": 0, "darum": 0, "H\u00e4lfte": 0, "verbringen": 0, "bild": 26, "F\u00e4higkeit": 0, "ausw\u00e4hlen": 0, "alter": 0, "##sg": 9, "##erecht": 0, "Kurs": 0, "praktisch": 0, "m\u00f6chten": 0, "beitragen": 7, "Erwerb": 6, "Jahr": 0, "Angebot": 0, "##schul": 0, "##bereich": 0, "stetig": 0, "steigen": 0, "scheinen": 0, "nei": 0, "schul": 0, "Alltag": 0, "angesichts": 0, "hor": 0, "##ren": 0, "##ff": 31, "##kos": 0, "Schul": 0, "explod": 0, "frei": 0, "verk": 0, "##\u00e4uf": 0, "Internet": 0, "detaill": 7, "fund": 0, "notwendig": 0, "beschrieben": 0, "##l\u00e4nge": 0, "Problems": 0, "##tell": 0, "##veranstaltung": 0, "pra": 0, "##xis": 0, "##orientiert": 13, "Verkn\u00fc": 0, "##pfung": 21, "9": 0, "##si": 55, "diskrimin": 38, "##krit": 27, "Diver": 48, "Diskriminierung": 142, "Klicken": 0, "herunterladen": 0, "##oo": 0, "##men": 0, "Zusammenhang": 0, "Mehr": 8, "11": 0, "Komponente": 0, "beding": 0, "Sinn": 0, "Bezug": 0, "National": 0, "Repertoire": 0, "##welt": 0, "Familie": 20, "Medium": 0, "##ref": 124, "##ktiert": 0, "ster": 0, "##eo": 0, "##typ": 0, "##geleitet": 0, "Handeln": 0, "Schuls": 0, "##ystem": 0, "##faktor": 0, "sozial": 0, "Herkunft": 0, "nachweisen": 0, "Beh": 7, "##err": 7, "akadem": 11, "Haushalt": 0, "##system": 17, "erfolglos": 0, "\u00dcberzeugung": 0, "auseinander": 0, "##setzen": 0, "Selbst": 4, "Rassismus": 35, "##bezogen": 25, "institution": 0, "##ell": 29, "##literatur": 0, "h\u00e4ufig": 0, "Ausdruck": 0, "tief": 0, "systematisch": 0, "rass": 16, "##istisch": 13, "Struktur": 0, "ansehen": 0, "heu": 0, "##tig": 0, "pla": 0, "Jahrzehnt": 0, "weshalb": 0, "jemand": 0, "zahl": 0, "##reich": 0, "##konstruktion": 8, "Vielzahl": 0, "##dimension": 17, "Individ": 0, "##uum": 0, "Identit\u00e4t": 0, "pr\u00e4gen": 0, "aufgrund": 0, "##behandlung": 4, "##sse": 0, "Ag": 0, "unters": 0, "##agen": 0, "straf": 0, "##rechtlich": 0, "verfolgen": 0, "Rasse": 3, "Ethn": 0, "##ie": 0, "Geschlecht": 0, "Religion": 0, "Welt": 0, "##ans": 0, "Alter": 0, "Behinderung": 0, "sexuell": 0, "Quelle": 0, "##ese": 0, "Berlin": 0, "Gesetz": 0, "Ausgrenzung": 0, "Ph\u00e4nomen": 0, "Ben": 0, "##achteil": 0, "12": 0, "ergeben": 0, "##rel": 30, "##ev": 30, "##ant": 42, "##eg": 0, "##orie": 0, "gezielt": 0, "\u2014": 0, "Tu": 0, "Dresden": 0, "tu": 0, "dre": 0, "##sd": 0, "d": 0, "Schule": 0, "hinaus": 0, "Dimension": 10, "Brand": 0, "Hab": 0, "Beg": 0, "##abu": 0, "Leistungs": 0, "bedeut": 0, "##sam": 0, "He": 0, "##ogen": 0, "##it\u00e4ts": 0, "##merkmale": 0, "2017": 0, "20": 0, "beachten": 0, "Leben": 0, "13": 0, "Lehre": 0, "Position": 0, "##ner": 0, "gesellschaft": 16, "Verh\u00e4ltnis": 0, "##linie": 0, "Methodik": 0, "zumeist": 0, "setzen": 6, "oftmals": 0, "verg": 0, "##egen": 0, "##w\u00e4rtig": 0, "inwieweit": 0, "##real": 0, "##it\u00e4t": 0, "Mit": 0, "weiterer": 0, "korre": 0, "##sp": 0, "##ond": 0, "Folge": 0, "lern": 0, "verh\u00e4lt": 0, "##nis": 0, "ausreichend": 0, "refle": 0, "##ktieren": 0, "##format": 0, "schlimm": 0, "sogar": 0, "Nad": 0, "##ol": 0, "##ny": 0, "Stefan": 0, "2021": 0, "##sek": 0, "##tional": 0, "politisch": 0, "15": 0, "ersch": 0, "##weren": 0, "##kommen": 0, "stets": 0, "Kombination": 0, "auftreten": 0, "##r\u00e4nkt": 0, "geschehen": 0, "Online": 0, "H": 0, "##ttp": 0, "www": 0, "ro": 0, "##ux": 0, "publ": 0, "##ikation": 0, "375": 0, "##78": 0, "##ita": 0, "zuletzt": 0, "pr\u00fcfen": 0, "01": 0, "07": 0, "Besch\u00e4ftigung": 14, "gelten": 0, "P\u00e4dagog": 0, "besch\u00e4ftigen": 0, "Zugeh\u00f6rigkeit": 0, "Spannungs": 7, "##verh\u00e4ltnis": 7, "individuell": 0, "Faktor": 0, "Herrschafts": 0, "##ef": 0, "##fekt": 0, "Mart": 0, "Busch": 0, "\u00ab": 0, "Sub": 0, "##jekt": 0, "\u00bb": 0, "Pers\u00f6nlichkeit": 0, "##sent": 0, "##wicklung": 0, "Lage": 0, "Er": 0, "##achten": 0, "Kompetenz": 36, "Komplexit\u00e4t": 14, "Viel": 0, "##schicht": 0, "Anlehnung": 0, "Andreas": 0, "Fo": 0, "##itz": 0, "vielmehr": 0, "eleg": 0, "scheiter": 0, "14": 0, "Handlungs": 11, "trotz": 0, "##icherheit": 0, "p\u00e4dagog": 0, "Weise": 0, "f\u00f6rder": 0, "Angst": 0, "mei": 0, "##den": 20, "Deb": 0, "Katharina": 0, "Stu": 0, "##ve": 0, "Olaf": 0, "Scheitern": 0, "##heit": 5, "gegen": 0, "Neut": 0, "##ral": 0, "##anst": 0, "##o\u00df": 0, "Wert": 0, "##freiheit": 0, "Grundsatz": 13, "##verst\u00e4ndnis": 0, "metho": 0, "##dis": 0, "Dog": 0, "dauerhaft": 0, "aufta": 0, "Ungleich": 4, "##heits": 0, "priv": 0, "##ileg": 0, "\u2013": 0, "Kosten": 0, "gesteckt": 0, "Regel": 7, "##sprechen": 7, "##uss": 0, "##folger": 2, "zun\u00e4chst": 0, "Wider": 7, "##here": 0, "offen": 24, "Verhalten": 0, "18": 0, "23": 0, "beziehen": 0, "Privileg": 0, "bew": 0, "##ussen": 0, "##ierte": 0, "luxuri": 0, "##\u00f6s": 0, "Situation": 0, "Reduzierung": 0, "Ster": 0, "##isierung": 40, "Gewalt": 0, "Marg": 0, "##ina": 0, "##li": 0, "##rte": 0, "Gut": 0, "lustig": 0, "f\u00fchlen": 0, "Un": 0, "konvention": 0, "Ice": 0, "##rd": 4, "1966": 0, "Haut": 0, "##farbe": 0, "Abstammung": 0, "national": 0, "Ursprung": 0, "Volks": 0, "##tum": 0, "beruhen": 0, "Unterscheidung": 0, "##lie\u00df": 0, "Beschr\u00e4nkung": 0, "Bevor": 0, "dadurch": 0, "##berechtigt": 0, "An": 0, "##erkennen": 0, "Genie\u00dfen": 0, "aus\u00fcben": 0, "Menschen": 4, "##recht": 0, "wirtschaftlich": 0, "kultur": 0, "\u00f6ffentlich": 0, "ver": 0, "##eite": 0, "beeintr\u00e4chtigen": 0, "abs": 0, "bemerken": 0, "Kategor": 0, "entlang": 0, "sog": 0, "aufrechter": 0, "sub": 0, "##jektiv": 0, "Wahrnehmung": 0, "verh": 0, "##\u00e4rten": 0, "impl": 0, "##rasse": 4, "wissenschaft": 0, "halt": 0, "Nach": 0, "##ew": 0, "##erk": 0, "Susan": 0, "Arn": 0, "##dt": 0, "##ja": 0, "Of": 0, "##ua": 0, "##y": 0, "al": 0, "##azar": 0, "vorschlagen": 0, "17": 0, "definieren": 0, "ra": 0, "##cis": 0, "##m": 0, "Pre": 0, "##ju": 0, "##di": 0, "##ce": 0, "Power": 0, "Rass": 17, "##ismen": 9, "##stuf": 0, "Bewertung": 0, "Macht": 0, "##ismus": 3, "geh\u00f6ren": 0, "##willig": 0, "##urteil": 0, "handeln": 0, "echt": 0, "vorliegen": 10, "ungleich": 0, "behandeln": 0, "##leich": 0, "er": 0, "Wei\u00df": 0, "##sein": 0, "bestimmt": 3, "genie\u00dfen": 0, "kontro": 0, "##vers": 0, "unterscheiden": 0, "Abbildung": 0, "Ali": 0, "Val": 0, "##jen": 0, "na": 0, "##zi": 0, "net": 0, "##ap": 0, "Ex": 0, "##kurs": 0, "positiv": 36, "19": 0, "eng": 0, "ethn": 0, "verwandt": 0, "Konzept": 5, "\u00f6fter": 0, "is": 0, "Look": 0, "Aussehen": 0, "##ili": 16, "Gesundheit": 0, "Ad": 0, "##ult": 0, "jung": 0, "Antisemitismus": 0, "Klass": 0, "Schicht": 0, "Tran": 0, "feind": 0, "##kei": 0, "Sex": 0, "Gen": 0, "##der": 0, "##eis": 0, "Alte": 0, "anti": 0, "##mus": 0, "##lim": 0, "Islam": 0, "##feind": 0, "Hom": 0, "##oph": 0, "##obi": 0, "Anti": 0, "##zig": 0, "##ani": 0, "Rom": 0, "Sin": 0, "Lin": 34, "##gu": 34, "##iz": 34, "gewalt": 0, "gering": 0, "Liter": 0, "##alit\u00e4t": 0, "##serfahrung": 0, "nieders": 0, "##lagen": 0, "##weisung": 49, "##f\u00f6rderung": 0, "irre": 0, "##lev": 0, "Ak": 0, "##zent": 0, "Aussprache": 0, "##gew": 0, "##ohn": 0, "wesentlich": 7, "Ot": 11, "##her": 11, "##ing": 178, "Kultur": 13, "##alisierung": 13, "Mech": 0, "##eri": 0, "Dir": 0, "##im": 0, "Mel": 0, "2010": 0, "42": 0, "det": 0, "Erkl\u00e4rung": 5, "Handlung": 19, "Einstellung": 0, "Konflikt": 0, "##sweise": 0, "Dich": 0, "##oto": 0, "##mi": 0, "Zweite": 0, "##il": 0, "Gesellschaft": 0, "Zuge": 0, "##h\u00f6rige": 0, "Nicht": 0, "zuge": 0, "verst\u00e4rkt": 0, "Zusch": 0, "##reibung": 0, "##produz": 0, "bedeuten": 20, "Ru": 0, "ko": 10, "Ne": 0, "##o": 0, "Datei": 0, "vielf\u00e4ltig": 0, "Dialekt": 0, "##\u00e4tzen": 0, "##tritt": 0, "##sem": 0, "##pfe": 0, "##hl": 0, "Gymnasium": 0, "erteilen": 0, "101": 0, "hinweg": 0, "Anerkennung": 12, "mitgebracht": 0, "##ibel": 0, "agieren": 0, "bek\u00e4mpfen": 0, "##pr\u00e4": 0, "##gung": 0, "annehmen": 0, "potenzie": 0, "##eh": 6, "##\u00f6r": 6, "dr\u00fccken": 20, "ohn": 0, "##m\u00e4chtig": 0, "Opfer": 0, "##rolle": 0, "##erb": 14, "##zwei": 0, "##fel": 0, "best\u00e4": 0, "emp": 20, "##ath": 20, "kompens": 0, "Betroffene": 0, "Verfasst": 0, "Fortbildung": 0, "besuchen": 0, "Gesellschafts": 0, "##zusammen": 0, "##hang": 0, "##\u00fcr": 20, "dem": 0, "r": 0, "wecken": 20, "Hoffnung": 0, "sit": 0, "##ui": 0, "##ert": 0, "Lehrer": 11, "##arm": 0, "##losen": 0, "2016": 0, "stand": 0, "web": 0, "p": 0, "##df": 0, "##tu": 0, "do": 0, "or": 0, "wirksam": 0, "Werkzeug": 0, "beispielsweise": 0, "Id": 0, "##b": 0, "##tage": 0, "##freie": 0, "|": 0, "Institut": 0, "Bildung": 0, "generell": 0, "Anlauf": 0, "##stelle": 0, "##klus": 0, "Demokratie": 0, "Wirtschafts": 0, "##unternehmen": 0, "Bew": 0, "##usste": 0, "##reh": 0, "F\u00f6rderung": 0, "sau": 0, "##ul": 0, "##able": 0, "derjenige": 0, "Landes": 0, "##anti": 0, "##rimin": 0, "##gesetz": 0, "62": 0, "##1": 0, "##fu": 0, "##bi": 0, "fu": 0, "bit": 0, "##stream": 0, "hand": 0, "##18": 0, "##8": 0, "169": 0, "##70": 0, "##dg": 0, "se": 0, "##quen": 0, "Isa": 0, "##we": 0, "y": 0, "##sk": 4, "##rit": 4, "unterrichten": 0, "beginnen": 0, "folglich": 0, "kolle": 0, "##gia": 0, "Beratung": 0, "Ereignis": 0, "nachtr\u00e4glich": 0, "k\u00fcnftig": 0, "inkl": 16, "sensi": 16, "##bel": 16, "Gegenstand": 0, "beinhalten": 0, "Schulen": 0, "##tw": 0, "##lung": 0, "demokrat": 0, "Stimme": 0, "##zieht": 0, "bef": 0, "##ragen": 0, "verringern": 0, "Mehrfach": 6, "anerkennen": 0, "oft": 0, "##wirken": 0, "organisieren": 0, "Erzieher": 0, "ihm": 0, "Zugang": 0, "verschaffen": 0, "wert": 0, "##\u00e4tzt": 0, "wahrnehmen": 0, "hin": 0, "##usst": 0, "##sei": 0, "##binden": 0, "fot": 0, "enorm": 0, "beschr\u00e4nken": 0, "Noten": 0, "##gebung": 0, "Sel": 0, "##ekt": 0, "F\u00f6rder": 0, "##ma\u00dfnahme": 0, "21": 0, "sp\u00e4testens": 0, "Sekundar": 0, "bal": 0, "treffen": 0, "meiste": 0, "##rn": 5, "Ausbau": 11, "##kompetenz": 25, "verf\u00fcgen": 0, "gewinnen": 0, "Mithilfe": 0, "Schm": 0, "##\u00f6lzer": 0, "eib": 0, "2006": 0, "179": 0, "Lauf": 0, "sechs": 0, "kon": 35, "##zeption": 9, "vertraut": 0, "separ": 0, "heran": 0, "aufweisen": 0, "##spezif": 0, "erweitert": 0, "Res": 0, "##so": 6, "##urce": 6, "zur\u00fcck": 0, "##greifen": 0, "##alisch": 4, "Bestimmung": 25, "Hindernis": 0, "##planung": 44, "beanspr": 0, "unge": 0, "warten": 0, "Anzeichen": 0, "Ges": 0, "##agte": 0, "##ulierung": 6, "##uen": 0, "stattdessen": 0, "sk": 0, "##izz": 0, "solch": 0, "bew\u00e4ltigen": 0, "Autor": 0, "vorlegen": 0, "##ungsbereich": 0, "##decken": 0, "Ausf\u00fchrung": 21, "Video": 0, "Zweck": 0, "Feld": 16, "##grenzen": 0, "W": 0, "##dh": 0, "Ba": 0, "Genre": 39, "Verst\u00e4ndnis": 0, "schriftlich": 3, "f\u00fcnf": 0, "vorgeschlagen": 0, "##inter": 5, "Vert": 0, "##ief": 0, "##gn": 4, "##itiv": 4, "Operation": 0, "2014": 0, "bezeichnen": 0, "ausgel\u00f6st": 0, "Verbindung": 0, "dahinter": 0, "##struktur": 5, "verarbeiten": 0, "##geben": 0, "invol": 0, "##vier": 0, "##ichern": 0, "dementsprechend": 0, "Festlegung": 9, "festlegen": 0, "##antwort": 0, "erforderlich": 0, "s\u00e4": 0, "vorkommen": 0, "deswegen": 0, "integrieren": 0, "welches": 0, "existieren": 0, "##uster": 3, "##iell": 0, "ka": 0, "##usa": 0, "multi": 0, "Wirkung": 0, "Qualit\u00e4t": 5, "erh\u00f6hen": 0, "Nomin": 0, "Pass": 0, "etc": 0, "pl": 0, "##uri": 0, "##lit": 0, "##era": 0, "##ci": 0, "ec": 0, "##ml": 0, "at": 0, "port": 0, "##als": 0, "54": 0, "##utt": 0, "app": 0, "##ro": 0, "##ach": 0, "into": 0, "##ctic": 0, "##erst": 0, "nah": 0, "bedienen": 0, "Schreiben": 32, "Sprechen": 27, "##p\u00e4dagog": 0, "##ener": 9, "Bearbeitung": 9, "initi": 0, "lenken": 0, "2019": 0, "D": 0, "R": 0, "erfordern": 0, "Chron": 0, "##ologie": 0, "Versuchs": 0, "zuerst": 0, "Vordergrund": 0, "hinten": 0, "ausdr\u00fcck": 0, "Regelung": 0, "Versuch": 0, "##ordnung": 0, "pr\u00fc": 13, "##fungs": 13, "Rep": 0, "##rod": 0, "Transfer": 24, "##organisation": 0, "sicherlich": 0, "Lehren": 0, "verst\u00e4nd": 0, "##bahnen": 0, "gew\u00e4hrleisten": 0, "theoretisch": 26, "Fund": 0, "Referenz": 2, "realisiert": 0, "etwa": 0, "2002": 0, "Tax": 0, "##onom": 0, "##i": 0, "grundlegend": 0, "verschw": 0, "Realisierung": 0, "untersuchen": 0, "indirekt": 0, "##izit": 0, "erscheinen": 0, "meistens": 0, "erwartet": 0, "Inst": 0, "##ru": 0, "##ktion": 0, "16": 0, "Projekt": 0, "Merc": 0, "Zeichen": 17, "int": 0, "vornehmen": 0, "##merk": 12, "##mal": 12, "bewusst": 0, "##sch\u00fcler": 0, "Ca": 0, "zusammenh\u00e4ngen": 7, "##zip": 0, "diesbez\u00fcglich": 0, "erw\u00e4hnt": 0, "##se": 9, "einher": 9, "##gehend": 9, "##\u00fc": 21, "Nam": 0, "Statistik": 0, "Lex": 0, "##ikon": 0, "##eint": 0, "##rag": 0, "W\u00f6rter": 0, "Bra": 0, "##inst": 0, "Mind": 0, "Des": 0, "##cr": 0, "Inhalts": 0, "##wieder": 0, "##gabe": 0, "Sum": 0, "##mar": 0, "##erz": 0, "##\u00e4hl": 0, "Gebrauch": 0, "##san": 0, "Anteil": 0, "User": 0, "Man": 0, "##ual": 0, "diskon": 0, "##tinuier": 0, "Dia": 0, "##gramm": 0, "Bericht": 0, "Zeitung": 0, "Radio": 0, "Fe": 0, "##ature": 0, "Protokoll": 0, "##modell": 0, "Bewerbung": 0, "Expl": 0, "##ain": 0, "Grafik": 0, "Refer": 0, "Hypoth": 0, "begr\u00fcndet": 0, "Vorher": 0, "##sage": 0, "Conc": 0, "##ep": 0, "Argument": 3, "Arg": 0, "##\u00f6rter": 0, "##tat": 0, "Ess": 0, "##ay": 0, "Tra": 0, "Quellen": 0, "Bes": 0, "##innung": 0, "##sau": 0, "##fs": 0, "ev": 0, "##iden": 0, "##zb": 0, "##asi": 0, "Natur": 0, "##wissenschaft": 0, "Interpretation": 0, "##utung": 0, "fik": 0, "viert": 0, "##ige": 0, "##\u00fcndel": 0, "Bachelor": 0, "##re": 0, "##strategie": 2, "Koh": 0, "##\u00e4ren": 0, "Int": 0, "Strategie": 31, "\u00fcblicherweise": 0, "lin": 0, "korrekt": 14, "endlich": 0, "tauchen": 0, "auff\u00e4llig": 0, "##atisch": 0, "kommun": 3, "##ikat": 3, "##sb": 0, "##erei": 0, "##ktik": 0, "##fertig": 0, "Fertig": 5, "m": 0, "##dl": 0, "H\u00f6ren": 24, "gelungen": 0, "ausgehend": 0, "Pl": 0, "A": 0, "Fak": 5, "C": 0, "inne": 0, "##tik": 0, "e": 0, "eignen": 0, "F": 0, "worauf": 0, "legen": 0, "##termin": 0, "Tipp": 0, "zum": 0, "verbessern": 0, "Beweis": 5, "Gelegenheit": 22, "##reichte": 0, "##fort": 3, "messen": 0, "Erg\u00e4nzung": 0, "Gel": 0, "##ernte": 0, "Vermittlung": 12, "##rufen": 0, "steuern": 0, "Ko": 0, "##ition": 0, "anwenden": 0, "mer": 0, "##cat": 0, "##or": 0, "con": 0, "##tent": 0, "##lo": 0, "##ads": 0, "allen": 0, "fa": 0, "##ech": 0, "##ern": 0, "Not": 0, "begegnen": 0, "Tag": 0, "Sport": 0, "kennen": 0, "Name": 0, "Begriffs": 0, "##kl\u00e4rung": 0, "zeitlich": 0, "begrenzt": 0, "##ziell": 0, "Unterst\u00fctzungs": 0, "##ker": 0, "f": 0, "2015": 0, "84": 0, "Ger": 19, "##\u00fcst": 19, "selbstst\u00e4ndig": 0, "bewegen": 0, "Pauli": 0, "##ne": 0, "Gib": 0, "##bon": 0, "\u00fcbertragen": 0, "Josef": 0, "leise": 0, "28": 0, "kalk": 0, "hingegen": 0, "##ozi": 0, "Fr": 0, "##ustr": 0, "Zone": 0, "##versuch": 0, "##f\u00fchl": 0, "So": 0, "##das": 0, "optimal": 0, "##situation": 0, "eigentlich": 0, "Aufrechter": 10, "Development": 0, "Offensive": 5, "##praxis": 0, "prinzip": 0, "Instrument": 0, "Erwerbs": 14, "voran": 0, "##melde": 4, "##technische": 4, "zweit": 0, "##ebene": 0, "durchaus": 0, "st\u00e4ndig": 0, "##person": 0, "Reduktion": 0, "zugunsten": 0, "Um": 0, "##kehr": 0, "Front": 0, "lang": 0, "##put": 0, "Mikro": 114, "Mak": 31, "##ros": 31, "##ca": 31, "Phase": 0, "neben": 0, "hierzu": 0, "verst\u00e4ndlich": 0, "##erium": 0, "formuliert": 0, "Teile": 0, "##ment": 0, "Bedarf": 4, "##stands": 13, "##let": 0, "##zt": 0, "aktuell": 0, "ermitteln": 17, "behalten": 0, "genannt": 0, "Geben": 0, "umfassen": 0, "Gesamtheit": 0, "##technik": 123, "##st\u00e4ndigkeit": 0, "Methoden": 0, "##vielfalt": 0, "##sc": 91, "plan": 0, "##gespr\u00e4ch": 2, "unvor": 0, "##gesehen": 0, "##schwier": 0, "Ho": 0, "##c": 0, "reagieren": 0, "hierbei": 0, "Technik": 18, "##kommun": 0, "mitge": 0, "##stal": 0, "unvoll": 0, "##st\u00e4ndig": 0, "Ahnung": 0, "##vor": 0, "vertrauen": 0, "Grundlage": 0, "bieten": 0, "Sog": 0, "##ding": 0, "The": 0, "Lang": 0, "##uage": 0, "Cur": 0, "##ric": 0, "##ulu": 0, "##gl": 0, "121": 0, "##f\u00fchrende": 0, "##rw": 14, "Beachtung": 0, "entwickeln": 0, "wof\u00fcr": 0, "bedenken": 0, "geleitet": 0, "\u00dcbersicht": 0, "Goethe": 0, "inst": 0, "##itut": 0, "Be": 0, "Et": 0, "Al": 0, "35": 0, "beherrschen": 0, "eingesetzt": 0, "Schreib": 0, "besonder": 0, "##verk": 21, "langfristig": 0, "Zuwachs": 7, "bewirken": 0, "##n\u00f6": 0, "sicherstellen": 0, "##disziplin": 0, "Zir": 0, "##kel": 0, "Leistung": 0, "Falle": 0, "Poly": 0, "##ium": 0, "##handen": 0, "Bedeutung": 0, "Kunst": 0, "Ge": 0, "##ometrie": 0, "umso": 0, "Kl\u00e4r": 0, "##\u00e4ltigung": 0, "gerecht": 0, "Tool": 0, "##entscheidung": 0, "Kasten": 0, "gesamt": 0, "##vorgang": 3, "M\u00fcnster": 0, "Wa": 0, "Verlag": 0, "49": 0, "##instrument": 0, "erw\u00e4hnen": 0, "berichten": 0, "Studierende": 0, "Master": 0, "parallel": 0, "laufen": 0, "gestellt": 0, "anders": 0, "inten": 0, "##die": 0, "System": 0, "Konkret": 0, "##isierungs": 0, "##ras": 24, "Hilfsmittel": 0, "geeignet": 0, "sogen": 0, "##annt": 0, "vorab": 0, "Rast": 0, "altern": 0, "befassen": 0, "n\u00e4chst": 0, "Unter": 0, "Grundschule": 0, "sim": 0, "##pel": 0, "Zwischen": 0, "Modul": 0, "##abschluss": 0, "##pr\u00fcfung": 0, "\u00fcbersehen": 0, "Abgabe": 0, "Vorteil": 0, "##proben": 0, "##eignet": 0, "lo": 0, "##hnen": 0, "Verwendung": 0, "Erfinder": 0, "ebenso": 0, "durchf\u00fchren": 0, "verkehren": 0, "Bord": 0, "Erl\u00e4u": 0, "##terung": 0, "##verw": 10, "##endung": 10, "Publikation": 0, "##bene": 0, "Neben": 7, "##s\u00e4tz": 7, "Trick": 0, "##best": 0, "Englisch": 0, "Franz\u00f6sisch": 0, "Erst": 0, "pl\u00f6tzlich": 0, "Deutsche": 0, "##h\u00fc": 4, "herausfinden": 0, "Unterseite": 0, "hilfreich": 0, "##wn": 0, "ar": 0, "##row": 0, "Nutzen": 63, "ange": 0, "##h\u00e4ngt": 0, "P": 0, "dat": 0, "##eie": 0, "Hinweis": 0, "Kollegin": 0, "Dr": 0, "Maria": 0, "Gro\u00dfe": 0, "##gaben": 0, "link": 0, "ti": 0, "frage": 0, "Konzentration": 0, "Schacht": 0, "##els": 0, "Eind": 24, "##eu": 24, "##tigkeit": 24, "##deu": 0, "##fra": 0, "##cht": 0, "Ei": 0, "60": 0, "dazuge": 0, "##h\u00f6r": 0, "##kur": 0, "Erinnerung": 0, "##sw": 8, "ausgew\u00e4hlt": 0, "sc": 0, "Bitte": 0, "Pr\u00e4z": 40, "Zug": 0, "##zwang": 0, "Ziels": 0, "##tr": 0, "##tur": 0, "Kontrast": 13, "##vergleich": 0, "##ingu": 0, "##ling": 0, "##kunft": 0, "\u00c4u\u00dfer": 0, "wiederauf": 0, "korrig": 0, "Wieder": 0, "##holen": 0, "ziel": 40, "##cast": 28, "##wahl": 0, "Aufforderung": 210, "##kor": 0, "##rektur": 0, "Verweis": 0, "Eliz": 0, "##iti": 0, "##erung": 16, "##holung": 0, "Einsatz": 0, "Mi": 0, "##k": 0, "Gest": 0, "26": 0, "Folgende": 0, "Einf\u00fchrung": 0, "##sv": 0, "##ideo": 0, "Daniela": 0, "Rotter": 0, "ow": 0, "##ituation": 40, "##altern": 4, "##ative": 4, "Motiv": 0, "o": 0, "##sz": 0, "##ena": 0, "##rio": 0, "Ma\u00dfnahme": 0, "F\u00fchrung": 8, "erleichtern": 0, "##\u00fchrung": 0, "ber\u00fchren": 0, "veran": 0, "##schau": 0, "gleichzeitig": 0, "person": 0, "Steuerung": 0, "Lei": 0, "##iede": 0, "Nacht": 0, "Unsicherheit": 0, "##wissenschaftler": 0, "Knapp": 0, "beobachten": 0, "vielfach": 0, "\u00fcbersch": 0, "konzentrieren": 0, "##sich": 0, "orientieren": 0, "##tre": 0, "##tags": 0, "nett": 0, "l\u00e4": 0, "##che": 0, "ni": 0, "##cken": 0, "schnell": 0, "unent": 0, "Version": 0, "voll": 0, "par": 0, "##aver": 0, "##bal": 0, "##tem": 6, "##po": 6, "Beton": 6, "##pause": 0, "Beziehung": 0, "##sebene": 0, "Gestaltung": 9, "##gst": 0, "##frei": 0, "ermu": 5, "##nte": 5, "\u00e4u\u00dfern": 0, "ak": 0, "langsam": 0, "gew\u00e4hren": 0, "Werkzeuge": 0, "##schullehrer": 0, "40": 0, "einer": 0, "ziemlich": 0, "zust": 0, "##ehen": 0, "Perspektive": 0, "##arch": 0, "as": 0, "##ym": 0, "##met": 0, "##ris": 0, "sozio": 0, "##kultur": 0, "##theorie": 0, "konstru": 0, "##l\u00f6sen": 0, "erzeugen": 0, "anscheinend": 0, "##erg": 0, "frag": 0, "konstruiert": 0, "traditionell": 0, "##\u00e4g": 0, "##sver": 16, "bitten": 0, "##10": 0, "ver\u00e4ndern": 0, "Zeitpunkt": 0, "verhaf": 0, "##ier": 0, "Vermutung": 0, "Kon": 0, "##junkt": 0, "##11": 0, "Schwe": 0, "##nk": 0, "Akte": 0, "##ur": 14, "natur": 0, "##ug": 0, "Erkenntnis": 0, "verp": 0, "##acken": 0, "Br\u00fccke": 0, "pers\u00f6nlich": 13, "allt\u00e4": 0, "##glich": 0, "Erk": 0, "##skon": 0, "##struktion": 0, "##information": 0, "ann\u00e4h": 0, "##elli": 0, "##atten": 0, "sinn": 0, "##stift": 0, "##end": 0, "vorgestellt": 0, "##xi": 0, "Entwicklung": 0, "einerseits": 0, "konfron": 0, "andererseits": 0, "kaum": 0, "produ": 0, "trennen": 7, "##zeigen": 0, "Cor": 0, "##ction": 0, "eventuell": 0, "blo\u00df": 0, "##stellen": 2, "Interesse": 0, "automatisch": 0, "Sicherheit": 0, "keiner": 0, "Regen": 17, "unauf": 0, "##dring": 0, "nebenbei": 0, "res": 6, "##ns": 0, "##cho": 0, "halb": 0, "Nenn": 0, "anstelle": 16, "Prom": 23, "zufrieden": 0, "bekommen": 0, "anstatt": 0, "Nutzung": 16, "du": 0, "##und": 0, "Themen": 0, "##gebrauch": 0, "##rieb": 0, "##med": 0, "##w\u00e4l": 0, "##zen": 0, "##\u00e4r": 0, "##fen": 0, "##echsel": 8, "Option": 0, "empfehlen": 0, "Periode": 0, "##auer": 0, "Schau": 0, "##ions": 7, "##bewusst": 0, "Aufmerksamkeit": 0, "##sl": 0, "##enkung": 0, "Inner": 0, "Di": 0, "##\u00e4t": 0, "Abgeordnete": 0, "##andt": 0, "##schaft": 0, "Alkohol": 0, "Chemie": 0, "End": 0, "Suf": 0, "##fi": 0, "##quis": 0, "##it": 0, "##ki": 0, "##tt": 0, "##dest": 0, "##ph": 0, "##on": 0, "begleiten": 0, "Sprachen": 0, "##omen": 0, "wel": 0, "Komposition": 0, "Der": 0, "##iva": 0, "aller": 0, "##las": 0, "funktionieren": 0, "Kor": 0, "##ktive": 0, "fehler": 0, "##haft": 0, "Korrektur": 0, "Monitor": 0, "##ona": 0, "wiederholen": 0, "kalt": 0, "Metall": 0, "##platte": 0, "ert": 0, "##rinken": 0, "dauern": 0, "Sekunde": 0, "Hand": 0, "##bewegung": 0, "Heb": 0, "Augen": 0, "##bra": 0, "##ue": 0, "aufmerksam": 0, "Studium": 0, "bisher": 0, "vorgehen": 0, "##lehr": 0, "he": 0, "##mmen": 0, "Umstand": 0, "Foss": 16, "Abbruch": 0, "Sta": 14, "##gna": 14, "erworben": 0, "##brechen": 0, "demnach": 0, "werfen": 0, "verde": 0, "##utlich": 0, "gleicherma\u00dfen": 0, "Defizit": 0, "St\u00e4rke": 0, "Ressourcen": 18, "##blick": 0, "sch\u00e4r": 0, "##\u00fcler": 18, "##freundlich": 5, "##verh": 0, "##alte": 0, "etablieren": 0, "Einsicht": 0, "durchsetzen": 0, "dokumen": 0, "Studie": 0, "Zweit": 0, "Kas": 0, "##bau": 2, "beeinfl": 0, "##rate": 0, "##gie": 0, "Auge": 0, "##\u00e4u\u00dfer": 9, "beurteilen": 0, "herange": 0, "##dia": 0, "##ose": 0, "Ann\u00e4herung": 0, "regelm\u00e4\u00dfig": 0, "neutr": 21, "gegen\u00fcber": 0, "x": 0, "##nor": 6, "##ient": 6, "flexibel": 0, "Fol": 0, "##ien": 0, "##ly": 0, "##ruf": 0, "Kriterien": 24, "verf": 0, "##\u00e4l": 0, "unum": 0, "##g\u00e4ng": 0, "kritisieren": 0, "Zielsetzung": 0, "anpassen": 0, "cu": 13, "##rr": 13, "##ic": 13, "##ular": 13, "davon": 0, "Erhebung": 0, "Anregung": 0, "le": 0, "##hre": 0, "##rf": 0, "##ort": 0, "22": 0, "##orientierte": 18, "E": 0, "Aller": 0, "Verw": 4, "##enden": 4, "basierend": 0, "auswirken": 0, "registrieren": 0, "V": 0, "2007": 0, "##verst\u00e4ndlich": 0, "erinnern": 0, "R\u00fcckgabe": 0, "Klaus": 0, "Schulzeit": 0, "##f\u00f6rder": 0, "Auseinander": 0, "eil": 0, "##tiert": 0, "##abelle": 0, "real": 0, "Halbjahr": 0, "melden": 0, "##art": 0, "sodass": 0, "##zu": 0, "##wachs": 0, "ausgehen": 0, "##inn": 3, "probieren": 0, "##abell": 0, "Transparenz": 5, "Memor": 0, "L\u00f6sungs": 0, "Y": 0, "Leg": 0, "##esp": 0, "##iel": 0, "Realit\u00e4t": 0, "Math": 0, "Zahl": 0, "verlangen": 0, "Ver": 0, "##r\u00e4ts": 0, "##eln": 0, "cle": 0, "##ver": 0, "##wand": 0, "Behauptung": 0, "aufeinander": 0, "enden": 0, "Schw\u00e4che": 0, "Papier": 0, "gelegentlich": 0, "Mangel": 4, "##tigen": 0, "##zentrum": 0, "Anspruch": 0, "Er\u00f6ffnung": 0, "Sorge": 0, "verraten": 0, "Philosophie": 0, "Sache": 0, "Sens": 0, "Erm": 0, "##angel": 0, "Standard": 0, "beeindruckt": 0, "pr\u00e4": 0, "##grenze": 0, "verdienen": 0, "au\u00dferhalb": 0, "Absatz": 0, "ausschlie\u00dflich": 0, "##\u00fcss": 0, "Fett": 0, "Auftrag": 0, "gro\u00dfartig": 0, "##imi": 0, "##nier": 0, "Linie": 0, "Philosoph": 0, "interessant": 5, "inform": 6, "Theo": 0, "##ret": 0, "##iker": 0, "##ana": 0, "##s\u00e4tzlich": 0, "Standpunkt": 0, "unterm": 0, "##auern": 0, "Vorsicht": 0, "wa": 0, "##lt": 0, "Hed": 9, "##ging": 9, "Schluss": 2, "Mitarbeiter": 0, "ausbauen": 0, "bed": 0, "##\u00fcrf": 0, "wohin": 0, "Organisation": 2, "Le": 0, "##\u00fcre": 0}, "I-Feedback_Criteria": {":": 287, "ye": 0, "##llo": 0, "##w": 0, "_": 60, "cir": 0, "##cle": 0, "3": 0, ")": 414, "Analyse": 14, "##rahmen": 26, "zur": 0, "Sprach": 349, "##lichkeit": 22, "des": 147, "Fach": 325, "##lernen": 0, "##s": 20, "(": 414, "angel": 0, "##ehnt": 0, "an": 88, "Ta": 0, "##jm": 0, "##el": 0, "&": 0, "Voll": 0, "##mer": 0, "/": 225, "Th\u00fcr": 0, "##mann": 0, ";": 0, "Lo": 0, "##hs": 0, "##e": 138, "1": 0, ".": 40, "Gibt": 0, "es": 44, "sprach": 750, "##liche": 15, "H\u00fcrden": 15, ",": 357, "die": 105, "das": 0, "fach": 69, "Lernen": 49, "beh": 0, "##indern": 0, "k\u00f6nnten": 0, "?": 0, "2": 72, "Lern": 334, "##gelegen": 0, "##heiten": 0, "in": 545, "der": 1274, "Stunde": 42, "f\u00fcr": 231, "typische": 81, "\u201e": 230, "Ritu": 15, "##ale": 15, "\u201c": 240, "Unterricht": 70, "##liches": 0, "##handel": 66, "##n": 371, "Typ": 0, "##ische": 0, "Disk": 123, "##urs": 123, "##funktionen": 0, "Materialien": 0, "Rezeption": 66, "Mittel": 182, "Produktion": 66, "Zu": 26, "erstellen": 87, "##de": 215, "Texte": 66, "\u2022": 0, "Muss": 0, "m\u00fcnd": 55, "Unterrichts": 283, "-": 300, "inter": 66, "##aktion": 187, "gest\u00fctzt": 132, "werden": 83, "M\u00fc": 0, "##ssen": 0, "SU": 0, "##S": 0, "Informationen": 66, "besch": 93, "##affen": 93, "eine": 132, "Ergebnis": 47, "##pr\u00e4sent": 22, "##ation": 22, "##lich": 868, "Ist": 0, "Met": 20, "##ako": 0, "##mm": 20, "##uni": 0, "##kat": 10, "##ion": 32, "\u00fcber": 128, "##prozess": 66, "geplant": 66, "Wie": 0, "gehe": 0, "ich": 191, "mit": 233, "Fehler": 212, "um": 75, "K\u00f6nnen": 25, "##er": 0, "im": 66, "Laufe": 0, "##funktion": 123, "ein": 481, "##\u00fcben": 123, "Etwas": 0, "beschreiben": 0, "erkl\u00e4ren": 16, "diskutieren": 0, "aus": 57, "argumen": 0, "##tieren": 0, "oder": 169, "bewerten": 16, "Spiel": 0, "##t": 74, "Text": 280, "##sor": 120, "##te": 70, "Rolle": 66, "deren": 0, "Merkmale": 0, "explizit": 0, "gemacht": 0, "m\u00fcssen": 24, "re": 0, "##zept": 0, "##iven": 0, "Kern": 76, "##wort": 125, "sch": 66, "##atz": 90, "unbekannt": 0, "ist": 0, "Stehen": 0, "bestimmte": 66, "##begriff": 104, "Wort": 154, "##feld": 82, "Zentrum": 66, "Welche": 0, "konkreten": 0, "##schatz": 80, "ben\u00f6tigen": 66, "Sch\u00fcler": 352, "Aufgabe": 77, "zu": 1029, "l\u00f6sen": 0, "Art": 0, "Bereitstellung": 47, "domin": 0, "##ante": 0, "gra": 20, "##atische": 0, "Form": 73, "ben\u00f6tigt": 39, "wird": 39, "typischen": 0, "Rede": 93, "##mittel": 78, "meines": 39, "##es": 39, "k\u00f6nnte": 39, "fokuss": 39, "##ieren": 239, "und": 513, "##fordern": 65, "Wird": 0, "bestimmtes": 0, "Register": 42, "erfordert": 39, "einzu": 0, "##halten": 0, "struktur": 39, "Kann": 0, "Erste": 0, "##llen": 0, "von": 470, "##ko": 83, "##h\u00e4re": 83, "##z": 86, "\u201a": 83, "rote": 39, "##r": 39, "Faden": 98, "\u2018": 83, "einge": 39, "##\u00fcbt": 39, "Wann": 0, "gebe": 0, "Feed": 137, "##back": 154, "##bilden": 95, "##d": 148, "planen": 12, "identifizieren": 7, "sie": 67, "Aspekt": 56, "schwierig": 12, "sein": 108, "nennen": 0, "daraus": 0, "folgen": 0, "m\u00f6glich": 0, "##ziel": 60, "=": 0, "Bedarfs": 0, "##analyse": 0, "+": 0, "##bestimmung": 0, "erl\u00e4u": 0, "##tern": 0, "wie": 9, "dieser": 102, "Schwerpunkt": 35, "konkret": 36, "umgehen": 30, "welche": 18, "Hilfs": 6, "##angebot": 9, "bereits": 87, "##telle": 83, "Zusatz": 0, "##material": 27, "denkbar": 0, "innov": 8, "##ativ": 8, "spieler": 8, "##isch": 64, "Methode": 68, "*": 38, "innen": 319, "k\u00f6nnen": 108, "Kurz": 0, "anhand": 0, "selbst": 0, "produziert": 0, "Plak": 0, "##at": 0, "begr\u00fcnden": 0, "warum": 0, "Milch": 0, "##ku": 0, "##h": 0, "Nutz": 0, "##tier": 0, "Te": 0, "##acher": 0, "fe": 17, "##ed": 17, "che": 0, "##ck": 0, "mark": 0, "mich": 0, "jetzt": 13, "Teil": 16, "Einheit": 0, "spannend": 0, "noch": 110, "sehen": 0, "kommen": 0, "Ziel": 79, "Klasse": 0, "gemeinsam": 16, "Informations": 4, "##text": 21, "Thema": 60, "lesen": 0, "dabei": 42, "besprechen": 36, "Vor": 41, "##wissen": 35, "aktiv": 91, "Haltung": 8, "Herstellung": 0, "[UNK]": 946, ">": 0, "hier": 18, "man": 27, "nochmal": 16, "genau": 16, "schauen": 0, "was": 43, "!": 0, "sich": 0, "vorstellen": 18, "einfach": 7, "Plen": 0, "##um": 9, "eher": 14, "Lese": 0, "##stra": 0, "##teg": 0, "##ia": 0, "Leser": 0, "##out": 0, "##ine": 0, "Kind": 57, "eigens": 30, "##t\u00e4": 40, "##nd": 30, "##ig": 48, "Erl": 0, "##esen": 0, "vermitteln": 0, "Artikel": 18, "bei": 44, "Begriff": 108, "denken": 71, "Schlei": 4, "##fe": 4, "##bauen": 36, "euch": 0, "Verlauf": 0, "##produkt": 65, "nun": 18, "gegenseitig": 0, "nutzen": 0, "gern": 0, "##hilfe": 76, "Material": 12, "##the": 0, "##ke": 0, "Stufe": 0, "einzeln": 20, "erst": 21, "dann": 0, "Ende": 0, "produzieren": 0, "herstellen": 0, "Us": 0, "differenz": 9, "##iert": 12, "Satz": 0, "##baus": 0, "##in": 19, "##anfang": 0, "L\u00fccken": 0, "Vorber": 0, "##eiten": 0, "Pr\u00e4sentation": 52, "nicht": 132, "falsch": 41, "aber": 37, "individ": 0, "##ualisiert": 0, "auf": 149, "Differenz": 30, "##ierungs": 17, "stehen": 28, "sollen": 17, "so": 42, "jed": 0, "passend": 10, "Sc": 73, "##aff": 121, "##old": 144, "##suchen": 0, "Aufgaben": 29, "##stellung": 53, "erstmal": 0, "Ok": 0, "wichtig": 0, "wo": 0, "finden": 15, "Hilfe": 234, "Z": 0, "B": 7, "einst": 0, "##eigen": 0, "auch": 56, "##sa": 0, "##ktiv": 0, "##ierung": 106, "n\u00f6tig": 0, "einzig": 0, "relevant": 0, "daf\u00fcr": 0, "ebenfalls": 0, "ob": 16, "wirklich": 0, "Unterschied": 0, "unterschiedlich": 0, "Reihenfolge": 0, "kl\u00e4ren": 0, "ganz": 0, "transparent": 12, "Vari": 0, "oben": 0, "In": 0, "Zwei": 0, "##erte": 0, "##am": 0, "jeweils": 0, "vorgegeben": 0, "Bild": 0, "Pfeil": 0, "Verf\u00fcgung": 32, "stellen": 68, "##\u00fcte": 0, "diver": 0, "Lebensmittel": 0, "quasi": 0, "Proze\u00df": 0, "Produkt": 19, "gut": 24, "Idee": 49, "hoffentlich": 0, "##riften": 0, "lassen": 9, "doch": 0, "super": 0, "Vorgang": 0, "nochmals": 0, "schon": 23, "zeigen": 14, "als": 14, "zus\u00e4tzlich": 0, "wer": 0, "brauchen": 0, "nehmen": 0, "einig": 17, "reichen": 0, "vielleicht": 0, "nur": 16, "##sprach": 28, "Verb": 0, "verstehen": 69, "nach": 11, "Ein": 26, "Partner": 0, "##arbeit": 0, "pr\u00e4sentieren": 22, "also": 0, "klar": 62, "Wiederholung": 0, "##ss": 0, "##ch": 40, "##lei": 0, "gleich": 0, "Auf": 0, "##schreiben": 0, "anfangen": 0, "##ams": 0, "Anordnung": 0, "bestimmen": 10, "##ordnen": 0, "erwarten": 14, "Antwort": 9, "Begr\u00fcndung": 0, "gerade": 0, "fallen": 0, "mir": 0, "schwer": 8, "Mehrwert": 0, "erkennen": 68, "sehr": 45, "anspruchs": 0, "##voll": 0, "ba": 0, "##na": 0, "##l": 28, "weil": 0, "Kuh": 0, "geben": 65, "damit": 9, "K\u00e4se": 0, "machen": 9, "unklar": 0, "Muster": 6, "##l\u00f6sung": 0, "aussehen": 11, "Stelle": 28, "sinnvoll": 11, "Fazit": 0, "insgesamt": 31, "gehen": 0, "richtig": 29, "Richtung": 13, "vorhanden": 47, "allerdings": 6, "kurz": 0, "wieso": 0, "Tier": 0, "fehlen": 0, "stark": 9, "##bindung": 26, "M\u00fcn": 26, "##dlich": 26, "##keit": 26, "ab": 4, "##zielen": 0, "alle": 0, "Fest": 0, "durch": 150, "paar": 0, "Austausch": 39, "##runde": 13, "locker": 0, "ausf\u00fchrlich": 21, "Diskussion": 13, "indem": 0, "Recherche": 0, "Beitrag": 0, "Rinder": 0, "##haltung": 0, "Klimawandel": 0, "usw": 0, "Pod": 0, "##iums": 0, "##disk": 0, "##ussion": 0, "zwischen": 0, "Bauer": 0, "Klima": 0, "##aktiv": 0, "##ist": 0, "Veg": 0, "##aner": 0, "gegeneinander": 0, "vorbereiten": 0, "st\u00fctzen": 92, "nat\u00fcrlich": 0, "da": 0, "Potential": 35, "ihr": 144, "Dreier": 31, "##gruppe": 41, "knapp": 54, "De": 0, "Fac": 0, "##to": 0, "drei": 0, "##aufgabe": 9, "w\u00fcnschen": 0, "##swert": 0, "haben": 31, "Planung": 0, "aufnehmen": 0, "##isieren": 0, "plus": 0, "weit": 27, "Person": 0, "mindestens": 0, "wirken": 0, "etwas": 70, "z": 53, "##\u00f6ger": 53, "trauen": 0, "ruhig": 0, "kre": 0, "##ativer": 0, "lebendig": 0, "solange": 0, "zentral": 53, "##bildungs": 64, "##prinzip": 53, "Inter": 97, "Ans": 0, "##cha": 0, "##uu": 0, "##ng": 0, "##sm": 0, "##aterial": 0, "Map": 0, "inspir": 0, "https": 0, "mo": 0, "##od": 0, "##le": 0, "##lab": 0, "hu": 0, "ber": 0, "##lin": 0, "de": 0, "mod": 0, "ur": 0, "view": 0, "ph": 0, "##p": 0, "id": 0, "111": 0, "##arbeiten": 0, "Umsetzung": 0, "Se": 22, "##quenz": 22, "Entlastung": 0, "sowie": 0, "\u00c4nderung": 0, "Sozial": 35, "##form": 68, "viele": 0, "umsetzen": 9, "Station": 0, "G": 16, "##gf": 16, "Check": 0, "i": 21, "Warm": 0, "up": 0, "bevor": 0, "verteilen": 0, "dennoch": 0, "vollst\u00e4ndig": 0, "##bildung": 16, "##nu": 16, "##tz": 16, "##en": 82, "##kart": 0, "vorrangig": 0, "##halt": 29, "ohne": 16, "diese": 16, "Formul": 0, "helfen": 0, "meist": 0, "wissen": 53, "ja": 0, "versprach": 0, "##g\u00e4ngig": 0, "all": 12, "Opera": 112, "##tor": 112, "schreiben": 0, "Definition": 0, "el": 0, "##ement": 0, "##ar": 0, "starten": 0, "Karte": 0, "Funktion": 0, "zumindest": 0, "liefern": 0, "versammel": 12, "enthalten": 0, "##speicher": 0, "Bruch": 0, "##teil": 0, "eindeutig": 0, "gr\u00f6\u00dftenteils": 0, "allein": 0, "einige": 0, "Bananen": 0, "##oper": 0, "##ator": 0, "ihnen": 14, "einsch": 9, "##mu": 0, "##gge": 0, "##ln": 0, "\u00fcberhaupt": 70, "keinerlei": 0, "Aussage": 0, "##kraft": 22, "v": 5, "a": 0, "meinen": 0, "passieren": 0, "##zw": 7, "wenn": 0, "Vergleich": 0, "Fall": 0, "dringend": 0, "##raten": 0, "analysieren": 0, "eigen": 17, "Sche": 0, "##ma": 0, "durchge": 0, "##hen": 4, "betrachten": 0, "kritisch": 0, "L\u00f6sung": 0, "lauten": 0, "wiederum": 0, "H\u00fcr": 104, "mein": 0, "vermutlich": 0, "form": 6, "##ulieren": 6, "irgendwie": 0, "vor": 3, "##sal": 0, "ander": 19, "Formulierung": 16, "##shi": 0, "##lf": 0, "\u00dcber": 54, "##legen": 11, "aufs": 17, "##reiben": 17, "erfolgen": 12, "Schrift": 34, "##sprache": 189, "not": 0, "sp\u00e4t": 0, "O": 0, "\u00c4": 0, "wozu": 0, "denn": 0, "sonst": 0, "daran": 0, "schlie\u00dfen": 0, "letzt": 0, "Punkt": 0, "wann": 17, "erkennbar": 14, "mittels": 0, "##ta": 0, "##rk": 20, "n\u00fctzlich": 0, "weniger": 0, "Sicht": 0, "schwach": 0, "unsicher": 0, "immer": 0, "gro\u00df": 0, "Herausforderung": 4, "##karte": 0, "Liebe": 0, "Kir": 0, "##sten": 0, "##idee": 17, "viel": 54, "leider": 13, "deutlich": 0, "Beschreibung": 0, "Vogel": 0, "erreichen": 0, "Schwier": 3, "##igkeit": 9, "Deutsch": 0, "hierf\u00fcr": 0, "##sehen": 0, "kn": 0, "##iff": 0, "##lig": 5, "komplex": 0, "vorge": 0, "##ben": 20, "wegen": 0, "hoch": 27, "##an": 5, "##forderung": 22, "sondern": 0, "klein": 18, "arbeiten": 0, "Farbe": 0, "ohnehin": 0, "Farb": 0, "Bestandteil": 0, "minim": 0, "##al": 0, "Anzahl": 0, "Feder": 0, "n": 0, "Schnabel": 0, "Brust": 0, "Steck": 0, "##brief": 0, "wollen": 0, "spontan": 0, "falls": 0, "##stehen": 0, "hoffen": 0, "ber\u00fccksichtigen": 23, "ansonsten": 0, "'": 0, "s": 0, "kla": 0, "##ppen": 0, "vorne": 0, "##weg": 21, "kein": 0, "Entwurf": 0, "4": 0, "mehr": 0, "5": 0, "6": 0, "fr\u00fche": 0, "##stens": 0, "sowohl": 0, "Erwart": 0, "##ung": 211, "anbieten": 0, "vieler": 0, "eingest": 0, "##\u00e4ndig": 0, "anschauen": 0, "vorher": 0, "intensiv": 0, "zurecht": 0, "vollkommen": 0, "au\u00dfen": 0, "##lassen": 0, "Wissens": 11, "##aufbau": 4, "woher": 0, "Info": 0, "Kopf": 0, "dort": 0, "bestehend": 0, "Wissen": 114, "vern": 0, "##etzen": 0, "Problem": 0, "Aus": 23, "##gan": 0, "##listen": 0, "##sicherung": 0, "##besch": 4, "##affung": 4, "hei\u00dfen": 0, "dass": 22, "Rest": 0, "##leiten": 10, "aufbauen": 33, "vergessen": 4, "##dr": 0, "innerhalb": 0, "Gruppe": 12, "Klassen": 0, "##stufe": 0, "Inhalt": 16, "zusammen": 0, "##fassen": 0, "erz\u00e4hlen": 0, "Ebene": 0, "neu": 34, "direkt": 16, "auffallen": 0, "Lesen": 0, "stattfinden": 0, "Versp": 0, "##rach": 0, "Alltags": 44, "statt": 120, "Unterst\u00fctzung": 35, "Bildungs": 38, "Gef\u00fchl": 0, "Moment": 0, "inner": 0, "##sens": 28, "##ib": 16, "daher": 0, "mechan": 0, "leb": 0, "##los": 0, "gl\u00fcck": 0, "zer": 0, "##spl": 0, "##ittern": 0, "abstra": 0, "##kt": 5, "Ah": 0, "##a": 0, "verbinden": 0, "Empfehlung": 0, "versuchen": 0, "rund": 0, "Ganze": 0, "Teils": 0, "##ritt": 0, "##orientierung": 0, "verste": 0, "##if": 0, "f\u00fchren": 14, "eben": 0, "Eindruck": 16, "au\u00dferdem": 0, "rau": 0, "##mg": 0, "##reifen": 0, "wir": 16, "gar": 0, "fast": 0, "nichts": 0, "sagen": 0, "bleiben": 4, "dargestellt": 0, "Vorgehensweise": 0, "Hinsicht": 21, "allgemein": 21, "heraus": 26, "##uliert": 4, "Kooperation": 0, "##vern": 7, "##etzung": 7, "Umgang": 36, "Ab": 0, "Drei": 0, "##eck": 0, "Gemeinsam": 0, "vorn": 0, "##oti": 0, "##eren": 0, "m\u00f6gen": 0, "spielen": 0, "gew\u00e4hlt": 0, "zudem": 0, "Vie": 0, "##ee": 0, "R\u00fcck": 3, "##meldung": 3, "grunds\u00e4tzlich": 0, "\u00fcberlegen": 4, "Einstieg": 12, "gestalten": 30, "Aktivit\u00e4t": 3, "inhaltlich": 0, "rot": 59, "bis": 0, "fortsetzen": 0, "h\u00e4ngen": 0, "los": 0, "Raum": 0, "mal": 72, "##be": 0, "##zug": 0, "Fokus": 24, "r\u00fccken": 0, "welcher": 39, "Themenk": 0, "##omp": 0, "##lex": 32, "passen": 0, "danach": 0, "##reihe": 0, "ober": 0, "##fl\u00e4ch": 0, "punkt": 0, "##uell": 0, "betreffen": 0, "Vis": 7, "##ualisierung": 7, "dazu": 0, "Symbol": 0, "Arbeits": 11, "##auftrag": 6, "hinter": 0, "stif": 0, "##ten": 0, "Sprech": 6, "##bl": 0, "##ase": 0, "Einzel": 0, "w\u00e4hlen": 0, "Modus": 12, "Geschichte": 0, "Merkmal": 10, "Jahreszeit": 0, "themat": 0, "unbedingt": 0, "##auf": 12, "##nehmen": 12, "Beispiel": 0, "suchen": 0, "unter": 52, "##ziehen": 0, "legitim": 0, "##ierbar": 0, "ta": 0, "##uschen": 0, "aktiviert": 0, "##lichen": 0, "experimente": 0, "##ll": 0, "Erf": 0, "##ors": 0, "##chen": 0, "##helfen": 0, "Taschen": 0, "##lam": 0, "##pe": 0, "Licht": 0, "##quelle": 0, "Glob": 0, "##us": 0, "Ball": 0, "Information": 0, "Videos": 0, "Tafel": 0, "##bild": 0, "##ungs": 36, "##hor": 0, "##izont": 0, "erg\u00e4nzen": 0, "umf": 0, "##orm": 12, "best": 0, "Kontext": 22, "zwei": 0, "Buch": 0, "##seite": 0, "wobei": 0, "Vorbereitung": 0, "Lieblings": 0, "##jahres": 0, "##zeit": 8, "##x": 0, "Sitz": 0, "##kreis": 0, "d\u00fcrfen": 0, "Anfang": 0, "Ursache": 0, "beide": 12, "lau": 0, "##schen": 16, "Hintergrund": 0, "Umlauf": 0, "Kreis": 0, "je": 0, "nachdem": 0, "m\u00f6glichst": 49, "vis": 0, "Syn": 0, "##onym": 0, "Erkl\u00e4r": 0, "experimen": 0, "S": 0, "8": 0, "Seite": 0, "durchs": 0, "##chi": 0, "##mmer": 0, "offenbar": 0, "Experiment": 0, "##ein": 0, "##beziehen": 0, "Experten": 0, "b": 0, "Frage": 116, "verschieden": 22, "Zeit": 0, "anderer": 0, "Suche": 0, "ideal": 9, "sprechen": 0, "Bilder": 0, "##folg": 0, "ggf": 0, "\u00dcbertragung": 0, "Heft": 0, "Abschluss": 0, "Reflex": 0, "##schritt": 35, "di": 18, "##da": 18, "##ktisch": 18, "T": 0, "unten": 0, "anf": 0, "##\u00fcgen": 0, "Kommentar": 0, "ignor": 0, "En": 0, "Klarheit": 28, "dar\u00fcber": 0, "insbesondere": 0, "M\u00f6glichkeit": 0, "Wasser": 0, "##lauf": 0, "verd": 0, "##unsten": 0, "flie\u00dfen": 0, "tats\u00e4chlich": 0, "Denken": 78, "seit": 0, "wenig": 8, "Monat": 0, "lernen": 0, "Kritik": 0, "##punkt": 0, "zwar": 15, "##fertigt": 0, "##mat": 0, "Stichwort": 0, "F\u00fcll": 0, "leisten": 0, "entsprechend": 0, "defen": 5, "##siv": 5, "Motivation": 0, "verlassen": 0, "einmal": 0, "##komplex": 0, "beantworten": 0, "recht": 0, "##ent": 0, "##lastung": 0, "Gruppen": 22, "##dehn": 0, "ents": 0, "##leun": 0, "##igen": 0, "ent": 0, "##lasten": 0, "ansprechen": 0, "Planungs": 0, "hinein": 0, "##schauen": 0, "achten": 0, "einsetzen": 22, "jewei": 5, "Ern\u00e4hrung": 0, "Ding": 0, "Lebe": 0, "##wesen": 0, "Mensch": 0, "essen": 0, "Frucht": 0, "Inse": 0, "Maus": 0, "Fisch": 0, "Nu": 0, "Blatt": 0, "Katalog": 0, "Kategorie": 26, "Lebensraum": 0, "Ort": 0, "leben": 0, "Vorhaben": 0, "ans": 0, "##weise": 21, "jedoch": 0, "ausb": 0, "##\u00e4h": 0, "##wie": 0, "##fern": 0, "urspr\u00fcnglich": 0, "jetz": 0, "k": 0, "##ind": 0, "##gerecht": 0, "motiv": 9, "##ierend": 9, "br\u00fc": 0, "##g": 0, "Komp": 0, "##osit": 0, "Lehr": 38, "##werk": 0, "sch\u00f6n": 0, "\u00dcbung": 0, "No": 0, "##me": 0, "bilden": 0, "Wald": 0, "Am": 0, "##eise": 0, "##ame": 0, "##ise": 0, "fro": 0, "##nt": 0, "##iv": 0, "##aw": 0, "##isse": 0, "win": 0, "##kin": 0, "fac": 0, "##pers": 0, "##pekt": 0, "##ive": 0, "mus": 0, "##ter": 32, "##g\u00fcltig": 0, "Blick": 49, "gelingen": 0, "Darstellung": 16, "Vorgehen": 25, "abl": 0, "##aufen": 0, "ben": 0, "##ennen": 0, "angemessen": 17, "soweit": 0, "doppelt": 0, "gr\u00fcn": 0, "w\u00e4hrend": 0, "##werkstatt": 0, "Grund": 20, "##voraus": 0, "##setzung": 17, "mater": 0, "##ial": 0, "##side": 0, "\u2192": 0, "##igungs": 0, "##stunde": 0, "entstehen": 21, "Zahlen": 0, "##geschichte": 0, "h": 0, "##\u00e4n": 0, "##seln": 0, "sieben": 0, "Leb": 0, "##kuchen": 0, "Gre": 0, "##tel": 0, "25": 0, "Gleich": 0, "aufstellen": 0, "7": 0, "Achtung": 0, "Peer": 0, "##feed": 0, "entfallen": 0, "dir": 0, "heute": 0, "unser": 60, "\u00dcbungs": 0, "Woche": 0, "schlecht": 0, "genauso": 0, "leicht": 0, "hervorragend": 0, "getr": 0, "##ost": 0, "Per": 0, "##fektion": 0, "##ism": 0, "##u": 0, "verb": 3, "##uchen": 0, "Fin": 0, "##et": 0, "wertvoll": 0, "##stand": 110, "besonders": 0, "f\u00e4l": 0, "##len": 0, "string": 0, "them": 0, "##bedingt": 0, "reduzieren": 14, "mathemat": 49, "weiterhin": 0, "versch": 7, "##rift": 0, "Besch": 0, "Reis": 0, "##haufen": 0, "perfekt": 0, "s\u00e4m": 0, "##tlich": 0, "aussch": 19, "##\u00f6pfen": 19, "abweichen": 0, "krei": 0, "mitten": 0, "Wanderung": 0, "##zimmer": 0, "Weg": 0, "sammeln": 0, "Erfahrung": 0, "Plan": 0, "halten": 40, "##stu": 0, "Re": 0, "Orts": 0, "##plan": 0, "Legende": 0, "z\u00e4hlen": 0, "strukturiert": 0, "fein": 0, "Abstra": 0, "##ktions": 0, "##verm\u00f6gen": 22, "Arbeit": 0, "##beschreibung": 0, "Ausflug": 0, "drau\u00dfen": 0, "schlie\u00dflich": 0, "##igung": 14, "Audio": 0, "##aufnahme": 0, "st": 0, "##\u00fcndig": 0, "##einheit": 0, "##fach": 0, "##handlung": 9, "fragen": 0, "Entschuldigung": 0, "links": 0, "rechts": 0, "##biegen": 0, "##as": 0, "Himmels": 0, "##richtung": 0, "n\u00f6rdlich": 0, "\u00f6stlich": 0, "feststellen": 9, "fest": 0, "u": 0, "un": 0, "##kon": 0, "##kret": 0, "g\u00e4ng": 0, "Schritt": 0, "##pro": 59, "##ze\u00df": 59, "vier": 0, "Ablauf": 0, "##arbeitung": 0, "erf\u00fcllen": 5, "Kriterium": 0, "Kreativit\u00e4t": 15, "Bereich": 15, "angehen": 0, "Ideal": 0, "##erweise": 0, "Impuls": 0, "Klein": 0, "bearbeiten": 27, "anschlie\u00dfend": 0, "ord": 0, "##nen": 11, "Herz": 0, "erfassen": 0, "##kod": 0, "zusammengefasst": 0, "hinsichtlich": 0, "kooper": 0, "komplett": 0, "weg": 0, "Doppel": 0, "##seit": 0, "grob": 0, "Aufbau": 0, "traurig": 0, "##heitlich": 0, "##fahrung": 0, "Ha": 0, "##pt": 10, "##ik": 14, "bas": 0, "##teln": 0, "pr\u00e4zise": 0, "##sch": 5, "##k\u00e4": 0, "##rt": 0, "##blatt": 0, "Block": 0, "Prinzip": 0, "erwerben": 23, "Ritter": 0, "##schlag": 0, "Herr": 0, "Page": 0, "##sf": 42, "Lan": 0, "##ze": 0, "Schild": 0, "Mittelalter": 0, "kennenlernen": 0, "erweitern": 0, "beob": 0, "##acht": 0, "##bar": 6, "men": 0, "##tal": 0, "Was": 0, "Verhaltens": 14, "verwenden": 16, "pass": 0, "spezif": 0, "Koll": 0, "##oka": 0, "##tion": 24, "erhalten": 0, "\u201d": 0, "Land": 0, "besitzen": 0, "christ": 0, "Glauben": 0, "erz": 0, "##ieh": 0, "hm": 0, "gew": 0, "##i\u00df": 0, "##sie": 6, "##rung": 6, "##bei": 0, "##gehen": 0, "merken": 0, "kombin": 0, "Funktions": 0, "##verb": 0, "##gef\u00fc": 0, "##ge": 0, "Work": 0, "##sh": 0, "Live": 0, "##work": 0, "##ts": 10, "com": 0, "Da": 0, "kinder": 0, "Pr\u00e4": 0, "##itu": 0, "##ms": 0, "Pr\u00e4sen": 0, "##\u00fcbung": 0, "dies": 0, "Gramm": 0, "##atik": 8, "liegen": 10, "mg": 0, "Aktiv": 0, "f\u00f6rdern": 27, "einsam": 0, "##mel": 0, "Sach": 0, "##buch": 0, "gerne": 0, "Kita": 0, "Jahrgang": 0, "##sst": 17, "##ufe": 0, "niedrig": 9, "erm\u00f6glichen": 0, "darauf": 0, "gr\u00fcndlich": 0, "Rollen": 0, "##spiel": 0, "Lebensweise": 0, "Stand": 0, "Verk": 0, "##leidung": 0, "schl\u00fc": 0, "##pfen": 9, "Lebens": 0, "##ums": 0, "##tan": 0, "Beginn": 7, "##gruppen": 0, "ausf\u00fchren": 0, "Rahmen": 0, "Qu": 0, "##atsch": 0, "##phase": 22, "Niveau": 14, "fordern": 0, "ad": 0, "##\u00e4qu": 0, "dienen": 0, "okay": 0, "gefallen": 0, "##nach": 0, "sichern": 25, "am": 0, "Zusammenfassung": 0, "\u00fcbers": 0, "einbringen": 0, "##laufen": 0, "wahrscheinlich": 0, "Vorschlag": 0, "Mal": 0, "dein": 0, "Figur": 0, "##sagen": 0, "verhalten": 0, "ausgest": 0, "##alten": 0, "Dialog": 0, "euer": 0, "Smart": 0, "##board": 0, "darstellen": 24, "typisch": 0, "Ausr\u00fcstung": 0, "##steil": 0, "Pferd": 0, "Schwert": 0, "hac": 0, "##ken": 0, "Schwein": 0, "Getreide": 0, "##durch": 0, "vergleichen": 0, "Variante": 0, "Platz": 0, "Tabl": 0, "klass": 0, "la": 0, "##min": 0, "somit": 0, "unbe": 0, "##wu": 0, "rein": 0, "##bringen": 3, "\u00dcberblick": 0, "##up": 0, "##id": 0, "Team": 0, "##sr": 0, "##ollen": 0, "erarbeiten": 35, "recher": 0, "##muster": 9, "Bauern": 0, "mehrere": 0, "Auswahl": 16, "\u00e4": 0, "analog": 0, "sitzen": 0, "\u00e4hnlich": 0, "Tabelle": 0, "fertig": 0, "##f\u00fcllen": 0, "jederzeit": 0, "holen": 0, "wieder": 0, "unterst\u00fctzen": 33, "Alters": 0, "##pla": 0, "erledigen": 0, "Hin": 0, "##f\u00fchrung": 0, "##enken": 0, "Mega": 0, "##poten": 0, "##tial": 0, "reden": 20, "##denken": 0, "wor": 0, "##h\u00f6ren": 0, "gen\u00fcgend": 0, "##f\u00e4higkeit": 4, "##h\u00e4ngen": 0, "verlieren": 0, "diagnost": 0, "n\u00e4mlich": 0, "##frage": 0, "Reihe": 0, "h\u00f6ren": 0, "##\u00fcchtern": 0, "Kollege": 0, "bezahlen": 0, "##eli": 0, "schl": 0, "##au": 0, "Gespr\u00e4ch": 30, "##anteil": 7, "L": 0, "antworten": 0, "mi": 0, "##\u00df": 0, "##brauch": 0, "Reiz": 0, "##geber": 0, "antwor": 0, "erlauben": 0, "Interview": 0, "Fernsehen": 0, "##regen": 0, "Vortrag": 0, "weiter": 23, "##f\u00fchren": 0, "##tragen": 0, "entdecken": 0, "ind": 11, "##uk": 35, "##tiv": 11, "Tisch": 0, "pro": 0, "bringen": 0, "fassen": 0, "darin": 0, "vermuten": 0, "10": 0, "Min": 0, "Zeitungs": 0, "##artikel": 0, "Aussch": 0, "##nitt": 0, "100": 0, "%": 0, "I": 0, "Mur": 0, "##f\u00e4llig": 0, "##aus": 0, "bestehen": 9, "Leit": 0, "Befra": 0, "##gte": 0, "befragt": 0, "tun": 0, "K\u00e4r": 0, "##tchen": 0, "Chance": 0, "ausmachen": 0, "##schlei": 0, "##arbeitungs": 0, "##m\u00f6glichkeit": 0, "\u00fcben": 0, "##satz": 0, "##lesen": 0, "runter": 0, "##bet": 0, "bereit": 12, "wider": 0, "##spiegel": 0, "##and": 13, "Seminar": 0, "##uns": 0, "##ens": 0, "bauen": 0, "##leistung": 0, "akzeptieren": 0, "umfangreich": 0, "Gedanke": 11, "##splan": 0, "Schilder": 0, "wonach": 0, "Haupt": 0, "##rede": 0, "Denk": 63, "Holz": 0, "##stern": 0, "Mathematik": 0, "##unterricht": 90, "Anf": 193, "##order": 193, "Forum": 0, "Praxis": 0, "[": 34, "Nur": 0, "Mo": 0, "]": 34, "f\u00fc": 0, "##gen": 0, "For": 0, "##beitrag": 0, "hinzu": 0, "festgestellt": 0, "Element": 0, "gelangen": 0, "24": 0, "Modell": 4, "Kommunikation": 10, "##alisieren": 3, "Sprache": 68, "Sachver": 10, "nachdenken": 12, "Rechn": 20, "kommunizieren": 23, "Rechen": 0, "##ae": 20, "uns": 0, "sorgen": 0, "\u00dcbersch": 0, "##u\u00df": 0, "problematisch": 0, "##liste": 0, "##arbeits": 22, "Kommun": 22, "##izieren": 22, "Summe": 0, "Tee": 0, "##licht": 0, "Ausgabe": 0, "Brett": 0, "add": 0, "verf\u00fcgbar": 0, "Verf\u00fcg": 6, "##mach": 6, "professionell": 0, "erfahren": 0, "Abschnitt": 0, "Sp": 0, "##ick": 0, "##zettel": 0, "Glo": 0, "##ssa": 0, "darum": 0, "H\u00e4lfte": 0, "verbringen": 0, "bild": 24, "F\u00e4higkeit": 7, "ausw\u00e4hlen": 0, "alter": 0, "##sg": 0, "##erecht": 0, "Kurs": 0, "praktisch": 0, "m\u00f6chten": 0, "beitragen": 0, "Erwerb": 7, "Jahr": 0, "Angebot": 0, "##schul": 0, "##bereich": 0, "stetig": 0, "steigen": 0, "scheinen": 0, "nei": 0, "schul": 0, "Alltag": 0, "angesichts": 0, "hor": 0, "##ren": 0, "##ff": 23, "##kos": 0, "Schul": 0, "explod": 0, "frei": 0, "verk": 9, "##\u00e4uf": 0, "Internet": 0, "detaill": 0, "fund": 7, "notwendig": 0, "beschrieben": 0, "##l\u00e4nge": 0, "Problems": 4, "##tell": 4, "##veranstaltung": 0, "pra": 0, "##xis": 0, "##orientiert": 0, "Verkn\u00fc": 0, "##pfung": 0, "9": 0, "##si": 10, "diskrimin": 7, "##krit": 18, "Diver": 10, "Diskriminierung": 47, "Klicken": 0, "herunterladen": 0, "##oo": 0, "##men": 0, "Zusammenhang": 0, "Mehr": 0, "11": 0, "Komponente": 0, "beding": 0, "Sinn": 26, "Bezug": 29, "National": 0, "Repertoire": 0, "##welt": 0, "Familie": 0, "Medium": 0, "##ref": 32, "##ktiert": 0, "ster": 22, "##eo": 22, "##typ": 22, "##geleitet": 0, "Handeln": 32, "Schuls": 4, "##ystem": 4, "##faktor": 0, "sozial": 0, "Herkunft": 0, "nachweisen": 0, "Beh": 0, "##err": 0, "akadem": 0, "Haushalt": 0, "##system": 9, "erfolglos": 0, "\u00dcberzeugung": 22, "auseinander": 22, "##setzen": 22, "Selbst": 265, "Rassismus": 26, "##bezogen": 0, "institution": 18, "##ell": 18, "##literatur": 0, "h\u00e4ufig": 22, "Ausdruck": 0, "tief": 0, "systematisch": 0, "rass": 0, "##istisch": 0, "Struktur": 102, "ansehen": 0, "heu": 0, "##tig": 0, "pla": 0, "Jahrzehnt": 0, "weshalb": 0, "jemand": 0, "zahl": 0, "##reich": 0, "##konstruktion": 0, "Vielzahl": 0, "##dimension": 0, "Individ": 0, "##uum": 0, "Identit\u00e4t": 0, "pr\u00e4gen": 0, "aufgrund": 17, "##behandlung": 0, "##sse": 0, "Ag": 0, "unters": 0, "##agen": 0, "straf": 0, "##rechtlich": 0, "verfolgen": 0, "Rasse": 0, "Ethn": 0, "##ie": 0, "Geschlecht": 0, "Religion": 0, "Welt": 0, "##ans": 0, "Alter": 0, "Behinderung": 0, "sexuell": 0, "Quelle": 0, "##ese": 0, "Berlin": 0, "Gesetz": 0, "Ausgrenzung": 0, "Ph\u00e4nomen": 0, "Ben": 14, "##achteil": 14, "12": 0, "ergeben": 0, "##rel": 0, "##ev": 0, "##ant": 0, "##eg": 10, "##orie": 10, "gezielt": 0, "\u2014": 0, "Tu": 0, "Dresden": 0, "tu": 0, "dre": 0, "##sd": 0, "d": 0, "Schule": 14, "hinaus": 0, "Dimension": 0, "Brand": 0, "Hab": 0, "Beg": 0, "##abu": 0, "Leistungs": 0, "bedeut": 0, "##sam": 0, "He": 0, "##ogen": 0, "##it\u00e4ts": 0, "##merkmale": 0, "2017": 0, "20": 0, "beachten": 6, "Leben": 0, "13": 0, "Lehre": 0, "Position": 16, "##ner": 0, "gesellschaft": 12, "Verh\u00e4ltnis": 0, "##linie": 0, "Methodik": 0, "zumeist": 0, "setzen": 7, "oftmals": 0, "verg": 0, "##egen": 0, "##w\u00e4rtig": 0, "inwieweit": 0, "##real": 0, "##it\u00e4t": 0, "Mit": 0, "weiterer": 0, "korre": 12, "##sp": 12, "##ond": 12, "Folge": 16, "lern": 33, "verh\u00e4lt": 16, "##nis": 16, "ausreichend": 16, "refle": 38, "##ktieren": 38, "##format": 0, "schlimm": 0, "sogar": 0, "Nad": 0, "##ol": 0, "##ny": 0, "Stefan": 0, "2021": 0, "##sek": 0, "##tional": 0, "politisch": 0, "15": 0, "ersch": 7, "##weren": 7, "##kommen": 0, "stets": 0, "Kombination": 0, "auftreten": 0, "##r\u00e4nkt": 7, "geschehen": 7, "Online": 0, "H": 0, "##ttp": 0, "www": 0, "ro": 0, "##ux": 0, "publ": 0, "##ikation": 8, "375": 0, "##78": 0, "##ita": 0, "zuletzt": 0, "pr\u00fcfen": 0, "01": 0, "07": 0, "Besch\u00e4ftigung": 0, "gelten": 0, "P\u00e4dagog": 0, "besch\u00e4ftigen": 0, "Zugeh\u00f6rigkeit": 0, "Spannungs": 0, "##verh\u00e4ltnis": 0, "individuell": 7, "Faktor": 7, "Herrschafts": 7, "##ef": 7, "##fekt": 7, "Mart": 0, "Busch": 0, "\u00ab": 0, "Sub": 0, "##jekt": 0, "\u00bb": 0, "Pers\u00f6nlichkeit": 0, "##sent": 0, "##wicklung": 0, "Lage": 0, "Er": 22, "##achten": 0, "Kompetenz": 16, "Komplexit\u00e4t": 16, "Viel": 24, "##schicht": 0, "Anlehnung": 0, "Andreas": 0, "Fo": 0, "##itz": 0, "vielmehr": 0, "eleg": 0, "scheiter": 0, "14": 0, "Handlungs": 27, "trotz": 0, "##icherheit": 0, "p\u00e4dagog": 0, "Weise": 14, "f\u00f6rder": 0, "Angst": 0, "mei": 0, "##den": 0, "Deb": 0, "Katharina": 0, "Stu": 0, "##ve": 0, "Olaf": 0, "Scheitern": 0, "##heit": 20, "gegen": 6, "Neut": 0, "##ral": 0, "##anst": 0, "##o\u00df": 0, "Wert": 0, "##freiheit": 0, "Grundsatz": 0, "##verst\u00e4ndnis": 0, "metho": 0, "##dis": 0, "Dog": 0, "dauerhaft": 0, "aufta": 0, "Ungleich": 0, "##heits": 0, "priv": 0, "##ileg": 0, "\u2013": 0, "Kosten": 0, "gesteckt": 0, "Regel": 0, "##sprechen": 0, "##uss": 0, "##folger": 0, "zun\u00e4chst": 0, "Wider": 0, "##here": 0, "offen": 0, "Verhalten": 0, "18": 0, "23": 0, "beziehen": 0, "Privileg": 0, "bew": 0, "##ussen": 0, "##ierte": 0, "luxuri": 0, "##\u00f6s": 0, "Situation": 0, "Reduzierung": 0, "Ster": 0, "##isierung": 6, "Gewalt": 0, "Marg": 0, "##ina": 0, "##li": 0, "##rte": 0, "Gut": 0, "lustig": 0, "f\u00fchlen": 0, "Un": 0, "konvention": 0, "Ice": 0, "##rd": 0, "1966": 0, "Haut": 0, "##farbe": 0, "Abstammung": 0, "national": 0, "Ursprung": 0, "Volks": 0, "##tum": 0, "beruhen": 0, "Unterscheidung": 0, "##lie\u00df": 0, "Beschr\u00e4nkung": 0, "Bevor": 0, "dadurch": 0, "##berechtigt": 0, "An": 0, "##erkennen": 0, "Genie\u00dfen": 0, "aus\u00fcben": 0, "Menschen": 0, "##recht": 0, "wirtschaftlich": 0, "kultur": 0, "\u00f6ffentlich": 0, "ver": 20, "##eite": 0, "beeintr\u00e4chtigen": 0, "abs": 0, "bemerken": 0, "Kategor": 0, "entlang": 0, "sog": 0, "aufrechter": 0, "sub": 16, "##jektiv": 32, "Wahrnehmung": 0, "verh": 0, "##\u00e4rten": 0, "impl": 0, "##rasse": 0, "wissenschaft": 0, "halt": 0, "Nach": 0, "##ew": 0, "##erk": 0, "Susan": 0, "Arn": 0, "##dt": 0, "##ja": 0, "Of": 0, "##ua": 0, "##y": 0, "al": 0, "##azar": 0, "vorschlagen": 0, "17": 0, "definieren": 4, "ra": 0, "##cis": 0, "##m": 0, "Pre": 0, "##ju": 0, "##di": 0, "##ce": 0, "Power": 0, "Rass": 0, "##ismen": 0, "##stuf": 0, "Bewertung": 0, "Macht": 0, "##ismus": 0, "geh\u00f6ren": 0, "##willig": 0, "##urteil": 0, "handeln": 4, "echt": 0, "vorliegen": 0, "ungleich": 0, "behandeln": 0, "##leich": 0, "er": 0, "Wei\u00df": 0, "##sein": 0, "bestimmt": 0, "genie\u00dfen": 0, "kontro": 0, "##vers": 0, "unterscheiden": 0, "Abbildung": 0, "Ali": 0, "Val": 0, "##jen": 0, "na": 0, "##zi": 0, "net": 0, "##ap": 0, "Ex": 0, "##kurs": 0, "positiv": 0, "19": 0, "eng": 0, "ethn": 0, "verwandt": 0, "Konzept": 0, "\u00f6fter": 0, "is": 0, "Look": 0, "Aussehen": 0, "##ili": 0, "Gesundheit": 0, "Ad": 0, "##ult": 0, "jung": 0, "Antisemitismus": 0, "Klass": 0, "Schicht": 0, "Tran": 0, "feind": 0, "##kei": 0, "Sex": 0, "Gen": 0, "##der": 0, "##eis": 0, "Alte": 0, "anti": 0, "##mus": 0, "##lim": 0, "Islam": 0, "##feind": 0, "Hom": 0, "##oph": 0, "##obi": 0, "Anti": 0, "##zig": 0, "##ani": 0, "Rom": 0, "Sin": 0, "Lin": 0, "##gu": 0, "##iz": 0, "gewalt": 0, "gering": 0, "Liter": 0, "##alit\u00e4t": 0, "##serfahrung": 0, "nieders": 0, "##lagen": 0, "##weisung": 5, "##f\u00f6rderung": 0, "irre": 0, "##lev": 0, "Ak": 0, "##zent": 0, "Aussprache": 0, "##gew": 0, "##ohn": 0, "wesentlich": 0, "Ot": 0, "##her": 0, "##ing": 93, "Kultur": 0, "##alisierung": 0, "Mech": 0, "##eri": 0, "Dir": 0, "##im": 0, "Mel": 0, "2010": 0, "42": 0, "det": 0, "Erkl\u00e4rung": 11, "Handlung": 0, "Einstellung": 0, "Konflikt": 0, "##sweise": 10, "Dich": 0, "##oto": 0, "##mi": 14, "Zweite": 0, "##il": 0, "Gesellschaft": 20, "Zuge": 0, "##h\u00f6rige": 0, "Nicht": 0, "zuge": 0, "verst\u00e4rkt": 0, "Zusch": 0, "##reibung": 0, "##produz": 0, "bedeuten": 0, "Ru": 0, "ko": 11, "Ne": 0, "##o": 0, "Datei": 0, "vielf\u00e4ltig": 0, "Dialekt": 0, "##\u00e4tzen": 14, "##tritt": 0, "##sem": 0, "##pfe": 0, "##hl": 0, "Gymnasium": 0, "erteilen": 0, "101": 0, "hinweg": 0, "Anerkennung": 0, "mitgebracht": 12, "##ibel": 12, "agieren": 12, "bek\u00e4mpfen": 0, "##pr\u00e4": 14, "##gung": 14, "annehmen": 0, "potenzie": 0, "##eh": 0, "##\u00f6r": 0, "dr\u00fccken": 0, "ohn": 20, "##m\u00e4chtig": 20, "Opfer": 20, "##rolle": 20, "##erb": 30, "##zwei": 20, "##fel": 20, "best\u00e4": 20, "emp": 0, "##ath": 0, "kompens": 20, "Betroffene": 20, "Verfasst": 20, "Fortbildung": 0, "besuchen": 0, "Gesellschafts": 0, "##zusammen": 0, "##hang": 0, "##\u00fcr": 0, "dem": 20, "r": 41, "wecken": 0, "Hoffnung": 20, "sit": 0, "##ui": 0, "##ert": 0, "Lehrer": 0, "##arm": 0, "##losen": 0, "2016": 0, "stand": 0, "web": 0, "p": 0, "##df": 0, "##tu": 0, "do": 0, "or": 0, "wirksam": 0, "Werkzeug": 0, "beispielsweise": 0, "Id": 0, "##b": 0, "##tage": 0, "##freie": 0, "|": 0, "Institut": 0, "Bildung": 0, "generell": 0, "Anlauf": 0, "##stelle": 0, "##klus": 0, "Demokratie": 0, "Wirtschafts": 0, "##unternehmen": 0, "Bew": 0, "##usste": 0, "##reh": 0, "F\u00f6rderung": 0, "sau": 0, "##ul": 0, "##able": 0, "derjenige": 0, "Landes": 0, "##anti": 0, "##rimin": 0, "##gesetz": 0, "62": 0, "##1": 0, "##fu": 0, "##bi": 0, "fu": 0, "bit": 0, "##stream": 0, "hand": 0, "##18": 0, "##8": 0, "169": 0, "##70": 0, "##dg": 0, "se": 0, "##quen": 0, "Isa": 0, "##we": 0, "y": 0, "##sk": 0, "##rit": 0, "unterrichten": 4, "beginnen": 0, "folglich": 0, "kolle": 0, "##gia": 0, "Beratung": 0, "Ereignis": 0, "nachtr\u00e4glich": 0, "k\u00fcnftig": 0, "inkl": 0, "sensi": 0, "##bel": 0, "Gegenstand": 16, "beinhalten": 27, "Schulen": 0, "##tw": 0, "##lung": 0, "demokrat": 0, "Stimme": 0, "##zieht": 0, "bef": 0, "##ragen": 0, "verringern": 5, "Mehrfach": 0, "anerkennen": 6, "oft": 0, "##wirken": 0, "organisieren": 6, "Erzieher": 0, "ihm": 0, "Zugang": 0, "verschaffen": 0, "wert": 5, "##\u00e4tzt": 0, "wahrnehmen": 15, "hin": 0, "##usst": 0, "##sei": 0, "##binden": 0, "fot": 0, "enorm": 0, "beschr\u00e4nken": 0, "Noten": 0, "##gebung": 9, "Sel": 0, "##ekt": 0, "F\u00f6rder": 0, "##ma\u00dfnahme": 0, "21": 0, "sp\u00e4testens": 0, "Sekundar": 0, "bal": 0, "treffen": 0, "meiste": 0, "##rn": 17, "Ausbau": 0, "##kompetenz": 0, "verf\u00fcgen": 0, "gewinnen": 21, "Mithilfe": 0, "Schm": 0, "##\u00f6lzer": 0, "eib": 0, "2006": 0, "179": 0, "Lauf": 0, "sechs": 0, "kon": 0, "##zeption": 0, "vertraut": 9, "separ": 0, "heran": 0, "aufweisen": 0, "##spezif": 0, "erweitert": 0, "Res": 3, "##so": 36, "##urce": 36, "zur\u00fcck": 0, "##greifen": 0, "##alisch": 8, "Bestimmung": 0, "Hindernis": 4, "##planung": 0, "beanspr": 0, "unge": 0, "warten": 0, "Anzeichen": 0, "Ges": 0, "##agte": 0, "##ulierung": 9, "##uen": 0, "stattdessen": 0, "sk": 0, "##izz": 0, "solch": 9, "bew\u00e4ltigen": 8, "Autor": 0, "vorlegen": 0, "##ungsbereich": 30, "##decken": 10, "Ausf\u00fchrung": 0, "Video": 0, "Zweck": 0, "Feld": 0, "##grenzen": 0, "W": 24, "##dh": 0, "Ba": 0, "Genre": 7, "Verst\u00e4ndnis": 6, "schriftlich": 7, "f\u00fcnf": 0, "vorgeschlagen": 0, "##inter": 24, "Vert": 0, "##ief": 0, "##gn": 24, "##itiv": 11, "Operation": 11, "2014": 0, "bezeichnen": 0, "ausgel\u00f6st": 0, "Verbindung": 0, "dahinter": 0, "##struktur": 0, "verarbeiten": 0, "##geben": 0, "invol": 0, "##vier": 0, "##ichern": 0, "dementsprechend": 0, "Festlegung": 0, "festlegen": 0, "##antwort": 6, "erforderlich": 0, "s\u00e4": 0, "vorkommen": 0, "deswegen": 0, "integrieren": 0, "welches": 0, "existieren": 0, "##uster": 0, "##iell": 0, "ka": 0, "##usa": 0, "multi": 0, "Wirkung": 0, "Qualit\u00e4t": 0, "erh\u00f6hen": 0, "Nomin": 0, "Pass": 0, "etc": 0, "pl": 0, "##uri": 0, "##lit": 0, "##era": 0, "##ci": 0, "ec": 0, "##ml": 0, "at": 0, "port": 0, "##als": 0, "54": 0, "##utt": 0, "app": 0, "##ro": 0, "##ach": 0, "into": 0, "##ctic": 0, "##erst": 0, "nah": 0, "bedienen": 0, "Schreiben": 10, "Sprechen": 19, "##p\u00e4dagog": 0, "##ener": 0, "Bearbeitung": 0, "initi": 9, "lenken": 0, "2019": 0, "D": 0, "R": 0, "erfordern": 6, "Chron": 0, "##ologie": 0, "Versuchs": 0, "zuerst": 0, "Vordergrund": 0, "hinten": 0, "ausdr\u00fcck": 0, "Regelung": 0, "Versuch": 0, "##ordnung": 26, "pr\u00fc": 0, "##fungs": 0, "Rep": 24, "##rod": 24, "Transfer": 0, "##organisation": 0, "sicherlich": 0, "Lehren": 0, "verst\u00e4nd": 0, "##bahnen": 0, "gew\u00e4hrleisten": 0, "theoretisch": 0, "Fund": 26, "Referenz": 26, "realisiert": 26, "etwa": 0, "2002": 0, "Tax": 0, "##onom": 0, "##i": 0, "grundlegend": 0, "verschw": 0, "Realisierung": 26, "untersuchen": 0, "indirekt": 0, "##izit": 0, "erscheinen": 0, "meistens": 0, "erwartet": 0, "Inst": 0, "##ru": 0, "##ktion": 0, "16": 0, "Projekt": 0, "Merc": 0, "Zeichen": 9, "int": 0, "vornehmen": 0, "##merk": 0, "##mal": 0, "bewusst": 0, "##sch\u00fcler": 8, "Ca": 0, "zusammenh\u00e4ngen": 0, "##zip": 0, "diesbez\u00fcglich": 0, "erw\u00e4hnt": 0, "##se": 0, "einher": 0, "##gehend": 0, "##\u00fc": 9, "Nam": 0, "Statistik": 0, "Lex": 0, "##ikon": 0, "##eint": 0, "##rag": 0, "W\u00f6rter": 0, "Bra": 0, "##inst": 0, "Mind": 0, "Des": 0, "##cr": 0, "Inhalts": 0, "##wieder": 12, "##gabe": 13, "Sum": 0, "##mar": 0, "##erz": 0, "##\u00e4hl": 0, "Gebrauch": 0, "##san": 0, "Anteil": 0, "User": 0, "Man": 0, "##ual": 0, "diskon": 0, "##tinuier": 0, "Dia": 0, "##gramm": 0, "Bericht": 0, "Zeitung": 0, "Radio": 0, "Fe": 0, "##ature": 0, "Protokoll": 0, "##modell": 0, "Bewerbung": 0, "Expl": 0, "##ain": 0, "Grafik": 0, "Refer": 0, "Hypoth": 0, "begr\u00fcndet": 0, "Vorher": 0, "##sage": 0, "Conc": 0, "##ep": 0, "Argument": 0, "Arg": 0, "##\u00f6rter": 0, "##tat": 0, "Ess": 0, "##ay": 0, "Tra": 0, "Quellen": 0, "Bes": 0, "##innung": 0, "##sau": 11, "##fs": 0, "ev": 0, "##iden": 0, "##zb": 0, "##asi": 0, "Natur": 0, "##wissenschaft": 10, "Interpretation": 0, "##utung": 0, "fik": 0, "viert": 0, "##ige": 0, "##\u00fcndel": 0, "Bachelor": 0, "##re": 3, "##strategie": 0, "Koh": 3, "##\u00e4ren": 3, "Int": 0, "Strategie": 9, "\u00fcblicherweise": 0, "lin": 0, "korrekt": 0, "endlich": 0, "tauchen": 0, "auff\u00e4llig": 0, "##atisch": 12, "kommun": 0, "##ikat": 0, "##sb": 3, "##erei": 3, "##ktik": 0, "##fertig": 0, "Fertig": 0, "m": 0, "##dl": 0, "H\u00f6ren": 0, "gelungen": 0, "ausgehend": 0, "Pl": 0, "A": 0, "Fak": 0, "C": 0, "inne": 0, "##tik": 0, "e": 0, "eignen": 0, "F": 0, "worauf": 0, "legen": 0, "##termin": 0, "Tipp": 0, "zum": 0, "verbessern": 0, "Beweis": 25, "Gelegenheit": 0, "##reichte": 22, "##fort": 17, "messen": 3, "Erg\u00e4nzung": 0, "Gel": 0, "##ernte": 0, "Vermittlung": 0, "##rufen": 0, "steuern": 0, "Ko": 6, "##ition": 6, "anwenden": 0, "mer": 0, "##cat": 0, "##or": 0, "con": 0, "##tent": 0, "##lo": 0, "##ads": 0, "allen": 0, "fa": 0, "##ech": 0, "##ern": 0, "Not": 0, "begegnen": 0, "Tag": 0, "Sport": 0, "kennen": 0, "Name": 0, "Begriffs": 0, "##kl\u00e4rung": 0, "zeitlich": 0, "begrenzt": 0, "##ziell": 0, "Unterst\u00fctzungs": 6, "##ker": 0, "f": 0, "2015": 0, "84": 0, "Ger": 30, "##\u00fcst": 30, "selbstst\u00e4ndig": 19, "bewegen": 19, "Pauli": 0, "##ne": 0, "Gib": 0, "##bon": 0, "\u00fcbertragen": 0, "Josef": 0, "leise": 0, "28": 0, "kalk": 0, "hingegen": 0, "##ozi": 0, "Fr": 0, "##ustr": 0, "Zone": 0, "##versuch": 0, "##f\u00fchl": 0, "So": 0, "##das": 0, "optimal": 0, "##situation": 0, "eigentlich": 0, "Aufrechter": 0, "Development": 0, "Offensive": 0, "##praxis": 0, "prinzip": 0, "Instrument": 0, "Erwerbs": 0, "voran": 0, "##melde": 0, "##technische": 0, "zweit": 0, "##ebene": 0, "durchaus": 0, "st\u00e4ndig": 0, "##person": 0, "Reduktion": 0, "zugunsten": 0, "Um": 0, "##kehr": 0, "Front": 0, "lang": 0, "##put": 0, "Mikro": 48, "Mak": 23, "##ros": 23, "##ca": 23, "Phase": 0, "neben": 0, "hierzu": 0, "verst\u00e4ndlich": 11, "##erium": 11, "formuliert": 11, "Teile": 0, "##ment": 0, "Bedarf": 0, "##stands": 7, "##let": 0, "##zt": 0, "aktuell": 21, "ermitteln": 0, "behalten": 17, "genannt": 0, "Geben": 0, "umfassen": 0, "Gesamtheit": 0, "##technik": 0, "##st\u00e4ndigkeit": 13, "Methoden": 0, "##vielfalt": 0, "##sc": 8, "plan": 0, "##gespr\u00e4ch": 13, "unvor": 0, "##gesehen": 0, "##schwier": 6, "Ho": 0, "##c": 0, "reagieren": 0, "hierbei": 0, "Technik": 0, "##kommun": 8, "mitge": 0, "##stal": 0, "unvoll": 0, "##st\u00e4ndig": 0, "Ahnung": 0, "##vor": 0, "vertrauen": 0, "Grundlage": 0, "bieten": 0, "Sog": 0, "##ding": 0, "The": 0, "Lang": 0, "##uage": 0, "Cur": 0, "##ric": 0, "##ulu": 0, "##gl": 0, "121": 0, "##f\u00fchrende": 0, "##rw": 10, "Beachtung": 0, "entwickeln": 0, "wof\u00fcr": 0, "bedenken": 0, "geleitet": 0, "\u00dcbersicht": 0, "Goethe": 0, "inst": 0, "##itut": 0, "Be": 0, "Et": 0, "Al": 0, "35": 0, "beherrschen": 0, "eingesetzt": 0, "Schreib": 0, "besonder": 0, "##verk": 0, "langfristig": 0, "Zuwachs": 0, "bewirken": 0, "##n\u00f6": 0, "sicherstellen": 0, "##disziplin": 0, "Zir": 0, "##kel": 0, "Leistung": 14, "Falle": 0, "Poly": 0, "##ium": 0, "##handen": 0, "Bedeutung": 5, "Kunst": 0, "Ge": 0, "##ometrie": 0, "umso": 0, "Kl\u00e4r": 12, "##\u00e4ltigung": 0, "gerecht": 0, "Tool": 0, "##entscheidung": 0, "Kasten": 0, "gesamt": 0, "##vorgang": 0, "M\u00fcnster": 0, "Wa": 0, "Verlag": 0, "49": 0, "##instrument": 0, "erw\u00e4hnen": 0, "berichten": 0, "Studierende": 0, "Master": 0, "parallel": 0, "laufen": 0, "gestellt": 0, "anders": 0, "inten": 0, "##die": 0, "System": 0, "Konkret": 0, "##isierungs": 0, "##ras": 32, "Hilfsmittel": 0, "geeignet": 0, "sogen": 0, "##annt": 0, "vorab": 0, "Rast": 0, "altern": 0, "befassen": 0, "n\u00e4chst": 0, "Unter": 0, "Grundschule": 12, "sim": 4, "##pel": 4, "Zwischen": 0, "Modul": 0, "##abschluss": 0, "##pr\u00fcfung": 0, "\u00fcbersehen": 0, "Abgabe": 0, "Vorteil": 0, "##proben": 0, "##eignet": 0, "lo": 0, "##hnen": 0, "Verwendung": 0, "Erfinder": 0, "ebenso": 0, "durchf\u00fchren": 0, "verkehren": 0, "Bord": 0, "Erl\u00e4u": 0, "##terung": 0, "##verw": 0, "##endung": 0, "Publikation": 0, "##bene": 0, "Neben": 0, "##s\u00e4tz": 0, "Trick": 0, "##best": 0, "Englisch": 0, "Franz\u00f6sisch": 0, "Erst": 0, "pl\u00f6tzlich": 0, "Deutsche": 0, "##h\u00fc": 0, "herausfinden": 0, "Unterseite": 0, "hilfreich": 0, "##wn": 0, "ar": 0, "##row": 0, "Nutzen": 0, "ange": 0, "##h\u00e4ngt": 0, "P": 0, "dat": 0, "##eie": 0, "Hinweis": 0, "Kollegin": 0, "Dr": 0, "Maria": 0, "Gro\u00dfe": 0, "##gaben": 0, "link": 0, "ti": 0, "frage": 24, "Konzentration": 24, "Schacht": 24, "##els": 24, "Eind": 0, "##eu": 0, "##tigkeit": 24, "##deu": 24, "##fra": 24, "##cht": 24, "Ei": 0, "60": 0, "dazuge": 0, "##h\u00f6r": 0, "##kur": 0, "Erinnerung": 0, "##sw": 7, "ausgew\u00e4hlt": 0, "sc": 40, "Bitte": 0, "Pr\u00e4z": 6, "Zug": 0, "##zwang": 0, "Ziels": 0, "##tr": 5, "##tur": 0, "Kontrast": 44, "##vergleich": 0, "##ingu": 0, "##ling": 0, "##kunft": 0, "\u00c4u\u00dfer": 0, "wiederauf": 0, "korrig": 11, "Wieder": 0, "##holen": 0, "ziel": 0, "##cast": 0, "##wahl": 0, "Aufforderung": 0, "##kor": 210, "##rektur": 210, "Verweis": 0, "Eliz": 12, "##iti": 12, "##erung": 12, "##holung": 12, "Einsatz": 29, "Mi": 14, "##k": 14, "Gest": 14, "26": 0, "Folgende": 0, "Einf\u00fchrung": 3, "##sv": 0, "##ideo": 0, "Daniela": 0, "Rotter": 0, "ow": 0, "##ituation": 0, "##altern": 0, "##ative": 0, "Motiv": 4, "o": 0, "##sz": 11, "##ena": 0, "##rio": 0, "Ma\u00dfnahme": 8, "F\u00fchrung": 0, "erleichtern": 8, "##\u00fchrung": 30, "ber\u00fchren": 0, "veran": 0, "##schau": 0, "gleichzeitig": 0, "person": 0, "Steuerung": 0, "Lei": 0, "##iede": 0, "Nacht": 0, "Unsicherheit": 24, "##wissenschaftler": 0, "Knapp": 0, "beobachten": 0, "vielfach": 0, "\u00fcbersch": 0, "konzentrieren": 0, "##sich": 0, "orientieren": 0, "##tre": 0, "##tags": 0, "nett": 0, "l\u00e4": 0, "##che": 0, "ni": 0, "##cken": 0, "schnell": 6, "unent": 6, "Version": 0, "voll": 0, "par": 0, "##aver": 0, "##bal": 0, "##tem": 0, "##po": 0, "Beton": 0, "##pause": 6, "Beziehung": 0, "##sebene": 0, "Gestaltung": 5, "##gst": 9, "##frei": 9, "ermu": 17, "##nte": 17, "\u00e4u\u00dfern": 0, "ak": 0, "langsam": 0, "gew\u00e4hren": 0, "Werkzeuge": 0, "##schullehrer": 12, "40": 0, "einer": 0, "ziemlich": 7, "zust": 8, "##ehen": 8, "Perspektive": 0, "##arch": 0, "as": 0, "##ym": 0, "##met": 0, "##ris": 0, "sozio": 0, "##kultur": 19, "##theorie": 0, "konstru": 5, "##l\u00f6sen": 0, "erzeugen": 0, "anscheinend": 0, "##erg": 0, "frag": 0, "konstruiert": 0, "traditionell": 0, "##\u00e4g": 5, "##sver": 0, "bitten": 0, "##10": 0, "ver\u00e4ndern": 0, "Zeitpunkt": 0, "verhaf": 0, "##ier": 0, "Vermutung": 0, "Kon": 0, "##junkt": 0, "##11": 0, "Schwe": 0, "##nk": 0, "Akte": 0, "##ur": 0, "natur": 10, "##ug": 11, "Erkenntnis": 0, "verp": 0, "##acken": 0, "Br\u00fccke": 0, "pers\u00f6nlich": 0, "allt\u00e4": 0, "##glich": 0, "Erk": 0, "##skon": 0, "##struktion": 0, "##information": 0, "ann\u00e4h": 0, "##elli": 0, "##atten": 0, "sinn": 12, "##stift": 12, "##end": 12, "vorgestellt": 0, "##xi": 0, "Entwicklung": 0, "einerseits": 17, "konfron": 0, "andererseits": 0, "kaum": 0, "produ": 0, "trennen": 0, "##zeigen": 9, "Cor": 3, "##ction": 3, "eventuell": 17, "blo\u00df": 0, "##stellen": 0, "Interesse": 11, "automatisch": 0, "Sicherheit": 0, "keiner": 0, "Regen": 0, "unauf": 11, "##dring": 11, "nebenbei": 11, "res": 33, "##ns": 11, "##cho": 11, "halb": 0, "Nenn": 0, "anstelle": 0, "Prom": 10, "zufrieden": 0, "bekommen": 0, "anstatt": 0, "Nutzung": 0, "du": 0, "##und": 13, "Themen": 0, "##gebrauch": 0, "##rieb": 0, "##med": 0, "##w\u00e4l": 0, "##zen": 0, "##\u00e4r": 0, "##fen": 0, "##echsel": 7, "Option": 0, "empfehlen": 0, "Periode": 0, "##auer": 0, "Schau": 0, "##ions": 0, "##bewusst": 0, "Aufmerksamkeit": 0, "##sl": 0, "##enkung": 0, "Inner": 0, "Di": 0, "##\u00e4t": 0, "Abgeordnete": 0, "##andt": 0, "##schaft": 0, "Alkohol": 0, "Chemie": 0, "End": 0, "Suf": 0, "##fi": 0, "##quis": 0, "##it": 0, "##ki": 0, "##tt": 0, "##dest": 0, "##ph": 0, "##on": 0, "begleiten": 0, "Sprachen": 0, "##omen": 0, "wel": 0, "Komposition": 0, "Der": 0, "##iva": 0, "aller": 0, "##las": 0, "funktionieren": 0, "Kor": 0, "##ktive": 0, "fehler": 0, "##haft": 0, "Korrektur": 18, "Monitor": 0, "##ona": 0, "wiederholen": 0, "kalt": 0, "Metall": 0, "##platte": 0, "ert": 0, "##rinken": 0, "dauern": 0, "Sekunde": 0, "Hand": 0, "##bewegung": 0, "Heb": 0, "Augen": 0, "##bra": 0, "##ue": 0, "aufmerksam": 0, "Studium": 0, "bisher": 0, "vorgehen": 13, "##lehr": 0, "he": 14, "##mmen": 14, "Umstand": 0, "Foss": 0, "Abbruch": 0, "Sta": 0, "##gna": 0, "erworben": 14, "##brechen": 0, "demnach": 0, "werfen": 11, "verde": 0, "##utlich": 0, "gleicherma\u00dfen": 0, "Defizit": 0, "St\u00e4rke": 0, "Ressourcen": 0, "##blick": 0, "sch\u00e4r": 0, "##\u00fcler": 0, "##freundlich": 0, "##verh": 5, "##alte": 5, "etablieren": 5, "Einsicht": 0, "durchsetzen": 0, "dokumen": 0, "Studie": 0, "Zweit": 0, "Kas": 0, "##bau": 0, "beeinfl": 0, "##rate": 4, "##gie": 4, "Auge": 0, "##\u00e4u\u00dfer": 0, "beurteilen": 9, "herange": 0, "##dia": 7, "##ose": 7, "Ann\u00e4herung": 10, "regelm\u00e4\u00dfig": 0, "neutr": 0, "gegen\u00fcber": 0, "x": 0, "##nor": 22, "##ient": 22, "flexibel": 0, "Fol": 0, "##ien": 0, "##ly": 0, "##ruf": 0, "Kriterien": 28, "verf": 16, "##\u00e4l": 16, "unum": 0, "##g\u00e4ng": 0, "kritisieren": 0, "Zielsetzung": 0, "anpassen": 6, "cu": 0, "##rr": 0, "##ic": 0, "##ular": 0, "davon": 0, "Erhebung": 0, "Anregung": 0, "le": 0, "##hre": 0, "##rf": 0, "##ort": 0, "22": 0, "##orientierte": 0, "E": 0, "Aller": 0, "Verw": 0, "##enden": 0, "basierend": 0, "auswirken": 6, "registrieren": 0, "V": 0, "2007": 0, "##verst\u00e4ndlich": 0, "erinnern": 0, "R\u00fcckgabe": 0, "Klaus": 0, "Schulzeit": 0, "##f\u00f6rder": 17, "Auseinander": 17, "eil": 0, "##tiert": 0, "##abelle": 0, "real": 0, "Halbjahr": 0, "melden": 0, "##art": 0, "sodass": 0, "##zu": 0, "##wachs": 0, "ausgehen": 0, "##inn": 0, "probieren": 0, "##abell": 0, "Transparenz": 0, "Memor": 0, "L\u00f6sungs": 0, "Y": 0, "Leg": 0, "##esp": 0, "##iel": 0, "Realit\u00e4t": 0, "Math": 0, "Zahl": 0, "verlangen": 0, "Ver": 0, "##r\u00e4ts": 0, "##eln": 0, "cle": 0, "##ver": 0, "##wand": 0, "Behauptung": 0, "aufeinander": 0, "enden": 0, "Schw\u00e4che": 0, "Papier": 0, "gelegentlich": 0, "Mangel": 0, "##tigen": 0, "##zentrum": 0, "Anspruch": 0, "Er\u00f6ffnung": 0, "Sorge": 0, "verraten": 0, "Philosophie": 0, "Sache": 0, "Sens": 0, "Erm": 0, "##angel": 0, "Standard": 0, "beeindruckt": 0, "pr\u00e4": 0, "##grenze": 0, "verdienen": 0, "au\u00dferhalb": 0, "Absatz": 0, "ausschlie\u00dflich": 0, "##\u00fcss": 0, "Fett": 0, "Auftrag": 0, "gro\u00dfartig": 0, "##imi": 0, "##nier": 0, "Linie": 0, "Philosoph": 0, "interessant": 0, "inform": 0, "Theo": 0, "##ret": 0, "##iker": 0, "##ana": 0, "##s\u00e4tzlich": 0, "Standpunkt": 0, "unterm": 0, "##auern": 0, "Vorsicht": 9, "wa": 9, "##lt": 9, "Hed": 0, "##ging": 0, "Schluss": 0, "Mitarbeiter": 0, "ausbauen": 6, "bed": 0, "##\u00fcrf": 0, "wohin": 0, "Organisation": 0, "Le": 5, "##\u00fcre": 5}}