{"O": {"[UNK]": 382, "3": 38, ")": 304, "Analyse": 24, "##rahmen": 2, "zur": 1, "Sprach": 45, "##lichkeit": 2, "des": 1, "Fach": 44, "##lernen": 1, "##s": 9, "(": 286, "angel": 1, "##ehnt": 1, "an": 69, "Ta": 2, "##jm": 2, "##el": 5, "&": 6, "Voll": 9, "##mer": 9, "/": 117, "Th\u00fcr": 10, "##mann": 11, ";": 19, "Lo": 1, "##hs": 1, "##e": 19, "1": 50, ".": 928, "Gibt": 5, "es": 119, "sprach": 35, "##liche": 4, "H\u00fcrden": 0, ",": 1010, "die": 5, "das": 2, "fach": 17, "Lernen": 16, "beh": 2, "##indern": 2, "k\u00f6nnten": 1, "?": 276, "2": 43, "Lern": 26, "##gelegen": 2, "##heiten": 0, "in": 294, "der": 1205, "Stunde": 12, "f\u00fcr": 98, "typische": 0, "\u201e": 26, "Ritu": 1, "##ale": 0, "\u201c": 29, "Unterricht": 27, "##liches": 0, "##handel": 1, "##n": 27, "Typ": 1, "##ische": 1, "Disk": 2, "##urs": 2, "##funktionen": 0, "Materialien": 0, "Rezeption": 0, "Mittel": 1, "Produktion": 1, "Zu": 3, "erstellen": 6, "##de": 13, "Texte": 2, "\u2022": 91, "Muss": 2, "m\u00fcnd": 6, "Unterrichts": 18, "-": 179, "inter": 6, "##aktion": 2, "gest\u00fctzt": 0, "werden": 212, "M\u00fc": 1, "##ssen": 1, "SU": 0, "##S": 0, "Informationen": 0, "besch": 1, "##affen": 0, "eine": 4, "Ergebnis": 6, "##pr\u00e4sent": 1, "##ation": 4, "##lich": 65, "Ist": 1, "Met": 3, "##ako": 2, "##mm": 5, "##uni": 3, "##kat": 5, "##ion": 7, "\u00fcber": 32, "##prozess": 0, "geplant": 0, "Wie": 8, "gehe": 0, "ich": 63, "mit": 113, "Fehler": 20, "um": 50, "K\u00f6nnen": 1, "##er": 14, "im": 1, "Laufe": 1, "##funktion": 1, "ein": 356, "##\u00fcben": 1, "Etwas": 1, "beschreiben": 25, "erkl\u00e4ren": 18, "diskutieren": 2, "aus": 51, "argumen": 4, "##tieren": 8, "oder": 103, "bewerten": 7, "Spiel": 0, "##t": 15, "Text": 42, "##sor": 3, "##te": 3, "Rolle": 10, "deren": 1, "Merkmale": 1, "explizit": 12, "gemacht": 1, "m\u00fcssen": 75, "re": 4, "##zept": 1, "##iven": 0, "Kern": 0, "##wort": 7, "sch": 1, "##atz": 4, "unbekannt": 3, "ist": 1, "Stehen": 0, "bestimmte": 0, "##begriff": 1, "Wort": 23, "##feld": 1, "Zentrum": 2, "Welche": 2, "konkreten": 0, "##schatz": 6, "ben\u00f6tigen": 15, "Sch\u00fcler": 86, "Aufgabe": 42, "zu": 244, "l\u00f6sen": 4, "Art": 5, "Bereitstellung": 0, "domin": 1, "##ante": 1, "gra": 3, "##atische": 0, "Form": 20, "ben\u00f6tigt": 1, "wird": 0, "typischen": 0, "Rede": 5, "##mittel": 0, "meines": 0, "##es": 6, "k\u00f6nnte": 0, "fokuss": 10, "##ieren": 37, "und": 362, "##fordern": 9, "Wird": 1, "bestimmtes": 0, "Register": 3, "erfordert": 0, "einzu": 2, "##halten": 8, "struktur": 3, "Kann": 1, "Erste": 1, "##llen": 1, "von": 176, "##ko": 0, "##h\u00e4re": 0, "##z": 2, "\u201a": 0, "rote": 0, "##r": 2, "Faden": 2, "\u2018": 0, "einge": 0, "##\u00fcbt": 1, "Wann": 1, "gebe": 1, "Feed": 6, "##back": 37, "Inhalt": 8, "##bildung": 21, "f\u00f6rdern": 6, "Denk": 2, "##sprache": 17, "Holz": 2, "##stern": 2, "bas": 2, "##teln": 2, "komplex": 5, "als": 78, "man": 52, "denken": 8, "lesen": 9, "sie": 225, "folgen": 26, "##d": 66, "Mathematik": 2, "##unterricht": 16, "\u00fcberlegen": 10, "wor": 4, "##in": 17, "Anf": 3, "##order": 3, "##ung": 30, "bestehen": 6, "not": 5, "ihr": 72, "Idee": 0, "Forum": 1, "4": 28, "wenn": 54, "bereits": 23, "Praxis": 5, "##fahrung": 3, "haben": 85, ":": 325, "\u00dcber": 11, "##legen": 7, "wie": 112, "##gruppe": 10, "vermutlich": 4, "dieser": 82, "umgehen": 2, "sein": 329, "[": 19, "Nur": 1, "Mo": 11, "##od": 13, "##le": 12, "m\u00f6glich": 25, "]": 17, "anschlie\u00dfend": 3, "Punkt": 14, "f\u00fc": 2, "##gen": 8, "Gedanke": 3, "For": 1, "##en": 35, "##beitrag": 2, "hinzu": 4, "welche": 27, "erkennen": 4, "nun": 11, "zus\u00e4tzlich": 6, "vorher": 11, "festgestellt": 1, "Was": 6, "Element": 2, "innen": 70, "dabei": 9, "unterst\u00fctzen": 0, "Denken": 1, "Alltags": 4, "gelangen": 1, "brauchen": 12, "Seite": 53, "7": 6, "24": 14, "merken": 5, "dass": 66, "Modell": 12, "##ierungs": 4, "##aufgabe": 14, "Kommunikation": 0, "gro\u00df": 8, "spielen": 9, "denn": 5, "bei": 61, "gemeinsam": 10, "##pro": 6, "##ze\u00df": 6, "verb": 6, "##alisieren": 0, "Sprache": 19, "auch": 126, "daf\u00fcr": 5, "Sachver": 1, "##halt": 4, "nachdenken": 3, "##bei": 3, "##spiel": 7, "\u00fcberhaupt": 6, "verstehen": 14, "w\u00e4hrend": 5, "Rechn": 0, "kommunizieren": 1, "Rechen": 0, "##weg": 2, "darstellen": 6, "auf": 101, "##ae": 0, "##ben": 5, "mathemat": 2, "##isch": 34, "reden": 1, "nicht": 100, "st\u00fctzen": 3, "k\u00f6nnen": 156, "gar": 6, "was": 66, "also": 21, "uns": 9, "##bilden": 2, "Lehr": 37, "##kraft": 26, "leisten": 6, "wir": 41, "sorgen": 2, "\u00dcbersch": 1, "##u\u00df": 1, "problematisch": 4, "##liste": 3, "Gruppen": 4, "##arbeits": 0, "##phase": 5, "##telle": 3, "Kommun": 0, "##izieren": 2, "wollen": 6, "unser": 15, "*": 10, "verwenden": 7, "sagen": 5, "Summe": 2, "Tee": 1, "##licht": 1, "Ausgabe": 1, "Brett": 1, "add": 1, "statt": 8, "da": 18, "plus": 4, "machen": 28, "verf\u00fcgbar": 7, "zentral": 7, "Verf\u00fcg": 0, "##bar": 6, "##mach": 2, "Planung": 3, "professionell": 2, "gelingen": 8, "Thema": 28, "Block": 7, "Verf\u00fcgung": 4, "stellen": 11, "erfahren": 2, "ausf\u00fchrlich": 5, "Abschnitt": 2, "gestalten": 1, "Hilfs": 5, "##material": 11, "##karte": 4, "Sp": 2, "##ick": 4, "##zettel": 2, "Gruppe": 21, "geben": 45, "Glo": 1, "##ssa": 1, "verteilen": 6, "Ein": 5, "##f\u00fchren": 2, "neu": 14, "denkbar": 9, "wobei": 4, "darum": 7, "gehen": 24, "H\u00e4lfte": 1, "damit": 25, "verbringen": 1, "so": 26, "bild": 3, "##ungs": 6, "##sprach": 14, "F\u00e4higkeit": 3, "Beginn": 1, "identifizieren": 0, "ausw\u00e4hlen": 1, "alter": 1, "##sg": 3, "##erecht": 1, "\u00fcben": 5, "Kurs": 1, "hierf\u00fcr": 4, "vor": 33, "alle": 19, "praktisch": 2, "Hinsicht": 1, "vorbereiten": 5, "m\u00f6chten": 6, "8": 5, "beitragen": 1, "Erwerb": 1, "letzt": 4, "Jahr": 1, "Angebot": 1, "##sens": 5, "##ib": 9, "##l": 24, "##werk": 8, "gerade": 18, "Grund": 8, "##schul": 3, "##bereich": 4, "stetig": 2, "steigen": 2, "scheinen": 1, "zeigen": 7, "genau": 27, "insbesondere": 11, "ab": 14, "Klasse": 14, "5": 21, "immer": 18, "noch": 66, "##forderung": 4, "nei": 1, "viel": 15, "bestimmen": 4, "jedoch": 9, "Arbeit": 10, "nach": 15, "schul": 4, "Alltag": 6, "angesichts": 2, "hor": 1, "##ren": 2, "Ans": 4, "##cha": 7, "##ff": 2, "##kos": 1, "Schul": 6, "##buch": 9, "aber": 58, "explod": 1, "##ierend": 8, "Anzahl": 2, "frei": 3, "verk": 1, "##\u00e4uf": 1, "Internet": 1, "detaill": 0, "##iert": 4, "fund": 1, "unbedingt": 5, "notwendig": 1, "oben": 4, "beschrieben": 1, "v": 11, "a": 13, "##l\u00e4nge": 1, "Problems": 0, "##tell": 0, "anbieten": 3, "sich": 111, "##veranstaltung": 1, "pra": 2, "##xis": 1, "##orientiert": 1, "Verkn\u00fc": 1, "##pfung": 1, "##bildungs": 5, "##prinzip": 2, "Material": 16, "##analyse": 3, "9": 2, "diver": 3, "##si": 7, "##t\u00e4": 8, "##ts": 3, "diskrimin": 3, "##krit": 1, "Diver": 7, "Diskriminierung": 5, "tun": 10, "betrachten": 9, "Bild": 24, "durch": 39, "Klicken": 1, "herunterladen": 1, "z": 2, "##oo": 1, "##men": 4, "welcher": 12, "Zusammenhang": 5, "zwischen": 8, "Mehr": 2, "##igkeit": 10, "10": 4, "11": 6, "deutlich": 5, "drei": 10, "Komponente": 1, "beding": 1, "Teil": 25, "sowohl": 3, "Sinn": 8, "Bildungs": 8, "Bezug": 4, "unterschiedlich": 15, "National": 1, "Repertoire": 2, "Lebens": 5, "##welt": 2, "Familie": 1, "Peer": 4, "Medium": 2, "##bringen": 4, "un": 3, "##ref": 4, "##ktiert": 3, "ster": 1, "##eo": 3, "##typ": 5, "##geleitet": 1, "Handeln": 7, "Schuls": 1, "##ystem": 1, "kommen": 21, "dies": 18, "anhand": 5, "##faktor": 1, "sozial": 9, "Herkunft": 4, "nachweisen": 1, "Beh": 0, "##err": 0, "##schen": 2, "weil": 17, "akadem": 1, "Haushalt": 1, "wahrscheinlich": 4, "##system": 2, "erfolglos": 1, "verlassen": 2, "daher": 18, "nur": 53, "\u00dcberzeugung": 0, "auseinander": 4, "##setzen": 4, "sondern": 18, "ganz": 15, "Selbst": 4, "##lex": 2, "=": 325, "Rassismus": 6, "##bezogen": 0, "institution": 1, "##ell": 9, "##literatur": 2, "h\u00e4ufig": 11, "Ausdruck": 4, "tief": 2, "systematisch": 6, "rass": 3, "##istisch": 5, "Struktur": 7, "ansehen": 2, "heu": 1, "##tig": 1, "Zeit": 6, "mehr": 15, "pla": 2, "##iv": 6, "leicht": 3, "erkennbar": 1, "einig": 8, "Jahrzehnt": 1, "weshalb": 2, "jemand": 5, "zahl": 2, "##reich": 2, "g\u00e4ng": 3, "##ig": 28, "##konstruktion": 2, "sehen": 22, "Vielzahl": 2, "Kategorie": 6, "B": 59, "##zw": 13, "##dimension": 2, "Individ": 3, "##uum": 3, "Identit\u00e4t": 8, "pr\u00e4gen": 4, "aufgrund": 19, "allgemein": 5, "gleich": 12, "##behandlung": 4, "##sse": 4, "##tz": 5, "Ag": 4, "##g": 10, "unters": 2, "##agen": 2, "straf": 2, "##rechtlich": 2, "verfolgen": 3, "Rasse": 3, "Ethn": 2, "##ie": 4, "Geschlecht": 2, "Religion": 2, "Welt": 3, "##ans": 4, "##uu": 5, "##ng": 11, "Alter": 2, "Behinderung": 2, "sexuell": 2, "Quelle": 4, "Gleich": 3, "##ese": 4, "Berlin": 8, "de": 10, "ber\u00fccksichtigen": 7, "Gesetz": 2, "Ausgrenzung": 2, "d\u00fcrfen": 4, "Ph\u00e4nomen": 11, "Ben": 1, "##achteil": 1, "##igung": 2, "12": 2, "relevant": 9, "somit": 9, "ergeben": 1, "##rel": 1, "##ev": 1, "##ant": 3, "##eg": 0, "##orie": 0, "eher": 16, "gezielt": 2, "\u2014": 2, "Tu": 2, "Dresden": 2, "tu": 1, "dre": 1, "##sd": 1, "d": 4, "Schule": 4, "dar\u00fcber": 5, "hinaus": 5, "ander": 30, "Dimension": 14, "Brand": 4, "konkret": 26, "##isieren": 8, "weit": 27, "Hab": 1, "##itu": 2, "Beg": 1, "##abu": 1, "En": 2, "Leistungs": 2, "##stand": 1, "bedeut": 1, "##sam": 1, "He": 1, "##ter": 10, "##ogen": 1, "##it\u00e4ts": 1, "##merkmale": 1, "2017": 2, "S": 25, "20": 5, "daran": 5, "beachten": 0, "eigen": 23, "Leben": 3, "wider": 3, "##spiegel": 1, "13": 5, "Lehre": 1, "jewei": 9, "##lig": 10, "Position": 4, "##ierung": 6, "##ner": 6, "_": 38, "##nehmen": 2, "innerhalb": 3, "gesellschaft": 2, "Verh\u00e4ltnis": 1, "Differenz": 1, "##linie": 1, "Methodik": 2, "zumeist": 2, "setzen": 3, "oftmals": 5, "ohne": 16, "verg": 2, "##egen": 2, "##w\u00e4rtig": 2, "inwieweit": 2, "Auswahl": 3, "##real": 3, "##it\u00e4t": 6, "Erfahrung": 4, "Mit": 2, "weiterer": 3, "korre": 0, "##sp": 0, "##ond": 0, "Folge": 2, "lern": 2, "verh\u00e4lt": 0, "##nis": 0, "ausreichend": 1, "refle": 5, "##ktieren": 5, "stehen": 8, "##format": 1, "schlimm": 1, "Fall": 11, "sogar": 3, "anderer": 9, "Weg": 9, "Nad": 2, "##ol": 4, "##ny": 1, "Stefan": 1, "2021": 4, "Inter": 3, "##sek": 4, "##tional": 5, "Haltung": 2, "politisch": 2, "15": 4, "ersch": 1, "##weren": 1, "##kommen": 1, "einzeln": 14, "stets": 3, "Kombination": 1, "auftreten": 1, "versch": 2, "##r\u00e4nkt": 0, "geschehen": 2, "Online": 1, "unter": 13, "H": 4, "##ttp": 1, "www": 2, "ro": 1, "##sal": 2, "##ux": 1, "publ": 1, "##ikation": 1, "id": 3, "375": 1, "##78": 1, "##ita": 1, "##et": 3, "zuletzt": 1, "pr\u00fcfen": 1, "01": 1, "07": 1, "schon": 34, "Besch\u00e4ftigung": 1, "gelten": 7, "hier": 93, "P\u00e4dagog": 8, "##ik": 10, "besch\u00e4ftigen": 5, "Frage": 28, "Zugeh\u00f6rigkeit": 3, "angemessen": 3, "##beziehen": 5, "sollen": 44, "Spannungs": 0, "##verh\u00e4ltnis": 0, "individuell": 2, "Faktor": 0, "Herrschafts": 0, "##ef": 0, "##fekt": 0, "Mart": 1, "Busch": 1, "sprechen": 10, "Heft": 2, "\u00ab": 5, "Sub": 1, "##jekt": 1, "\u00bb": 5, "Pers\u00f6nlichkeit": 2, "##sent": 2, "##wicklung": 2, "Lage": 1, "Er": 3, "##achten": 2, "Kompetenz": 3, "Umgang": 3, "Komplexit\u00e4t": 2, "erarbeiten": 2, "Hilfe": 10, "Viel": 2, "##schicht": 2, "Anlehnung": 2, "Andreas": 1, "Fo": 1, "##itz": 1, "vielmehr": 1, "m\u00f6glichst": 7, "eleg": 1, "scheiter": 1, "14": 3, "Handlungs": 3, "##f\u00e4higkeit": 1, "trotz": 1, "##uns": 2, "##icherheit": 1, "Ziel": 7, "p\u00e4dagog": 5, "dazu": 21, "f\u00fchren": 9, "Weise": 3, "reduzieren": 2, "f\u00f6rder": 4, "Angst": 4, "schwierig": 5, "mei": 2, "##den": 2, "Deb": 2, "##u": 17, "Katharina": 2, "Stu": 2, "##ve": 2, "Olaf": 2, "Scheitern": 2, "##heit": 4, "gegen": 6, "##sr": 3, "##ed": 31, "##uk": 7, "##tion": 8, "kein": 28, "Neut": 2, "##ral": 3, "klein": 14, "##anst": 1, "##o\u00df": 1, "Wert": 1, "##freiheit": 3, "Grundsatz": 1, "##verst\u00e4ndnis": 1, "metho": 2, "##dis": 2, "##ch": 16, "Dog": 1, "##ma": 6, "dauerhaft": 1, "aufta": 1, "##uchen": 3, "Ungleich": 1, "##heits": 1, "priv": 1, "##ileg": 1, "\u2013": 19, "Kosten": 2, "einst": 3, "##eck": 2, "gesteckt": 1, "Regel": 3, "##sprechen": 1, "schl": 2, "##uss": 2, "##folger": 1, "daraus": 3, "zun\u00e4chst": 5, "Wider": 0, "M\u00f6glichkeit": 7, "darin": 4, "vorn": 5, "##here": 4, "offen": 3, "Raum": 4, "etwas": 24, "themat": 5, "Gef\u00fchl": 3, "Aussage": 4, "Verhalten": 2, "18": 5, "23": 2, "Diskussion": 4, "beziehen": 6, "Privileg": 3, "vielleicht": 13, "bew": 3, "##ussen": 3, "##ierte": 1, "hei\u00dfen": 22, "all": 25, "Ding": 3, "luxuri": 1, "##\u00f6s": 2, "Situation": 6, "heraus": 1, "Reduzierung": 1, "Merkmal": 14, "Ster": 2, "##isierung": 3, "Gewalt": 1, "betreffen": 5, "Marg": 1, "##ina": 1, "##li": 1, "##sie": 2, "##rte": 1, "analysieren": 8, "ihnen": 15, "Gut": 1, "passen": 3, "lustig": 1, "gut": 35, "f\u00fchlen": 2, "Un": 1, "konvention": 1, "Ice": 1, "##rd": 1, "1966": 1, "jed": 31, "Haut": 2, "##farbe": 2, "Abstammung": 1, "national": 2, "Ursprung": 1, "Volks": 1, "##tum": 1, "beruhen": 1, "Unterscheidung": 1, "Aussch": 2, "##lie\u00df": 1, "Beschr\u00e4nkung": 1, "Bevor": 1, "##zug": 5, "dadurch": 2, "##berechtigt": 1, "An": 2, "##erkennen": 1, "Genie\u00dfen": 1, "aus\u00fcben": 1, "Menschen": 1, "##recht": 1, "wirtschaftlich": 1, "kultur": 1, "sonst": 4, "Bereich": 10, "\u00f6ffentlich": 1, "ver": 1, "##eite": 1, "##ln": 4, "beeintr\u00e4chtigen": 2, "abs": 2, "schauen": 10, "bemerken": 2, "allein": 2, "Definition": 7, "zumindest": 5, "Kategor": 1, "Mensch": 8, "entlang": 1, "sog": 1, "aufrechter": 1, "sub": 1, "##jektiv": 1, "Wahrnehmung": 1, "verh": 2, "##\u00e4rten": 1, "impl": 4, "verschieden": 16, "##rasse": 0, "tats\u00e4chlich": 4, "wer": 27, "nat\u00fcrlich": 13, "wissenschaft": 2, "halt": 2, "kritisch": 8, "Nach": 2, "##schlag": 4, "##ew": 1, "##erk": 1, "Susan": 1, "Arn": 1, "##dt": 1, "##ja": 1, "Of": 1, "##ua": 1, "##y": 3, "al": 1, "##azar": 1, "vorschlagen": 1, "17": 2, "kurz": 13, "##um": 19, "definieren": 2, "ra": 1, "##cis": 1, "##m": 3, "Pre": 1, "##ju": 1, "##di": 4, "##ce": 2, "Power": 1, "Rass": 0, "##ismen": 0, "entstehen": 4, "##stuf": 3, "Bewertung": 2, "+": 7, "Macht": 3, "##ismus": 0, "geh\u00f6ren": 3, "heute": 4, "##muster": 8, "b": 8, "##willig": 1, "erst": 20, "Vor": 15, "##urteil": 1, "handeln": 1, "echt": 1, "vorliegen": 5, "ungleich": 2, "behandeln": 2, "##leich": 1, "n\u00f6tig": 12, "Z": 47, "er": 9, "Wei\u00df": 1, "##sein": 2, "bestimmt": 18, "genie\u00dfen": 1, "sehr": 23, "kontro": 1, "##vers": 1, "!": 67, "unterscheiden": 2, "Abbildung": 3, "Ali": 1, "##na": 4, "Val": 1, "##jen": 1, "No": 2, "na": 1, "##zi": 1, "net": 1, "ad": 2, "##ap": 1, "Ex": 1, "##kurs": 2, "positiv": 3, "19": 3, "eng": 2, "ethn": 2, "verwandt": 1, "Konzept": 2, "\u00f6fter": 2, "weiter": 6, "fassen": 3, "##sf": 6, "##orm": 6, "erweitern": 3, "is": 3, "zusammen": 11, "##fassen": 6, "Look": 1, "##ism": 12, "Aussehen": 1, "Ab": 3, "##ili": 1, "##sm": 6, "Gesundheit": 1, "Ad": 3, "##ult": 2, "jung": 1, "Antisemitismus": 1, "Klass": 3, "Schicht": 3, "Tran": 1, "feind": 1, "##kei": 1, "Sex": 1, "Gen": 1, "##der": 1, "##eis": 2, "##mu": 2, "Alte": 1, "anti": 1, "##mus": 1, "##lim": 1, "Islam": 1, "##feind": 1, "Hom": 2, "##oph": 2, "##obi": 2, "Anti": 1, "##zig": 1, "##ani": 1, "Rom": 1, "Sin": 1, "##to": 6, "Lin": 4, "##gu": 5, "##iz": 7, "usw": 17, "wirken": 4, "gewalt": 1, "##voll": 2, "Kind": 81, "gering": 3, "Liter": 1, "##alit\u00e4t": 1, "##serfahrung": 1, "nieders": 1, "##lagen": 1, "##weisung": 3, "##f\u00f6rderung": 1, "irre": 2, "##lev": 1, "Ak": 3, "##zent": 4, "Aussprache": 2, "##gew": 1, "##ohn": 1, "zwei": 4, "wesentlich": 4, "wichtig": 14, "Ot": 1, "##her": 6, "##ing": 15, "Kultur": 2, "##alisierung": 2, "Mech": 2, "##eri": 2, "Dir": 1, "##im": 1, "Mel": 1, "2010": 4, "42": 1, "det": 1, "##min": 2, "Erkl\u00e4rung": 8, "Handlung": 3, "Einstellung": 1, "Verhaltens": 3, "##weise": 6, "Konflikt": 1, "##sweise": 1, "Dich": 1, "##oto": 1, "##mi": 4, "##rung": 1, "Zweite": 1, "##il": 1, "Gesellschaft": 1, "Zuge": 1, "##h\u00f6rige": 2, "Nicht": 1, "zuge": 1, "verst\u00e4rkt": 1, "Zusch": 1, "##reibung": 1, "##produz": 1, "bedeuten": 4, "nochmal": 18, "##lesen": 3, "Ru": 2, "ko": 11, "Ne": 2, "##o": 2, "Datei": 2, "vielf\u00e4ltig": 3, "Dialekt": 2, "Deutsch": 7, "##sch": 5, "##\u00e4tzen": 3, "schlecht": 4, "##tritt": 2, "##sem": 3, "##pfe": 2, "##hl": 2, "Gymnasium": 2, "erteilen": 2, "u": 3, "100": 2, "101": 1, "H\u00fcr": 0, "hinweg": 1, "Anerkennung": 1, "mitgebracht": 0, "##verm\u00f6gen": 1, "schwach": 1, "##ibel": 1, "agieren": 0, "aktiv": 5, "bek\u00e4mpfen": 2, "Aus": 1, "##pr\u00e4": 0, "##gung": 0, "annehmen": 2, "potenzie": 1, "##ll": 2, "wo": 16, "Aspekt": 9, "##eh": 2, "##\u00f6r": 2, "dr\u00fccken": 0, "ohn": 0, "##m\u00e4chtig": 0, "Opfer": 0, "##rolle": 0, "##erb": 1, "##zwei": 0, "##fel": 0, "best\u00e4": 2, "##rk": 3, "emp": 0, "##ath": 0, "kompens": 0, "versuchen": 8, "Betroffene": 0, "wirklich": 7, "h\u00e4ngen": 2, "Verfasst": 0, "Fortbildung": 3, "besuchen": 1, "G": 17, "##gf": 17, "fehlen": 14, "Wissen": 10, "Gesellschafts": 1, "##zusammen": 1, "##hang": 1, "erwerben": 6, "##\u00fcr": 0, "dem": 0, "r": 1, "wecken": 0, "falsch": 9, "Hoffnung": 0, "mein": 29, "meist": 11, "recht": 6, "sit": 1, "##ui": 5, "##ert": 4, "Lehrer": 2, "##arm": 1, "##losen": 1, "Stand": 3, "2016": 1, "stand": 1, "web": 1, "p": 7, "##df": 6, "stif": 4, "##tu": 5, "do": 1, "or": 1, "wirksam": 3, "Werkzeug": 1, "finden": 20, "beispielsweise": 4, "Id": 2, "##b": 3, "##tage": 1, "##freie": 1, "|": 1, "Institut": 1, "Bildung": 3, "generell": 1, "Anlauf": 1, "##stelle": 1, "In": 6, "##klus": 1, "Demokratie": 1, "L\u00f6sung": 11, "Wirtschafts": 1, "##unternehmen": 1, "Bew": 4, "##usste": 1, "verd": 2, "##reh": 1, "F\u00f6rderung": 1, "sau": 4, "##ul": 1, "##able": 1, "derjenige": 1, "Landes": 1, "##anti": 1, "##disk": 3, "##rimin": 1, "##gesetz": 1, "62": 1, "##1": 1, "https": 5, "##fu": 1, "##bi": 1, "fu": 2, "ber": 3, "##lin": 3, "bit": 1, "##stream": 1, "hand": 1, "##18": 1, "##8": 1, "169": 1, "##70": 1, "la": 2, "##dg": 1, "se": 2, "##quen": 1, "Isa": 1, "##llo": 1, "##we": 1, "y": 1, "##sk": 0, "##rit": 0, "unterrichten": 0, "beginnen": 4, "folglich": 2, "selbst": 29, "##nd": 4, "kolle": 1, "##gia": 1, "Beratung": 1, "suchen": 3, "Ereignis": 1, "nachtr\u00e4glich": 1, "k\u00fcnftig": 1, "nutzen": 17, "Formulierung": 4, "inkl": 0, "##us": 2, "Methode": 3, "sensi": 0, "##bel": 0, "Gegenstand": 3, "beinhalten": 5, "Schulen": 2, "##tw": 2, "##lung": 2, "demokrat": 1, "##f\u00fchrung": 2, "Stimme": 1, "##be": 3, "##zieht": 1, "bef": 1, "##ragen": 1, "w\u00fcnschen": 4, "besonders": 6, "hoch": 5, "Potential": 3, "verringern": 0, "Mehrfach": 1, "anerkennen": 0, "helfen": 13, "Ebene": 11, "diese": 11, "oft": 8, "##wirken": 1, "genauso": 2, "Beispiel": 14, "euch": 4, "organisieren": 1, "Information": 1, "euer": 2, "Kita": 2, "Erzieher": 1, "indem": 13, "ihm": 1, "Zugang": 1, "Darstellung": 4, "verschaffen": 1, "wert": 1, "##\u00e4tzt": 1, "erm\u00f6glichen": 5, "wahrnehmen": 4, "Schritt": 4, "hin": 1, "##usst": 1, "##sei": 2, "##binden": 1, "fot": 1, "enorm": 1, "beschr\u00e4nken": 2, "Noten": 1, "##gebung": 1, "Sel": 1, "##ekt": 1, "F\u00f6rder": 1, "##ma\u00dfnahme": 1, "21": 15, "Fokus": 5, "Schrift": 3, "Herausforderung": 2, "sp\u00e4testens": 1, "Sekundar": 2, "bal": 1, "##len": 2, "treffen": 1, "meiste": 3, "##rn": 3, "Ausbau": 0, "##kompetenz": 1, "verf\u00fcgen": 4, "gewinnen": 1, "Mithilfe": 1, "Schm": 1, "##\u00f6lzer": 1, "eib": 1, "2006": 1, "179": 1, "darauf": 5, "Lauf": 2, "##zeit": 9, "bis": 5, "Ende": 11, "sechs": 1, "kon": 0, "##zeption": 0, "vertraut": 0, "separ": 3, "##at": 18, "heran": 1, "besitzen": 3, "aufweisen": 1, "##spezif": 1, "wieder": 9, "erweitert": 1, "meinen": 9, "Res": 0, "##so": 0, "##urce": 0, "zur\u00fcck": 3, "##greifen": 9, "##atik": 2, "##alisch": 1, "h\u00f6ren": 3, "Bestimmung": 0, "Hindernis": 0, "Schwier": 3, "##planung": 1, "Bruch": 3, "##teil": 4, "beanspr": 1, "Kontext": 4, "unge": 2, "Antwort": 14, "warten": 1, "dann": 43, "hinter": 2, "Anzeichen": 1, "liegen": 6, "Ges": 1, "##agte": 1, "Aufgaben": 7, "##form": 7, "##ulierung": 0, "durchs": 2, "##uen": 1, "erf\u00fcllen": 2, "stattdessen": 1, "Opera": 6, "##tor": 6, "sk": 3, "##izz": 3, "lassen": 15, "solch": 12, "bew\u00e4ltigen": 0, "beide": 6, "Autor": 1, "vorlegen": 1, "vier": 8, "##ungsbereich": 3, "##decken": 1, "Ausf\u00fchrung": 3, "allerdings": 4, "Videos": 2, "Video": 12, "Zweck": 1, "Feld": 0, "##grenzen": 2, "W": 3, "##dh": 2, "Ba": 2, "##handlung": 3, "Genre": 0, "Verst\u00e4ndnis": 2, "##hilfe": 4, "einfach": 19, "stattfinden": 5, "schriftlich": 5, "f\u00fcnf": 1, "vorgeschlagen": 1, "Prinzip": 5, "##inter": 0, "planen": 3, "abl": 5, "##aufen": 2, "dennoch": 6, "achten": 4, "##hen": 2, "Begriff": 6, "erstmal": 12, "kennenlernen": 6, "Vert": 2, "##ief": 2, "Versp": 1, "##rach": 1, "##gn": 10, "##itiv": 9, "Operation": 1, "Funktion": 4, "2014": 2, "bezeichnen": 7, "ausgel\u00f6st": 1, "Proze\u00df": 7, "Verbindung": 1, "dahinter": 1, "unklar": 1, "Wissens": 0, "##struktur": 2, "aufbauen": 3, "verarbeiten": 1, "##geben": 5, "produzieren": 4, "invol": 2, "##vier": 2, "dienen": 5, "vermitteln": 3, "##pe": 2, "##ichern": 1, "##aufbau": 0, "men": 2, "##tal": 2, "herstellen": 4, "dementsprechend": 2, "sp\u00e4t": 4, "Festlegung": 0, "##ziel": 4, "el": 4, "##ement": 3, "##ar": 3, "festlegen": 1, "umsetzen": 3, "mittels": 4, "Muster": 4, "##antwort": 2, "erforderlich": 3, "s\u00e4": 1, "vorkommen": 2, "deswegen": 1, "integrieren": 1, "welches": 1, "existieren": 1, "##uster": 0, "Stufe": 4, "##quenz": 4, "##iell": 2, "ka": 2, "##usa": 2, "multi": 1, "Bestandteil": 3, "Ursache": 3, "Wirkung": 1, "Qualit\u00e4t": 3, "erh\u00f6hen": 3, "Unterst\u00fctzung": 0, "Nomin": 1, "Pass": 1, "etc": 3, "\u00dcbungs": 2, "pl": 3, "##uri": 4, "##lit": 4, "##era": 4, "##ci": 4, "ec": 2, "##ml": 2, "at": 3, "port": 1, "##als": 1, "54": 1, "##utt": 1, "app": 1, "##ro": 2, "##ach": 1, "into": 1, "##ctic": 1, "##erst": 2, "typisch": 5, "nah": 1, "Arbeits": 6, "##an": 2, "bedienen": 1, "erwarten": 8, "klar": 8, "rein": 5, "##auftrag": 1, "##stellung": 11, "mehrere": 5, "enthalten": 4, "ideal": 4, "Lesen": 3, "Schreiben": 1, "Sprechen": 0, "##p\u00e4dagog": 1, "Verb": 5, "Funktions": 3, "##verb": 2, "##gef\u00fc": 2, "wissen": 16, "##ener": 0, "Bearbeitung": 0, "initi": 0, "lenken": 3, "2019": 2, "i": 5, "D": 3, "R": 1, "sowie": 7, "erfordern": 1, "Chron": 1, "##ologie": 1, "Versuchs": 1, "##beschreibung": 4, "zuerst": 1, "danach": 3, "schlie\u00dflich": 8, "Us": 16, "##w": 17, "Anordnung": 3, "Vordergrund": 1, "hinten": 1, "ausdr\u00fcck": 3, "nennen": 6, "Regelung": 1, "Versuch": 2, "##ordnung": 1, "pr\u00fc": 1, "##fungs": 1, "Rep": 1, "##rod": 1, "Transfer": 1, "Re": 5, "##organisation": 1, "Reflex": 1, "Problem": 3, "##l\u00f6sung": 4, "sicherlich": 3, "Lehren": 3, "verst\u00e4nd": 1, "##igen": 4, "##bahnen": 1, "vieler": 4, "##lei": 3, "verbinden": 3, "eindeutig": 3, "gew\u00e4hrleisten": 1, "theoretisch": 0, "##uell": 4, "Fund": 0, "Referenz": 0, "realisiert": 0, "etwa": 3, "2002": 2, "##arbeitung": 3, "Tax": 1, "##onom": 1, "##i": 4, "grundlegend": 2, "verschw": 1, "##eigen": 3, "Realisierung": 0, "feststellen": 2, "fest": 5, "untersuchen": 1, "indirekt": 3, "##izit": 2, "erscheinen": 3, "meistens": 1, "erwartet": 2, "##ulieren": 12, "Inst": 1, "##ru": 1, "##ktion": 1, "bearbeiten": 1, "Zusammenfassung": 5, "16": 3, "Projekt": 1, "Merc": 1, "##ator": 2, "Zeichen": 1, "int": 3, "##tiv": 3, "vornehmen": 2, "##merk": 0, "##mal": 2, "25": 3, "%": 2, "ausmachen": 2, "bewusst": 3, "unsicher": 4, "##sch\u00fcler": 0, "schwer": 11, "gern": 8, "Aktivit\u00e4t": 5, "Wiederholung": 5, "Ca": 7, "Min": 8, "zusammenh\u00e4ngen": 0, "Produkt": 4, "##zip": 1, "##plan": 4, "diesbez\u00fcglich": 1, "rot": 3, "zudem": 4, "erw\u00e4hnt": 2, "##se": 2, "einher": 1, "##gehend": 0, "bilden": 2, "##\u00fc": 0, "##pfen": 1, "ben": 5, "##ennen": 6, "Nam": 1, "Besch": 2, "##rift": 3, "Statistik": 1, "Lex": 1, "##ikon": 1, "##eint": 2, "##rag": 2, "W\u00f6rter": 1, "Stichwort": 4, "##al": 12, "Bra": 1, "##inst": 1, "Mind": 1, "##p": 4, "Des": 1, "##cr": 1, "Inhalts": 1, "##wieder": 2, "##gabe": 1, "Sum": 1, "##mar": 1, "##erz": 1, "##\u00e4hl": 1, "Gebrauch": 2, "##san": 2, "Anteil": 7, "User": 1, "Man": 1, "##ual": 2, "Beschreibung": 6, "diskon": 2, "##tinuier": 2, "Dia": 1, "##gramm": 1, "Bericht": 2, "Zeitung": 1, "Radio": 1, "Fe": 1, "##ature": 1, "Protokoll": 1, "##modell": 2, "Bewerbung": 1, "##ss": 3, "##reiben": 1, "Expl": 1, "##ain": 1, "Grafik": 2, "Vortrag": 2, "Refer": 1, "Sach": 5, "##text": 16, "Hypoth": 1, "begr\u00fcndet": 1, "Vorher": 3, "##sage": 1, "Conc": 1, "##ep": 1, "Argument": 7, "Arg": 1, "##\u00f6rter": 1, "##tat": 1, "Auf": 14, "##satz": 6, "Ess": 2, "##ay": 2, "Tra": 1, "##kt": 3, "Quellen": 1, "Bes": 1, "##innung": 1, "##sau": 1, "##fs": 1, "ev": 2, "##iden": 1, "##zb": 1, "##asi": 1, "Natur": 1, "##wissenschaft": 2, "Interpretation": 1, "De": 3, "##utung": 1, "fik": 1, "viert": 1, "##ige": 1, "##\u00fcndel": 1, "Bachelor": 2, "##re": 2, "##eiten": 5, "##strategie": 0, "Achtung": 3, "Koh": 0, "##\u00e4ren": 0, "Int": 4, "##ent": 3, "Strategie": 4, "spezif": 4, "\u00fcblicherweise": 1, "I": 2, "lin": 1, "korrekt": 3, "vorhanden": 4, "endlich": 1, "tauchen": 1, "auff\u00e4llig": 1, "Stelle": 6, "##atisch": 2, "kommun": 0, "##ikat": 0, "##sb": 0, "##erei": 0, "##da": 3, "##ktik": 1, "##fertig": 1, "##keit": 7, "grob": 2, "Fertig": 1, "m": 1, "##dl": 1, "H\u00f6ren": 0, "gelungen": 1, "rund": 2, "ausgehend": 1, "Leit": 2, "##frage": 3, "Pl": 1, "A": 3, "Fak": 1, "C": 2, "inne": 1, "n": 2, "am": 5, "##tik": 1, "Aufbau": 0, "e": 1, "Sozial": 0, "eignen": 2, "Einzel": 4, "##arbeit": 14, "Partner": 4, "F": 1, "worauf": 1, "legen": 2, "Schwerpunkt": 1, "##termin": 1, "Tipp": 3, "zum": 1, "verbessern": 3, "Beweis": 0, "Se": 1, "erhalten": 6, "Gelegenheit": 2, "##reichte": 0, "woher": 1, "##fort": 0, "##schritt": 1, "messen": 0, "Erg\u00e4nzung": 1, "wann": 5, "Gel": 1, "##ernte": 1, "Vermittlung": 0, "##rufen": 1, "steuern": 1, "Ko": 0, "##ition": 0, "anwenden": 2, "Sc": 6, "##aff": 7, "##old": 8, "mer": 1, "##cat": 1, "##or": 1, "con": 1, "##tent": 1, "up": 3, "##lo": 1, "##ads": 1, "allen": 1, "fa": 1, "##ech": 1, "##ern": 2, "##wissen": 10, "Not": 3, "begegnen": 1, "Tag": 1, "Sport": 1, "kennen": 4, "Name": 1, "Begriffs": 1, "##kl\u00e4rung": 1, "zeitlich": 1, "begrenzt": 1, "essen": 3, "##ziell": 1, "Unterst\u00fctzungs": 2, "##ine": 1, "##ker": 1, "f": 1, "2015": 2, "84": 1, "Ger": 0, "##\u00fcst": 0, "selbstst\u00e4ndig": 0, "bewegen": 0, "eigens": 1, "Pauli": 2, "##ne": 2, "Gib": 6, "##bon": 6, "mod": 5, "\u00fcbertragen": 1, "Josef": 1, "leise": 1, "28": 8, "kalk": 2, "##ktisch": 2, "knapp": 0, "hingegen": 3, "##ozi": 1, "##eren": 5, "Fr": 2, "##ustr": 2, "Zone": 2, "##versuch": 1, "##f\u00fchl": 1, "So": 2, "##das": 2, "optimal": 1, "##situation": 1, "eigentlich": 5, "Aufrechter": 0, "sinnvoll": 8, "Development": 1, "Offensive": 0, "defen": 2, "##siv": 3, "##praxis": 1, "prinzip": 2, "ent": 3, "##lasten": 3, "angehen": 3, "R\u00fcck": 3, "##meldung": 3, "Instrument": 3, "Erwerbs": 1, "voran": 3, "##melde": 0, "##technische": 0, "lernen": 5, "zweit": 3, "##ebene": 3, "durchaus": 3, "st\u00e4ndig": 1, "##person": 1, "Reduktion": 1, "##anteil": 2, "zugunsten": 1, "Um": 1, "##kehr": 1, "klass": 4, "Front": 1, "lang": 7, "##put": 1, "ind": 1, "Mikro": 2, "Mak": 1, "##ros": 1, "##ca": 1, "Phase": 2, "neben": 1, "##bauen": 8, "hierzu": 1, "z\u00e4hlen": 3, "verst\u00e4ndlich": 0, "##erium": 0, "formuliert": 0, "Teile": 1, "##ment": 1, "Bedarf": 0, "##stands": 1, "Bedarfs": 0, "##let": 1, "##zt": 1, "Reihe": 2, "aktuell": 2, "ermitteln": 1, "Blick": 5, "behalten": 0, "genannt": 2, "Geben": 1, "umfassen": 5, "Gesamtheit": 1, "##technik": 0, "##st\u00e4ndigkeit": 0, "Methoden": 1, "##vielfalt": 1, "##sc": 1, "direkt": 3, "wenig": 4, "plan": 1, "##gespr\u00e4ch": 2, "antworten": 3, "unvor": 1, "##gesehen": 1, "##schwier": 1, "spontan": 3, "Ho": 1, "##c": 1, "reagieren": 4, "hierbei": 1, "Technik": 7, "##kommun": 0, "mitge": 1, "##stal": 1, "##ten": 4, "unvoll": 1, "##st\u00e4ndig": 1, "dein": 5, "Lieblings": 2, "Ahnung": 1, "Buch": 3, "##vor": 1, "mitten": 2, "lauten": 2, "vertrauen": 1, "Grundlage": 1, "##blatt": 3, "bieten": 5, "Sog": 4, "Fin": 2, "##ding": 1, "The": 2, "Lang": 1, "##uage": 1, "Cur": 1, "##ric": 1, "##ulu": 1, "##gl": 3, "121": 1, "##f\u00fchrende": 1, "##rw": 2, "##eise": 2, "Planungs": 4, "Satz": 17, "Beachtung": 1, "vorgegeben": 2, "Jahrgang": 2, "##sst": 3, "##ufe": 2, "entwickeln": 3, "wiederum": 2, "wof\u00fcr": 1, "bedenken": 1, "geleitet": 1, "\u00dcbersicht": 1, "Goethe": 1, "inst": 1, "##itut": 1, "Be": 1, "Et": 1, "Al": 1, "35": 1, "schreiben": 5, "pr\u00e4sentieren": 2, "beherrschen": 1, "eingesetzt": 1, "Schreib": 2, "besonder": 1, "##verk": 0, "Gramm": 1, "langfristig": 1, "Zuwachs": 0, "bewirken": 1, "##n\u00f6": 1, "sicherstellen": 1, "##disziplin": 1, "wieso": 7, "Zir": 1, "##kel": 1, "transparent": 0, "Leistung": 2, "Falle": 1, "Poly": 1, "##ium": 3, "##handen": 1, "Bedeutung": 6, "Kunst": 1, "Ge": 1, "##ometrie": 1, "umso": 1, "doch": 8, "Kl\u00e4r": 3, "zwar": 5, "##\u00e4ltigung": 2, "gerecht": 1, "Fazit": 7, "Suche": 2, "Tool": 2, "fallen": 5, "##entscheidung": 1, "Kasten": 1, "gesamt": 5, "##vorgang": 1, "M\u00fcnster": 2, "Wa": 1, "##x": 5, "Verlag": 1, "49": 1, "##instrument": 5, "erw\u00e4hnen": 5, "berichten": 2, "Studierende": 1, "Master": 1, "parallel": 1, "laufen": 1, "gestellt": 1, "anders": 1, "inten": 1, "##die": 1, "##einheit": 6, "System": 1, "Konkret": 5, "##isierungs": 5, "##ras": 6, "Hilfsmittel": 1, "geeignet": 1, "##angebot": 0, "sogen": 1, "##annt": 1, "arbeiten": 9, "vorab": 1, "##helfen": 3, "Rast": 1, "altern": 1, "##ativ": 6, "ebenfalls": 4, "einsetzen": 3, "befassen": 1, "n\u00e4chst": 1, "Unter": 2, "##punkt": 6, "Grundschule": 1, "sim": 0, "##pel": 0, "bleiben": 5, "Teils": 3, "##ritt": 3, "Zwischen": 1, "vorge": 6, "Modul": 1, "##abschluss": 1, "##pr\u00fcfung": 1, "\u00fcbersehen": 3, "Niveau": 1, "Abgabe": 1, "Vorteil": 1, "##proben": 2, "Ganze": 3, "##eignet": 1, "lo": 1, "##hnen": 1, "##uliert": 2, "Verwendung": 1, "aufnehmen": 5, "Erfinder": 1, "ebenso": 4, "Vorschlag": 2, "durchf\u00fchren": 1, "##seite": 2, "verkehren": 1, "Bord": 1, "Check": 3, "Erl\u00e4u": 2, "##terung": 2, "Empfehlung": 2, "##verw": 4, "##endung": 2, "Publikation": 1, "##bene": 2, "O": 9, "jetzt": 9, "Neben": 0, "##s\u00e4tz": 0, "ansonsten": 5, "Trick": 1, "\u00fcbers": 2, "##etzen": 3, "mal": 7, "##best": 1, "Englisch": 1, "Franz\u00f6sisch": 1, "Erst": 1, "pl\u00f6tzlich": 2, "Deutsche": 2, "##h\u00fc": 0, "passend": 5, "herausfinden": 2, "Unterseite": 1, "hilfreich": 2, "##sicherung": 1, "Nutzen": 1, "unten": 3, "ange": 1, "##h\u00e4ngt": 1, "P": 1, "dat": 1, "##eie": 1, "Hinweis": 4, "form": 7, "Kollegin": 2, "Dr": 1, "Maria": 2, "Gro\u00dfe": 2, "6": 3, "\u00dcbung": 3, "##gaben": 1, "Vergleich": 6, "link": 1, "ti": 1, "##ppen": 3, "frage": 1, "Konzentration": 0, "Schacht": 0, "##els": 0, "Eind": 0, "##eu": 0, "##tigkeit": 0, "##deu": 0, "inhaltlich": 1, "Klarheit": 1, "##fra": 0, "##cht": 0, "Ei": 1, "60": 1, "dazuge": 1, "##h\u00f6r": 1, "##kur": 1, "Erinnerung": 1, "##sw": 1, "##and": 1, "ausgew\u00e4hlt": 1, "sc": 0, "Bitte": 4, "Pr\u00e4z": 1, "Zug": 2, "##zwang": 2, "pr\u00e4zise": 1, "Pr\u00e4sentation": 0, "Ziels": 3, "##tr": 3, "##tur": 3, "Kontrast": 0, "abweichen": 3, "vergleichen": 4, "##regen": 5, "##vergleich": 5, "##ingu": 1, "##ling": 1, "##kunft": 3, "\u00c4u\u00dfer": 3, "wiederauf": 5, "korrig": 6, "Wieder": 5, "##holen": 5, "ziel": 1, "##cast": 1, "##wahl": 3, "Aufforderung": 2, "##kor": 1, "##rektur": 1, "##auf": 4, "Verweis": 2, "Eliz": 1, "##iti": 1, "##erung": 1, "##holung": 1, "Einsatz": 1, "Mi": 3, "##k": 4, "Gest": 3, "26": 14, "Einstieg": 4, "Folgende": 1, "Einf\u00fchrung": 2, "##sv": 2, "##ideo": 2, "Daniela": 2, "Rotter": 2, "ow": 2, "Gespr\u00e4ch": 2, "##ituation": 0, "halten": 2, "##altern": 0, "##ative": 0, "di": 0, "Motiv": 0, "Platz": 2, "o": 3, "##sz": 1, "##ena": 1, "##rio": 1, "Ma\u00dfnahme": 0, "F\u00fchrung": 0, "erleichtern": 1, "##\u00fchrung": 1, "ber\u00fchren": 1, "veran": 1, "##schau": 1, "##lichen": 2, "gleichzeitig": 1, "person": 1, "Steuerung": 1, "Lei": 1, "ans": 4, "##iede": 1, "Nacht": 1, "Unsicherheit": 0, "##wissenschaftler": 1, "Knapp": 1, "beobachten": 2, "vielfach": 1, "\u00fcbersch": 2, "konzentrieren": 3, "##sich": 1, "orientieren": 2, "##tre": 2, "##tags": 1, "nett": 1, "l\u00e4": 1, "##che": 1, "ni": 1, "##cken": 1, "schnell": 2, "unent": 0, "Tafel": 5, "##aktiv": 5, "Version": 1, "voll": 1, "##ziehen": 3, "par": 1, "##aver": 1, "##bal": 1, "##gehen": 4, "erfassen": 4, "Sprech": 1, "##tem": 0, "##po": 1, "Beton": 0, "##pause": 0, "Beziehung": 1, "##sebene": 1, "Gestaltung": 0, "##gst": 0, "##frei": 0, "motiv": 0, "ermu": 1, "##nte": 0, "nehmen": 6, "\u00e4u\u00dfern": 1, "##h\u00f6ren": 2, "ak": 1, "langsam": 1, "Richtung": 4, "Formul": 3, "gew\u00e4hren": 1, "Mur": 2, "##mel": 3, "Austausch": 5, "nichts": 3, "Werkzeuge": 1, "##schullehrer": 0, "40": 1, "einer": 6, "auffallen": 2, "ziemlich": 0, "zust": 0, "##ehen": 0, "Perspektive": 1, "##arch": 1, "as": 1, "##ym": 1, "##met": 1, "##ris": 1, "Sicht": 1, "sozio": 1, "##kultur": 2, "##theorie": 1, "konstru": 0, "los": 2, "##l\u00f6sen": 2, "erzeugen": 1, "anscheinend": 1, "##erg": 1, "frag": 1, "ob": 7, "konstruiert": 1, "traditionell": 1, "##\u00e4g": 1, "##sver": 0, "##lauf": 2, "bitten": 1, "##10": 1, "ver\u00e4ndern": 1, "Zeitpunkt": 2, "verhaf": 1, "Experiment": 2, "##ier": 2, "Vermutung": 1, "Kon": 1, "##junkt": 1, "bevor": 3, "##11": 1, "Schwe": 1, "##nk": 1, "Person": 8, "Akte": 1, "##ur": 2, "natur": 0, "##ug": 0, "bereit": 2, "Erkenntnis": 0, "verp": 0, "##acken": 0, "Br\u00fccke": 1, "pers\u00f6nlich": 1, "allt\u00e4": 1, "##glich": 1, "Erk": 1, "##skon": 1, "##struktion": 1, "##information": 1, "ann\u00e4h": 1, "##elli": 0, "##atten": 1, "sinn": 0, "##stift": 0, "##end": 0, "vorgestellt": 1, "pro": 4, "##xi": 1, "Entwicklung": 1, "einerseits": 1, "konfron": 1, "andererseits": 1, "differenz": 2, "kaum": 1, "produ": 1, "##ktiv": 3, "trennen": 0, "##zeigen": 0, "Cor": 0, "##ction": 0, "eventuell": 1, "blo\u00df": 1, "##stellen": 2, "Interesse": 0, "automatisch": 1, "gegenseitig": 7, "erlauben": 4, "Sicherheit": 1, "keiner": 1, "Regen": 1, "unauf": 0, "##dring": 0, "nebenbei": 0, "res": 0, "##ns": 0, "##cho": 0, "##nen": 2, "halb": 1, "einzig": 4, "richtig": 9, "Nenn": 1, "vollst\u00e4ndig": 1, "warum": 6, "anstelle": 0, "Prom": 0, "##pt": 1, "zufrieden": 2, "bekommen": 1, "anstatt": 1, "Nutzung": 0, "du": 4, "##und": 0, "Themen": 2, "##gebrauch": 2, "##rieb": 2, "##med": 2, "##w\u00e4l": 1, "##zen": 1, "aussch": 1, "##\u00e4r": 1, "##fen": 3, "##echsel": 0, "Option": 1, "empfehlen": 1, "Periode": 6, "##auer": 1, "Vis": 1, "##ualisierung": 1, "Schau": 1, "dort": 5, "##pla": 2, "##ions": 0, "##bewusst": 1, "Aufmerksamkeit": 1, "##sl": 1, "##enkung": 1, "Inner": 2, "Di": 2, "##\u00e4t": 2, "Abgeordnete": 2, "##andt": 2, "##schaft": 2, "kl\u00e4ren": 4, "Alkohol": 2, "Chemie": 2, "End": 2, "Suf": 3, "##fi": 3, "##quis": 1, "##it": 1, "##ki": 1, "##tt": 1, "##dest": 1, "##ph": 1, "##on": 1, "begleiten": 1, "au\u00dferdem": 3, "Sprachen": 1, "##fach": 2, "##omen": 1, "wel": 1, "Komposition": 1, "Der": 1, "##iva": 1, "aller": 1, "##las": 1, "funktionieren": 1, "Kor": 1, "##ktive": 1, "##kod": 2, "##stehen": 2, "fehler": 2, "##haft": 2, "Korrektur": 1, "inner": 3, "Monitor": 2, "erfolgen": 5, "##ona": 2, "wiederholen": 2, "kalt": 2, "Metall": 1, "##platte": 1, "ert": 1, "##rinken": 1, "dauern": 4, "Sekunde": 4, "Hand": 1, "##bewegung": 1, "Heb": 1, "Augen": 1, "##bra": 1, "##ue": 1, "aufmerksam": 1, "Studium": 1, "bisher": 2, "vorgehen": 0, "##lehr": 1, "he": 0, "##mmen": 0, "Umstand": 1, "Foss": 0, "Abbruch": 1, "Sta": 0, "##gna": 1, "erworben": 0, "##brechen": 1, "demnach": 1, "werfen": 0, "verde": 1, "##utlich": 1, "gleicherma\u00dfen": 1, "Defizit": 1, "St\u00e4rke": 1, "paar": 3, "Moment": 2, "Ressourcen": 1, "##blick": 1, "sch\u00e4r": 2, "##\u00fcler": 0, "##freundlich": 0, "##verh": 0, "##alte": 0, "etablieren": 0, "weg": 2, "##orientierung": 1, "Einsicht": 1, "durchsetzen": 1, "Tabelle": 3, "dokumen": 1, "Studie": 2, "Zweit": 1, "##ors": 2, "Kas": 1, "##bau": 0, "Reihenfolge": 2, "au\u00dfen": 2, "beeinfl": 1, "##rate": 0, "##gie": 0, "Auge": 1, "##\u00e4u\u00dfer": 0, "einsch": 1, "beurteilen": 1, "herange": 1, "##dia": 1, "##ose": 1, "Ann\u00e4herung": 0, "regelm\u00e4\u00dfig": 1, "neutr": 0, "##durch": 2, "gegen\u00fcber": 1, "x": 2, "##nor": 0, "##ient": 0, "fe": 29, "flexibel": 1, "Fol": 2, "##ien": 1, "##ly": 1, "##ruf": 1, "Kriterien": 1, "Vorgehen": 1, "Eindruck": 1, "verf": 0, "##\u00e4l": 0, "unum": 1, "##g\u00e4ng": 1, "kritisieren": 1, "Einheit": 4, "Zielsetzung": 1, "anf": 2, "anpassen": 0, "##schreiben": 2, "cu": 0, "##rr": 0, "##ic": 0, "##ular": 0, "davon": 2, "Kriterium": 3, "Erhebung": 1, "Anregung": 1, "le": 1, "##hre": 1, "##rf": 1, "##ort": 1, "22": 1, "##orientierte": 0, "E": 1, "Aller": 1, "einmal": 5, "Verw": 0, "##enden": 0, "basierend": 1, "auswirken": 0, "mark": 2, "registrieren": 1, "V": 1, "h": 2, "2007": 1, "##verst\u00e4ndlich": 1, "erinnern": 1, "R\u00fcckgabe": 1, "Klaus": 1, "Schulzeit": 1, "##f\u00f6rder": 0, "Auseinander": 0, "##setzung": 1, "eil": 1, "##tiert": 2, "##abelle": 1, "sch\u00f6n": 3, "real": 1, "Klassen": 4, "##suchen": 3, "Halbjahr": 1, "melden": 1, "##art": 1, "grunds\u00e4tzlich": 2, "sodass": 1, "##zu": 1, "##wachs": 1, "ausgehen": 1, "gew": 0, "##inn": 0, "probieren": 1, "##abell": 1, "##f\u00fcllen": 2, "##ordnen": 9, "cle": 1, "##ver": 1, "##wand": 2, "Behauptung": 2, "Kritik": 2, "aufeinander": 1, "enden": 1, "Schw\u00e4che": 1, "Papier": 2, "gelegentlich": 1, "Mangel": 0, "vermuten": 2, "viele": 3, "##tigen": 1, "##zentrum": 1, "Anspruch": 1, "Er\u00f6ffnung": 1, "Sorge": 1, "Haupt": 2, "verraten": 1, "Philosophie": 1, "Sache": 1, "Sens": 1, "Kommentar": 4, "Erm": 1, "##angel": 1, "Standard": 1, "beeindruckt": 1, "pr\u00e4": 1, "##nt": 3, "beantworten": 3, "##grenze": 1, "verdienen": 1, "au\u00dferhalb": 1, "Absatz": 1, "ausschlie\u00dflich": 1, "##\u00fcss": 1, "Fett": 1, "Auftrag": 1, "gro\u00dfartig": 1, "einige": 3, "##imi": 1, "##nier": 1, "Linie": 1, "insgesamt": 10, "Philosoph": 1, "ansprechen": 2, "interessant": 0, "inform": 0, "Theo": 1, "##ret": 1, "##iker": 1, "Ah": 2, "##ana": 1, "##s\u00e4tzlich": 1, "Standpunkt": 1, "einbringen": 2, "unterm": 1, "##auern": 1, "Vorsicht": 0, "wa": 0, "##lt": 0, "Hed": 0, "##ging": 0, "stark": 3, "Schluss": 0, "Mitarbeiter": 1, "ausbauen": 1, "bed": 1, "##\u00fcrf": 1, "mir": 17, "wohin": 1, "Organisation": 0, "Le": 0, "##\u00fcre": 0, "##bestimmung": 0, "erl\u00e4u": 2, "##tern": 2, "Zusatz": 2, "Kurz": 1, "produziert": 1, "Plak": 11, "begr\u00fcnden": 7, "Milch": 13, "##ku": 4, "##h": 4, "Nutz": 8, "##tier": 8, "Te": 29, "##acher": 29, "mich": 5, "spannend": 1, "Informations": 3, "besprechen": 1, "Herstellung": 1, ">": 33, "vorstellen": 3, "Plen": 16, "Lese": 1, "##stra": 0, "##teg": 0, "##ia": 0, "Leser": 0, "##out": 0, "Erl": 1, "##esen": 1, "Artikel": 2, "Schlei": 0, "##fe": 1, "Verlauf": 4, "##produkt": 3, "##the": 1, "##ke": 1, "##baus": 1, "##anfang": 7, "L\u00fccken": 5, "Vorber": 2, "individ": 1, "##ualisiert": 1, "Ok": 3, "##sa": 2, "Unterschied": 1, "Vari": 0, "Zwei": 2, "##erte": 2, "##am": 1, "jeweils": 3, "Pfeil": 3, "##\u00fcte": 1, "Lebensmittel": 1, "quasi": 2, "hoffentlich": 1, "##riften": 1, "super": 1, "Vorgang": 2, "nochmals": 4, "reichen": 1, "anfangen": 1, "##ams": 1, "Begr\u00fcndung": 1, "Mehrwert": 1, "anspruchs": 1, "ba": 1, "Kuh": 3, "K\u00e4se": 1, "aussehen": 2, "Tier": 7, "##bindung": 0, "M\u00fcn": 0, "##dlich": 0, "##zielen": 2, "Fest": 4, "##runde": 1, "locker": 2, "Recherche": 2, "Beitrag": 2, "Rinder": 2, "##haltung": 2, "Klimawandel": 2, "Pod": 2, "##iums": 2, "##ussion": 2, "Bauer": 16, "Klima": 2, "##ist": 2, "Veg": 2, "##aner": 2, "gegeneinander": 2, "Dreier": 1, "Fac": 2, "##swert": 3, "mindestens": 2, "##\u00f6ger": 0, "trauen": 2, "ruhig": 2, "kre": 3, "##ativer": 2, "innov": 2, "lebendig": 2, "solange": 2, "##aterial": 4, "Map": 15, "inspir": 2, "mo": 2, "##lab": 2, "hu": 2, "ur": 2, "view": 2, "ph": 2, "111": 2, "##arbeiten": 1, "Umsetzung": 0, "Entlastung": 1, "\u00c4nderung": 1, "Station": 2, "Warm": 2, "##nu": 0, "##kart": 4, "vorrangig": 1, "ja": 9, "versprach": 3, "##g\u00e4ngig": 1, "starten": 1, "Karte": 5, "liefern": 1, "versammel": 0, "##speicher": 3, "gr\u00f6\u00dftenteils": 2, "Bananen": 1, "##oper": 1, "##gge": 1, "keinerlei": 1, "passieren": 6, "dringend": 1, "##raten": 1, "Sche": 4, "durchge": 1, "irgendwie": 3, "##shi": 3, "##lf": 3, "aufs": 0, "\u00c4": 2, "wozu": 1, "schlie\u00dfen": 1, "##ta": 2, "n\u00fctzlich": 1, "weniger": 2, "Liebe": 7, "Kir": 7, "##sten": 7, "##idee": 1, "leider": 5, "Vogel": 3, "erreichen": 1, "##sehen": 1, "kn": 1, "##iff": 1, "wegen": 1, "Farbe": 1, "ohnehin": 2, "Farb": 1, "minim": 1, "Feder": 1, "Schnabel": 2, "Brust": 1, "Steck": 3, "##brief": 3, "falls": 1, "hoffen": 2, "'": 2, "s": 2, "kla": 2, "vorne": 1, "Entwurf": 1, "fr\u00fche": 1, "##stens": 1, "Erwart": 1, "eingest": 1, "##\u00e4ndig": 1, "anschauen": 1, "intensiv": 1, "zurecht": 1, "vollkommen": 1, "##lassen": 2, "Info": 6, "Kopf": 1, "bestehend": 1, "vern": 1, "##gan": 1, "##listen": 2, "##besch": 0, "##affung": 0, "Rest": 1, "##leiten": 0, "vergessen": 3, "##dr": 2, "##stufe": 2, "erz\u00e4hlen": 1, "mechan": 2, "leb": 1, "##los": 1, "gl\u00fcck": 1, "zer": 2, "##spl": 1, "##ittern": 1, "abstra": 1, "##a": 3, "verste": 1, "##if": 1, "eben": 1, "rau": 1, "##mg": 1, "##reifen": 1, "fast": 2, "dargestellt": 1, "Vorgehensweise": 0, "Kooperation": 1, "##vern": 0, "##etzung": 0, "Drei": 1, "Gemeinsam": 1, "##oti": 1, "m\u00f6gen": 1, "gew\u00e4hlt": 1, "Vie": 1, "##ee": 7, "fortsetzen": 1, "r\u00fccken": 1, "Themenk": 1, "##omp": 1, "##reihe": 2, "ober": 2, "##fl\u00e4ch": 2, "punkt": 1, "Symbol": 2, "##bl": 1, "##ase": 1, "w\u00e4hlen": 2, "Modus": 0, "Geschichte": 1, "Jahreszeit": 6, "legitim": 1, "##ierbar": 1, "ta": 1, "##uschen": 1, "aktiviert": 1, "experimente": 1, "Erf": 1, "##chen": 3, "Taschen": 1, "##lam": 1, "Licht": 2, "##quelle": 1, "Glob": 1, "Ball": 1, "##bild": 1, "##hor": 1, "##izont": 1, "erg\u00e4nzen": 2, "umf": 1, "best": 1, "Vorbereitung": 1, "##jahres": 1, "Sitz": 1, "##kreis": 3, "Anfang": 1, "lau": 2, "Hintergrund": 1, "Umlauf": 1, "Kreis": 1, "je": 2, "nachdem": 1, "vis": 3, "Syn": 1, "##onym": 1, "Erkl\u00e4r": 1, "experimen": 1, "##chi": 4, "##mmer": 1, "offenbar": 1, "##ein": 1, "Experten": 3, "Bilder": 1, "##folg": 1, "ggf": 1, "\u00dcbertragung": 1, "Abschluss": 1, "T": 1, "##\u00fcgen": 1, "ignor": 1, "Wasser": 2, "##unsten": 1, "flie\u00dfen": 1, "seit": 1, "Monat": 1, "##fertigt": 1, "##mat": 1, "F\u00fcll": 1, "entsprechend": 1, "Motivation": 1, "##komplex": 1, "##lastung": 2, "##dehn": 1, "ents": 1, "##leun": 1, "hinein": 1, "##schauen": 1, "Ern\u00e4hrung": 2, "Lebe": 3, "##wesen": 3, "Frucht": 1, "Inse": 1, "Maus": 1, "Fisch": 1, "Nu": 1, "Blatt": 1, "Katalog": 1, "Lebensraum": 1, "Ort": 1, "leben": 2, "Vorhaben": 1, "ausb": 1, "##\u00e4h": 1, "##wie": 1, "##fern": 1, "urspr\u00fcnglich": 3, "jetz": 2, "k": 0, "##ind": 0, "##gerecht": 0, "br\u00fc": 1, "Komp": 1, "##osit": 0, "##me": 1, "Wald": 3, "Am": 1, "##ame": 1, "##ise": 1, "fro": 2, "##aw": 1, "##isse": 1, "##pers": 1, "##pekt": 1, "##ive": 1, "mus": 1, "##g\u00fcltig": 1, "soweit": 1, "doppelt": 1, "gr\u00fcn": 1, "##werkstatt": 1, "##voraus": 1, "mater": 1, "##ial": 1, "##side": 0, "\u2192": 1, "##igungs": 1, "##stunde": 3, "Zahlen": 3, "##geschichte": 1, "##\u00e4n": 1, "##seln": 1, "sieben": 1, "Leb": 1, "##kuchen": 1, "Gre": 1, "##tel": 1, "aufstellen": 1, "##feed": 2, "entfallen": 1, "dir": 2, "Woche": 1, "hervorragend": 1, "getr": 1, "##ost": 1, "Per": 1, "##fektion": 1, "wertvoll": 1, "f\u00e4l": 1, "string": 0, "them": 1, "##bedingt": 1, "weiterhin": 2, "Reis": 1, "##haufen": 1, "perfekt": 1, "s\u00e4m": 0, "##tlich": 0, "##\u00f6pfen": 0, "krei": 1, "Wanderung": 1, "##zimmer": 1, "sammeln": 6, "Plan": 4, "##stu": 1, "Orts": 2, "Legende": 1, "strukturiert": 0, "fein": 0, "Abstra": 1, "##ktions": 1, "Ausflug": 1, "drau\u00dfen": 1, "Audio": 1, "##aufnahme": 1, "st": 2, "##\u00fcndig": 1, "fragen": 2, "Entschuldigung": 1, "links": 1, "rechts": 1, "##biegen": 1, "##as": 1, "Himmels": 1, "##richtung": 1, "n\u00f6rdlich": 1, "\u00f6stlich": 1, "##kon": 0, "##kret": 0, "Ablauf": 0, "Kreativit\u00e4t": 0, "Ideal": 1, "##erweise": 1, "Impuls": 2, "Klein": 2, "ord": 2, "Herz": 1, "zusammengefasst": 1, "hinsichtlich": 1, "kooper": 2, "komplett": 1, "Doppel": 1, "##seit": 1, "traurig": 2, "##heitlich": 0, "Ha": 1, "##k\u00e4": 2, "##rt": 2, "Ritter": 18, "Herr": 2, "Page": 2, "Lan": 3, "##ze": 3, "Schild": 3, "Mittelalter": 4, "beob": 1, "##acht": 1, "pass": 1, "Koll": 2, "##oka": 2, "\u201d": 4, "Land": 1, "christ": 1, "Glauben": 1, "erz": 1, "##ieh": 1, "hm": 1, "##i\u00df": 0, "spieler": 1, "kombin": 1, "##ge": 1, "Work": 1, "##sh": 2, "Live": 1, "##work": 1, "com": 1, "Da": 1, "kinder": 1, "Pr\u00e4": 1, "##ms": 1, "Pr\u00e4sen": 1, "##\u00fcbung": 0, "mg": 1, "Aktiv": 0, "einsam": 1, "gerne": 1, "niedrig": 0, "gr\u00fcndlich": 1, "Rollen": 5, "Lebensweise": 2, "Verk": 1, "##leidung": 1, "schl\u00fc": 1, "##ums": 1, "##tan": 1, "##gruppen": 1, "ausf\u00fchren": 1, "Rahmen": 1, "Qu": 1, "##atsch": 1, "fordern": 1, "##\u00e4qu": 1, "okay": 1, "gefallen": 1, "##nach": 1, "sichern": 0, "##laufen": 1, "Mal": 1, "Figur": 5, "##sagen": 2, "verhalten": 1, "ausgest": 1, "##alten": 1, "Dialog": 1, "Smart": 2, "##board": 2, "Ausr\u00fcstung": 1, "##steil": 1, "Pferd": 1, "Schwert": 1, "hac": 1, "##ken": 1, "Schwein": 1, "Getreide": 1, "Variante": 1, "Tabl": 1, "unbe": 1, "##wu": 1, "\u00dcberblick": 1, "##up": 1, "##id": 1, "Team": 2, "##ollen": 1, "recher": 2, "Bauern": 1, "\u00e4": 1, "analog": 1, "sitzen": 1, "\u00e4hnlich": 1, "fertig": 1, "jederzeit": 1, "holen": 1, "Alters": 1, "erledigen": 1, "Hin": 1, "##enken": 1, "Mega": 1, "##poten": 1, "##tial": 1, "##denken": 1, "gen\u00fcgend": 1, "##h\u00e4ngen": 1, "verlieren": 1, "diagnost": 0, "n\u00e4mlich": 1, "##\u00fcchtern": 1, "Kollege": 1, "bezahlen": 1, "##eli": 1, "##au": 1, "L": 1, "mi": 1, "##\u00df": 1, "##brauch": 1, "Reiz": 1, "##geber": 1, "antwor": 1, "Interview": 5, "Fernsehen": 1, "##tragen": 1, "entdecken": 3, "Tisch": 2, "bringen": 2, "Zeitungs": 1, "##artikel": 1, "##nitt": 1, "##f\u00e4llig": 4, "##aus": 1, "Befra": 1, "##gte": 1, "befragt": 1, "K\u00e4r": 1, "##tchen": 1, "Chance": 1, "##schlei": 0, "##arbeitungs": 1, "##m\u00f6glichkeit": 1, "runter": 1, "##bet": 1, "Seminar": 1, "##ens": 1, "bauen": 1, "##leistung": 1, "akzeptieren": 1, "umfangreich": 1, "##splan": 1, "Schilder": 1, "wonach": 1, "Transparenz": 0, "Memor": 1, "L\u00f6sungs": 1, "Y": 1, "Leg": 1, "##esp": 1, "##iel": 1, "Realit\u00e4t": 1, "Math": 1, "Zahl": 1}, "Feedback_Criteria": {"[UNK]": 80, "3": 0, ")": 18, "Analyse": 5, "##rahmen": 1, "zur": 0, "Sprach": 67, "##lichkeit": 4, "des": 3, "Fach": 25, "##lernen": 0, "##s": 3, "(": 18, "angel": 0, "##ehnt": 0, "an": 12, "Ta": 0, "##jm": 0, "##el": 0, "&": 0, "Voll": 0, "##mer": 0, "/": 16, "Th\u00fcr": 0, "##mann": 0, ";": 0, "Lo": 0, "##hs": 0, "##e": 11, "1": 0, ".": 4, "Gibt": 0, "es": 3, "sprach": 178, "##liche": 4, "H\u00fcrden": 1, ",": 18, "die": 1, "das": 0, "fach": 16, "Lernen": 5, "beh": 0, "##indern": 0, "k\u00f6nnten": 0, "?": 0, "2": 3, "Lern": 30, "##gelegen": 2, "##heiten": 1, "in": 45, "der": 95, "Stunde": 3, "f\u00fcr": 13, "typische": 3, "\u201e": 9, "Ritu": 1, "##ale": 1, "\u201c": 9, "Unterricht": 12, "##liches": 2, "##handel": 1, "##n": 17, "Typ": 0, "##ische": 0, "Disk": 31, "##urs": 31, "##funktionen": 1, "Materialien": 1, "Rezeption": 2, "Mittel": 19, "Produktion": 2, "Zu": 2, "erstellen": 2, "##de": 21, "Texte": 1, "\u2022": 0, "Muss": 0, "m\u00fcnd": 10, "Unterrichts": 20, "-": 12, "inter": 2, "##aktion": 17, "gest\u00fctzt": 2, "werden": 4, "M\u00fc": 0, "##ssen": 0, "SU": 1, "##S": 1, "Informationen": 1, "besch": 4, "##affen": 4, "eine": 2, "Ergebnis": 11, "##pr\u00e4sent": 4, "##ation": 5, "##lich": 182, "Ist": 0, "Met": 4, "##ako": 3, "##mm": 9, "##uni": 3, "##kat": 5, "##ion": 14, "\u00fcber": 6, "##prozess": 1, "geplant": 2, "Wie": 0, "gehe": 1, "ich": 7, "mit": 25, "Fehler": 21, "um": 2, "K\u00f6nnen": 1, "##er": 1, "im": 1, "Laufe": 0, "##funktion": 28, "ein": 26, "##\u00fcben": 7, "Etwas": 0, "beschreiben": 0, "erkl\u00e4ren": 2, "diskutieren": 0, "aus": 6, "argumen": 0, "##tieren": 0, "oder": 7, "bewerten": 1, "Spiel": 2, "##t": 19, "Text": 33, "##sor": 14, "##te": 2, "Rolle": 1, "deren": 0, "Merkmale": 0, "explizit": 0, "gemacht": 0, "m\u00fcssen": 1, "re": 2, "##zept": 3, "##iven": 1, "Kern": 3, "##wort": 7, "sch": 3, "##atz": 2, "unbekannt": 0, "ist": 0, "Stehen": 1, "bestimmte": 1, "##begriff": 11, "Wort": 16, "##feld": 5, "Zentrum": 1, "Welche": 0, "konkreten": 1, "##schatz": 11, "ben\u00f6tigen": 1, "Sch\u00fcler": 17, "Aufgabe": 9, "zu": 67, "l\u00f6sen": 0, "Art": 4, "Bereitstellung": 4, "domin": 3, "##ante": 0, "gra": 6, "##atische": 1, "Form": 11, "ben\u00f6tigt": 1, "wird": 1, "typischen": 1, "Rede": 15, "##mittel": 13, "meines": 1, "##es": 1, "k\u00f6nnte": 1, "fokuss": 2, "##ieren": 27, "und": 40, "##fordern": 3, "Wird": 0, "bestimmtes": 1, "Register": 2, "erfordert": 1, "einzu": 1, "##halten": 2, "struktur": 2, "Kann": 0, "Erste": 5, "##llen": 5, "von": 36, "##ko": 5, "##h\u00e4re": 6, "##z": 6, "\u201a": 5, "rote": 1, "##r": 1, "Faden": 6, "\u2018": 5, "einge": 1, "##\u00fcbt": 1, "Wann": 0, "gebe": 0, "Feed": 31, "##back": 32, "Inhalt": 2, "##bildung": 2, "f\u00f6rdern": 3, "Denk": 9, "##sprache": 17, "Holz": 0, "##stern": 0, "bas": 0, "##teln": 0, "komplex": 0, "als": 3, "man": 2, "denken": 3, "lesen": 2, "sie": 6, "folgen": 0, "##d": 31, "Mathematik": 0, "##unterricht": 8, "\u00fcberlegen": 1, "wor": 0, "##in": 1, "Anf": 20, "##order": 20, "##ung": 30, "bestehen": 1, "not": 0, "ihr": 9, "Idee": 24, "Forum": 0, "4": 0, "wenn": 0, "bereits": 4, "Praxis": 0, "##fahrung": 1, "haben": 3, ":": 12, "\u00dcber": 7, "##legen": 1, "wie": 3, "##gruppe": 2, "vermutlich": 0, "dieser": 7, "umgehen": 5, "sein": 7, "[": 2, "Nur": 0, "Mo": 0, "##od": 0, "##le": 0, "m\u00f6glich": 1, "]": 2, "anschlie\u00dfend": 0, "Punkt": 1, "f\u00fc": 0, "##gen": 0, "Gedanke": 1, "For": 0, "##en": 7, "##beitrag": 0, "hinzu": 0, "welche": 17, "erkennen": 5, "nun": 0, "zus\u00e4tzlich": 0, "vorher": 0, "festgestellt": 0, "Was": 0, "Element": 2, "innen": 12, "dabei": 1, "unterst\u00fctzen": 3, "Denken": 3, "Alltags": 3, "gelangen": 0, "brauchen": 0, "Seite": 0, "7": 0, "24": 0, "merken": 0, "dass": 1, "Modell": 10, "##ierungs": 8, "##aufgabe": 3, "Kommunikation": 3, "gro\u00df": 0, "spielen": 0, "denn": 0, "bei": 5, "gemeinsam": 1, "##pro": 5, "##ze\u00df": 5, "verb": 1, "##alisieren": 1, "Sprache": 11, "auch": 5, "daf\u00fcr": 0, "Sachver": 1, "##halt": 2, "nachdenken": 0, "##bei": 0, "##spiel": 0, "\u00fcberhaupt": 4, "verstehen": 3, "w\u00e4hrend": 1, "Rechn": 1, "kommunizieren": 3, "Rechen": 1, "##weg": 2, "darstellen": 4, "auf": 14, "##ae": 1, "##ben": 1, "mathemat": 3, "##isch": 14, "reden": 1, "nicht": 9, "st\u00fctzen": 10, "k\u00f6nnen": 6, "gar": 0, "was": 4, "also": 0, "uns": 0, "##bilden": 23, "Lehr": 5, "##kraft": 4, "leisten": 0, "wir": 1, "sorgen": 0, "\u00dcbersch": 0, "##u\u00df": 0, "problematisch": 0, "##liste": 1, "Gruppen": 1, "##arbeits": 1, "##phase": 1, "##telle": 3, "Kommun": 1, "##izieren": 1, "wollen": 0, "unser": 4, "*": 1, "verwenden": 2, "sagen": 0, "Summe": 0, "Tee": 0, "##licht": 0, "Ausgabe": 0, "Brett": 0, "add": 0, "statt": 5, "da": 0, "plus": 0, "machen": 1, "verf\u00fcgbar": 0, "zentral": 3, "Verf\u00fcg": 1, "##bar": 2, "##mach": 1, "Planung": 11, "professionell": 0, "gelingen": 0, "Thema": 6, "Block": 0, "Verf\u00fcgung": 3, "stellen": 6, "erfahren": 0, "ausf\u00fchrlich": 1, "Abschnitt": 0, "gestalten": 5, "Hilfs": 3, "##material": 6, "##karte": 0, "Sp": 0, "##ick": 0, "##zettel": 0, "Gruppe": 0, "geben": 4, "Glo": 0, "##ssa": 0, "verteilen": 0, "Ein": 4, "##f\u00fchren": 1, "neu": 6, "denkbar": 0, "wobei": 0, "darum": 0, "gehen": 0, "H\u00e4lfte": 0, "damit": 1, "verbringen": 0, "so": 3, "bild": 7, "##ungs": 9, "##sprach": 18, "F\u00e4higkeit": 2, "Beginn": 1, "identifizieren": 3, "ausw\u00e4hlen": 0, "alter": 0, "##sg": 1, "##erecht": 0, "\u00fcben": 0, "Kurs": 0, "hierf\u00fcr": 0, "vor": 1, "alle": 0, "praktisch": 0, "Hinsicht": 1, "vorbereiten": 0, "m\u00f6chten": 0, "8": 0, "beitragen": 1, "Erwerb": 2, "letzt": 0, "Jahr": 0, "Angebot": 0, "##sens": 11, "##ib": 9, "##l": 10, "##werk": 0, "gerade": 0, "Grund": 2, "##schul": 0, "##bereich": 0, "stetig": 0, "steigen": 0, "scheinen": 0, "zeigen": 2, "genau": 2, "insbesondere": 0, "ab": 1, "Klasse": 0, "5": 0, "immer": 0, "noch": 5, "##forderung": 4, "nei": 0, "viel": 3, "bestimmen": 1, "jedoch": 0, "Arbeit": 0, "nach": 1, "schul": 0, "Alltag": 0, "angesichts": 0, "hor": 0, "##ren": 0, "Ans": 0, "##cha": 0, "##ff": 3, "##kos": 0, "Schul": 0, "##buch": 0, "aber": 2, "explod": 0, "##ierend": 7, "Anzahl": 0, "frei": 0, "verk": 1, "##\u00e4uf": 0, "Internet": 0, "detaill": 1, "##iert": 7, "fund": 1, "unbedingt": 0, "notwendig": 0, "oben": 0, "beschrieben": 0, "v": 1, "a": 0, "##l\u00e4nge": 0, "Problems": 1, "##tell": 1, "anbieten": 1, "sich": 1, "##veranstaltung": 0, "pra": 0, "##xis": 0, "##orientiert": 1, "Verkn\u00fc": 0, "##pfung": 1, "##bildungs": 6, "##prinzip": 4, "Material": 7, "##analyse": 27, "9": 0, "diver": 1, "##si": 12, "##t\u00e4": 14, "##ts": 9, "diskrimin": 10, "##krit": 6, "Diver": 11, "Diskriminierung": 32, "tun": 1, "betrachten": 0, "Bild": 0, "durch": 9, "Klicken": 0, "herunterladen": 0, "z": 2, "##oo": 0, "##men": 0, "welcher": 3, "Zusammenhang": 0, "zwischen": 0, "Mehr": 3, "##igkeit": 7, "10": 0, "11": 0, "deutlich": 4, "drei": 0, "Komponente": 0, "beding": 0, "Teil": 4, "sowohl": 0, "Sinn": 1, "Bildungs": 4, "Bezug": 3, "unterschiedlich": 0, "National": 0, "Repertoire": 0, "Lebens": 0, "##welt": 0, "Familie": 1, "Peer": 2, "Medium": 0, "##bringen": 2, "un": 3, "##ref": 8, "##ktiert": 0, "ster": 2, "##eo": 2, "##typ": 2, "##geleitet": 0, "Handeln": 2, "Schuls": 1, "##ystem": 1, "kommen": 0, "dies": 0, "anhand": 0, "##faktor": 0, "sozial": 0, "Herkunft": 0, "nachweisen": 0, "Beh": 1, "##err": 1, "##schen": 2, "weil": 0, "akadem": 2, "Haushalt": 0, "wahrscheinlich": 0, "##system": 3, "erfolglos": 0, "verlassen": 0, "daher": 0, "nur": 2, "\u00dcberzeugung": 2, "auseinander": 2, "##setzen": 2, "sondern": 0, "ganz": 1, "Selbst": 15, "##lex": 8, "=": 0, "Rassismus": 11, "##bezogen": 3, "institution": 2, "##ell": 4, "##literatur": 0, "h\u00e4ufig": 2, "Ausdruck": 0, "tief": 0, "systematisch": 0, "rass": 5, "##istisch": 4, "Struktur": 8, "ansehen": 0, "heu": 0, "##tig": 0, "Zeit": 0, "mehr": 0, "pla": 0, "##iv": 3, "leicht": 0, "erkennbar": 3, "einig": 1, "Jahrzehnt": 0, "weshalb": 0, "jemand": 0, "zahl": 0, "##reich": 0, "g\u00e4ng": 0, "##ig": 6, "##konstruktion": 2, "sehen": 1, "Vielzahl": 0, "Kategorie": 1, "B": 1, "##zw": 1, "##dimension": 4, "Individ": 0, "##uum": 0, "Identit\u00e4t": 0, "pr\u00e4gen": 0, "aufgrund": 3, "allgemein": 1, "gleich": 0, "##behandlung": 1, "##sse": 0, "##tz": 1, "Ag": 0, "##g": 0, "unters": 0, "##agen": 0, "straf": 0, "##rechtlich": 0, "verfolgen": 0, "Rasse": 1, "Ethn": 0, "##ie": 0, "Geschlecht": 0, "Religion": 0, "Welt": 0, "##ans": 0, "##uu": 0, "##ng": 0, "Alter": 0, "Behinderung": 0, "sexuell": 0, "Quelle": 0, "Gleich": 0, "##ese": 0, "Berlin": 0, "de": 0, "ber\u00fccksichtigen": 1, "Gesetz": 0, "Ausgrenzung": 0, "d\u00fcrfen": 0, "Ph\u00e4nomen": 0, "Ben": 3, "##achteil": 3, "##igung": 3, "12": 0, "relevant": 1, "somit": 0, "ergeben": 0, "##rel": 4, "##ev": 4, "##ant": 7, "##eg": 2, "##orie": 2, "eher": 1, "gezielt": 0, "\u2014": 0, "Tu": 0, "Dresden": 0, "tu": 0, "dre": 0, "##sd": 0, "d": 0, "Schule": 2, "dar\u00fcber": 0, "hinaus": 0, "ander": 1, "Dimension": 2, "Brand": 0, "konkret": 5, "##isieren": 1, "weit": 2, "Hab": 0, "##itu": 0, "Beg": 0, "##abu": 0, "En": 0, "Leistungs": 0, "##stand": 9, "bedeut": 0, "##sam": 0, "He": 0, "##ter": 6, "##ogen": 0, "##it\u00e4ts": 0, "##merkmale": 0, "2017": 0, "S": 0, "20": 0, "daran": 0, "beachten": 1, "eigen": 2, "Leben": 0, "wider": 1, "##spiegel": 1, "13": 0, "Lehre": 0, "jewei": 1, "##lig": 1, "Position": 1, "##ierung": 28, "##ner": 0, "_": 3, "##nehmen": 2, "innerhalb": 0, "gesellschaft": 1, "Verh\u00e4ltnis": 0, "Differenz": 7, "##linie": 0, "Methodik": 0, "zumeist": 0, "setzen": 2, "oftmals": 0, "ohne": 1, "verg": 0, "##egen": 0, "##w\u00e4rtig": 0, "inwieweit": 0, "Auswahl": 1, "##real": 0, "##it\u00e4t": 0, "Erfahrung": 0, "Mit": 0, "weiterer": 0, "korre": 2, "##sp": 2, "##ond": 2, "Folge": 1, "lern": 2, "verh\u00e4lt": 1, "##nis": 1, "ausreichend": 1, "refle": 2, "##ktieren": 2, "stehen": 2, "##format": 0, "schlimm": 0, "Fall": 0, "sogar": 0, "anderer": 0, "Weg": 0, "Nad": 0, "##ol": 0, "##ny": 0, "Stefan": 0, "2021": 0, "Inter": 12, "##sek": 0, "##tional": 0, "Haltung": 2, "politisch": 0, "15": 0, "ersch": 1, "##weren": 1, "##kommen": 0, "einzeln": 1, "stets": 0, "Kombination": 0, "auftreten": 0, "versch": 1, "##r\u00e4nkt": 1, "geschehen": 1, "Online": 0, "unter": 2, "H": 0, "##ttp": 0, "www": 0, "ro": 0, "##sal": 0, "##ux": 0, "publ": 0, "##ikation": 1, "id": 0, "375": 0, "##78": 0, "##ita": 0, "##et": 0, "zuletzt": 0, "pr\u00fcfen": 0, "01": 0, "07": 0, "schon": 2, "Besch\u00e4ftigung": 1, "gelten": 0, "hier": 1, "P\u00e4dagog": 0, "##ik": 1, "besch\u00e4ftigen": 0, "Frage": 13, "Zugeh\u00f6rigkeit": 0, "angemessen": 2, "##beziehen": 0, "sollen": 1, "Spannungs": 1, "##verh\u00e4ltnis": 1, "individuell": 1, "Faktor": 1, "Herrschafts": 1, "##ef": 1, "##fekt": 1, "Mart": 0, "Busch": 0, "sprechen": 3, "Heft": 0, "\u00ab": 0, "Sub": 0, "##jekt": 0, "\u00bb": 0, "Pers\u00f6nlichkeit": 0, "##sent": 0, "##wicklung": 0, "Lage": 0, "Er": 1, "##achten": 0, "Kompetenz": 6, "Umgang": 8, "Komplexit\u00e4t": 4, "erarbeiten": 3, "Hilfe": 19, "Viel": 1, "##schicht": 0, "Anlehnung": 0, "Andreas": 0, "Fo": 0, "##itz": 0, "vielmehr": 0, "m\u00f6glichst": 3, "eleg": 0, "scheiter": 0, "14": 0, "Handlungs": 7, "##f\u00e4higkeit": 2, "trotz": 0, "##uns": 0, "##icherheit": 0, "Ziel": 6, "p\u00e4dagog": 0, "dazu": 0, "f\u00fchren": 1, "Weise": 2, "reduzieren": 2, "f\u00f6rder": 0, "Angst": 0, "schwierig": 2, "mei": 0, "##den": 1, "Deb": 0, "##u": 9, "Katharina": 0, "Stu": 0, "##ve": 0, "Olaf": 0, "Scheitern": 0, "##heit": 2, "gegen": 1, "##sr": 0, "##ed": 1, "##uk": 2, "##tion": 2, "kein": 0, "Neut": 0, "##ral": 0, "klein": 3, "##anst": 0, "##o\u00df": 0, "Wert": 0, "##freiheit": 0, "Grundsatz": 1, "##verst\u00e4ndnis": 0, "metho": 0, "##dis": 0, "##ch": 3, "Dog": 0, "##ma": 0, "dauerhaft": 0, "aufta": 0, "##uchen": 0, "Ungleich": 1, "##heits": 0, "priv": 0, "##ileg": 0, "\u2013": 0, "Kosten": 0, "einst": 2, "##eck": 0, "gesteckt": 0, "Regel": 1, "##sprechen": 1, "schl": 0, "##uss": 0, "##folger": 1, "daraus": 0, "zun\u00e4chst": 0, "Wider": 1, "M\u00f6glichkeit": 0, "darin": 0, "vorn": 0, "##here": 0, "offen": 1, "Raum": 0, "etwas": 3, "themat": 0, "Gef\u00fchl": 0, "Aussage": 0, "Verhalten": 0, "18": 0, "23": 0, "Diskussion": 1, "beziehen": 0, "Privileg": 0, "vielleicht": 0, "bew": 0, "##ussen": 0, "##ierte": 0, "hei\u00dfen": 0, "all": 2, "Ding": 0, "luxuri": 0, "##\u00f6s": 0, "Situation": 0, "heraus": 2, "Reduzierung": 0, "Merkmal": 2, "Ster": 0, "##isierung": 2, "Gewalt": 0, "betreffen": 0, "Marg": 0, "##ina": 0, "##li": 0, "##sie": 1, "##rte": 0, "analysieren": 0, "ihnen": 1, "Gut": 0, "passen": 1, "lustig": 0, "gut": 3, "f\u00fchlen": 0, "Un": 0, "konvention": 0, "Ice": 0, "##rd": 2, "1966": 0, "jed": 0, "Haut": 0, "##farbe": 0, "Abstammung": 0, "national": 0, "Ursprung": 0, "Volks": 0, "##tum": 0, "beruhen": 0, "Unterscheidung": 0, "Aussch": 0, "##lie\u00df": 0, "Beschr\u00e4nkung": 0, "Bevor": 0, "##zug": 3, "dadurch": 0, "##berechtigt": 0, "An": 0, "##erkennen": 0, "Genie\u00dfen": 0, "aus\u00fcben": 0, "Menschen": 2, "##recht": 0, "wirtschaftlich": 0, "kultur": 0, "sonst": 0, "Bereich": 1, "\u00f6ffentlich": 0, "ver": 1, "##eite": 0, "##ln": 0, "beeintr\u00e4chtigen": 0, "abs": 0, "schauen": 0, "bemerken": 0, "allein": 0, "Definition": 1, "zumindest": 0, "Kategor": 0, "Mensch": 0, "entlang": 0, "sog": 0, "aufrechter": 0, "sub": 1, "##jektiv": 2, "Wahrnehmung": 0, "verh": 0, "##\u00e4rten": 0, "impl": 0, "verschieden": 2, "##rasse": 2, "tats\u00e4chlich": 0, "wer": 0, "nat\u00fcrlich": 0, "wissenschaft": 0, "halt": 0, "kritisch": 1, "Nach": 0, "##schlag": 0, "##ew": 0, "##erk": 0, "Susan": 0, "Arn": 0, "##dt": 0, "##ja": 0, "Of": 0, "##ua": 0, "##y": 0, "al": 0, "##azar": 0, "vorschlagen": 0, "17": 0, "kurz": 0, "##um": 1, "definieren": 1, "ra": 0, "##cis": 0, "##m": 0, "Pre": 0, "##ju": 0, "##di": 0, "##ce": 0, "Power": 0, "Rass": 5, "##ismen": 3, "entstehen": 1, "##stuf": 0, "Bewertung": 0, "+": 0, "Macht": 0, "##ismus": 1, "geh\u00f6ren": 0, "heute": 0, "##muster": 2, "b": 1, "##willig": 0, "erst": 1, "Vor": 16, "##urteil": 0, "handeln": 1, "echt": 0, "vorliegen": 2, "ungleich": 0, "behandeln": 0, "##leich": 0, "n\u00f6tig": 0, "Z": 0, "er": 0, "Wei\u00df": 0, "##sein": 0, "bestimmt": 1, "genie\u00dfen": 0, "sehr": 3, "kontro": 0, "##vers": 0, "!": 0, "unterscheiden": 0, "Abbildung": 0, "Ali": 0, "##na": 0, "Val": 0, "##jen": 0, "No": 0, "na": 0, "##zi": 0, "net": 0, "ad": 0, "##ap": 0, "Ex": 0, "##kurs": 0, "positiv": 5, "19": 0, "eng": 0, "ethn": 0, "verwandt": 0, "Konzept": 1, "\u00f6fter": 0, "weiter": 2, "fassen": 0, "##sf": 6, "##orm": 3, "erweitern": 0, "is": 0, "zusammen": 0, "##fassen": 0, "Look": 0, "##ism": 11, "Aussehen": 0, "Ab": 0, "##ili": 2, "##sm": 1, "Gesundheit": 0, "Ad": 0, "##ult": 0, "jung": 0, "Antisemitismus": 0, "Klass": 0, "Schicht": 0, "Tran": 0, "feind": 0, "##kei": 0, "Sex": 0, "Gen": 0, "##der": 0, "##eis": 0, "##mu": 0, "Alte": 0, "anti": 0, "##mus": 0, "##lim": 0, "Islam": 0, "##feind": 0, "Hom": 0, "##oph": 0, "##obi": 0, "Anti": 0, "##zig": 0, "##ani": 0, "Rom": 0, "Sin": 0, "##to": 0, "Lin": 9, "##gu": 9, "##iz": 9, "usw": 0, "wirken": 1, "gewalt": 0, "##voll": 0, "Kind": 5, "gering": 0, "Liter": 0, "##alit\u00e4t": 0, "##serfahrung": 0, "nieders": 0, "##lagen": 0, "##weisung": 9, "##f\u00f6rderung": 0, "irre": 0, "##lev": 0, "Ak": 0, "##zent": 0, "Aussprache": 0, "##gew": 0, "##ohn": 0, "zwei": 0, "wesentlich": 1, "wichtig": 1, "Ot": 3, "##her": 3, "##ing": 29, "Kultur": 4, "##alisierung": 4, "Mech": 0, "##eri": 0, "Dir": 0, "##im": 0, "Mel": 0, "2010": 0, "42": 0, "det": 0, "##min": 0, "Erkl\u00e4rung": 4, "Handlung": 4, "Einstellung": 0, "Verhaltens": 1, "##weise": 2, "Konflikt": 0, "##sweise": 1, "Dich": 0, "##oto": 0, "##mi": 1, "##rung": 1, "Zweite": 0, "##il": 0, "Gesellschaft": 1, "Zuge": 0, "##h\u00f6rige": 0, "Nicht": 0, "zuge": 0, "verst\u00e4rkt": 0, "Zusch": 0, "##reibung": 0, "##produz": 0, "bedeuten": 1, "nochmal": 1, "##lesen": 0, "Ru": 0, "ko": 4, "Ne": 0, "##o": 0, "Datei": 0, "vielf\u00e4ltig": 0, "Dialekt": 0, "Deutsch": 0, "##sch": 1, "##\u00e4tzen": 2, "schlecht": 0, "##tritt": 0, "##sem": 0, "##pfe": 0, "##hl": 0, "Gymnasium": 0, "erteilen": 0, "u": 0, "100": 0, "101": 0, "H\u00fcr": 14, "hinweg": 0, "Anerkennung": 1, "mitgebracht": 1, "##verm\u00f6gen": 2, "schwach": 1, "##ibel": 2, "agieren": 2, "aktiv": 9, "bek\u00e4mpfen": 0, "Aus": 3, "##pr\u00e4": 2, "##gung": 2, "annehmen": 0, "potenzie": 0, "##ll": 0, "wo": 1, "Aspekt": 4, "##eh": 2, "##\u00f6r": 2, "dr\u00fccken": 1, "ohn": 1, "##m\u00e4chtig": 1, "Opfer": 1, "##rolle": 1, "##erb": 4, "##zwei": 1, "##fel": 1, "best\u00e4": 1, "##rk": 1, "emp": 1, "##ath": 1, "kompens": 1, "versuchen": 0, "Betroffene": 1, "wirklich": 0, "h\u00e4ngen": 0, "Verfasst": 1, "Fortbildung": 0, "besuchen": 0, "G": 1, "##gf": 1, "fehlen": 1, "Wissen": 10, "Gesellschafts": 0, "##zusammen": 0, "##hang": 0, "erwerben": 1, "##\u00fcr": 1, "dem": 1, "r": 2, "wecken": 1, "falsch": 2, "Hoffnung": 1, "mein": 0, "meist": 0, "recht": 0, "sit": 0, "##ui": 0, "##ert": 1, "Lehrer": 1, "##arm": 0, "##losen": 0, "Stand": 0, "2016": 0, "stand": 0, "web": 0, "p": 0, "##df": 0, "stif": 0, "##tu": 0, "do": 0, "or": 0, "wirksam": 0, "Werkzeug": 0, "finden": 2, "beispielsweise": 0, "Id": 0, "##b": 0, "##tage": 0, "##freie": 0, "|": 0, "Institut": 0, "Bildung": 1, "generell": 0, "Anlauf": 0, "##stelle": 0, "In": 0, "##klus": 0, "Demokratie": 0, "L\u00f6sung": 0, "Wirtschafts": 0, "##unternehmen": 0, "Bew": 0, "##usste": 0, "verd": 0, "##reh": 0, "F\u00f6rderung": 0, "sau": 0, "##ul": 0, "##able": 0, "derjenige": 0, "Landes": 0, "##anti": 0, "##disk": 0, "##rimin": 0, "##gesetz": 0, "62": 0, "##1": 0, "https": 0, "##fu": 0, "##bi": 0, "fu": 0, "ber": 0, "##lin": 0, "bit": 0, "##stream": 0, "hand": 0, "##18": 0, "##8": 0, "169": 0, "##70": 0, "la": 0, "##dg": 0, "se": 0, "##quen": 0, "Isa": 0, "##llo": 0, "##we": 0, "y": 0, "##sk": 1, "##rit": 1, "unterrichten": 1, "beginnen": 0, "folglich": 0, "selbst": 0, "##nd": 2, "kolle": 0, "##gia": 0, "Beratung": 0, "suchen": 0, "Ereignis": 0, "nachtr\u00e4glich": 0, "k\u00fcnftig": 0, "nutzen": 1, "Formulierung": 6, "inkl": 1, "##us": 1, "Methode": 6, "sensi": 1, "##bel": 1, "Gegenstand": 1, "beinhalten": 1, "Schulen": 0, "##tw": 0, "##lung": 0, "demokrat": 0, "##f\u00fchrung": 0, "Stimme": 0, "##be": 2, "##zieht": 0, "bef": 0, "##ragen": 0, "w\u00fcnschen": 0, "besonders": 0, "hoch": 3, "Potential": 3, "verringern": 1, "Mehrfach": 2, "anerkennen": 2, "helfen": 1, "Ebene": 0, "diese": 1, "oft": 0, "##wirken": 0, "genauso": 0, "Beispiel": 0, "euch": 0, "organisieren": 1, "Information": 3, "euer": 0, "Kita": 0, "Erzieher": 0, "indem": 0, "ihm": 0, "Zugang": 0, "Darstellung": 5, "verschaffen": 0, "wert": 1, "##\u00e4tzt": 0, "erm\u00f6glichen": 0, "wahrnehmen": 1, "Schritt": 0, "hin": 0, "##usst": 0, "##sei": 0, "##binden": 0, "fot": 0, "enorm": 0, "beschr\u00e4nken": 0, "Noten": 0, "##gebung": 1, "Sel": 0, "##ekt": 0, "F\u00f6rder": 0, "##ma\u00dfnahme": 0, "21": 0, "Fokus": 2, "Schrift": 6, "Herausforderung": 3, "sp\u00e4testens": 0, "Sekundar": 0, "bal": 0, "##len": 0, "treffen": 0, "meiste": 0, "##rn": 2, "Ausbau": 2, "##kompetenz": 4, "verf\u00fcgen": 0, "gewinnen": 1, "Mithilfe": 0, "Schm": 0, "##\u00f6lzer": 0, "eib": 0, "2006": 0, "179": 0, "darauf": 0, "Lauf": 0, "##zeit": 1, "bis": 0, "Ende": 0, "sechs": 0, "kon": 2, "##zeption": 1, "vertraut": 1, "separ": 0, "##at": 0, "heran": 0, "besitzen": 0, "aufweisen": 0, "##spezif": 0, "wieder": 0, "erweitert": 0, "meinen": 0, "Res": 1, "##so": 6, "##urce": 6, "zur\u00fcck": 0, "##greifen": 0, "##atik": 4, "##alisch": 2, "h\u00f6ren": 2, "Bestimmung": 2, "Hindernis": 1, "Schwier": 1, "##planung": 3, "Bruch": 0, "##teil": 0, "beanspr": 0, "Kontext": 2, "unge": 0, "Antwort": 1, "warten": 0, "dann": 0, "hinter": 0, "Anzeichen": 0, "liegen": 1, "Ges": 0, "##agte": 0, "Aufgaben": 22, "##form": 15, "##ulierung": 3, "durchs": 0, "##uen": 0, "erf\u00fcllen": 1, "stattdessen": 0, "Opera": 33, "##tor": 33, "sk": 0, "##izz": 0, "lassen": 1, "solch": 0, "bew\u00e4ltigen": 1, "beide": 1, "Autor": 0, "vorlegen": 0, "vier": 0, "##ungsbereich": 2, "##decken": 2, "Ausf\u00fchrung": 2, "allerdings": 1, "Videos": 0, "Video": 0, "Zweck": 0, "Feld": 1, "##grenzen": 0, "W": 1, "##dh": 0, "Ba": 0, "##handlung": 7, "Genre": 5, "Verst\u00e4ndnis": 1, "##hilfe": 24, "einfach": 1, "stattfinden": 0, "schriftlich": 2, "f\u00fcnf": 0, "vorgeschlagen": 0, "Prinzip": 0, "##inter": 4, "planen": 2, "abl": 0, "##aufen": 0, "dennoch": 0, "achten": 0, "##hen": 1, "Begriff": 21, "erstmal": 0, "kennenlernen": 0, "Vert": 0, "##ief": 0, "Versp": 2, "##rach": 2, "##gn": 5, "##itiv": 3, "Operation": 2, "Funktion": 0, "2014": 0, "bezeichnen": 0, "ausgel\u00f6st": 0, "Proze\u00df": 1, "Verbindung": 0, "dahinter": 0, "unklar": 4, "Wissens": 6, "##struktur": 1, "aufbauen": 3, "verarbeiten": 0, "##geben": 0, "produzieren": 0, "invol": 0, "##vier": 0, "dienen": 0, "vermitteln": 0, "##pe": 0, "##ichern": 0, "##aufbau": 4, "men": 0, "##tal": 0, "herstellen": 0, "dementsprechend": 0, "sp\u00e4t": 0, "Festlegung": 1, "##ziel": 10, "el": 1, "##ement": 1, "##ar": 1, "festlegen": 0, "umsetzen": 1, "mittels": 0, "Muster": 4, "##antwort": 1, "erforderlich": 0, "s\u00e4": 0, "vorkommen": 0, "deswegen": 0, "integrieren": 0, "welches": 0, "existieren": 0, "##uster": 1, "Stufe": 0, "##quenz": 1, "##iell": 0, "ka": 0, "##usa": 0, "multi": 0, "Bestandteil": 0, "Ursache": 1, "Wirkung": 0, "Qualit\u00e4t": 1, "erh\u00f6hen": 0, "Unterst\u00fctzung": 7, "Nomin": 0, "Pass": 0, "etc": 0, "\u00dcbungs": 3, "pl": 0, "##uri": 0, "##lit": 0, "##era": 0, "##ci": 0, "ec": 0, "##ml": 0, "at": 0, "port": 0, "##als": 0, "54": 0, "##utt": 0, "app": 0, "##ro": 0, "##ach": 0, "into": 0, "##ctic": 0, "##erst": 0, "typisch": 4, "nah": 0, "Arbeits": 13, "##an": 10, "bedienen": 0, "erwarten": 1, "klar": 16, "rein": 0, "##auftrag": 5, "##stellung": 22, "mehrere": 0, "enthalten": 0, "ideal": 1, "Lesen": 7, "Schreiben": 6, "Sprechen": 6, "##p\u00e4dagog": 0, "Verb": 0, "Funktions": 0, "##verb": 0, "##gef\u00fc": 0, "wissen": 4, "##ener": 1, "Bearbeitung": 1, "initi": 1, "lenken": 0, "2019": 0, "i": 1, "D": 0, "R": 0, "sowie": 0, "erfordern": 1, "Chron": 0, "##ologie": 0, "Versuchs": 0, "##beschreibung": 0, "zuerst": 0, "danach": 0, "schlie\u00dflich": 0, "Us": 0, "##w": 0, "Anordnung": 0, "Vordergrund": 0, "hinten": 0, "ausdr\u00fcck": 0, "nennen": 0, "Regelung": 0, "Versuch": 0, "##ordnung": 1, "pr\u00fc": 1, "##fungs": 1, "Rep": 1, "##rod": 1, "Transfer": 1, "Re": 4, "##organisation": 0, "Reflex": 6, "Problem": 0, "##l\u00f6sung": 3, "sicherlich": 0, "Lehren": 0, "verst\u00e4nd": 0, "##igen": 0, "##bahnen": 0, "vieler": 0, "##lei": 0, "verbinden": 0, "eindeutig": 1, "gew\u00e4hrleisten": 0, "theoretisch": 1, "##uell": 1, "Fund": 1, "Referenz": 2, "realisiert": 1, "etwa": 0, "2002": 0, "##arbeitung": 0, "Tax": 0, "##onom": 0, "##i": 0, "grundlegend": 0, "verschw": 0, "##eigen": 2, "Realisierung": 1, "feststellen": 1, "fest": 0, "untersuchen": 0, "indirekt": 0, "##izit": 0, "erscheinen": 0, "meistens": 0, "erwartet": 0, "##ulieren": 1, "Inst": 0, "##ru": 0, "##ktion": 0, "bearbeiten": 1, "Zusammenfassung": 0, "16": 0, "Projekt": 0, "Merc": 0, "##ator": 0, "Zeichen": 3, "int": 0, "##tiv": 1, "vornehmen": 0, "##merk": 1, "##mal": 1, "25": 0, "%": 0, "ausmachen": 0, "bewusst": 0, "unsicher": 0, "##sch\u00fcler": 1, "schwer": 1, "gern": 0, "Aktivit\u00e4t": 1, "Wiederholung": 0, "Ca": 0, "Min": 0, "zusammenh\u00e4ngen": 1, "Produkt": 7, "##zip": 0, "##plan": 0, "diesbez\u00fcglich": 0, "rot": 5, "zudem": 0, "erw\u00e4hnt": 0, "##se": 1, "einher": 1, "##gehend": 1, "bilden": 0, "##\u00fc": 2, "##pfen": 1, "ben": 0, "##ennen": 0, "Nam": 0, "Besch": 0, "##rift": 0, "Statistik": 0, "Lex": 0, "##ikon": 0, "##eint": 0, "##rag": 0, "W\u00f6rter": 0, "Stichwort": 0, "##al": 1, "Bra": 0, "##inst": 0, "Mind": 0, "##p": 0, "Des": 0, "##cr": 0, "Inhalts": 0, "##wieder": 2, "##gabe": 1, "Sum": 0, "##mar": 0, "##erz": 0, "##\u00e4hl": 0, "Gebrauch": 0, "##san": 0, "Anteil": 0, "User": 0, "Man": 0, "##ual": 0, "Beschreibung": 0, "diskon": 0, "##tinuier": 0, "Dia": 0, "##gramm": 0, "Bericht": 0, "Zeitung": 0, "Radio": 0, "Fe": 0, "##ature": 0, "Protokoll": 0, "##modell": 0, "Bewerbung": 0, "##ss": 1, "##reiben": 1, "Expl": 0, "##ain": 0, "Grafik": 0, "Vortrag": 0, "Refer": 0, "Sach": 0, "##text": 0, "Hypoth": 0, "begr\u00fcndet": 0, "Vorher": 0, "##sage": 0, "Conc": 0, "##ep": 0, "Argument": 1, "Arg": 0, "##\u00f6rter": 0, "##tat": 0, "Auf": 0, "##satz": 0, "Ess": 0, "##ay": 0, "Tra": 0, "##kt": 2, "Quellen": 0, "Bes": 0, "##innung": 0, "##sau": 1, "##fs": 0, "ev": 0, "##iden": 0, "##zb": 0, "##asi": 0, "Natur": 0, "##wissenschaft": 1, "Interpretation": 0, "De": 0, "##utung": 0, "fik": 0, "viert": 0, "##ige": 0, "##\u00fcndel": 0, "Bachelor": 0, "##re": 1, "##eiten": 0, "##strategie": 1, "Achtung": 0, "Koh": 1, "##\u00e4ren": 1, "Int": 0, "##ent": 1, "Strategie": 6, "spezif": 0, "\u00fcblicherweise": 0, "I": 0, "lin": 0, "korrekt": 1, "vorhanden": 3, "endlich": 0, "tauchen": 0, "auff\u00e4llig": 0, "Stelle": 4, "##atisch": 3, "kommun": 1, "##ikat": 1, "##sb": 1, "##erei": 1, "##da": 3, "##ktik": 0, "##fertig": 1, "##keit": 5, "grob": 0, "Fertig": 2, "m": 0, "##dl": 0, "H\u00f6ren": 4, "gelungen": 0, "rund": 0, "ausgehend": 0, "Leit": 0, "##frage": 0, "Pl": 0, "A": 0, "Fak": 1, "C": 0, "inne": 0, "n": 0, "am": 0, "##tik": 0, "Aufbau": 2, "e": 0, "Sozial": 7, "eignen": 0, "Einzel": 0, "##arbeit": 0, "Partner": 0, "F": 0, "worauf": 0, "legen": 0, "Schwerpunkt": 3, "##termin": 0, "Tipp": 0, "zum": 0, "verbessern": 0, "Beweis": 2, "Se": 1, "erhalten": 0, "Gelegenheit": 1, "##reichte": 1, "woher": 1, "##fort": 2, "##schritt": 6, "messen": 1, "Erg\u00e4nzung": 0, "wann": 1, "Gel": 0, "##ernte": 0, "Vermittlung": 2, "##rufen": 0, "steuern": 0, "Ko": 1, "##ition": 1, "anwenden": 0, "Sc": 13, "##aff": 23, "##old": 26, "mer": 0, "##cat": 0, "##or": 0, "con": 0, "##tent": 0, "up": 0, "##lo": 0, "##ads": 0, "allen": 0, "fa": 0, "##ech": 0, "##ern": 0, "##wissen": 16, "Not": 0, "begegnen": 0, "Tag": 0, "Sport": 0, "kennen": 0, "Name": 0, "Begriffs": 0, "##kl\u00e4rung": 0, "zeitlich": 0, "begrenzt": 0, "essen": 0, "##ziell": 0, "Unterst\u00fctzungs": 1, "##ine": 1, "##ker": 0, "f": 0, "2015": 0, "84": 0, "Ger": 3, "##\u00fcst": 3, "selbstst\u00e4ndig": 1, "bewegen": 1, "eigens": 2, "Pauli": 0, "##ne": 0, "Gib": 0, "##bon": 0, "mod": 1, "\u00fcbertragen": 0, "Josef": 0, "leise": 0, "28": 0, "kalk": 0, "##ktisch": 3, "knapp": 10, "hingegen": 0, "##ozi": 0, "##eren": 0, "Fr": 0, "##ustr": 0, "Zone": 0, "##versuch": 0, "##f\u00fchl": 0, "So": 0, "##das": 0, "optimal": 0, "##situation": 2, "eigentlich": 0, "Aufrechter": 1, "sinnvoll": 1, "Development": 0, "Offensive": 1, "defen": 1, "##siv": 1, "##praxis": 0, "prinzip": 0, "ent": 0, "##lasten": 0, "angehen": 0, "R\u00fcck": 3, "##meldung": 2, "Instrument": 0, "Erwerbs": 1, "voran": 0, "##melde": 1, "##technische": 1, "lernen": 0, "zweit": 0, "##ebene": 0, "durchaus": 0, "st\u00e4ndig": 0, "##person": 0, "Reduktion": 0, "##anteil": 5, "zugunsten": 0, "Um": 0, "##kehr": 0, "klass": 0, "Front": 0, "lang": 0, "##put": 0, "ind": 1, "Mikro": 11, "Mak": 3, "##ros": 3, "##ca": 3, "Phase": 0, "neben": 0, "##bauen": 2, "hierzu": 0, "z\u00e4hlen": 0, "verst\u00e4ndlich": 1, "##erium": 1, "formuliert": 1, "Teile": 0, "##ment": 0, "Bedarf": 1, "##stands": 3, "Bedarfs": 21, "##let": 0, "##zt": 0, "Reihe": 0, "aktuell": 1, "ermitteln": 1, "Blick": 3, "behalten": 1, "genannt": 0, "Geben": 0, "umfassen": 0, "Gesamtheit": 0, "##technik": 14, "##st\u00e4ndigkeit": 1, "Methoden": 0, "##vielfalt": 0, "##sc": 9, "direkt": 2, "wenig": 1, "plan": 0, "##gespr\u00e4ch": 3, "antworten": 0, "unvor": 0, "##gesehen": 0, "##schwier": 1, "spontan": 0, "Ho": 0, "##c": 0, "reagieren": 0, "hierbei": 0, "Technik": 2, "##kommun": 1, "mitge": 0, "##stal": 0, "##ten": 0, "unvoll": 0, "##st\u00e4ndig": 0, "dein": 0, "Lieblings": 0, "Ahnung": 0, "Buch": 0, "##vor": 0, "mitten": 0, "lauten": 0, "vertrauen": 0, "Grundlage": 0, "##blatt": 0, "bieten": 0, "Sog": 0, "Fin": 0, "##ding": 0, "The": 0, "Lang": 0, "##uage": 0, "Cur": 0, "##ric": 0, "##ulu": 0, "##gl": 0, "121": 0, "##f\u00fchrende": 0, "##rw": 3, "##eise": 0, "Planungs": 1, "Satz": 1, "Beachtung": 0, "vorgegeben": 0, "Jahrgang": 0, "##sst": 2, "##ufe": 0, "entwickeln": 0, "wiederum": 0, "wof\u00fcr": 0, "bedenken": 0, "geleitet": 0, "\u00dcbersicht": 0, "Goethe": 0, "inst": 0, "##itut": 0, "Be": 0, "Et": 0, "Al": 0, "35": 0, "schreiben": 2, "pr\u00e4sentieren": 8, "beherrschen": 0, "eingesetzt": 0, "Schreib": 0, "besonder": 0, "##verk": 1, "Gramm": 2, "langfristig": 0, "Zuwachs": 1, "bewirken": 0, "##n\u00f6": 0, "sicherstellen": 0, "##disziplin": 0, "wieso": 1, "Zir": 0, "##kel": 0, "transparent": 6, "Leistung": 1, "Falle": 0, "Poly": 0, "##ium": 0, "##handen": 0, "Bedeutung": 1, "Kunst": 0, "Ge": 0, "##ometrie": 0, "umso": 0, "doch": 0, "Kl\u00e4r": 1, "zwar": 1, "##\u00e4ltigung": 0, "gerecht": 0, "Fazit": 0, "Suche": 0, "Tool": 0, "fallen": 0, "##entscheidung": 0, "Kasten": 0, "gesamt": 0, "##vorgang": 1, "M\u00fcnster": 0, "Wa": 0, "##x": 0, "Verlag": 0, "49": 0, "##instrument": 0, "erw\u00e4hnen": 0, "berichten": 0, "Studierende": 0, "Master": 0, "parallel": 0, "laufen": 0, "gestellt": 0, "anders": 0, "inten": 0, "##die": 0, "##einheit": 0, "System": 0, "Konkret": 0, "##isierungs": 0, "##ras": 6, "Hilfsmittel": 0, "geeignet": 0, "##angebot": 2, "sogen": 0, "##annt": 0, "arbeiten": 0, "vorab": 0, "##helfen": 0, "Rast": 0, "altern": 0, "##ativ": 2, "ebenfalls": 0, "einsetzen": 4, "befassen": 0, "n\u00e4chst": 0, "Unter": 0, "##punkt": 0, "Grundschule": 1, "sim": 1, "##pel": 1, "bleiben": 2, "Teils": 0, "##ritt": 0, "Zwischen": 0, "vorge": 0, "Modul": 0, "##abschluss": 0, "##pr\u00fcfung": 0, "\u00fcbersehen": 0, "Niveau": 2, "Abgabe": 0, "Vorteil": 0, "##proben": 0, "Ganze": 0, "##eignet": 0, "lo": 0, "##hnen": 0, "##uliert": 1, "Verwendung": 0, "aufnehmen": 0, "Erfinder": 0, "ebenso": 0, "Vorschlag": 0, "durchf\u00fchren": 0, "##seite": 0, "verkehren": 0, "Bord": 0, "Check": 0, "Erl\u00e4u": 0, "##terung": 0, "Empfehlung": 0, "##verw": 1, "##endung": 1, "Publikation": 0, "##bene": 0, "O": 0, "jetzt": 1, "Neben": 1, "##s\u00e4tz": 1, "ansonsten": 0, "Trick": 0, "\u00fcbers": 0, "##etzen": 0, "mal": 3, "##best": 0, "Englisch": 0, "Franz\u00f6sisch": 0, "Erst": 0, "pl\u00f6tzlich": 0, "Deutsche": 0, "##h\u00fc": 2, "passend": 3, "herausfinden": 0, "Unterseite": 0, "hilfreich": 0, "##sicherung": 3, "Nutzen": 4, "unten": 0, "ange": 0, "##h\u00e4ngt": 0, "P": 0, "dat": 0, "##eie": 0, "Hinweis": 0, "form": 1, "Kollegin": 0, "Dr": 0, "Maria": 0, "Gro\u00dfe": 0, "6": 0, "\u00dcbung": 0, "##gaben": 0, "Vergleich": 0, "link": 0, "ti": 0, "##ppen": 0, "frage": 1, "Konzentration": 1, "Schacht": 1, "##els": 1, "Eind": 1, "##eu": 1, "##tigkeit": 2, "##deu": 1, "inhaltlich": 3, "Klarheit": 2, "##fra": 1, "##cht": 1, "Ei": 0, "60": 0, "dazuge": 0, "##h\u00f6r": 0, "##kur": 0, "Erinnerung": 0, "##sw": 3, "##and": 1, "ausgew\u00e4hlt": 0, "sc": 1, "Bitte": 0, "Pr\u00e4z": 2, "Zug": 0, "##zwang": 0, "pr\u00e4zise": 1, "Pr\u00e4sentation": 18, "Ziels": 0, "##tr": 1, "##tur": 0, "Kontrast": 5, "abweichen": 0, "vergleichen": 0, "##regen": 0, "##vergleich": 0, "##ingu": 0, "##ling": 0, "##kunft": 0, "\u00c4u\u00dfer": 0, "wiederauf": 0, "korrig": 1, "Wieder": 0, "##holen": 0, "ziel": 1, "##cast": 4, "##wahl": 0, "Aufforderung": 9, "##kor": 9, "##rektur": 9, "##auf": 1, "Verweis": 0, "Eliz": 1, "##iti": 1, "##erung": 3, "##holung": 2, "Einsatz": 2, "Mi": 1, "##k": 1, "Gest": 1, "26": 0, "Einstieg": 3, "Folgende": 0, "Einf\u00fchrung": 1, "##sv": 0, "##ideo": 0, "Daniela": 0, "Rotter": 0, "ow": 0, "Gespr\u00e4ch": 4, "##ituation": 1, "halten": 1, "##altern": 1, "##ative": 1, "di": 3, "Motiv": 1, "Platz": 0, "o": 0, "##sz": 1, "##ena": 0, "##rio": 0, "Ma\u00dfnahme": 1, "F\u00fchrung": 1, "erleichtern": 1, "##\u00fchrung": 3, "ber\u00fchren": 0, "veran": 0, "##schau": 0, "##lichen": 0, "gleichzeitig": 0, "person": 0, "Steuerung": 0, "Lei": 0, "ans": 0, "##iede": 0, "Nacht": 0, "Unsicherheit": 4, "##wissenschaftler": 0, "Knapp": 0, "beobachten": 0, "vielfach": 0, "\u00fcbersch": 0, "konzentrieren": 0, "##sich": 0, "orientieren": 0, "##tre": 0, "##tags": 1, "nett": 0, "l\u00e4": 0, "##che": 0, "ni": 0, "##cken": 0, "schnell": 1, "unent": 1, "Tafel": 0, "##aktiv": 1, "Version": 0, "voll": 0, "##ziehen": 0, "par": 0, "##aver": 0, "##bal": 0, "##gehen": 0, "erfassen": 0, "Sprech": 4, "##tem": 1, "##po": 1, "Beton": 1, "##pause": 1, "Beziehung": 0, "##sebene": 0, "Gestaltung": 2, "##gst": 1, "##frei": 1, "motiv": 3, "ermu": 2, "##nte": 2, "nehmen": 0, "\u00e4u\u00dfern": 1, "##h\u00f6ren": 0, "ak": 0, "langsam": 0, "Richtung": 1, "Formul": 1, "gew\u00e4hren": 0, "Mur": 0, "##mel": 0, "Austausch": 3, "nichts": 0, "Werkzeuge": 0, "##schullehrer": 1, "40": 0, "einer": 0, "auffallen": 0, "ziemlich": 1, "zust": 1, "##ehen": 1, "Perspektive": 0, "##arch": 0, "as": 0, "##ym": 0, "##met": 0, "##ris": 0, "Sicht": 1, "sozio": 0, "##kultur": 3, "##theorie": 0, "konstru": 1, "los": 0, "##l\u00f6sen": 0, "erzeugen": 0, "anscheinend": 0, "##erg": 0, "frag": 0, "ob": 1, "konstruiert": 0, "traditionell": 0, "##\u00e4g": 1, "##sver": 2, "##lauf": 2, "bitten": 0, "##10": 0, "ver\u00e4ndern": 0, "Zeitpunkt": 0, "verhaf": 0, "Experiment": 0, "##ier": 0, "Vermutung": 0, "Kon": 0, "##junkt": 0, "bevor": 0, "##11": 0, "Schwe": 0, "##nk": 0, "Person": 0, "Akte": 0, "##ur": 1, "natur": 1, "##ug": 1, "bereit": 1, "Erkenntnis": 1, "verp": 1, "##acken": 1, "Br\u00fccke": 0, "pers\u00f6nlich": 1, "allt\u00e4": 0, "##glich": 0, "Erk": 0, "##skon": 0, "##struktion": 0, "##information": 0, "ann\u00e4h": 0, "##elli": 1, "##atten": 0, "sinn": 1, "##stift": 1, "##end": 1, "vorgestellt": 0, "pro": 0, "##xi": 0, "Entwicklung": 0, "einerseits": 1, "konfron": 0, "andererseits": 0, "differenz": 6, "kaum": 0, "produ": 0, "##ktiv": 8, "trennen": 1, "##zeigen": 1, "Cor": 1, "##ction": 1, "eventuell": 1, "blo\u00df": 0, "##stellen": 1, "Interesse": 1, "automatisch": 0, "gegenseitig": 0, "erlauben": 0, "Sicherheit": 0, "keiner": 0, "Regen": 1, "unauf": 1, "##dring": 1, "nebenbei": 1, "res": 5, "##ns": 1, "##cho": 1, "##nen": 1, "halb": 0, "einzig": 0, "richtig": 3, "Nenn": 0, "vollst\u00e4ndig": 1, "warum": 0, "anstelle": 2, "Prom": 6, "##pt": 6, "zufrieden": 0, "bekommen": 0, "anstatt": 0, "Nutzung": 2, "du": 0, "##und": 1, "Themen": 0, "##gebrauch": 0, "##rieb": 0, "##med": 0, "##w\u00e4l": 0, "##zen": 0, "aussch": 1, "##\u00e4r": 0, "##fen": 0, "##echsel": 3, "Option": 0, "empfehlen": 0, "Periode": 0, "##auer": 0, "Vis": 1, "##ualisierung": 1, "Schau": 0, "dort": 0, "##pla": 0, "##ions": 3, "##bewusst": 0, "Aufmerksamkeit": 0, "##sl": 0, "##enkung": 0, "Inner": 0, "Di": 0, "##\u00e4t": 0, "Abgeordnete": 0, "##andt": 0, "##schaft": 0, "kl\u00e4ren": 1, "Alkohol": 0, "Chemie": 0, "End": 0, "Suf": 0, "##fi": 0, "##quis": 0, "##it": 0, "##ki": 0, "##tt": 0, "##dest": 0, "##ph": 0, "##on": 0, "begleiten": 0, "au\u00dferdem": 0, "Sprachen": 0, "##fach": 0, "##omen": 0, "wel": 0, "Komposition": 0, "Der": 0, "##iva": 0, "aller": 0, "##las": 0, "funktionieren": 0, "Kor": 0, "##ktive": 0, "##kod": 0, "##stehen": 0, "fehler": 0, "##haft": 0, "Korrektur": 2, "inner": 0, "Monitor": 0, "erfolgen": 1, "##ona": 0, "wiederholen": 0, "kalt": 0, "Metall": 0, "##platte": 0, "ert": 0, "##rinken": 0, "dauern": 0, "Sekunde": 0, "Hand": 0, "##bewegung": 0, "Heb": 0, "Augen": 0, "##bra": 0, "##ue": 0, "aufmerksam": 0, "Studium": 0, "bisher": 0, "vorgehen": 1, "##lehr": 0, "he": 1, "##mmen": 1, "Umstand": 0, "Foss": 2, "Abbruch": 0, "Sta": 1, "##gna": 1, "erworben": 1, "##brechen": 0, "demnach": 0, "werfen": 1, "verde": 0, "##utlich": 0, "gleicherma\u00dfen": 0, "Defizit": 0, "St\u00e4rke": 0, "paar": 0, "Moment": 0, "Ressourcen": 2, "##blick": 0, "sch\u00e4r": 0, "##\u00fcler": 2, "##freundlich": 1, "##verh": 1, "##alte": 1, "etablieren": 1, "weg": 0, "##orientierung": 2, "Einsicht": 0, "durchsetzen": 0, "Tabelle": 0, "dokumen": 0, "Studie": 0, "Zweit": 0, "##ors": 0, "Kas": 0, "##bau": 1, "Reihenfolge": 0, "au\u00dfen": 0, "beeinfl": 0, "##rate": 1, "##gie": 1, "Auge": 0, "##\u00e4u\u00dfer": 1, "einsch": 1, "beurteilen": 1, "herange": 0, "##dia": 1, "##ose": 1, "Ann\u00e4herung": 1, "regelm\u00e4\u00dfig": 0, "neutr": 1, "##durch": 0, "gegen\u00fcber": 0, "x": 0, "##nor": 4, "##ient": 4, "fe": 1, "flexibel": 0, "Fol": 0, "##ien": 0, "##ly": 0, "##ruf": 0, "Kriterien": 5, "Vorgehen": 2, "Eindruck": 1, "verf": 1, "##\u00e4l": 1, "unum": 0, "##g\u00e4ng": 0, "kritisieren": 0, "Einheit": 0, "Zielsetzung": 0, "anf": 0, "anpassen": 1, "##schreiben": 0, "cu": 1, "##rr": 1, "##ic": 1, "##ular": 1, "davon": 0, "Kriterium": 0, "Erhebung": 0, "Anregung": 0, "le": 0, "##hre": 0, "##rf": 0, "##ort": 0, "22": 0, "##orientierte": 2, "E": 0, "Aller": 0, "einmal": 0, "Verw": 1, "##enden": 1, "basierend": 0, "auswirken": 1, "mark": 0, "registrieren": 0, "V": 0, "h": 0, "2007": 0, "##verst\u00e4ndlich": 0, "erinnern": 0, "R\u00fcckgabe": 0, "Klaus": 0, "Schulzeit": 0, "##f\u00f6rder": 1, "Auseinander": 1, "##setzung": 1, "eil": 0, "##tiert": 0, "##abelle": 0, "sch\u00f6n": 0, "real": 0, "Klassen": 0, "##suchen": 0, "Halbjahr": 0, "melden": 0, "##art": 0, "grunds\u00e4tzlich": 0, "sodass": 0, "##zu": 0, "##wachs": 0, "ausgehen": 0, "gew": 2, "##inn": 1, "probieren": 0, "##abell": 0, "##f\u00fcllen": 0, "##ordnen": 0, "cle": 0, "##ver": 0, "##wand": 0, "Behauptung": 0, "Kritik": 0, "aufeinander": 0, "enden": 0, "Schw\u00e4che": 0, "Papier": 0, "gelegentlich": 0, "Mangel": 1, "vermuten": 0, "viele": 0, "##tigen": 0, "##zentrum": 0, "Anspruch": 0, "Er\u00f6ffnung": 0, "Sorge": 0, "Haupt": 0, "verraten": 0, "Philosophie": 0, "Sache": 0, "Sens": 0, "Kommentar": 0, "Erm": 0, "##angel": 0, "Standard": 0, "beeindruckt": 0, "pr\u00e4": 0, "##nt": 1, "beantworten": 0, "##grenze": 0, "verdienen": 0, "au\u00dferhalb": 0, "Absatz": 0, "ausschlie\u00dflich": 0, "##\u00fcss": 0, "Fett": 0, "Auftrag": 0, "gro\u00dfartig": 0, "einige": 0, "##imi": 0, "##nier": 0, "Linie": 0, "insgesamt": 1, "Philosoph": 0, "ansprechen": 0, "interessant": 1, "inform": 1, "Theo": 0, "##ret": 0, "##iker": 0, "Ah": 0, "##ana": 0, "##s\u00e4tzlich": 0, "Standpunkt": 0, "einbringen": 0, "unterm": 0, "##auern": 0, "Vorsicht": 1, "wa": 1, "##lt": 1, "Hed": 1, "##ging": 1, "stark": 3, "Schluss": 1, "Mitarbeiter": 0, "ausbauen": 1, "bed": 0, "##\u00fcrf": 0, "mir": 0, "wohin": 0, "Organisation": 1, "Le": 1, "##\u00fcre": 1, "##bestimmung": 1, "erl\u00e4u": 0, "##tern": 0, "Zusatz": 1, "Kurz": 0, "produziert": 0, "Plak": 0, "begr\u00fcnden": 0, "Milch": 0, "##ku": 0, "##h": 0, "Nutz": 0, "##tier": 0, "Te": 0, "##acher": 0, "mich": 0, "spannend": 0, "Informations": 3, "besprechen": 2, "Herstellung": 0, ">": 0, "vorstellen": 1, "Plen": 0, "Lese": 2, "##stra": 2, "##teg": 2, "##ia": 2, "Leser": 1, "##out": 1, "Erl": 0, "##esen": 0, "Artikel": 2, "Schlei": 1, "##fe": 2, "Verlauf": 4, "##produkt": 6, "##the": 0, "##ke": 0, "##baus": 0, "##anfang": 0, "L\u00fccken": 0, "Vorber": 0, "individ": 0, "##ualisiert": 0, "Ok": 0, "##sa": 8, "Unterschied": 0, "Vari": 1, "Zwei": 0, "##erte": 0, "##am": 0, "jeweils": 0, "Pfeil": 0, "##\u00fcte": 0, "Lebensmittel": 0, "quasi": 0, "hoffentlich": 0, "##riften": 0, "super": 0, "Vorgang": 0, "nochmals": 0, "reichen": 0, "anfangen": 0, "##ams": 0, "Begr\u00fcndung": 0, "Mehrwert": 0, "anspruchs": 0, "ba": 0, "Kuh": 0, "K\u00e4se": 0, "aussehen": 1, "Tier": 0, "##bindung": 2, "M\u00fcn": 2, "##dlich": 2, "##zielen": 0, "Fest": 0, "##runde": 1, "locker": 0, "Recherche": 0, "Beitrag": 0, "Rinder": 0, "##haltung": 0, "Klimawandel": 0, "Pod": 0, "##iums": 0, "##ussion": 0, "Bauer": 0, "Klima": 0, "##ist": 0, "Veg": 0, "##aner": 0, "gegeneinander": 0, "Dreier": 1, "Fac": 0, "##swert": 0, "mindestens": 0, "##\u00f6ger": 2, "trauen": 0, "ruhig": 0, "kre": 0, "##ativer": 0, "innov": 0, "lebendig": 0, "solange": 0, "##aterial": 0, "Map": 0, "inspir": 0, "mo": 0, "##lab": 0, "hu": 0, "ur": 0, "view": 0, "ph": 0, "111": 0, "##arbeiten": 0, "Umsetzung": 2, "Entlastung": 1, "\u00c4nderung": 0, "Station": 0, "Warm": 0, "##nu": 1, "##kart": 0, "vorrangig": 0, "ja": 0, "versprach": 0, "##g\u00e4ngig": 0, "starten": 0, "Karte": 0, "liefern": 0, "versammel": 1, "##speicher": 1, "gr\u00f6\u00dftenteils": 0, "Bananen": 0, "##oper": 0, "##gge": 0, "keinerlei": 0, "passieren": 0, "dringend": 0, "##raten": 0, "Sche": 0, "durchge": 0, "irgendwie": 0, "##shi": 3, "##lf": 3, "aufs": 1, "\u00c4": 0, "wozu": 0, "schlie\u00dfen": 0, "##ta": 0, "n\u00fctzlich": 0, "weniger": 0, "Liebe": 0, "Kir": 0, "##sten": 0, "##idee": 3, "leider": 1, "Vogel": 0, "erreichen": 0, "##sehen": 0, "kn": 0, "##iff": 0, "wegen": 0, "Farbe": 0, "ohnehin": 0, "Farb": 0, "minim": 0, "Feder": 0, "Schnabel": 0, "Brust": 0, "Steck": 0, "##brief": 0, "falls": 0, "hoffen": 0, "'": 0, "s": 0, "kla": 0, "vorne": 0, "Entwurf": 0, "fr\u00fche": 0, "##stens": 0, "Erwart": 2, "eingest": 0, "##\u00e4ndig": 0, "anschauen": 0, "intensiv": 0, "zurecht": 0, "vollkommen": 0, "##lassen": 0, "Info": 0, "Kopf": 0, "bestehend": 0, "vern": 0, "##gan": 0, "##listen": 0, "##besch": 3, "##affung": 3, "Rest": 0, "##leiten": 1, "vergessen": 1, "##dr": 0, "##stufe": 0, "erz\u00e4hlen": 0, "mechan": 0, "leb": 0, "##los": 0, "gl\u00fcck": 0, "zer": 0, "##spl": 0, "##ittern": 0, "abstra": 1, "##a": 1, "verste": 0, "##if": 0, "eben": 0, "rau": 0, "##mg": 0, "##reifen": 0, "fast": 0, "dargestellt": 0, "Vorgehensweise": 2, "Kooperation": 2, "##vern": 2, "##etzung": 2, "Drei": 0, "Gemeinsam": 0, "##oti": 0, "m\u00f6gen": 0, "gew\u00e4hlt": 0, "Vie": 0, "##ee": 0, "fortsetzen": 0, "r\u00fccken": 0, "Themenk": 0, "##omp": 0, "##reihe": 0, "ober": 0, "##fl\u00e4ch": 0, "punkt": 0, "Symbol": 0, "##bl": 0, "##ase": 0, "w\u00e4hlen": 1, "Modus": 1, "Geschichte": 0, "Jahreszeit": 0, "legitim": 0, "##ierbar": 0, "ta": 0, "##uschen": 0, "aktiviert": 0, "experimente": 0, "Erf": 0, "##chen": 0, "Taschen": 0, "##lam": 0, "Licht": 0, "##quelle": 0, "Glob": 0, "Ball": 0, "##bild": 0, "##hor": 1, "##izont": 1, "erg\u00e4nzen": 0, "umf": 0, "best": 0, "Vorbereitung": 0, "##jahres": 0, "Sitz": 0, "##kreis": 0, "Anfang": 0, "lau": 0, "Hintergrund": 0, "Umlauf": 0, "Kreis": 0, "je": 0, "nachdem": 0, "vis": 0, "Syn": 0, "##onym": 0, "Erkl\u00e4r": 0, "experimen": 0, "##chi": 0, "##mmer": 0, "offenbar": 0, "##ein": 0, "Experten": 0, "Bilder": 0, "##folg": 0, "ggf": 0, "\u00dcbertragung": 0, "Abschluss": 0, "T": 0, "##\u00fcgen": 0, "ignor": 0, "Wasser": 0, "##unsten": 0, "flie\u00dfen": 0, "seit": 0, "Monat": 0, "##fertigt": 0, "##mat": 0, "F\u00fcll": 0, "entsprechend": 0, "Motivation": 0, "##komplex": 0, "##lastung": 0, "##dehn": 0, "ents": 0, "##leun": 0, "hinein": 0, "##schauen": 0, "Ern\u00e4hrung": 0, "Lebe": 0, "##wesen": 0, "Frucht": 0, "Inse": 0, "Maus": 0, "Fisch": 0, "Nu": 0, "Blatt": 0, "Katalog": 0, "Lebensraum": 0, "Ort": 0, "leben": 0, "Vorhaben": 0, "ausb": 0, "##\u00e4h": 0, "##wie": 0, "##fern": 0, "urspr\u00fcnglich": 0, "jetz": 0, "k": 1, "##ind": 1, "##gerecht": 1, "br\u00fc": 0, "Komp": 1, "##osit": 1, "##me": 0, "Wald": 0, "Am": 0, "##ame": 0, "##ise": 0, "fro": 0, "##aw": 0, "##isse": 0, "##pers": 1, "##pekt": 1, "##ive": 1, "mus": 0, "##g\u00fcltig": 0, "soweit": 0, "doppelt": 0, "gr\u00fcn": 0, "##werkstatt": 0, "##voraus": 0, "mater": 0, "##ial": 0, "##side": 1, "\u2192": 0, "##igungs": 0, "##stunde": 0, "Zahlen": 0, "##geschichte": 0, "##\u00e4n": 0, "##seln": 0, "sieben": 0, "Leb": 0, "##kuchen": 0, "Gre": 0, "##tel": 0, "aufstellen": 0, "##feed": 0, "entfallen": 0, "dir": 0, "Woche": 0, "hervorragend": 0, "getr": 0, "##ost": 0, "Per": 0, "##fektion": 0, "wertvoll": 0, "f\u00e4l": 0, "string": 1, "them": 0, "##bedingt": 0, "weiterhin": 0, "Reis": 0, "##haufen": 0, "perfekt": 0, "s\u00e4m": 1, "##tlich": 1, "##\u00f6pfen": 1, "krei": 0, "Wanderung": 0, "##zimmer": 0, "sammeln": 0, "Plan": 0, "##stu": 0, "Orts": 0, "Legende": 0, "strukturiert": 1, "fein": 1, "Abstra": 0, "##ktions": 0, "Ausflug": 0, "drau\u00dfen": 0, "Audio": 0, "##aufnahme": 0, "st": 0, "##\u00fcndig": 0, "fragen": 0, "Entschuldigung": 0, "links": 0, "rechts": 0, "##biegen": 0, "##as": 0, "Himmels": 0, "##richtung": 0, "n\u00f6rdlich": 0, "\u00f6stlich": 0, "##kon": 3, "##kret": 3, "Ablauf": 1, "Kreativit\u00e4t": 1, "Ideal": 0, "##erweise": 0, "Impuls": 0, "Klein": 0, "ord": 0, "Herz": 0, "zusammengefasst": 0, "hinsichtlich": 0, "kooper": 1, "komplett": 0, "Doppel": 0, "##seit": 0, "traurig": 0, "##heitlich": 1, "Ha": 0, "##k\u00e4": 0, "##rt": 0, "Ritter": 0, "Herr": 0, "Page": 0, "Lan": 0, "##ze": 0, "Schild": 0, "Mittelalter": 0, "beob": 1, "##acht": 1, "pass": 0, "Koll": 0, "##oka": 0, "\u201d": 0, "Land": 0, "christ": 0, "Glauben": 0, "erz": 0, "##ieh": 0, "hm": 0, "##i\u00df": 1, "spieler": 1, "kombin": 0, "##ge": 0, "Work": 0, "##sh": 0, "Live": 0, "##work": 0, "com": 0, "Da": 0, "kinder": 0, "Pr\u00e4": 0, "##ms": 0, "Pr\u00e4sen": 0, "##\u00fcbung": 1, "mg": 0, "Aktiv": 1, "einsam": 0, "gerne": 0, "niedrig": 1, "gr\u00fcndlich": 0, "Rollen": 0, "Lebensweise": 0, "Verk": 0, "##leidung": 0, "schl\u00fc": 0, "##ums": 0, "##tan": 0, "##gruppen": 0, "ausf\u00fchren": 0, "Rahmen": 0, "Qu": 0, "##atsch": 0, "fordern": 0, "##\u00e4qu": 0, "okay": 0, "gefallen": 0, "##nach": 0, "sichern": 2, "##laufen": 0, "Mal": 0, "Figur": 0, "##sagen": 0, "verhalten": 0, "ausgest": 0, "##alten": 0, "Dialog": 0, "Smart": 0, "##board": 0, "Ausr\u00fcstung": 0, "##steil": 0, "Pferd": 0, "Schwert": 0, "hac": 0, "##ken": 0, "Schwein": 0, "Getreide": 0, "Variante": 0, "Tabl": 0, "unbe": 0, "##wu": 0, "\u00dcberblick": 0, "##up": 0, "##id": 0, "Team": 0, "##ollen": 0, "recher": 0, "Bauern": 0, "\u00e4": 0, "analog": 0, "sitzen": 0, "\u00e4hnlich": 0, "fertig": 0, "jederzeit": 0, "holen": 0, "Alters": 0, "erledigen": 0, "Hin": 0, "##enken": 0, "Mega": 0, "##poten": 0, "##tial": 0, "##denken": 0, "gen\u00fcgend": 0, "##h\u00e4ngen": 0, "verlieren": 0, "diagnost": 1, "n\u00e4mlich": 0, "##\u00fcchtern": 0, "Kollege": 0, "bezahlen": 0, "##eli": 0, "##au": 0, "L": 0, "mi": 0, "##\u00df": 0, "##brauch": 0, "Reiz": 0, "##geber": 0, "antwor": 0, "Interview": 0, "Fernsehen": 0, "##tragen": 0, "entdecken": 0, "Tisch": 0, "bringen": 0, "Zeitungs": 0, "##artikel": 0, "##nitt": 0, "##f\u00e4llig": 0, "##aus": 0, "Befra": 0, "##gte": 0, "befragt": 0, "K\u00e4r": 0, "##tchen": 0, "Chance": 0, "##schlei": 1, "##arbeitungs": 0, "##m\u00f6glichkeit": 0, "runter": 0, "##bet": 0, "Seminar": 0, "##ens": 0, "bauen": 0, "##leistung": 0, "akzeptieren": 0, "umfangreich": 0, "##splan": 0, "Schilder": 0, "wonach": 0, "Transparenz": 1, "Memor": 0, "L\u00f6sungs": 0, "Y": 0, "Leg": 0, "##esp": 0, "##iel": 0, "Realit\u00e4t": 0, "Math": 0, "Zahl": 0}}