{"O": {"[UNK]": 764, "3": 76, ")": 612, "Analyse": 45, "##rahmen": 4, "zur": 8, "Sprach": 90, "##lichkeit": 5, "des": 6, "Fach": 81, "##lernen": 2, "##s": 31, "(": 576, "angel": 4, "##ehnt": 2, "an": 146, "Ta": 4, "##jm": 4, "##el": 14, "&": 12, "Voll": 18, "##mer": 20, "/": 231, "Th\u00fcr": 20, "##mann": 23, ";": 38, "Lo": 2, "##hs": 2, "##e": 52, "1": 100, ".": 1882, "Gibt": 10, "es": 243, "sprach": 97, "##liche": 15, "H\u00fcrden": 0, ",": 2038, "die": 19, "das": 7, "fach": 39, "Lernen": 30, "beh": 3, "##indern": 3, "k\u00f6nnten": 2, "?": 562, "2": 86, "Lern": 54, "##gelegen": 4, "##heiten": 0, "in": 611, "der": 2429, "Stunde": 23, "f\u00fcr": 199, "typische": 0, "\u201e": 52, "Ritu": 2, "##ale": 0, "\u201c": 58, "Eng": 1, "treiben": 1, "Nar": 0, "##de": 29, "Unterricht": 50, "##liches": 2, "##handel": 2, "##n": 62, "Typ": 4, "##ische": 4, "Disk": 10, "##urs": 10, "##funktionen": 0, "Materialien": 0, "Rezeption": 2, "Mittel": 4, "Produktion": 3, "Zu": 6, "erstellen": 11, "Texte": 4, "\u2022": 182, "Muss": 4, "m\u00fcnd": 15, "Unterrichts": 35, "-": 364, "inter": 11, "##aktion": 3, "gest\u00fctzt": 0, "werden": 432, "M\u00fc": 2, "##ssen": 3, "SU": 0, "##S": 0, "Informationen": 0, "besch": 3, "##affen": 0, "eine": 12, "Ergebnis": 11, "##pr\u00e4sent": 2, "##ation": 13, "##lich": 179, "Ist": 2, "Met": 6, "##ako": 4, "##mm": 10, "##uni": 6, "##kat": 9, "##ion": 14, "\u00fcber": 67, "##prozess": 0, "geplant": 1, "Wie": 16, "gehe": 0, "ich": 128, "mit": 246, "Fehler": 37, "um": 107, "K\u00f6nnen": 3, "##er": 33, "im": 16, "Laufe": 2, "##funktion": 8, "ein": 711, "##\u00fcben": 2, "Etwas": 2, "beschreiben": 46, "erkl\u00e4ren": 30, "diskutieren": 3, "aus": 115, "argumen": 8, "##tieren": 15, "oder": 207, "bewerten": 13, "Spiel": 0, "##t": 46, "Text": 80, "##sor": 16, "##te": 8, "Rolle": 18, "deren": 2, "Merkmale": 2, "explizit": 21, "gemacht": 2, "m\u00fcssen": 130, "re": 10, "##zept": 2, "##iven": 1, "Kern": 0, "##wort": 14, "sch": 3, "##atz": 9, "unbekannt": 4, "ist": 6, "Stehen": 0, "bestimmte": 0, "##begriff": 5, "Wort": 52, "##feld": 2, "Zentrum": 4, "Welche": 4, "konkreten": 0, "##schatz": 16, "ben\u00f6tigen": 28, "Sch\u00fcler": 126, "Aufgabe": 77, "zu": 515, "l\u00f6sen": 6, "Wahrnehmung": 2, "##bereitung": 0, "Mitteln": 0, "Sprache": 35, "verhandeln": 1, "nicht": 231, "erschlossen": 1, "weg": 3, "Dreh": 0, "und": 739, "Angel": 0, "##punkt": 13, "brauchen": 22, "Gef": 2, "##ol": 10, "##gs": 2, "Art": 10, "Bereitstellung": 0, "domin": 3, "##ante": 2, "gra": 6, "##atische": 0, "Form": 34, "ben\u00f6tigt": 1, "wird": 1, "typischen": 0, "Rede": 11, "##mittel": 3, "meines": 0, "##es": 18, "k\u00f6nnte": 0, "fokuss": 16, "##ieren": 86, "##fordern": 15, "Wird": 2, "bestimmtes": 0, "Register": 6, "erfordert": 0, "einzu": 4, "##halten": 13, "struktur": 5, "Kann": 2, "Erste": 2, "##llen": 2, "von": 354, "##ko": 0, "##h\u00e4re": 1, "##z": 4, "\u201a": 0, "rote": 0, "##r": 10, "Faden": 4, "\u2018": 0, "einge": 0, "##\u00fcbt": 2, "Wann": 2, "gebe": 2, "Feed": 11, "##back": 73, "Versorgung": 0, "fordern": 2, "Song": 0, "##text": 32, "##bilden": 12, "##d": 151, "planen": 5, "Schul": 14, "##unterricht": 32, "identifizieren": 0, "sie": 451, "Aspekt": 19, "schwierig": 9, "sein": 690, "nennen": 11, "daraus": 7, "folgen": 42, "m\u00f6glich": 49, "##ziel": 7, "=": 650, "Bedarfs": 10, "##analyse": 16, "+": 14, "##bestimmung": 0, "so": 56, "##dann": 1, "w": 2, "##\u00f6rtlich": 1, "erl\u00e4u": 6, "##tern": 7, "wie": 230, "dieser": 166, "Schwerpunkt": 3, "konkret": 40, "umgehen": 4, "Wirklichkeit": 0, "man": 113, "erz\u00e4hlt": 0, "sich": 224, "welche": 54, "Hilfs": 11, "##angebot": 0, "bereits": 39, "##telle": 3, "Stellung": 1, "bringen": 6, "Zusatz": 4, "##material": 22, "denkbar": 16, "innov": 2, "##ativ": 13, "spieler": 2, "##isch": 77, "Methode": 4, "*": 16, "innen": 94, "k\u00f6nnen": 312, "Kurz": 4, "anhand": 9, "selbst": 60, "produziert": 1, "Plak": 20, "##at": 37, "begr\u00fcnden": 14, "warum": 12, "Milch": 22, "##ku": 5, "##h": 6, "Nutz": 13, "##tier": 13, "Te": 58, "##acher": 58, "_": 76, "fe": 59, "##ed": 62, "mich": 10, "jetzt": 19, "Teil": 48, "Einheit": 7, "spannend": 2, "noch": 134, "sehen": 44, ":": 632, "kommen": 40, "Ziel": 12, "innerhalb": 14, "via": 1, "angefertigt": 1, "Dauer": 2, "##seller": 2, "Zwischen": 3, "##schritt": 4, "Gemeinsam": 3, "##keit": 20, "er": 25, "##sp": 3, "##\u00e4he": 2, "Klasse": 23, "gemeinsam": 17, "Informations": 6, "Thema": 51, "lesen": 14, "dabei": 13, "besprechen": 2, "Vor": 31, "##wissen": 21, "aktiv": 7, "Haltung": 4, "Herstellung": 2, ">": 66, "hier": 189, "nochmal": 31, "genau": 50, "schauen": 19, "was": 136, "!": 144, "vorstellen": 7, "einfach": 35, "Plen": 32, "##um": 41, "eher": 29, "Lese": 2, "##stra": 0, "##teg": 0, "##ia": 0, "Leser": 0, "##out": 1, "##ine": 3, "Kind": 132, "eigens": 2, "##t\u00e4": 12, "##nd": 8, "##ig": 65, "Erl": 3, "##esen": 2, "vermitteln": 6, "Artikel": 5, "bei": 129, "Begriff": 32, "denken": 13, "miteinander": 2, "Gehalt": 3, "##iert": 12, "##aus": 2, "##druck": 0, "kritisch": 12, "bele": 0, "##uchten": 0, "Fertigung": 1, "Cash": 1, "##co": 1, "##w": 36, "do": 6, "##mes": 3, "##tiz": 3, "##iertes": 3, "Tier": 15, "##hink": 5, "##ommen": 2, "zum": 11, "ersten": 1, "Mal": 6, "pe": 1, "##ni": 2, "##bel": 4, "vor": 75, "##f\u00fchren": 6, "Nach": 6, "##komme": 1, "Ly": 3, "##ric": 5, "Name": 3, "Schlei": 0, "##fe": 3, "##bauen": 15, "euch": 8, "Verlauf": 8, "##produkt": 5, "nun": 21, "gegenseitig": 12, "nutzen": 33, "gern": 11, "##hilfe": 8, "Material": 28, "##the": 3, "##ke": 2, "Stufe": 7, "einzeln": 22, "erst": 36, "dann": 86, "Ende": 22, "produzieren": 7, "herstellen": 8, "Us": 32, "differenz": 3, "Satz": 33, "##baus": 2, "##in": 37, "##anfang": 14, "L\u00fccken": 10, "Vorber": 3, "##eiten": 8, "Pr\u00e4sentation": 17, "mu": 0, "##w\u00e4rts": 1, "Wende": 0, "##schlei": 0, "##beziehen": 8, "Freude": 2, "gesucht": 1, "Bild": 49, "anfangs": 1, "Ebene": 22, "h\u00f6ren": 5, "vorbereiten": 10, "falsch": 14, "aber": 118, "individ": 2, "##ualisiert": 2, "auf": 216, "Differenz": 5, "##ierungs": 8, "stehen": 14, "sollen": 74, "jed": 62, "passend": 10, "Sc": 12, "##aff": 14, "##old": 16, "##suchen": 6, "davor": 1, "abge": 1, "##tan": 3, "Aufgaben": 13, "##stellung": 20, "erstmal": 20, "Ok": 5, "wichtig": 27, "wo": 33, "finden": 38, "Hilfe": 21, "Z": 95, "B": 118, "einst": 6, "##eigen": 6, "auch": 255, "##sa": 4, "##ktiv": 5, "##ierung": 16, "n\u00f6tig": 22, "fair": 1, "m\u00e4chtig": 1, "Mithilfe": 1, "##klin": 1, "##ken": 6, "Sachver": 4, "##halt": 9, "einzig": 7, "relevant": 14, "daf\u00fcr": 10, "ebenfalls": 6, "ob": 15, "wirklich": 12, "Unterschied": 2, "unterschiedlich": 24, "Reihenfolge": 4, "kl\u00e4ren": 9, "ganz": 31, "transparent": 0, "diesem": 3, "Zeitpunkt": 5, "ine": 1, "##gal": 2, "Vari": 0, "oben": 7, "Unterscheidung": 2, "In": 15, "Zwei": 4, "##erte": 4, "##am": 2, "jeweils": 6, "vorgegeben": 3, "Pfeil": 6, "Verf\u00fcgung": 7, "stellen": 22, "##\u00fcte": 3, "diver": 4, "Lebensmittel": 1, "quasi": 5, "Proze\u00df": 14, "Produkt": 14, "gut": 58, "Idee": 20, "hoffentlich": 2, "##riften": 2, "lassen": 33, "doch": 18, "super": 2, "Vorgang": 3, "nochmals": 8, "schon": 63, "zeigen": 13, "als": 167, "zus\u00e4tzlich": 11, "wer": 49, "nehmen": 11, "einig": 16, "reichen": 2, "vielleicht": 26, "nur": 109, "##sprach": 26, "Verb": 10, "verstehen": 27, "nach": 37, "Ein": 10, "Partner": 7, "##arbeit": 26, "pr\u00e4sentieren": 13, "also": 42, "klar": 21, "Wiederholung": 9, "##ss": 6, "##ch": 32, "##lei": 6, "gleich": 21, "Auf": 28, "##schreiben": 4, "anfangen": 1, "Aus": 6, "##hang": 4, "erarbeiten": 4, "Eben": 1, "##bild": 4, "Order": 1, "Ste": 1, "##ady": 1, "Milcher": 1, "##zeugnis": 1, "Nahrung": 2, "Erzeugnis": 1, "dein": 11, "Wille": 1, "gesch": 2, "##ehe": 1, "Offenbar": 1, "##ung": 71, "den": 4, "Mund": 1, "betreffend": 0, "entdecken": 8, "packen": 3, "Panz": 5, "Beginn": 3, "fertigen": 1, "Kid": 3, "##die": 6, "Geschehen": 1, "Arbeit": 21, "Tan": 1, "##dem": 1, "einem": 3, "Gu": 1, "beginnen": 8, "##ams": 2, "Anordnung": 7, "bestimmen": 9, "##ordnen": 15, "erwarten": 14, "Antwort": 26, "Begr\u00fcndung": 1, "gerade": 31, "fallen": 12, "mir": 34, "schwer": 17, "Mehrwert": 2, "erkennen": 11, "sehr": 49, "anspruchs": 3, "##voll": 7, "ba": 2, "##na": 8, "##l": 52, "weil": 35, "Kuh": 6, "geben": 82, "damit": 50, "K\u00e4se": 2, "machen": 64, "unklar": 3, "Muster": 8, "##l\u00f6sung": 8, "aussehen": 4, "Stelle": 11, "sinnvoll": 13, "zusammen": 24, "Rational": 1, "##isierung": 7, "speziell": 2, "##ucht": 2, "##war": 1, "##m": 9, "G": 38, "##sch": 15, "##rop": 2, "##p": 10, "##\u00e4hler": 1, "##leiten": 2, "##teil": 9, "Dunkel": 1, "Kol": 0, "##ori": 1, "Fazit": 12, "insgesamt": 19, "gehen": 46, "richtig": 17, "Richtung": 6, "vorhanden": 7, "allerdings": 8, "kurz": 25, "wieso": 13, "fehlen": 26, "stark": 5, "##bindung": 0, "M\u00fcn": 0, "##dlich": 0, "ab": 31, "##zielen": 4, "alle": 39, "Fest": 6, "durch": 83, "paar": 4, "Austausch": 8, "##runde": 3, "locker": 4, "ausf\u00fchrlich": 10, "Diskussion": 10, "indem": 26, "Recherche": 4, "Beitrag": 5, "Rinder": 4, "##haltung": 4, "Klimawandel": 3, "usw": 34, "Pod": 3, "##iums": 3, "##disk": 7, "##ussion": 3, "zwischen": 17, "Bauer": 29, "Klima": 5, "##aktiv": 9, "##ist": 4, "Veg": 3, "##aner": 3, "gegeneinander": 4, "st\u00fctzen": 6, "nat\u00fcrlich": 22, "da": 40, "Potential": 7, "la": 5, "##tent": 3, "Gr\u00f6\u00dfe": 1, "am": 14, "Lager": 1, "gest": 1, "##ochen": 1, "Worte": 1, "mitgeteilt": 0, "energ": 2, "Kleiner": 3, "angeben": 1, "Mist": 1, "##vie": 1, "Or": 2, "##alit\u00e4t": 2, "ebenso": 9, "beim": 1, "Wick": 1, "kriegen": 2, "Paar": 1, "##menge": 1, "Wandel": 1, "strenge": 1, "Veget": 1, "##arier": 1, "lin": 5, "##gu": 14, "##istisch": 14, "##ielen": 1, "Anlage": 1, "ihr": 144, "Dreier": 2, "##gruppe": 21, "knapp": 10, "De": 8, "Fac": 7, "##to": 13, "drei": 20, "##aufgabe": 30, "w\u00fcnschen": 6, "##swert": 5, "haben": 186, "Planung": 17, "aufnehmen": 8, "##isieren": 17, "plus": 7, "weit": 49, "Person": 15, "mindestens": 4, "wirken": 8, "etwas": 54, "z": 10, "##\u00f6ger": 0, "trauen": 3, "ruhig": 3, "kre": 6, "##ativer": 4, "lebendig": 3, "solange": 4, "zentral": 13, "##bildungs": 10, "##prinzip": 4, "Inter": 5, "Ans": 14, "##cha": 17, "##uu": 11, "##ng": 24, "##sm": 13, "##aterial": 8, "Map": 30, "inspir": 4, "https": 10, "mo": 4, "##od": 26, "##le": 24, "##lab": 5, "hu": 4, "ber": 6, "##lin": 7, "de": 25, "mod": 12, "ur": 5, "view": 4, "ph": 5, "id": 6, "111": 4, "Gegenstand": 6, "begr\u00fc\u00dfen": 1, "Int": 6, "##ui": 10, "##tion": 14, "unent": 2, "##schlossen": 0, "verhei": 1, "##raten": 2, "Bewegung": 2, "Anregung": 4, "##blicken": 2, "St\u00e4rkung": 0, "gehabt": 1, "##arbeiten": 2, "Umsetzung": 0, "Se": 2, "##quenz": 8, "Entlastung": 1, "sowie": 12, "\u00c4nderung": 2, "Sozial": 0, "##form": 18, "viele": 6, "umsetzen": 9, "Station": 4, "##gf": 36, "Check": 6, "i": 10, "Warm": 4, "up": 6, "bevor": 6, "verteilen": 10, "drin": 5, "##glich": 1, "Schuld": 1, "##befrei": 1, "##z\u00fcglich": 1, "unter": 28, "Leute": 1, "dennoch": 9, "vollst\u00e4ndig": 1, "##bildung": 43, "##nu": 0, "##tz": 13, "##en": 85, "##kart": 8, "vorrangig": 2, "ohne": 35, "diese": 22, "abs": 4, "##ds": 0, "##los": 3, "unterst": 2, "##reichen": 2, "##durch": 4, "aufs": 2, "Neue": 0, "Formul": 4, "helfen": 18, "meist": 20, "wissen": 32, "ja": 15, "versprach": 6, "##g\u00e4ngig": 2, "all": 44, "Opera": 10, "##tor": 10, "schreiben": 10, "Definition": 12, "wenig": 6, "Ro": 0, "##ot": 0, "User": 2, "All": 2, "Unter": 11, "begr": 1, "##iff": 3, "Abgrenzung": 2, "el": 7, "##ement": 5, "##ar": 6, "starten": 3, "Karte": 7, "Funktion": 7, "zumindest": 9, "liefern": 2, "versammel": 0, "enthalten": 7, "##speicher": 7, "Bruch": 6, "eindeutig": 8, "gr\u00f6\u00dftenteils": 5, "allein": 4, "einige": 6, "Bananen": 2, "##oper": 2, "##ator": 4, "ihnen": 30, "einsch": 4, "##mu": 4, "##gge": 3, "##ln": 9, "\u00fcberhaupt": 10, "keinerlei": 2, "Aussage": 7, "##kraft": 46, "v": 21, "a": 25, "meinen": 19, "passieren": 10, "##zw": 26, "wenn": 109, "Vergleich": 13, "Ansicht": 1, "##skar": 1, "##gas": 2, "##mus": 5, "Spr": 3, "##\u00f6ss": 2, "##ling": 6, "##rei\u00dfen": 3, "##emit": 1, "##haft": 9, "sieben": 5, "ar": 0, "##ithm": 0, "##etische": 0, "okay": 4, "ap": 1, "##ost": 3, "##roph": 1, "Fall": 22, "dringend": 1, "analysieren": 16, "eigen": 39, "Sche": 7, "##ma": 15, "durchge": 2, "##hen": 3, "betrachten": 17, "L\u00f6sung": 24, "lauten": 4, "wiederum": 3, "H\u00fcr": 0, "mein": 58, "vermutlich": 7, "form": 10, "##ulieren": 21, "irgendwie": 3, "##sal": 4, "ander": 58, "Formulierung": 8, "##shi": 6, "##lf": 6, "unterst\u00fctzen": 2, "##\u00f6ren": 1, "vorschlagen": 3, "Vorstellung": 1, "Problem": 6, "##bes": 1, "##eitigung": 1, "vorher": 21, "##sehen": 3, "L\u00f6sungs": 4, "##ansa": 2, "weiteres": 2, "belief": 2, "##ern": 8, "mehr": 33, "weniger": 7, "Betreuung": 1, "multi": 3, "##faktor": 3, "##iell": 4, "\u00dcber": 24, "##legen": 15, "##reiben": 2, "erfolgen": 9, "Schrift": 8, "##sprache": 31, "not": 9, "sp\u00e4t": 7, "O": 18, "\u00c4": 4, "wozu": 2, "denn": 10, "sonst": 8, "daran": 10, "schlie\u00dfen": 2, "letzt": 10, "Punkt": 22, "wann": 8, "pass": 4, "##genau": 2, "##oss": 1, "Demonstration": 0, "hohe": 2, "bem\u00fc": 4, "##\u00dfig": 4, "Ki": 1, "##ste": 1, "R\u00fcck": 6, "##meldung": 5, "erkennbar": 2, "mittels": 8, "##ta": 4, "##rk": 7, "n\u00fctzlich": 2, "Sicht": 7, "schwach": 3, "unsicher": 6, "immer": 33, "gro\u00df": 15, "Herausforderung": 5, "##karte": 9, "bede": 2, "##nk": 6, "##termin": 4, "##ologie": 5, "Liebe": 10, "Kir": 14, "##sten": 14, "##idee": 2, "viel": 34, "leider": 9, "deutlich": 9, "Beschreibung": 11, "Vogel": 6, "erreichen": 2, "Schwier": 6, "##igkeit": 19, "Deutsch": 12, "hierf\u00fcr": 6, "kn": 2, "##lig": 21, "komplex": 8, "vorge": 13, "##ben": 13, "wegen": 3, "hoch": 8, "##an": 6, "##forderung": 8, "sondern": 38, "klein": 21, "arbeiten": 16, "Farbe": 2, "ohnehin": 2, "Farb": 2, "Bestandteil": 5, "minim": 2, "##al": 29, "Anzahl": 4, "Feder": 2, "n": 4, "Schnabel": 4, "Brust": 1, "Steck": 5, "##brief": 5, "wollen": 14, "spontan": 5, "falls": 1, "##stehen": 4, "hoffen": 4, "ber\u00fccksichtigen": 10, "ansonsten": 10, "'": 5, "s": 6, "kla": 4, "##ppen": 7, "Leidenschaft": 3, "Bud": 1, "r\u00fccken": 4, "Knie": 2, "##bei": 9, "##\u00dfer": 2, "Off": 0, "du": 10, "##fte": 1, "Geb\u00e4ude": 1, "##komplex": 3, "Mon": 1, "##ade": 1, "t\u00e4tig": 1, "sowieso": 1, "Element": 6, "Nu": 2, "##us": 10, "Mam": 1, "zug": 2, "##ange": 2, "einen": 6, "Besuch": 1, "##tat": 3, "##ten": 9, "vorausgesetzt": 1, "dass": 137, "Zun": 1, "##eigung": 1, "beher": 1, "##zigen": 1, "vorteil": 1, "vorne": 3, "##weg": 7, "kein": 57, "Entwurf": 2, "4": 56, "5": 42, "6": 6, "fr\u00fche": 2, "##stens": 2, "sowohl": 7, "Erwart": 2, "anbieten": 6, "vieler": 10, "eingest": 2, "##\u00e4ndig": 2, "anschauen": 1, "intensiv": 2, "zurecht": 2, "fassen": 8, "verf": 1, "##\u00e4nglich": 2, "Vorlage": 1, "vollkommen": 2, "au\u00dfen": 5, "##lassen": 4, "Wissens": 0, "##aufbau": 0, "woher": 2, "Info": 12, "Kopf": 3, "dort": 10, "bestehend": 1, "Wissen": 20, "vern": 2, "##etzen": 7, "exist": 1, "##ent": 6, "##gan": 2, "##listen": 4, "##sicherung": 2, "##besch": 0, "##affung": 0, "hei\u00dfen": 33, "Rest": 2, "angesprochen": 1, "liter": 4, "##arische": 4, "Werk": 6, "aufbauen": 5, "vergessen": 6, "##dr": 4, "inner": 10, "##vier": 4, "Verst\u00e4nd": 4, "##igung": 10, "fremde": 1, "Gruppe": 35, "Klassen": 10, "##stufe": 4, "Inhalt": 16, "##fassen": 9, "erz\u00e4hlen": 2, "neu": 28, "gezwungen": 3, "gr": 1, "##upp": 1, "anders": 3, "direkt": 5, "auffallen": 5, "Lesen": 4, "betre": 1, "##uen": 3, "Su": 0, "##jet": 0, "studieren": 2, "sonn": 2, "fa": 4, "##bri": 1, "##zier": 1, "stattfinden": 8, "Versp": 4, "##rach": 4, "Alltags": 8, "statt": 16, "Unterst\u00fctzung": 2, "Bildungs": 17, "Gef\u00fchl": 5, "Moment": 5, "##sens": 10, "##ib": 19, "veranstaltet": 1, "Volks": 4, "##mund": 1, "daher": 35, "mechan": 4, "leb": 2, "gl\u00fcck": 3, "zer": 4, "##spl": 1, "##ittern": 1, "##springen": 1, "abstra": 2, "##kt": 10, "Ah": 5, "##a": 8, "verbinden": 4, "Empfehlung": 4, "versuchen": 10, "rund": 5, "Ganze": 6, "Teils": 6, "##ritt": 6, "##binden": 2, "Test": 2, "heraus": 4, "##stellen": 9, "##orientierung": 2, "verste": 3, "##if": 6, "f\u00fchren": 20, "eben": 2, "Eindruck": 2, "au\u00dferdem": 4, "rau": 2, "##mg": 2, "##reifen": 2, "wir": 83, "gar": 14, "mal": 19, "fast": 5, "nichts": 6, "sagen": 15, "bleiben": 9, "dargestellt": 2, "Vorgehensweise": 0, "Hinsicht": 2, "allgemein": 10, "##uliert": 4, "Kooperation": 3, "##vern": 0, "##etzung": 0, "Beihilfe": 0, "Umgang": 5, "Handhabung": 0, "Reise": 2, "##plan": 9, "pla": 3, "##ibel": 2, "verb": 15, "##uchen": 8, "##sr": 7, "##unde": 1, "ungeh": 1, "##obel": 1, "##ter": 21, "Kerl": 1, "##gr": 1, "##\u00fc": 0, "##ppchen": 0, "Ent": 1, "##werfen": 1, "buchen": 1, "weitaus": 1, "soll": 2, "##nt": 8, "##asi": 3, "##eb": 1, "##ega": 1, "##bt": 1, "Erlebnis": 1, "sens": 1, "gesammelt": 0, "Bei": 0, "##stand": 3, "no": 3, "##etisch": 4, "lieben": 3, "##sw\u00fcrd": 1, "##iger": 1, "##weise": 21, "Ab": 9, "Drei": 2, "##eck": 3, "vorn": 10, "##oti": 2, "##eren": 12, "m\u00f6gen": 2, "spielen": 16, "##techn": 2, "bemerken": 5, "gemein": 2, "muss": 2, "ti": 4, "gew\u00e4hlt": 2, "zudem": 6, "Vie": 2, "##ee": 15, "grunds\u00e4tzlich": 3, "\u00fcberlegen": 17, "Einstieg": 9, "gestalten": 6, "Aktivit\u00e4t": 10, "inhaltlich": 2, "rot": 5, "bis": 10, "fortsetzen": 2, "h\u00e4ngen": 3, "los": 4, "Raum": 5, "##be": 6, "##zug": 10, "Fokus": 10, "welcher": 24, "Themenk": 3, "##omp": 2, "##lex": 4, "passen": 7, "danach": 4, "##reihe": 4, "ober": 4, "##fl\u00e4ch": 5, "punkt": 3, "##uell": 9, "betreffen": 5, "Weiteren": 1, "mitmachen": 1, "per": 3, "se": 5, "unver": 1, "##et": 7, "##motiv": 1, "kommun": 1, "herunter": 1, "##h\u00e4ngen": 3, "Region": 2, "hat": 1, "irgend": 2, "##jemand": 1, "jemand": 10, "Detail": 1, "##ech": 3, "##bar": 16, "Vis": 2, "##ualisierung": 2, "dazu": 46, "F\u00f6rderung": 1, "##\u00f6n": 4, "##nen": 9, "keine": 0, "Symbol": 3, "Arbeits": 14, "##auftrag": 2, "hinter": 4, "stif": 7, "Sprech": 3, "##bl": 2, "##ase": 2, "Einzel": 10, "w\u00e4hlen": 3, "Modus": 0, "bild": 6, "##licher": 1, "Job": 1, "##wenden": 1, "Geschichte": 3, "Merkmal": 24, "Jahreszeit": 11, "themat": 10, "unbedingt": 8, "##auf": 8, "##nehmen": 6, "Beispiel": 25, "suchen": 5, "##ziehen": 7, "legitim": 2, "##ierbar": 2, "langen": 1, "kurzer": 2, "Sinn": 13, "zwingend": 2, "h\u00f6chste": 1, "Ma\u00dfe": 1, "ta": 1, "##uschen": 1, "aktiviert": 2, "##lichen": 4, "Sache": 7, "eint": 2, "##auschen": 1, "Mission": 2, "getrennt": 1, "Kapit": 4, "##ulation": 4, "Nachwuchs": 2, "experimente": 2, "##ll": 4, "Erf": 1, "##ors": 3, "##chen": 7, "##helfen": 7, "Taschen": 2, "##lam": 2, "##pe": 4, "Licht": 4, "##quelle": 2, "Glob": 2, "Ball": 2, "erg": 2, "##r\u00fc": 2, "##nde": 2, "Information": 1, "Videos": 4, "Tafel": 10, "Nachrichten": 2, "##gehalt": 1, "versch": 8, "##anzen": 1, "##ungs": 14, "##hor": 2, "##izont": 2, "erg\u00e4nzen": 2, "sicherer": 2, "Quelle": 8, "##k\u00f6mm": 1, "hinzu": 9, "##rech": 2, "Verfolg": 1, "umf": 3, "##orm": 11, "abgetr": 1, "##ennt": 1, "best": 2, "Brief": 1, "Handhab": 1, "Kontext": 7, "zwei": 7, "Buch": 8, "##seite": 4, "wobei": 8, "Vorbereitung": 2, "Lieblings": 4, "##jahres": 2, "##zeit": 18, "##x": 10, "Sitz": 2, "##kreis": 6, "d\u00fcrfen": 8, "Anfang": 5, "Ursache": 6, "Bel": 1, "##ang": 0, "beide": 12, "Universum": 2, "##fahr": 1, "Graph": 1, "##ik": 19, "Saison": 1, "lau": 4, "##schen": 4, "Hintergrund": 2, "Kleinen": 2, "zukommen": 2, "Umlauf": 2, "Kreis": 3, "je": 4, "nachdem": 1, "m\u00f6glichst": 11, "vis": 6, "Syn": 2, "##onym": 2, "Erkl\u00e4r": 2, "experimen": 1, "S": 43, "8": 10, "Seite": 98, "durchs": 5, "##chi": 9, "##mmer": 2, "offenbar": 2, "Experiment": 3, "##ein": 2, "##att": 1, "testen": 1, "Honig": 2, "sau": 11, "##gen": 19, "Band": 1, "aust": 2, "##est": 1, "Fla": 2, "sei": 3, "Studie": 5, "Experten": 6, "b": 15, "Frage": 56, "verschieden": 31, "Zeit": 16, "anderer": 19, "Suche": 2, "ideal": 7, "sprechen": 17, "Bilder": 2, "##folg": 2, "ggf": 2, "\u00dcbertragung": 2, "Heft": 4, "Abschluss": 2, "Reflex": 2, "geteilt": 1, "abgeben": 1, "Gro\u00df": 1, "##unternehmen": 3, "kosten": 1, "Zugangs": 1, "Ret": 1, "##rie": 1, "##val": 1, "Maxim": 1, "st": 4, "##utz": 0, "min": 1, "##i": 11, "##ars": 3, "##itzung": 2, "unbe": 3, "##deuten": 1, "##samm": 2, "di": 1, "##da": 7, "##ktisch": 5, "T": 2, "unten": 5, "anf": 5, "##\u00fcgen": 2, "Kommentar": 6, "ignor": 1, "En": 5, "Klarheit": 2, "dar\u00fcber": 9, "insbesondere": 20, "M\u00f6glichkeit": 14, "Wasser": 4, "##lauf": 5, "verd": 4, "##unsten": 2, "flie\u00dfen": 2, "tats\u00e4chlich": 8, "Denken": 1, "seit": 2, "Monat": 2, "lernen": 8, "##qu": 2, "##ick": 12, "interessieren": 1, "##san": 4, "##gebot": 0, "gebracht": 0, "blu": 1, "##ts": 8, "##verw": 9, "##andt": 5, "Per": 3, "##ip": 3, "##hra": 1, "##se": 5, "sk": 10, "##izz": 10, "sch\u00e4tzen": 2, "ger": 3, "##man": 3, "erl": 3, "##ernen": 2, "Kritik": 4, "zwar": 10, "##fertigt": 2, "##mat": 4, "Stichwort": 7, "F\u00fcll": 2, "leisten": 10, "entsprechend": 2, "defen": 3, "##siv": 4, "Motivation": 2, "verlassen": 3, "einmal": 14, "beantworten": 6, "recht": 10, "##lastung": 5, "Gruppen": 6, "##dehn": 2, "ents": 1, "##leun": 1, "##igen": 8, "ent": 7, "##lasten": 5, "Besten": 3, "##stoff": 2, "gerne": 4, "verteidigen": 1, "tro": 1, "##st": 5, "##gangs": 1, "Segen": 1, "##eit": 3, "verlang": 1, "##samen": 1, "ansprechen": 5, "Planungs": 8, "hinein": 2, "##schauen": 1, "achten": 7, "einsetzen": 5, "jewei": 18, "Ern\u00e4hrung": 3, "Ding": 5, "Lebe": 6, "##wesen": 7, "Mensch": 14, "essen": 4, "Frucht": 2, "Inse": 1, "Maus": 1, "Fisch": 1, "Blatt": 6, "Katalog": 2, "Kategorie": 12, "Lebensraum": 2, "Ort": 4, "leben": 3, "Ern\u00e4hrungs": 1, "Gesch": 1, "##\u00f6pf": 1, "Ess": 6, "##sachen": 1, "Hex": 1, "##apo": 1, "Liebes": 1, "##per": 2, "Zwie": 1, "##fisch": 1, "Bir": 1, "##ne": 6, "wesentlich": 7, "Anlass": 2, "Kn": 1, "##ir": 1, "##ps": 2, "tier": 2, "##isches": 2, "Vorhaben": 2, "ans": 8, "jedoch": 14, "ausb": 4, "##\u00e4h": 2, "##wie": 2, "##fern": 2, "urspr\u00fcnglich": 4, "jetz": 4, "k": 2, "##ind": 0, "##gerecht": 0, "motiv": 0, "##ierend": 12, "br\u00fc": 2, "##g": 25, "Komp": 4, "##osit": 0, "Lehr": 68, "##werk": 18, "sch\u00f6n": 5, "\u00dcbung": 5, "No": 4, "##me": 3, "bilden": 4, "Wald": 6, "Am": 2, "##eise": 4, "##ame": 2, "##ise": 2, "fro": 5, "##iv": 12, "##aw": 2, "##isse": 2, "unbeg": 0, "##reif": 0, "##por": 0, "versorgen": 4, "Tut": 1, "##oria": 1, "G\u00f6r": 1, "bedenken": 2, "funktionieren": 3, "##pers": 2, "##pekt": 3, "##ive": 2, "##sichtlich": 0, "mus": 3, "##g\u00fcltig": 2, "Blick": 9, "gelingen": 13, "Darstellung": 8, "Vorgehen": 2, "abl": 11, "##aufen": 4, "ben": 10, "##ennen": 12, "angemessen": 6, "rechnen": 1, "##ier": 5, "soweit": 1, "doppelt": 1, "gr\u00fcn": 1, "w\u00e4hrend": 12, "##werkstatt": 2, "Grund": 17, "##voraus": 2, "##setzung": 2, "mater": 2, "##ial": 3, "##side": 0, "Doppel": 3, "un": 11, "##ichtung": 1, "##heben": 1, "wach": 1, "##sam": 2, "##\u00f6s": 4, "\u2192": 2, "##igungs": 3, "##stunde": 7, "entstehen": 7, "Zahlen": 6, "##geschichte": 2, "h": 4, "##\u00e4n": 1, "##seln": 2, "Leb": 2, "##kuchen": 2, "Gre": 2, "##tel": 2, "25": 6, "Gleich": 5, "aufstellen": 2, "7": 12, "An": 5, "##erb": 2, "##ieten": 0, "relativ": 1, "Kor": 3, "##re": 7, "Westen": 1, "##tasche": 1, "##nf": 1, "Rechnung": 1, "stabil": 1, "Bedeutung": 13, "Achtung": 4, "Peer": 8, "##feed": 4, "entfallen": 2, "dir": 4, "heute": 7, "unser": 30, "\u00dcbungs": 8, "Woche": 1, "schlecht": 7, "genauso": 4, "leicht": 4, "##dauer": 1, "hy": 1, "hand": 4, "##bares": 1, "Gut": 4, "weise": 1, "Voraus": 1, "##sicht": 1, "handeln": 5, "aktuelle": 1, "Lage": 3, "Dinge": 2, "gl\u00fccklich": 1, "Tage": 1, "sach": 1, "##dien": 2, "au\u00dfergew\u00f6hnlich": 1, "geschenkt": 1, "hervorragend": 2, "getr": 2, "##fektion": 2, "##ism": 24, "##u": 35, "Fin": 4, "wertvoll": 2, "besonders": 13, "f\u00e4l": 1, "##len": 3, "string": 0, "them": 2, "##bedingt": 2, "reduzieren": 4, "mathemat": 3, "weiterhin": 4, "##rift": 6, "Besch": 4, "Reis": 2, "##haufen": 2, "perfekt": 3, "s\u00e4m": 0, "##tlich": 2, "aussch": 2, "##\u00f6pfen": 0, "Zeichnung": 0, "le": 5, "##hr": 1, "Schlacht": 0, "##gei": 1, "Werks": 0, "##ff": 8, "vom": 2, "Stan": 1, "##ger": 1, "Adam": 1, "Ries": 1, "abweichen": 7, "krei": 2, "mitten": 3, "Wanderung": 1, "##zimmer": 2, "Weg": 18, "sammeln": 9, "Erfahrung": 5, "Plan": 9, "halten": 3, "##stu": 2, "Re": 10, "Orts": 4, "Legende": 1, "z\u00e4hlen": 6, "strukturiert": 0, "fein": 1, "Abstra": 2, "##ktions": 2, "##verm\u00f6gen": 3, "##beschreibung": 8, "Ausflug": 2, "drau\u00dfen": 3, "schlie\u00dflich": 15, "Audio": 2, "##aufnahme": 2, "##\u00fcndig": 2, "##einheit": 11, "##alt": 2, "Schuls": 4, "##tu": 14, "mancher": 1, "##orts": 1, "Migration": 1, "Team": 5, "##sinn": 1, "Kenntnis": 1, "entz": 1, "##iffer": 1, "authen": 1, "##tisch": 2, "N\u00f6": 1, "sch\u00f6ne": 1, "##fach": 6, "##handlung": 4, "fragen": 3, "Entschuldigung": 2, "links": 1, "rechts": 2, "##biegen": 2, "##as": 2, "Himmels": 2, "##richtung": 2, "n\u00f6rdlich": 2, "\u00f6stlich": 2, "Kos": 1, "##mos": 1, "Verfahrens": 1, "##izieren": 5, "vielf\u00e4ltig": 5, "##format": 5, "##iver": 2, "Akt": 2, "R\u00fcckseite": 1, "feststellen": 4, "fest": 9, "u": 6, "##kon": 1, "##kret": 0, "ste": 1, "g\u00e4ng": 4, "Schritt": 8, "##pro": 12, "##ze\u00df": 12, "vier": 17, "Ablauf": 0, "##arbeitung": 4, "erf\u00fcllen": 3, "Kriterium": 4, "Kreativit\u00e4t": 0, "Bereich": 19, "angehen": 6, "hau": 0, "##\u00fcnn": 0, "tun": 21, "willkommen": 1, "zufrieden": 5, "Ideal": 2, "##erweise": 2, "Impuls": 5, "Klein": 6, "bearbeiten": 1, "anschlie\u00dfend": 5, "ord": 4, "Herz": 2, "erfassen": 8, "##kod": 4, "zusammengefasst": 2, "hinsichtlich": 2, "kooper": 4, "Schull": 1, "##ehrer": 1, "bel": 1, "##atsch": 3, "##bekommen": 3, "k\u00fcmmer": 1, "erweitern": 7, "ewig": 1, "ni": 3, "##schi": 1, "schrift": 1, "##steller": 1, "leist": 1, "uner": 1, "##for": 1, "##scht": 1, "##\u00f6sen": 1, "gegebenenfalls": 1, "komplett": 2, "##seit": 2, "echt": 2, "Materie": 2, "fort": 2, "Bla": 3, "##ge": 5, "grob": 3, "Aufbau": 0, "traurig": 4, "##heitlich": 2, "##fahrung": 6, "Ha": 2, "##pt": 4, "bas": 4, "##teln": 4, "pr\u00e4zise": 1, "##k\u00e4": 4, "##rt": 4, "##blatt": 7, "sympath": 1, "kl": 1, "##otz": 1, "Nachdruck": 1, "Pech": 1, "##che": 5, "erwe": 2, "##cken": 8, "Block": 13, "Prinzip": 8, "Arbeitsweise": 1, "vol": 1, "##ens": 5, "erwerben": 11, "Ritter": 32, "##schlag": 8, "Herr": 4, "Page": 3, "##sf": 11, "Lan": 4, "##ze": 5, "Schild": 4, "Mittelalter": 7, "kennenlernen": 10, "beob": 1, "##acht": 1, "men": 4, "##tal": 4, "Was": 12, "Verhaltens": 6, "verwenden": 12, "H\u00f6": 1, "##flich": 1, "Zeichen": 4, "MA": 1, "ex": 1, "##tend": 1, "bew": 9, "##eis": 5, "einer": 16, "Namen": 3, "Anwendung": 1, "spezif": 7, "Koll": 4, "##oka": 3, "erhalten": 11, "\u201d": 8, "Land": 2, "besitzen": 7, "christ": 2, "Glauben": 1, "erz": 4, "##ieh": 4, "hm": 2, "gew": 0, "##i\u00df": 0, "##sie": 5, "##rung": 3, "##gehen": 11, "merken": 9, "kombin": 2, "Funktions": 6, "##verb": 4, "##gef\u00fc": 4, "Work": 2, "##sh": 4, "Live": 2, "##work": 2, "com": 2, "##kind": 2, "em": 2, "##sig": 1, "Standard": 3, "##ulierung": 1, "##m\u00e4dchen": 1, "##weisen": 1, "wohnen": 1, "f": 6, "##irm": 2, "Ade": 2, "Da": 3, "kinder": 2, "Pr\u00e4": 4, "##itu": 5, "##ms": 2, "Pr\u00e4sen": 2, "##\u00fcbung": 0, "dies": 37, "Gramm": 2, "##atik": 5, "liegen": 11, "##tik": 3, "mg": 4, "Aktiv": 2, "f\u00f6rdern": 10, "einsam": 2, "##mel": 7, "Kammer": 1, "Sp": 6, "##ie\u00df": 2, "Wild": 1, "##ill": 2, "##rieren": 1, "Sach": 9, "##buch": 15, "Kita": 3, "Jahrgang": 3, "##sst": 6, "##ufe": 4, "niedrig": 1, "erm\u00f6glichen": 10, "darauf": 10, "gr\u00fcndlich": 2, "schl": 5, "##aue": 2, "Motiv": 1, "##ha": 1, "##nach": 5, "Pres": 1, "##tige": 1, "zuerst": 2, "Rollen": 10, "##spiel": 14, "Lebensweise": 4, "Stand": 6, "Verk": 2, "##leidung": 1, "schl\u00fc": 2, "##pfen": 2, "Lebens": 10, "##ums": 2, "##gruppen": 3, "ausf\u00fchren": 2, "Rahmen": 2, "Qu": 2, "##phase": 10, "Niveau": 4, "ad": 4, "##\u00e4qu": 2, "dienen": 9, "gefallen": 2, "sichern": 0, "Zusammenfassung": 8, "\u00fcbers": 4, "einbringen": 3, "##laufen": 2, "wahrscheinlich": 8, "Vorschlag": 5, "Figur": 9, "##sagen": 4, "verhalten": 2, "ausgest": 2, "##alten": 2, "Dialog": 2, "euer": 4, "Sam": 1, "##ura": 1, "##arat": 1, "Verm": 1, "##umm": 1, "origin": 1, "##ell": 20, "##tention": 1, "The": 5, "##sau": 3, "##rus": 1, "nutz": 1, "##bringen": 8, "ann": 1, "##ehm": 1, "##quir": 0, "##zusammen": 3, "##fassung": 1, "entwickeln": 5, "verm": 1, "##erken": 1, "Meister": 4, "erw": 1, "##irts": 1, "##ften": 1, "rat": 1, "##ional": 1, "geometr": 1, "niemand": 1, "kann": 1, "ihm": 3, "F\u00fchrung": 1, "strei": 1, "##tig": 4, "Protokoll": 3, "Gestalt": 1, "Smart": 4, "##board": 4, "darstellen": 14, "typisch": 9, "Ausr\u00fcstung": 2, "##steil": 2, "Pferd": 2, "Schwert": 2, "hac": 1, "Schwein": 2, "Getreide": 1, "vergleichen": 8, "Variante": 2, "Platz": 5, "Tabl": 2, "klass": 6, "##min": 3, "##nis": 2, "Sar": 1, "##issa": 1, "##\u00e4ck": 1, "Korn": 1, "##setzen": 10, "Termin": 2, "Que": 1, "Speise": 1, "##zettel": 5, "offen": 7, "Absatz": 3, "ac": 0, "legen": 4, "somit": 15, "##wu": 2, "rein": 7, "\u00dcberblick": 1, "##rechen": 1, "mon": 1, "##adi": 1, "Syl": 1, "ernst": 1, "##weisung": 11, "##up": 2, "##id": 3, "##ollen": 2, "recher": 4, "##muster": 17, "Bauern": 2, "mehrere": 10, "Auswahl": 5, "\u00e4": 2, "analog": 2, "sitzen": 2, "Gem": 1, "sagst": 1, "belegt": 2, "Diskriminierung": 7, "Nichts": 1, "Genau": 1, "wei\u00df": 1, "schn": 2, "##allen": 1, "Port": 1, "##ra": 1, "##it": 3, "##f\u00fchrung": 6, "erste": 1, "Garde": 2, "Schluss": 2, "##folger": 3, "Edel": 1, "Krieger": 2, "ange": 3, "##go": 1, "\u00e4hnlich": 2, "Tabelle": 5, "fertig": 2, "##f\u00fcllen": 4, "jederzeit": 2, "holen": 1, "Landwirt": 1, "Gang": 2, "beiden": 1, "Flo": 1, "##hma": 1, "##verg": 2, "##angen": 3, "ass": 1, "##erv": 1, "gre": 1, "Lem": 1, "abstimmen": 1, "Fl\u00fcgel": 2, "Rott": 1, "Erfolg": 2, "wieder": 19, "Alters": 2, "##pla": 4, "erledigen": 1, "hilfreich": 4, "vornehmlich": 1, "##dies": 1, "Hin": 2, "##enken": 4, "Mega": 2, "##poten": 2, "##tial": 2, "reden": 3, "##denken": 2, "wor": 8, "##h\u00f6ren": 5, "gen\u00fcgend": 2, "##f\u00e4higkeit": 2, "verlieren": 1, "diagnost": 0, "n\u00e4mlich": 2, "##frage": 6, "Reihe": 2, "##\u00fcchtern": 2, "Kollege": 1, "bezahlen": 1, "##eli": 2, "##au": 1, "Gespr\u00e4ch": 4, "##anteil": 4, "L": 3, "antworten": 4, "mi": 2, "##\u00df": 2, "##brauch": 2, "Reiz": 2, "##geber": 2, "antwor": 2, "erlauben": 6, "Interview": 9, "Fernsehen": 2, "##regen": 7, "Vortrag": 3, "weiter": 12, "##tragen": 3, "ind": 2, "##uk": 13, "##tiv": 6, "Verstand": 2, "Praxis": 11, "Modell": 22, "Niederlage": 1, "erfahren": 6, "Einsicht": 2, "prim\u00e4r": 1, "##folge": 1, "Ohren": 1, "Unbekannte": 1, "Get": 3, "##reuer": 4, "raus": 1, "##pfe": 5, "bl": 1, "##itz": 3, "##gesch": 1, "vers": 1, "Anh\u00e4nger": 2, "J\u00fcnger": 4, "Pla": 2, "##zet": 2, "Tisch": 3, "pro": 6, "darin": 7, "vermuten": 3, "10": 8, "Min": 16, "Zeitungs": 1, "##artikel": 1, "Aussch": 4, "##nitt": 2, "100": 4, "%": 4, "I": 4, "Mur": 4, "##f\u00e4llig": 7, "bestehen": 11, "Leit": 4, "Befra": 2, "##gte": 2, "befragt": 2, "K\u00e4r": 2, "##tchen": 2, "Chance": 2, "ausmachen": 4, "erster": 2, "##strahlen": 1, "[": 39, "Fernseh": 1, "Radio": 3, "##sendung": 1, "]": 35, "Kleine": 1, "Erhebung": 3, "ak": 3, "##kum": 1, "M\u00fche": 1, "verbunden": 2, "##oma": 1, "##lie": 2, "Un": 4, "##regel": 1, "##m\u00e4\u00dfigkeit": 1, "##ringen": 1, "##arbeitungs": 2, "##m\u00f6glichkeit": 2, "\u00fcben": 9, "##satz": 12, "##lesen": 6, "runter": 2, "##bet": 3, "bereit": 3, "zus\u00e4tzliche": 2, "wechsel": 1, "##seitig": 1, "beeinflussen": 1, "dasselbe": 1, "weshalb": 5, "Samen": 1, "##erg": 2, "##uss": 4, "Du": 2, "##\u00f6": 2, "##gl": 7, "##ing": 30, "##ragen": 3, "##kur": 3, "##beln": 2, "schaffen": 1, "eins": 2, "##bereit": 1, "wider": 6, "##spiegel": 2, "##and": 2, "Seminar": 2, "##uns": 4, "bauen": 3, "##leistung": 2, "akzeptieren": 1, "umfangreich": 1, "Gedanke": 7, "##splan": 2, "Schilder": 2, "wonach": 1, "gegen": 14, "\u00fcberliefert": 1, "##ad": 2, "Einver": 1, "##st\u00e4nd": 1, "blicken": 1, "worauf": 3, "Ber\u00fchrung": 0, "##ie": 10, "Haupt": 5, "##rede": 0, "Denk": 7, "Holz": 4, "##stern": 4, "Mathematik": 4, "Anf": 7, "##order": 8, "Forum": 2, "benutzen": 1, "##hren": 3, "gr\u00fc": 1, "Befehl": 0, "bestimmt": 32, "Nur": 2, "Mo": 22, "f\u00fc": 4, "For": 2, "##beitrag": 4, "festgestellt": 2, "gelangen": 2, "##f\u00fchr": 1, "Urs": 0, "24": 28, "Kommunikation": 0, "Verh\u00e4ltnis": 3, "sp": 1, "##ucken": 1, "##alisieren": 0, "veranl": 3, "##asst": 3, "nachdenken": 4, "Ausdruck": 8, "Wissenschafts": 0, "##disziplin": 2, "Rechn": 0, "kommunizieren": 3, "Rechen": 0, "##ae": 0, "schi": 3, "spann": 0, "Best": 1, "##\u00fcr": 0, "##zung": 1, "geraten": 0, "hin": 3, "uns": 18, "sorgen": 4, "\u00dcbersch": 2, "##u\u00df": 2, "problematisch": 7, "##liste": 6, "##arbeits": 0, "Kommun": 0, "ra": 2, "##ffen": 0, "ausgeben": 0, "Summe": 5, "Tee": 2, "##licht": 2, "Ausgabe": 2, "Brett": 1, "add": 1, "verf\u00fcgbar": 11, "##leute": 2, "gebrauchen": 0, "##archen": 1, "zuge": 3, "neb": 1, "Verf\u00fcg": 0, "##mach": 4, "untersch": 1, "##\u00e4tzen": 7, "Bau": 2, "##element": 1, "professionell": 4, "Abschnitt": 4, "##ieb": 1, "Glo": 2, "##ssa": 2, "##pr\u00e4": 2, "##gung": 1, "darum": 11, "H\u00e4lfte": 2, "verbringen": 2, "\u00c4u\u00dfer": 8, "Kommunikations": 2, "aller": 3, "##utlich": 3, "F\u00e4higkeit": 8, "ausw\u00e4hlen": 1, "alter": 2, "##sg": 8, "##erecht": 2, "Kurs": 2, "praktisch": 4, "m\u00f6chten": 12, "sele": 1, "##ktieren": 11, "beitragen": 2, "Erwerb": 1, "Jahr": 2, "Angebot": 1, "##schul": 6, "##bereich": 8, "stetig": 3, "steigen": 3, "scheinen": 2, "nei": 1, "Aufschwung": 1, "Erforschung": 1, "schul": 8, "Alltag": 7, "angesichts": 2, "hor": 3, "##ren": 7, "##kos": 2, "explod": 2, "frei": 4, "verk": 1, "##\u00e4uf": 1, "Internet": 2, "detaill": 0, "fund": 2, "notwendig": 1, "Klaus": 3, "##ur": 7, "##tro": 1, "##tt": 4, "R\u00fccksicht": 1, "ausgeschrieben": 1, "Ins": 1, "geboten": 1, "beschrieben": 2, "##l\u00e4nge": 2, "Problems": 1, "##tell": 1, "##veranstaltung": 2, "pra": 4, "##xis": 2, "##orientiert": 2, "Verkn\u00fc": 1, "##pfung": 1, "Kon": 3, "##not": 1, "9": 4, "##si": 10, "diskrimin": 6, "##krit": 3, "Diver": 10, "Klicken": 2, "herunterladen": 2, "##oo": 2, "##men": 8, "Zusammenhang": 10, "Mehr": 3, "Ungleich": 3, "##behandlung": 9, "Tun": 1, "Lassen": 1, "##fa": 1, "##ire": 1, "Behandlung": 1, "11": 12, "Komponente": 2, "beding": 1, "Bezug": 6, "National": 2, "Repertoire": 3, "##welt": 4, "Familie": 2, "Medium": 3, "bedienen": 4, "##wechslung": 1, "Bestimmung": 2, "Gewohn": 2, "##heit": 19, "Br\u00fccke": 2, "##ref": 6, "##ktiert": 4, "ster": 2, "##eo": 6, "##typ": 11, "##geleitet": 2, "Handeln": 12, "##ystem": 2, "sozial": 15, "Herkunft": 6, "nachweisen": 2, "Beh": 1, "##err": 0, "akadem": 2, "Haushalt": 2, "##system": 4, "erfolglos": 2, "med": 1, "\u00dcberzeugung": 1, "auseinander": 8, "Selbst": 9, "verbreitete": 0, "##miss": 1, "##verst\u00e4ndlich": 4, "Rassismus": 10, "Rassen": 2, "##rimin": 4, "##bezogen": 1, "institution": 2, "##literatur": 3, "h\u00e4ufig": 15, "tief": 3, "systematisch": 12, "rass": 6, "Struktur": 14, "ansehen": 4, "wissenschaft": 6, "Literatur": 1, "Tagesordnung": 1, "ged": 3, "##anken": 1, "sor": 1, "##tiert": 5, "heu": 2, "Jahrzehnt": 1, "##ideo": 5, "##log": 0, "\u00fcbertrieben": 1, "risk": 1, "zehn": 1, "Jahre": 2, "zahl": 4, "##reich": 4, "welchem": 3, "benachteil": 0, "##konstruktion": 4, "Vielzahl": 3, "##dimension": 5, "Individ": 6, "##uum": 6, "Identit\u00e4t": 15, "pr\u00e4gen": 5, "aufgrund": 32, "##sse": 8, "Ag": 8, "unters": 3, "##agen": 5, "straf": 3, "##rechtlich": 3, "verfolgen": 6, "Rasse": 4, "Ethn": 4, "Geschlecht": 3, "Religion": 3, "Welt": 7, "##ans": 8, "Alter": 4, "Behinderung": 3, "sexuell": 4, "##ese": 8, "Berlin": 15, "Gesetz": 4, "Ausgrenzung": 2, "konvention": 3, "Menge": 1, "\u00fcberall": 1, "Ke": 1, "##gel": 1, "religi\u00f6se": 1, "Hemm": 1, "##leich": 3, "Stein": 2, "Anst": 2, "##o\u00df": 4, "Des": 3, "##integr": 1, "gesellschaft": 4, "Geburt": 1, "Ph\u00e4nomen": 20, "Ben": 5, "##achteil": 5, "12": 4, "ergeben": 3, "##rel": 2, "##ev": 2, "##ant": 6, "##eg": 1, "##orie": 0, "gezielt": 3, "\u2014": 4, "Tu": 3, "Dresden": 2, "tu": 2, "dre": 2, "##sd": 2, "d": 7, "Schule": 8, "hinaus": 9, "Dimension": 26, "folglich": 5, "TH": 1, "El": 1, "##bf": 1, "##lor": 1, "##enz": 1, "Florenz": 1, "Elbe": 1, "##institution": 1, "frische": 1, "Luft": 1, "leid": 1, "Brand": 8, "Hab": 2, "Beg": 2, "##abu": 2, "Leistungs": 4, "bedeut": 2, "He": 2, "##ogen": 2, "##it\u00e4ts": 2, "##merkmale": 2, "2017": 4, "20": 10, "beachten": 0, "Leben": 5, "13": 10, "Lehre": 2, "Position": 6, "##ner": 12, "##linie": 2, "Wechsel": 1, "##beziehung": 1, "##ungsvoll": 1, "Lehrer": 6, "ho": 2, "Methodik": 4, "zumeist": 4, "setzen": 5, "oftmals": 9, "verg": 4, "##egen": 6, "##w\u00e4rtig": 4, "inwieweit": 3, "##real": 6, "##it\u00e4t": 13, "Mit": 4, "weiterer": 6, "korre": 1, "##ond": 1, "Ausma\u00df": 1, "Folge": 3, "lern": 4, "verh\u00e4lt": 0, "ausreichend": 1, "refle": 10, "schlimm": 2, "sogar": 5, "Nad": 4, "##ny": 2, "Stefan": 2, "2021": 8, "##sek": 8, "##tional": 10, "politisch": 4, "gekl\u00e4rt": 1, "15": 8, "ersch": 2, "##weren": 2, "##kommen": 2, "stets": 5, "Kombination": 2, "auftreten": 1, "##r\u00e4nkt": 0, "geschehen": 4, "separ": 7, "anzutreffen": 1, "bedingt": 0, "##komm": 0, "Online": 2, "H": 8, "##ttp": 1, "www": 4, "ro": 2, "##ux": 2, "publ": 2, "##ikation": 3, "375": 2, "##78": 2, "##ita": 2, "zuletzt": 2, "pr\u00fcfen": 2, "01": 2, "07": 2, "Besch\u00e4ftigung": 2, "gelten": 11, "P\u00e4dagog": 14, "besch\u00e4ftigen": 9, "Zugeh\u00f6rigkeit": 4, "Hauptstadt": 1, "Deutschland": 1, "##T": 1, "##TP": 1, "Multi": 1, "##ualis": 1, "weder": 1, "m\u00e4nn": 3, "weib": 3, "Bestand": 1, "g\u00fcltig": 2, "Erziehungs": 2, "##wissenschaft": 5, "gebr\u00e4uch": 3, "Vereinigung": 1, "Spannungs": 0, "##verh\u00e4ltnis": 0, "individuell": 2, "Faktor": 0, "Herrschafts": 0, "##ef": 0, "##fekt": 0, "Mart": 2, "Busch": 2, "\u00ab": 10, "Sub": 3, "##jekt": 2, "\u00bb": 10, "Pers\u00f6nlichkeit": 4, "##sent": 4, "##wicklung": 4, "ums": 1, "##lie\u00dfen": 2, "##\u00e4lt": 0, "Dete": 0, "##rm": 0, "##ina": 2, "##nte": 0, "Er": 6, "##achten": 4, "Kompetenz": 6, "Komplexit\u00e4t": 4, "Viel": 4, "##schicht": 5, "dessen": 2, "integrieren": 3, "Anlehnung": 4, "Andreas": 2, "Fo": 2, "vielmehr": 2, "eleg": 2, "scheiter": 2, "14": 6, "Handlungs": 8, "trotz": 2, "##icherheit": 2, "p\u00e4dagog": 9, "F\u00e4l": 1, "##keits": 2, "##tag": 2, "Weise": 6, "f\u00f6rder": 8, "Angst": 8, "mei": 3, "##den": 3, "Deb": 4, "Katharina": 4, "Stu": 4, "##ve": 4, "Olaf": 4, "Scheitern": 3, "##eri": 5, "##\u00e4s": 1, "##euen": 1, "Neut": 4, "##ral": 6, "Gesicht": 1, "bekommen": 4, "##anst": 3, "Wert": 2, "##freiheit": 6, "Grundsatz": 2, "##verst\u00e4ndnis": 3, "metho": 3, "##dis": 3, "Dog": 3, "dauerhaft": 1, "aufta": 2, "##heits": 2, "priv": 1, "##ileg": 1, "\u2013": 38, "Kosten": 2, "gesteckt": 2, "Regel": 7, "##sprechen": 2, "##rungen": 1, "Papier": 7, "chron": 2, "##rechten": 1, "##statten": 3, "##kosten": 1, "##zen": 4, "zun\u00e4chst": 7, "Wider": 0, "position": 1, "##here": 8, "Verhalten": 3, "irgendeiner": 1, "##ag": 1, "18": 10, "23": 4, "beziehen": 13, "Privileg": 5, "##ussen": 6, "##ierte": 2, "luxuri": 1, "Situation": 9, "Reduzierung": 2, "Ster": 4, "Gewalt": 2, "Marg": 2, "##li": 2, "##rte": 2, "lustig": 2, "f\u00fchlen": 5, "fung": 1, "Ca": 16, "##usa": 6, "##tre": 6, "##wendung": 1, "Ice": 2, "##rd": 2, "1966": 2, "Haut": 3, "##farbe": 4, "Abstammung": 2, "national": 4, "Ursprung": 2, "##tum": 3, "beruhen": 2, "##lie\u00df": 2, "Beschr\u00e4nkung": 2, "Bevor": 2, "dadurch": 4, "##berechtigt": 2, "##erkennen": 2, "Genie\u00dfen": 1, "aus\u00fcben": 2, "Menschen": 3, "##recht": 2, "wirtschaftlich": 2, "kultur": 2, "\u00f6ffentlich": 2, "ver": 2, "##eite": 2, "beeintr\u00e4chtigen": 4, "Fleisch": 1, "Kategor": 2, "entlang": 2, "sog": 2, "aufrechter": 1, "sub": 2, "##jektiv": 3, "verh": 4, "##\u00e4rten": 2, "bre": 1, "##zlich": 1, "volle": 1, "festhalten": 2, "impl": 5, "##rasse": 0, "halt": 4, "dem": 4, "##gegen\u00fcber": 1, "verpassen": 1, "unbekannte": 1, "F\u00e4lle": 1, "##zien": 1, "##tif": 1, "klug": 1, "##ew": 1, "##erk": 3, "Susan": 2, "Arn": 2, "##dt": 2, "##ja": 2, "Of": 2, "##ua": 2, "##y": 6, "al": 2, "##azar": 2, "17": 4, "definieren": 4, "##cis": 2, "Pre": 2, "##ju": 2, "##di": 10, "##ce": 4, "Power": 2, "Rass": 0, "##ismen": 0, "##stuf": 6, "Bewertung": 4, "Macht": 6, "##end": 1, "##ium": 7, "##ismus": 0, "geh\u00f6ren": 5, "##willig": 2, "Besitz": 1, "##urteil": 1, "anl\u00e4sslich": 3, "##fass": 1, "eigentlich": 9, "vorliegen": 9, "ungleich": 3, "behandeln": 2, "Charakter": 1, "drehen": 1, "Wei\u00df": 2, "##sein": 5, "genie\u00dfen": 3, "kontro": 2, "##vers": 2, "ausnahm": 1, "##sl": 4, "##os": 1, "Gelegenheit": 3, "##rog": 1, "Location": 1, "unterscheiden": 3, "Abbildung": 5, "Ali": 2, "Val": 2, "##jen": 2, "na": 2, "##zi": 2, "net": 2, "##ap": 2, "Ex": 3, "##kurs": 3, "positiv": 4, "19": 6, "eng": 3, "ethn": 4, "verwandt": 3, "Konzept": 3, "Absch": 1, "##wei": 1, "##fung": 1, "dicht": 1, "anziehen": 1, "\u00f6fter": 4, "is": 6, "langer": 1, "Atem": 1, "res": 1, "##\u00fcm": 3, "Look": 2, "Aussehen": 2, "##ili": 2, "Gesundheit": 2, "Ad": 6, "##ult": 4, "jung": 1, "Antisemitismus": 2, "Klass": 6, "Schicht": 6, "Tran": 2, "feind": 2, "##kei": 2, "Sex": 2, "Gen": 1, "##der": 2, "Alte": 2, "anti": 2, "##lim": 2, "Islam": 2, "##feind": 1, "Hom": 3, "##oph": 3, "##obi": 4, "Anti": 2, "##zig": 3, "##ani": 2, "Rom": 1, "Sin": 2, "Lin": 8, "##iz": 15, "Unger": 0, "##echtigkeit": 0, "##arte": 1, "alt": 1, "soziale": 1, "##ph": 4, "Stadt": 1, "H\u00fcgel": 1, "Zunge": 1, "gewalt": 2, "gering": 6, "Liter": 2, "##serfahrung": 2, "nieders": 2, "##lagen": 3, "##f\u00f6rderung": 2, "irre": 4, "##lev": 2, "Ak": 6, "##zent": 8, "Aussprache": 4, "##gew": 2, "##ohn": 2, "##jung": 0, "dis": 1, "##par": 1, "Eigent": 1, "Ot": 2, "##her": 12, "Kultur": 4, "##alisierung": 3, "betr\u00e4chtlich": 2, "Mech": 4, "Dir": 2, "##im": 2, "Mel": 2, "2010": 8, "42": 2, "det": 1, "Erkl\u00e4rung": 17, "Handlung": 5, "Einstellung": 1, "Konflikt": 2, "##sweise": 2, "bedeutend": 1, "jeder": 3, "extra": 2, "Initiativen": 1, "Kali": 1, "##brie": 1, "Dich": 2, "##oto": 2, "##mi": 8, "Zweite": 1, "##il": 2, "Gesellschaft": 3, "Zuge": 2, "##h\u00f6rige": 4, "Nicht": 2, "verst\u00e4rkt": 2, "Zusch": 1, "##reibung": 1, "##produz": 2, "Zweig": 1, "##ete": 1, "##ilt": 1, "Att": 1, "##ribution": 1, "Chi": 1, "Besorgnis": 1, "##regend": 1, "bedeuten": 7, "Ru": 4, "ko": 22, "Ne": 4, "##o": 6, "Datei": 3, "wiederholt": 1, "Male": 1, "Ausrichtung": 1, "Dialekt": 3, "##tritt": 4, "##sem": 6, "##hl": 4, "Gymnasium": 4, "erteilen": 4, "##art": 5, "deutsch": 1, "101": 2, "hinweg": 2, "Anerkennung": 2, "mitgebracht": 0, "jede": 1, "Ehre": 0, "##rb": 0, "##ietung": 0, "ma": 1, "agieren": 0, "bek\u00e4mpfen": 3, "annehmen": 4, "##reis": 1, "##spr\u00e4": 0, "Str\u00f6m": 0, "potenzie": 1, "##eh": 4, "##\u00f6r": 4, "##folgend": 1, "m\u00e4\u00df": 1, "strik": 1, "Beziehung": 3, "dr\u00fccken": 0, "ohn": 0, "##m\u00e4chtig": 0, "Opfer": 0, "##rolle": 1, "##zwei": 0, "##fel": 0, "best\u00e4": 4, "emp": 0, "##ath": 0, "kompens": 0, "Kom": 0, "bu": 0, "##ck": 0, "##lige": 0, "Verwand": 0, "##tschaft": 0, "gen": 3, "verst\u00e4rken": 0, "##f\u00fchl": 2, "##sti": 2, "Betroffene": 0, "Verfasst": 1, "Fortbildung": 6, "besuchen": 2, "Gesellschafts": 2, "r": 2, "wecken": 0, "Hoffnung": 0, "sit": 2, "##ert": 10, "##arm": 2, "##losen": 2, "2016": 2, "stand": 3, "web": 2, "p": 15, "##df": 12, "or": 2, "fac": 1, "Sicherheit": 3, "wirksam": 6, "Werkzeug": 2, "beispielsweise": 7, "Id": 4, "##b": 6, "##tage": 2, "##freie": 2, "|": 2, "Institut": 2, "Bildung": 6, "generell": 1, "Anlauf": 1, "##stelle": 2, "##erkennung": 0, "Geb": 2, "##ildet": 1, "Auskunft": 1, "##elle": 1, "##klus": 2, "Demokratie": 1, "Wirtschafts": 2, "Bew": 7, "##usste": 2, "##reh": 2, "##ul": 2, "##able": 2, "derjenige": 2, "##staat": 1, "Zustand": 1, "Finanz": 1, "##sprit": 1, "Staub": 1, "##igur": 2, "Landes": 2, "##anti": 2, "##gesetz": 2, "62": 2, "##1": 2, "##fu": 2, "##bi": 2, "fu": 4, "bit": 2, "##stream": 2, "##18": 2, "##8": 2, "169": 2, "##70": 2, "##dg": 2, "##quen": 2, "Isa": 2, "##llo": 2, "##we": 2, "y": 2, "##sk": 0, "##rit": 0, "unterrichten": 0, "kolle": 1, "##gia": 1, "Beratung": 2, "Ereignis": 2, "nachtr\u00e4glich": 2, "k\u00fcnftig": 2, "##iker": 3, "Design": 1, "Zut": 1, "##un": 1, "Auftreten": 1, "inkl": 1, "sensi": 0, "voraus": 1, "Dist": 0, "##inkt": 0, "Gur": 0, "##tr": 6, "beinhalten": 10, "Schulen": 4, "##tw": 4, "##lung": 4, "demokrat": 1, "Stimme": 2, "##zieht": 2, "bef": 1, "verringern": 0, "part": 2, "einver": 1, "Schau": 3, "##hm": 1, "Mehrfach": 2, "anerkennen": 0, "oft": 17, "##wirken": 1, "Verh\u00e4ltnisse": 2, "organisieren": 2, "Furcht": 1, "Homosex": 1, "##uellen": 1, "ins": 4, "Haus": 0, "Ganz": 1, "##tags": 4, "##kinder": 1, "##garten": 1, "Erzieher": 2, "Zugang": 2, "verschaffen": 2, "wert": 3, "##\u00e4tzt": 2, "##spr": 1, "wahrnehmen": 4, "##usst": 2, "##sei": 4, "fot": 2, "enorm": 2, "beschr\u00e4nken": 4, "Noten": 2, "##gebung": 2, "Sel": 1, "##ekt": 1, "F\u00f6rder": 2, "##ma\u00dfnahme": 2, "ankommen": 1, "Bl\u00fcten": 1, "##les": 1, "21": 30, "sp\u00e4testens": 2, "Sekundar": 4, "bal": 1, "treffen": 2, "meiste": 5, "##rn": 5, "Notwendigkeit": 0, "Mittelpunkt": 1, "##presse": 1, "Kette": 1, "Ausbau": 0, "richten": 2, "##kompetenz": 2, "verf\u00fcgen": 7, "gewinnen": 1, "Vernetzung": 1, "Einsatz": 3, "bekannt": 2, "##machen": 1, "Schm": 2, "##\u00f6lzer": 2, "eib": 2, "2006": 2, "179": 2, "Lauf": 4, "sechs": 2, "kon": 0, "##zeption": 0, "vertraut": 0, "heran": 3, "aufweisen": 1, "##spezif": 2, "erweitert": 2, "Schub": 1, "bieten": 9, "##gegen": 2, "G\u00fcltigkeit": 2, "Res": 1, "##so": 0, "##urce": 0, "zur\u00fcck": 6, "##greifen": 18, "Hilfsmittel": 1, "##alisch": 2, "##ologisch": 1, "Hindernis": 0, "End": 3, "##zweck": 1, "##planung": 2, "beanspr": 3, "Pr\u00fcfung": 2, "kurs": 1, "Fra": 1, "##ktur": 1, "unge": 4, "warten": 2, "Anzeichen": 2, "Zum": 0, "##utung": 3, "Ges": 2, "##agte": 2, "stattdessen": 2, "##bern": 1, "solch": 17, "bew\u00e4ltigen": 0, "Autor": 2, "vorlegen": 2, "##ungsbereich": 6, "##decken": 2, "##\u00f6rper": 1, "Gewicht": 1, "Ausf\u00fchrung": 4, "Vorbild": 0, "Video": 24, "Zweck": 4, "Feld": 1, "##grenzen": 3, "W": 6, "##dh": 4, "Ba": 4, "Genre": 0, "Verst\u00e4ndnis": 4, "schriftlich": 8, "Tages": 1, "##geschehen": 1, "Gr\u00f6\u00dfen": 2, "##ordnung": 4, "##akt": 0, "f\u00fcnf": 2, "vorgeschlagen": 2, "##inter": 0, "dar": 2, "kat": 1, "##alys": 0, "her": 2, "##transport": 0, "solche": 1, "##kehr": 3, "seinen": 0, "Vert": 4, "##ief": 4, "##gn": 20, "##itiv": 18, "Operation": 2, "2014": 4, "bezeichnen": 9, "ausgel\u00f6st": 2, "Ausstattung": 1, "##mal": 4, "Verbindung": 2, "dahinter": 2, "nieder": 1, "##liegen": 1, "##struktur": 4, "verarbeiten": 2, "##geben": 10, "derart": 2, "dementsprechend": 5, "entfernt": 1, "invol": 4, "##ichern": 1, "anwend": 1, "Festlegung": 0, "festlegen": 2, "##antwort": 4, "erforderlich": 6, "s\u00e4": 3, "vorkommen": 4, "l\u00e4ngst": 1, "aufgegeben": 2, "deswegen": 2, "##inen": 1, "neue": 0, "Erkenntnisse": 0, "welches": 2, "existieren": 2, "##uster": 0, "ka": 5, "schlicht": 2, "Str": 1, "Wirkung": 2, "Qualit\u00e4t": 5, "erh\u00f6hen": 5, "k\u00fcmmern": 3, "Nomin": 1, "Pass": 2, "etc": 6, "pl": 6, "##uri": 8, "##lit": 8, "##era": 8, "##ci": 8, "ec": 4, "##ml": 4, "at": 6, "port": 2, "##als": 2, "54": 2, "##utt": 2, "app": 3, "##ro": 5, "##ach": 2, "into": 2, "##ctic": 2, "##erst": 4, "Unterst\u00fctzungs": 4, "##zahlung": 0, "sech": 1, "Minuten": 1, "nah": 2, "System": 4, "##ministrat": 1, "##or": 4, "##egal": 2, "eines": 1, "Wahrscheinlich": 1, "##raums": 1, "lich": 1, "##tv": 1, "##oll": 1, "Kampagne": 1, "Fe": 3, "##fall": 1, "##r\u00e4ts": 3, "##eln": 4, "Schreiben": 2, "Sprechen": 0, "Ewigkeit": 2, "##p\u00e4dagog": 2, "##ener": 0, "Bearbeitung": 0, "initi": 0, "lenken": 4, "signif": 2, "system": 1, "##atis": 1, "2019": 4, "D": 6, "R": 2, "erfordern": 3, "Chron": 2, "Versuchs": 2, "Vordergrund": 2, "hinten": 2, "ausdr\u00fcck": 5, "vorab": 3, "sp\u00e4ter": 1, "Fass": 2, "##ette": 5, "exp": 1, "##rim": 1, "Regelung": 2, "Versuch": 3, "pr\u00fc": 2, "##fungs": 2, "Rep": 1, "##rod": 1, "Transfer": 1, "##organisation": 2, "sicherlich": 4, "Lehren": 6, "verst\u00e4nd": 2, "##bahnen": 2, "Repl": 1, "##ikat": 1, "Synchron": 1, "##isation": 1, "gew\u00e4hrleisten": 2, "theoretisch": 0, "Fund": 0, "Referenz": 0, "realisiert": 0, "etwa": 5, "2002": 4, "Tax": 2, "##onom": 2, "grundlegend": 3, "verschw": 2, "Realisierung": 0, "untersuchen": 3, "entschieden": 1, "anlegen": 0, "##reng": 1, "Wesen": 1, "Feier": 1, "indirekt": 5, "##izit": 3, "erscheinen": 5, "meistens": 2, "erwartet": 4, "son": 1, "Inst": 1, "##ru": 1, "##ktion": 2, "Sy": 0, "Verfahren": 0, "##\u00fcchte": 1, "16": 6, "Projekt": 3, "Merc": 2, "int": 7, "vornehmen": 3, "##merk": 0, "Co": 0, "##ule": 1, "angenehm": 1, "##denklich": 0, "bewusst": 5, "##xi": 3, "genannt": 4, "##sch\u00fcler": 0, "Rout": 1, "Gel": 3, "##ahrt": 1, "Verzeichnis": 1, "Benennung": 1, "##ark": 1, "zusammenh\u00e4ngen": 0, "##zip": 2, "schwarz": 0, "Le": 1, "diesbez\u00fcglich": 2, "Stoff": 1, "Bele": 0, "Fahr": 1, "##gerichtet": 0, "erw\u00e4hnt": 4, "einher": 2, "##gehend": 0, "Nam": 2, "Statistik": 2, "Umst\u00e4nde": 1, "l\u00f6": 1, "##sb": 2, "Lied": 1, "Freie": 1, "h\u00f6chst": 1, "##wahrscheinlich": 1, "Konver": 1, "##tierung": 1, "Lex": 2, "##ikon": 2, "##eint": 4, "##rag": 5, "W\u00f6rter": 2, "Bra": 1, "##inst": 1, "Mind": 2, "##cr": 2, "Inhalts": 2, "##wieder": 4, "##gabe": 2, "Sum": 2, "##mar": 2, "##erz": 2, "##\u00e4hl": 2, "Gebrauch": 5, "Anteil": 14, "Man": 3, "##ual": 4, "diskon": 4, "##tinuier": 4, "Dia": 3, "##gramm": 3, "Bericht": 3, "Zeitung": 2, "##ature": 2, "##modell": 4, "Bewerbung": 2, "Expl": 2, "##ain": 2, "Grafik": 4, "Refer": 3, "Hypoth": 2, "begr\u00fcndet": 2, "Vorher": 5, "##sage": 1, "Conc": 2, "##ep": 2, "Argument": 10, "Arg": 2, "##\u00f6rter": 2, "##ay": 4, "Tra": 1, "Quellen": 2, "Bes": 2, "##innung": 2, "##fs": 2, "ev": 4, "##iden": 2, "##zb": 2, "Natur": 2, "Interpretation": 2, "fik": 2, "viert": 2, "##ige": 2, "##\u00fcndel": 1, "Bachelor": 4, "Begriffs": 3, "##kl\u00e4rung": 3, "##klar": 2, "##atorisch": 1, "Om": 1, "Beweis": 1, "##lehre": 1, "Diensten": 1, "##f\u00fcgen": 1, "technisch": 1, "gesprochen": 1, "Turn": 1, "##strategie": 0, "Autorit\u00e4t": 1, "H\u00f6ren": 1, "Koh": 0, "##\u00e4ren": 0, "Strategie": 8, "##innen": 1, "anschlie\u00dfen": 1, "\u00fcblicherweise": 2, "korrekt": 5, "Kalk": 0, "##\u00fcl": 0, "Besser": 1, "endlich": 2, "tauchen": 2, "auff\u00e4llig": 2, "Ma\u00dfnahme": 0, "##gut": 0, "Durchschnitt": 0, "techn": 0, "##icus": 0, "geht": 2, "##atisch": 3, "##erei": 0, "##ktik": 2, "##fertig": 4, "Fertig": 4, "m": 1, "##dl": 1, "gelungen": 2, "ausgehend": 2, "Landtags": 1, "##abgeordnete": 1, "Pl": 2, "A": 6, "Fak": 2, "Tatsache": 0, "Innern": 3, "C": 4, "inne": 2, "e": 2, "eignen": 4, "F": 2, "Tipp": 5, "verbessern": 5, "Her": 0, "##vor": 2, "##bringung": 0, "Still": 1, "Cor": 0, "##pus": 0, "Del": 0, "##ict": 0, "##ischen": 0, "##reichte": 0, "##fort": 0, "messen": 0, "Erg\u00e4nzung": 2, "Make": 0, "bezogen": 1, "verwechsel": 1, "##gebiet": 1, "##ernte": 2, "##elli": 3, "##gi": 1, "Vermittlung": 0, "##rufen": 1, "steuern": 1, "##fragen": 1, "ver\u00e4ndern": 4, "Ko": 0, "##ition": 1, "anwenden": 4, "resultieren": 1, "schriftliche": 1, "mer": 2, "##cat": 2, "con": 3, "##lo": 3, "##ads": 2, "allen": 2, "Not": 6, "n\u00e4chsten": 1, "begegnen": 3, "Tag": 1, "Sport": 2, "Kalender": 1, "kennen": 7, "zeitlich": 1, "begrenzt": 2, "##ziell": 2, "##ker": 2, "2015": 4, "84": 2, "##ometr": 1, "Ger": 0, "##\u00fcst": 0, "selbstst\u00e4ndig": 0, "bewegen": 0, "schm": 0, "##ieden": 0, "Pauli": 4, "Gib": 12, "##bon": 12, "\u00fcbertragen": 2, "Josef": 2, "leise": 2, "28": 16, "kalk": 4, "##isen": 1, "##gemeinschaft": 1, "hingegen": 5, "##ozi": 2, "Fr": 4, "##ustr": 4, "Zone": 4, "##versuch": 2, "So": 4, "##das": 4, "optimal": 2, "##situation": 6, "Aufrechter": 0, "Development": 2, "erh": 1, "##aben": 1, "bes": 3, "##ehen": 2, "Erfordern": 0, "##is": 0, "rauf": 0, "##reffen": 1, "Offensive": 0, "##praxis": 2, "prinzip": 3, "##griff": 1, "##ust": 1, "Instrument": 5, "Erwerbs": 2, "voran": 5, "Ut": 1, "##melde": 0, "##technische": 0, "herz": 2, "drauf": 1, "##schaffen": 1, "Fraktion": 1, "zweit": 6, "##ebene": 6, "durchaus": 5, "st\u00e4ndig": 2, "##person": 1, "Reduktion": 2, "zugunsten": 2, "Um": 3, "Front": 1, "lang": 12, "##put": 3, "Ausbilder": 1, "ga": 1, "g\u00e4be": 1, "char": 1, "Mikro": 4, "Mak": 2, "##ros": 2, "##ca": 2, "Phase": 3, "neben": 2, "Schall": 0, "##nehmer": 0, "##gie": 1, "##big": 1, "erw\u00e4": 0, "hierzu": 2, "verst\u00e4ndlich": 0, "##erium": 0, "formuliert": 0, "erkl\u00e4r": 0, "Teile": 2, "##ment": 3, "Bedarf": 0, "##stands": 2, "##let": 2, "##zt": 2, "Pro": 1, "##vok": 2, "aktuell": 3, "ermitteln": 2, "Lat": 1, "modern": 1, "absch": 1, "behalten": 0, "Geben": 2, "umfassen": 10, "Gesamtheit": 2, "##technik": 0, "##st\u00e4ndigkeit": 0, "Methoden": 2, "##vielfalt": 2, "##sc": 2, "plan": 2, "##gespr\u00e4ch": 4, "unvor": 2, "##gesehen": 2, "##schwier": 2, "Ho": 2, "##c": 2, "reagieren": 8, "auswirken": 1, "Einzelfall": 1, "\u00c4ra": 1, "Mach": 1, "sofort": 1, "hierbei": 2, "Technik": 13, "##kommun": 0, "mitge": 2, "##stal": 2, "Medik": 0, "##ament": 0, "unvoll": 1, "##st\u00e4ndig": 1, "gegeben": 1, "##kompl": 1, "##ett": 1, "Ahnung": 2, "vertrauen": 2, "##ct": 1, "Grundlage": 1, "Sog": 8, "##bau": 1, "tragen": 1, "##ding": 2, "Lang": 2, "##uage": 2, "Cur": 2, "##ulu": 2, "121": 2, "##f\u00fchrende": 2, "##rw": 4, "Beachtung": 2, "R\u00fccken": 1, "##deckung": 1, "trotzdem": 2, "Anspruch": 2, "gesetzlich": 1, "##hec": 1, "rum": 1, "Erscheinungs": 1, "wof\u00fcr": 2, "##all": 1, "##\u00fcb": 1, "geleitet": 2, "\u00dcbersicht": 2, "Goethe": 2, "inst": 2, "##itut": 2, "Be": 2, "Et": 2, "Al": 2, "35": 2, "beherrschen": 2, "eingesetzt": 2, "Schreib": 4, "besonder": 2, "##verk": 0, "langfristig": 1, "##bieten": 1, "Vorles": 0, "Stab": 1, "##emin": 0, "##vent": 0, "hohen": 1, "Stellenwert": 1, "Disziplin": 1, "Zuwachs": 0, "bewirken": 1, "##n\u00f6": 1, "##beh": 6, "##rl": 2, "##ich": 2, "sicherstellen": 2, "registrieren": 3, "Zir": 1, "##kel": 1, "Leistung": 4, "##bogen": 1, "Fundament": 1, "Falle": 2, "Poly": 2, "##handen": 2, "Kunst": 2, "Ge": 3, "##ometrie": 2, "Bemerkung": 1, "##artig": 1, "Dom": 2, "##\u00e4ne": 1, "Eu": 1, "##kl": 1, "umso": 2, "Bann": 1, "##zeichen": 0, "Kl\u00e4r": 5, "##\u00e4ltigung": 3, "gerecht": 2, "Reinigung": 1, "wit": 1, "##tr\u00e4ger": 0, "Tool": 4, "##forschung": 1, "##entscheidung": 2, "Kasten": 2, "gesamt": 8, "##vorgang": 2, "M\u00fcnster": 3, "Wa": 2, "Verlag": 2, "49": 2, "##instrument": 10, "erw\u00e4hnen": 9, "berichten": 4, "Studierende": 2, "Master": 2, "parallel": 1, "laufen": 2, "gestellt": 1, "inten": 2, "Szene": 1, "gesetzt": 1, "Konkret": 10, "##isierungs": 10, "##ras": 12, "geeignet": 1, "sogen": 2, "##annt": 2, "##kapit": 1, "##ger\u00e4t": 2, "zweck": 1, "##m\u00e4\u00dfig": 1, "Erleichterung": 0, "fol": 1, "##gern": 1, "Rast": 2, "Einf\u00fchrung": 5, "altern": 2, "befassen": 2, "n\u00e4chst": 2, "Grundschule": 1, "sim": 0, "##pel": 0, "konfrontiert": 1, "Themen": 4, "mittel": 1, "##cht": 2, "Modul": 2, "##abschluss": 2, "##pr\u00fcfung": 2, "\u00fcbersehen": 6, "Abgabe": 2, "selten": 1, "Vorteil": 3, "##proben": 4, "detaillierte": 0, "Ausarbeitung": 0, "Ausge": 1, "##reift": 0, "##eignet": 2, "lo": 2, "##hnen": 2, "Verwendung": 1, "Erfinder": 2, "durchf\u00fchren": 1, "verkehren": 2, "##gra": 1, "##eisten": 2, "Gun": 1, "##\u00e4l": 0, "Memor": 2, "konzentrieren": 8, "genehmigt": 1, "Bord": 2, "Erl\u00e4u": 3, "##terung": 3, "##endung": 5, "Publikation": 1, "##bene": 4, "Neben": 1, "##s\u00e4tz": 0, "Abd": 1, "##ruck": 1, "##kehren": 1, "Daten": 1, "Gar": 1, "##nit": 1, "Gl": 0, "##ieds": 0, "Gegensatz": 1, "Trick": 2, "##best": 2, "Englisch": 2, "Franz\u00f6sisch": 1, "Erst": 2, "frag": 3, "franz\u00f6sische": 1, "pl\u00f6tzlich": 3, "Deutsche": 3, "##h\u00fc": 0, "Revision": 1, "Vertra": 1, "##ut": 1, "##werden": 1, "##tra": 1, "herausfinden": 4, "Unterseite": 2, "Nutzen": 1, "##h\u00e4ngt": 2, "P": 2, "dat": 2, "##eie": 2, "Hinweis": 7, "ziehen": 1, "Freuden": 1, "##unt": 1, "gutes": 1, "St\u00fcck": 1, "Kollegin": 4, "Dr": 2, "Maria": 4, "Gro\u00dfe": 3, "##gaben": 2, "##info": 1, "ku": 1, "Magn": 1, "k\u00e4": 1, "##uf": 1, "l": 1, "##ugen": 1, "Zer": 1, "##emonie": 1, "link": 2, "frage": 2, "Konzentration": 0, "Schacht": 0, "##els": 0, "Eind": 0, "##eu": 1, "##tigkeit": 0, "##deu": 0, "##fra": 0, "Ei": 2, "60": 2, "dazuge": 1, "##h\u00f6r": 1, "Fort": 0, "##pflanz": 0, "Erinnerung": 2, "##sw": 2, "ausgew\u00e4hlt": 1, "sc": 0, "Bitte": 7, "Pr\u00e4z": 2, "Zug": 3, "##zwang": 4, "Ziels": 6, "##tur": 6, "Kontrast": 0, "##vergleich": 10, "##ingu": 2, "##kunft": 6, "wiederauf": 10, "korrig": 8, "Wieder": 8, "##holen": 8, "ziel": 1, "##cast": 2, "##wahl": 6, "Aufforderung": 4, "##kor": 3, "##rektur": 2, "Verweis": 4, "Eliz": 2, "##iti": 2, "##erung": 2, "##holung": 2, "Mi": 6, "##k": 8, "Gest": 5, "26": 28, "Folgende": 2, "##sv": 4, "Daniela": 4, "Rotter": 4, "ow": 4, "##ituation": 0, "##oren": 1, "##laden": 1, "Pet": 1, "exakt": 1, "ausges": 1, "Ob": 1, "##serv": 1, "##anz": 1, "Matrix": 0, "fehler": 8, "##eben": 4, "verkehrt": 1, "Aufruf": 0, "Fehl": 1, "Mah": 0, "##nung": 0, "Set": 1, "##tin": 1, "##altern": 0, "##ative": 0, "##ld": 1, "o": 6, "##sz": 3, "##ena": 2, "##rio": 2, "erkennt": 0, "erleichtern": 2, "dahin": 2, "vern\u00fcnf": 1, "F\u00fchrungs": 0, "##team": 0, "##\u00fchrung": 2, "ber\u00fchren": 2, "veran": 2, "##schau": 2, "gleichzeitig": 2, "person": 2, "Steuerung": 1, "Lei": 2, "##iede": 2, "Dampf": 1, "##maschinen": 1, "##steuerung": 1, "arrang": 0, "Nacht": 2, "tri": 2, "##via": 2, "##ler": 2, "##w\u00e4": 1, "Unsicherheit": 0, "##wissenschaftler": 2, "Knapp": 2, "beobachten": 3, "vielfach": 1, "\u00fcbersch": 3, "Rat": 1, "Bedenken": 0, "kontrollieren": 1, "Sch": 0, "Spa": 1, "##sich": 2, "orientieren": 4, "nett": 2, "l\u00e4": 2, "schnell": 4, "K\u00fcrze": 0, "Geh": 0, "##emmt": 0, "Initi": 2, "##alz": 2, "##\u00fcndung": 2, "Version": 1, "voll": 2, "par": 2, "##aver": 2, "##bal": 2, "##tem": 0, "##po": 2, "Beton": 0, "##pause": 0, "real": 3, "##sebene": 2, "Gestaltung": 0, "##gst": 0, "##frei": 1, "ermu": 2, "\u00e4u\u00dfern": 4, "Ren": 1, "##omme": 1, "Hand": 4, "langsam": 2, "gew\u00e4hren": 1, "##em": 1, "Tempo": 1, "augen": 1, "autor": 1, "Werkzeuge": 1, "##schullehrer": 0, "40": 2, "##dessen": 1, "##z\u00e4": 1, "##he": 1, "ziemlich": 0, "zust": 0, "Perspektive": 2, "##arch": 2, "as": 2, "##ym": 2, "##met": 2, "##ris": 2, "sozio": 2, "##kultur": 4, "##theorie": 2, "konstru": 0, "##l\u00f6sen": 4, "erzeugen": 1, "anscheinend": 1, "allem": 2, "##schie": 1, "konstruiert": 2, "traditionell": 1, "##\u00e4g": 2, "erlangen": 1, "Absicht": 1, "grav": 1, "##sver": 0, "bitten": 1, "##10": 2, "verhaf": 2, "Vermutung": 2, "##junkt": 2, "##11": 2, "Schwe": 2, "Akte": 3, "jemanden": 1, "wenden": 1, "##angabe": 1, "Frau": 1, "natur": 0, "stil": 1, "##ug": 1, "Erkenntnis": 2, "verp": 1, "##acken": 1, "Probe": 2, "pers\u00f6nlich": 1, "allt\u00e4": 1, "Erk": 2, "##skon": 2, "##struktion": 2, "##information": 2, "ann\u00e4h": 2, "Betrachtung": 1, "sp\u00fcrbar": 1, "Pon": 1, "gibt": 1, "##fluss": 1, "##w\u00e4l": 3, "##atten": 2, "sinn": 0, "##stift": 0, "Bull": 1, "##etin": 1, "vorgestellt": 2, "Entwicklung": 1, "Mechan": 1, "Br\u00fccken": 0, "Voraussetzung": 1, "n\u00e4her": 1, "K\u00f6rper": 1, "##mitte": 1, "Entstehung": 1, "##esch": 1, "##ichte": 1, "Kontakt": 1, "einerseits": 2, "konfron": 1, "andererseits": 2, "##wegs": 1, "gegen\u00fcber": 3, "dist": 0, "kaum": 2, "produ": 1, "Vollendung": 1, "qu": 2, "##leben": 1, "##tischen": 0, "Ansatz": 0, "##abel": 1, "x": 5, "trennen": 0, "##het": 0, "##zeigen": 0, "##ction": 0, "##klam": 1, "get": 1, "##\u00fcrk": 1, "eventuell": 2, "blo\u00df": 2, "Interesse": 0, "automatisch": 2, "Neu": 0, "##gier": 0, "keiner": 4, "Regen": 2, "unauf": 0, "##dring": 0, "nebenbei": 0, "##ns": 0, "##cho": 0, "halb": 2, "nachhaltig": 0, "##echt": 1, "berufen": 1, "daraufhin": 1, "solcher": 1, "##gest": 1, "lautet": 1, "Nenn": 2, "Visier": 1, "jedenfalls": 1, "anstelle": 1, "freilich": 0, "##ischer": 0, "##stecken": 0, "Prom": 0, "ran": 1, "anstatt": 1, "##antie": 0, "Nutzung": 0, "anhalten": 1, "zitiert": 1, "##und": 0, "##dition": 0, "##gebrauch": 4, "##rieb": 4, "##med": 4, "##dar": 0, "##ft": 0, "besser": 0, "##\u00e4r": 3, "##fen": 6, "Zur": 0, "##echsel": 1, "Option": 2, "empfehlen": 2, "zugest": 1, "##anden": 1, "Periode": 12, "##auer": 2, "Modelle": 0, "##rs": 0, "n\u00fctz": 0, "Abb": 0, "##ild": 0, "##ions": 0, "##bewusst": 2, "Aufmerksamkeit": 2, "##enkung": 2, "Inner": 4, "Di": 4, "##\u00e4t": 4, "Abgeordnete": 4, "##schaft": 4, "Alkohol": 4, "Chemie": 4, "Suf": 6, "##fi": 6, "Fle": 2, "##ons": 1, "##quis": 2, "##ki": 2, "##dest": 2, "##on": 2, "begleiten": 2, "Sprachen": 2, "##omen": 2, "wel": 2, "Komposition": 2, "Der": 2, "##iva": 2, "##las": 2, "##ti": 1, "sin": 1, "non": 1, "##ktive": 2, "##lohn": 1, "##tarif": 1, "technische": 1, "M\u00f6glichkeiten": 1, "bezeichnet": 1, "Korrektur": 2, "unbes": 1, "##etzt": 1, "Monitor": 3, "Anzeige": 1, "behauptet": 1, "##ona": 3, "wiederholen": 4, "Hinter": 1, "##t\u00fcr": 1, "kalt": 4, "Metall": 2, "##platte": 2, "ert": 2, "##rinken": 2, "##jar": 0, "##gon": 0, "##wahr": 1, "dauern": 7, "Sekunde": 7, "andauern": 1, "##bewegung": 2, "Heb": 1, "Augen": 2, "##bra": 2, "##ue": 2, "aufmerksam": 2, "Mie": 0, "Erh\u00f6hung": 1, "St\u00fctz": 0, "Studium": 2, "bisher": 4, "vorgehen": 0, "Einst": 1, "##eiger": 1, "Schaden": 0, "##lehr": 2, "Falls": 1, "weiteren": 1, "he": 0, "##mmen": 0, "Umstand": 2, "Foss": 0, "Abbruch": 2, "Sta": 0, "##gna": 2, "erworben": 0, "Null": 0, "##wachstum": 0, "##brechen": 2, "##grad": 1, "demnach": 2, "werfen": 0, "verde": 2, "Aussicht": 0, "Sprung": 1, "gleicherma\u00dfen": 2, "Defizit": 2, "St\u00e4rke": 1, "Mei": 1, "sicher": 1, "junge": 1, "Gl\u00fcck": 1, "Ressourcen": 2, "##blick": 2, "sch\u00e4r": 4, "##\u00fcler": 0, "##freundlich": 0, "##verh": 0, "##alte": 0, "etablieren": 0, "zulassen": 1, "Weichen": 1, "durchsetzen": 2, "##ufa": 1, "##immt": 1, "kunst": 0, "dokumen": 2, "Zweit": 2, "Kas": 2, "beeinfl": 1, "garantiert": 1, "su": 1, "##rate": 0, "Auge": 3, "##\u00e4u\u00dfer": 1, "beurteilen": 2, "herange": 1, "##dia": 2, "##ose": 2, "Ann\u00e4herung": 0, "##treten": 1, "gesagt": 0, "regelm\u00e4\u00dfig": 2, "neutr": 0, "##eing": 0, "##renzung": 0, "##ver": 3, "hervor": 0, "##nor": 0, "##ient": 0, "Nass": 0, "flexibel": 2, "Fol": 4, "##ien": 2, "##ly": 2, "##ruf": 2, "Kriterien": 2, "unum": 2, "##g\u00e4ng": 2, "Over": 1, "##head": 1, "##la": 0, "kritisieren": 1, "Format": 0, "bek": 1, "##ritte": 1, "Ernst": 1, "Zielsetzung": 1, "##schrift": 1, "Leitfaden": 1, "anpassen": 0, "einstellen": 0, "cu": 0, "##rr": 0, "##ic": 0, "##ular": 0, "davon": 4, "direkte": 1, "Rel": 1, "##hre": 2, "##rf": 2, "##ort": 2, "22": 2, "##orientierte": 0, "E": 1, "Aller": 2, "ma\u00dfgeblich": 1, "##bur": 1, "Gesichts": 1, "Fal": 1, "##sif": 1, "versp": 0, "##\u00fcren": 0, "Verw": 0, "##enden": 0, "Stellungnahme": 0, "N\u00e4chste": 1, "meine": 0, "Wenig": 0, "basierend": 2, "mark": 4, "Meinung": 1, "V": 2, "2007": 2, "wagen": 1, "##flie\u00dfen": 1, "erinnern": 1, "R\u00fcckgabe": 2, "Schulzeit": 2, "##f\u00f6rder": 0, "Auseinander": 0, "Spielen": 0, "eil": 1, "##abelle": 2, "##ack": 1, "Zoll": 1, "Halbjahr": 2, "melden": 2, "sodass": 2, "##zu": 2, "##wachs": 2, "ausgehen": 3, "##ender": 1, "Resonanz": 1, "Panorama": 1, "##inn": 0, "probieren": 1, "##abell": 2, "##emp": 1, "tot": 1, "Transparenz": 0, "Wurzeln": 1, "schlagen": 1, "Know": 1, "how": 1, "Dienst": 1, "##ecu": 1, "hind": 1, "##euten": 1, "mobil": 0, "jedes": 1, "Y": 2, "realisieren": 1, "Ausw": 1, "Leg": 1, "##esp": 1, "##iel": 1, "Realit\u00e4t": 2, "Math": 2, "Zahl": 2, "Pu": 1, "##zz": 1, "Fleck": 1, "verlangen": 1, "Ver": 2, "##verl": 1, "nennt": 1, "t\u00e4gliche": 0, "Brot": 0, "geb": 1, "##\u00fchren": 1, "##odie": 1, "##dens": 1, "##piel": 1, "Fitness": 0, "ant": 1, "l\u00e4uft": 1, "##xe": 1, "German": 1, "##hei": 1, "St": 0, "##\u00e4tte": 0, "Angelegenheit": 1, "voneinander": 1, "Leib": 1, "Aspekte": 1, "menschliche": 1, "Reg": 1, "voller": 0, "Vera": 0, "minder": 1, "G\u00fcte": 1, "Kompl": 0, "##iziert": 0, "konzip": 0, "Erfahrungen": 1, "Wer": 1, "kennt": 1, "Kla": 1, "##strahl": 1, "mehrmals": 1, "dank": 1, "falsche": 1, "##land": 1, "hoff": 0, "##\u00e4rt": 0, "##vis": 1, "cle": 2, "##wand": 4, "Behauptung": 2, "aufeinander": 2, "enden": 1, "Schw\u00e4che": 2, "gelegentlich": 1, "Mangel": 0, "##tigen": 2, "##zentrum": 2, "Er\u00f6ffnung": 1, "Sorge": 2, "verraten": 1, "Philosophie": 2, "Sens": 2, "Erm": 2, "##angel": 2, "##imo": 1, "verl\u00e4ngert": 1, "beacht": 1, "##opp": 1, "beeindruckt": 2, "pr\u00e4": 2, "##grenze": 2, "verdienen": 1, "au\u00dferhalb": 2, "ausschlie\u00dflich": 2, "##\u00fcss": 1, "Fett": 1, "Auftrag": 2, "gro\u00dfartig": 1, "##imi": 2, "##nier": 2, "Linie": 2, "Philosoph": 2, "interessant": 0, "##ma\u00df": 1, "gep": 1, "##ols": 1, "##tert": 1, "fantast": 1, "Wertpapier": 1, "Beleg": 1, "inform": 0, "Theo": 2, "##ret": 2, "##ana": 2, "##s\u00e4tzlich": 2, "Standpunkt": 1, "unterm": 1, "##auern": 1, "geblieben": 1, "##udi": 1, "Gegeben": 1, "Arbeitsplatz": 1, "gro\u00dfer": 1, "Wichtig": 1, "##wurf": 0, "Vorsicht": 0, "wa": 0, "##lt": 0, "Hed": 0, "##ging": 0, "##\u00f6t": 1, "##igt": 1, "State": 1, "##ilien": 0, "Standort": 1, "##schluss": 0, "Posit": 1, "Mitarbeiter": 2, "##r\u00fcckt": 1, "##erkl\u00e4rung": 0, "ausbauen": 1, "Entwicklungs": 0, "bed": 1, "##\u00fcrf": 1, "wohin": 2, "Amts": 0, "Organisation": 0, "Institution": 0, "##\u00fcre": 0}, "B-Feedback_Criteria": {"[UNK]": 28, "3": 0, ")": 0, "Analyse": 2, "##rahmen": 0, "zur": 0, "Sprach": 93, "##lichkeit": 2, "des": 0, "Fach": 10, "##lernen": 0, "##s": 2, "(": 0, "angel": 0, "##ehnt": 0, "an": 6, "Ta": 0, "##jm": 0, "##el": 0, "&": 0, "Voll": 0, "##mer": 0, "/": 0, "Th\u00fcr": 0, "##mann": 0, ";": 0, "Lo": 0, "##hs": 0, "##e": 15, "1": 0, ".": 3, "Gibt": 0, "es": 0, "sprach": 193, "##liche": 6, "H\u00fcrden": 0, ",": 0, "die": 0, "das": 0, "fach": 13, "Lernen": 0, "beh": 0, "##indern": 0, "k\u00f6nnten": 0, "?": 0, "2": 0, "Lern": 18, "##gelegen": 4, "##heiten": 2, "in": 4, "der": 4, "Stunde": 0, "f\u00fcr": 5, "typische": 3, "\u201e": 4, "Ritu": 0, "##ale": 0, "\u201c": 0, "Eng": 0, "treiben": 0, "Nar": 0, "##de": 3, "Unterricht": 6, "##liches": 4, "##handel": 0, "##n": 4, "Typ": 1, "##ische": 0, "Disk": 48, "##urs": 48, "##funktionen": 2, "Materialien": 2, "Rezeption": 0, "Mittel": 3, "Produktion": 1, "Zu": 2, "erstellen": 0, "Texte": 0, "\u2022": 0, "Muss": 0, "m\u00fcnd": 9, "Unterrichts": 14, "-": 10, "inter": 1, "##aktion": 11, "gest\u00fctzt": 0, "werden": 0, "M\u00fc": 0, "##ssen": 0, "SU": 2, "##S": 2, "Informationen": 0, "besch": 0, "##affen": 0, "eine": 0, "Ergebnis": 16, "##pr\u00e4sent": 6, "##ation": 8, "##lich": 178, "Ist": 0, "Met": 3, "##ako": 3, "##mm": 7, "##uni": 3, "##kat": 3, "##ion": 18, "\u00fcber": 2, "##prozess": 0, "geplant": 2, "Wie": 0, "gehe": 2, "ich": 0, "mit": 19, "Fehler": 10, "um": 0, "K\u00f6nnen": 1, "##er": 3, "im": 0, "Laufe": 0, "##funktion": 42, "ein": 5, "##\u00fcben": 0, "Etwas": 0, "beschreiben": 0, "erkl\u00e4ren": 2, "diskutieren": 0, "aus": 0, "argumen": 0, "##tieren": 0, "oder": 0, "bewerten": 0, "Spiel": 3, "##t": 17, "Text": 27, "##sor": 8, "##te": 0, "Rolle": 0, "deren": 0, "Merkmale": 0, "explizit": 0, "gemacht": 0, "m\u00fcssen": 0, "re": 4, "##zept": 6, "##iven": 2, "Kern": 0, "##wort": 1, "sch": 4, "##atz": 1, "unbekannt": 0, "ist": 0, "Stehen": 1, "bestimmte": 0, "##begriff": 6, "Wort": 12, "##feld": 6, "Zentrum": 0, "Welche": 0, "konkreten": 2, "##schatz": 5, "ben\u00f6tigen": 0, "Sch\u00fcler": 17, "Aufgabe": 8, "zu": 2, "l\u00f6sen": 0, "Wahrnehmung": 0, "##bereitung": 0, "Mitteln": 0, "Sprache": 3, "verhandeln": 0, "nicht": 1, "erschlossen": 0, "weg": 1, "Dreh": 0, "und": 0, "Angel": 0, "##punkt": 0, "brauchen": 0, "Gef": 1, "##ol": 1, "##gs": 1, "Art": 8, "Bereitstellung": 2, "domin": 5, "##ante": 0, "gra": 4, "##atische": 2, "Form": 5, "ben\u00f6tigt": 0, "wird": 0, "typischen": 2, "Rede": 10, "##mittel": 10, "meines": 0, "##es": 0, "k\u00f6nnte": 0, "fokuss": 2, "##ieren": 16, "##fordern": 0, "Wird": 0, "bestimmtes": 2, "Register": 0, "erfordert": 0, "einzu": 2, "##halten": 4, "struktur": 2, "Kann": 0, "Erste": 9, "##llen": 9, "von": 2, "##ko": 0, "##h\u00e4re": 2, "##z": 0, "\u201a": 0, "rote": 0, "##r": 0, "Faden": 0, "\u2018": 0, "einge": 0, "##\u00fcbt": 1, "Wann": 0, "gebe": 0, "Feed": 30, "##back": 30, "Versorgung": 0, "fordern": 0, "Song": 0, "##text": 0, "##bilden": 26, "##d": 35, "planen": 0, "Schul": 0, "##unterricht": 2, "identifizieren": 4, "sie": 0, "Aspekt": 0, "schwierig": 1, "sein": 0, "nennen": 0, "daraus": 0, "folgen": 0, "m\u00f6glich": 2, "##ziel": 6, "=": 0, "Bedarfs": 32, "##analyse": 43, "+": 0, "##bestimmung": 2, "so": 0, "##dann": 0, "w": 5, "##\u00f6rtlich": 4, "erl\u00e4u": 0, "##tern": 0, "wie": 4, "dieser": 0, "Schwerpunkt": 0, "konkret": 12, "umgehen": 2, "Wirklichkeit": 0, "man": 0, "erz\u00e4hlt": 0, "sich": 2, "welche": 32, "Hilfs": 2, "##angebot": 0, "bereits": 0, "##telle": 0, "Stellung": 1, "bringen": 0, "Zusatz": 2, "##material": 5, "denkbar": 0, "innov": 0, "##ativ": 4, "spieler": 2, "##isch": 24, "Methode": 6, "*": 0, "innen": 0, "k\u00f6nnen": 0, "Kurz": 0, "anhand": 0, "selbst": 0, "produziert": 0, "Plak": 0, "##at": 0, "begr\u00fcnden": 0, "warum": 0, "Milch": 0, "##ku": 0, "##h": 0, "Nutz": 0, "##tier": 0, "Te": 0, "##acher": 0, "_": 0, "fe": 0, "##ed": 0, "mich": 0, "jetzt": 0, "Teil": 0, "Einheit": 0, "spannend": 0, "noch": 0, "sehen": 2, ":": 0, "kommen": 0, "Ziel": 0, "innerhalb": 0, "via": 0, "angefertigt": 0, "Dauer": 0, "##seller": 0, "Zwischen": 0, "##schritt": 8, "Gemeinsam": 0, "##keit": 2, "er": 0, "##sp": 1, "##\u00e4he": 0, "Klasse": 0, "gemeinsam": 0, "Informations": 4, "Thema": 0, "lesen": 4, "dabei": 0, "besprechen": 0, "Vor": 24, "##wissen": 24, "aktiv": 2, "Haltung": 0, "Herstellung": 1, ">": 0, "hier": 0, "nochmal": 0, "genau": 2, "schauen": 0, "was": 4, "!": 0, "vorstellen": 0, "einfach": 0, "Plen": 0, "##um": 1, "eher": 0, "Lese": 4, "##stra": 4, "##teg": 4, "##ia": 4, "Leser": 2, "##out": 2, "##ine": 2, "Kind": 2, "eigens": 0, "##t\u00e4": 20, "##nd": 1, "##ig": 7, "Erl": 0, "##esen": 0, "vermitteln": 0, "Artikel": 1, "bei": 2, "Begriff": 5, "denken": 0, "miteinander": 0, "Gehalt": 0, "##iert": 10, "##aus": 3, "##druck": 3, "kritisch": 2, "bele": 0, "##uchten": 0, "Fertigung": 0, "Cash": 0, "##co": 0, "##w": 0, "do": 1, "##mes": 0, "##tiz": 0, "##iertes": 0, "Tier": 0, "##hink": 0, "##ommen": 0, "zum": 0, "ersten": 0, "Mal": 0, "pe": 0, "##ni": 0, "##bel": 2, "vor": 0, "##f\u00fchren": 2, "Nach": 0, "##komme": 0, "Ly": 0, "##ric": 0, "Name": 0, "Schlei": 0, "##fe": 2, "##bauen": 0, "euch": 0, "Verlauf": 7, "##produkt": 4, "nun": 0, "gegenseitig": 0, "nutzen": 2, "gern": 0, "##hilfe": 38, "Material": 10, "##the": 0, "##ke": 0, "Stufe": 0, "einzeln": 0, "erst": 0, "dann": 0, "Ende": 0, "produzieren": 1, "herstellen": 0, "Us": 0, "differenz": 9, "Satz": 2, "##baus": 0, "##in": 0, "##anfang": 0, "L\u00fccken": 0, "Vorber": 0, "##eiten": 0, "Pr\u00e4sentation": 11, "mu": 1, "##w\u00e4rts": 1, "Wende": 0, "##schlei": 2, "##beziehen": 0, "Freude": 0, "gesucht": 0, "Bild": 0, "anfangs": 0, "Ebene": 0, "h\u00f6ren": 5, "vorbereiten": 0, "falsch": 0, "aber": 0, "individ": 0, "##ualisiert": 0, "auf": 8, "Differenz": 6, "##ierungs": 12, "stehen": 0, "sollen": 0, "jed": 0, "passend": 2, "Sc": 12, "##aff": 28, "##old": 32, "##suchen": 0, "davor": 0, "abge": 0, "##tan": 1, "Aufgaben": 35, "##stellung": 32, "erstmal": 0, "Ok": 0, "wichtig": 2, "wo": 2, "finden": 0, "Hilfe": 4, "Z": 0, "B": 0, "einst": 4, "##eigen": 4, "auch": 0, "##sa": 17, "##ktiv": 16, "##ierung": 38, "n\u00f6tig": 0, "fair": 0, "m\u00e4chtig": 0, "Mithilfe": 0, "##klin": 0, "##ken": 0, "Sachver": 0, "##halt": 0, "einzig": 0, "relevant": 1, "daf\u00fcr": 0, "ebenfalls": 0, "ob": 0, "wirklich": 0, "Unterschied": 0, "unterschiedlich": 0, "Reihenfolge": 0, "kl\u00e4ren": 0, "ganz": 0, "transparent": 8, "diesem": 0, "Zeitpunkt": 0, "ine": 0, "##gal": 0, "Vari": 2, "oben": 0, "Unterscheidung": 1, "In": 0, "Zwei": 0, "##erte": 1, "##am": 0, "jeweils": 0, "vorgegeben": 0, "Pfeil": 0, "Verf\u00fcgung": 0, "stellen": 2, "##\u00fcte": 0, "diver": 2, "Lebensmittel": 0, "quasi": 0, "Proze\u00df": 2, "Produkt": 2, "gut": 4, "Idee": 13, "hoffentlich": 0, "##riften": 0, "lassen": 0, "doch": 0, "super": 0, "Vorgang": 0, "nochmals": 0, "schon": 0, "zeigen": 2, "als": 4, "zus\u00e4tzlich": 0, "wer": 0, "nehmen": 0, "einig": 0, "reichen": 0, "vielleicht": 0, "nur": 0, "##sprach": 24, "Verb": 0, "verstehen": 0, "nach": 1, "Ein": 5, "Partner": 0, "##arbeit": 0, "pr\u00e4sentieren": 2, "also": 0, "klar": 14, "Wiederholung": 0, "##ss": 2, "##ch": 2, "##lei": 0, "gleich": 0, "Auf": 0, "##schreiben": 0, "anfangen": 0, "Aus": 2, "##hang": 0, "erarbeiten": 0, "Eben": 0, "##bild": 0, "Order": 0, "Ste": 0, "##ady": 0, "Milcher": 0, "##zeugnis": 0, "Nahrung": 0, "Erzeugnis": 0, "dein": 0, "Wille": 0, "gesch": 0, "##ehe": 0, "Offenbar": 1, "##ung": 16, "den": 1, "Mund": 0, "betreffend": 0, "entdecken": 0, "packen": 0, "Panz": 0, "Beginn": 0, "fertigen": 0, "Kid": 0, "##die": 0, "Geschehen": 1, "Arbeit": 0, "Tan": 0, "##dem": 0, "einem": 0, "Gu": 0, "beginnen": 0, "##ams": 0, "Anordnung": 0, "bestimmen": 0, "##ordnen": 0, "erwarten": 0, "Antwort": 0, "Begr\u00fcndung": 0, "gerade": 0, "fallen": 0, "mir": 0, "schwer": 0, "Mehrwert": 0, "erkennen": 0, "sehr": 0, "anspruchs": 0, "##voll": 0, "ba": 0, "##na": 0, "##l": 14, "weil": 0, "Kuh": 0, "geben": 0, "damit": 0, "K\u00e4se": 0, "machen": 0, "unklar": 5, "Muster": 6, "##l\u00f6sung": 6, "aussehen": 2, "Stelle": 3, "sinnvoll": 0, "zusammen": 0, "Rational": 0, "##isierung": 2, "speziell": 0, "##ucht": 0, "##war": 0, "##m": 0, "G": 0, "##sch": 0, "##rop": 0, "##p": 0, "##\u00e4hler": 0, "##leiten": 0, "##teil": 0, "Dunkel": 0, "Kol": 0, "##ori": 0, "Fazit": 0, "insgesamt": 0, "gehen": 0, "richtig": 1, "Richtung": 0, "vorhanden": 0, "allerdings": 0, "kurz": 0, "wieso": 2, "fehlen": 2, "stark": 4, "##bindung": 0, "M\u00fcn": 0, "##dlich": 0, "ab": 0, "##zielen": 0, "alle": 0, "Fest": 0, "durch": 5, "paar": 0, "Austausch": 0, "##runde": 0, "locker": 0, "ausf\u00fchrlich": 1, "Diskussion": 0, "indem": 0, "Recherche": 0, "Beitrag": 0, "Rinder": 0, "##haltung": 0, "Klimawandel": 0, "usw": 0, "Pod": 0, "##iums": 0, "##disk": 0, "##ussion": 0, "zwischen": 0, "Bauer": 0, "Klima": 0, "##aktiv": 1, "##ist": 0, "Veg": 0, "##aner": 0, "gegeneinander": 1, "st\u00fctzen": 0, "nat\u00fcrlich": 0, "da": 1, "Potential": 2, "la": 0, "##tent": 0, "Gr\u00f6\u00dfe": 0, "am": 0, "Lager": 0, "gest": 0, "##ochen": 0, "Worte": 0, "mitgeteilt": 0, "energ": 0, "Kleiner": 0, "angeben": 0, "Mist": 0, "##vie": 0, "Or": 0, "##alit\u00e4t": 0, "ebenso": 0, "beim": 0, "Wick": 0, "kriegen": 0, "Paar": 0, "##menge": 0, "Wandel": 0, "strenge": 0, "Veget": 0, "##arier": 0, "lin": 6, "##gu": 24, "##istisch": 14, "##ielen": 0, "Anlage": 0, "ihr": 0, "Dreier": 0, "##gruppe": 0, "knapp": 2, "De": 0, "Fac": 0, "##to": 2, "drei": 0, "##aufgabe": 2, "w\u00fcnschen": 0, "##swert": 0, "haben": 0, "Planung": 9, "aufnehmen": 0, "##isieren": 1, "plus": 0, "weit": 0, "Person": 0, "mindestens": 0, "wirken": 2, "etwas": 1, "z": 0, "##\u00f6ger": 0, "trauen": 0, "ruhig": 0, "kre": 0, "##ativer": 0, "lebendig": 0, "solange": 0, "zentral": 1, "##bildungs": 6, "##prinzip": 4, "Inter": 9, "Ans": 0, "##cha": 0, "##uu": 0, "##ng": 0, "##sm": 2, "##aterial": 0, "Map": 0, "inspir": 0, "https": 0, "mo": 0, "##od": 0, "##le": 0, "##lab": 0, "hu": 0, "ber": 0, "##lin": 0, "de": 0, "mod": 0, "ur": 0, "view": 0, "ph": 0, "id": 0, "111": 0, "Gegenstand": 1, "begr\u00fc\u00dfen": 0, "Int": 1, "##ui": 1, "##tion": 2, "unent": 0, "##schlossen": 0, "verhei": 0, "##raten": 0, "Bewegung": 0, "Anregung": 0, "##blicken": 0, "St\u00e4rkung": 0, "gehabt": 0, "##arbeiten": 0, "Umsetzung": 4, "Se": 0, "##quenz": 0, "Entlastung": 2, "sowie": 0, "\u00c4nderung": 0, "Sozial": 10, "##form": 14, "viele": 0, "umsetzen": 0, "Station": 0, "##gf": 0, "Check": 0, "i": 0, "Warm": 0, "up": 0, "bevor": 0, "verteilen": 0, "drin": 0, "##glich": 0, "Schuld": 0, "##befrei": 0, "##z\u00fcglich": 0, "unter": 0, "Leute": 0, "dennoch": 0, "vollst\u00e4ndig": 1, "##bildung": 3, "##nu": 0, "##tz": 0, "##en": 6, "##kart": 0, "vorrangig": 0, "ohne": 0, "diese": 0, "abs": 1, "##ds": 1, "##los": 1, "unterst": 0, "##reichen": 0, "##durch": 0, "aufs": 1, "Neue": 0, "Formul": 2, "helfen": 2, "meist": 0, "wissen": 2, "ja": 0, "versprach": 0, "##g\u00e4ngig": 0, "all": 0, "Opera": 41, "##tor": 41, "schreiben": 3, "Definition": 1, "wenig": 0, "Ro": 1, "##ot": 1, "User": 1, "All": 0, "Unter": 0, "begr": 1, "##iff": 1, "Abgrenzung": 1, "el": 2, "##ement": 2, "##ar": 3, "starten": 0, "Karte": 0, "Funktion": 0, "zumindest": 0, "liefern": 0, "versammel": 0, "enthalten": 0, "##speicher": 2, "Bruch": 0, "eindeutig": 1, "gr\u00f6\u00dftenteils": 0, "allein": 0, "einige": 0, "Bananen": 0, "##oper": 0, "##ator": 0, "ihnen": 0, "einsch": 0, "##mu": 0, "##gge": 0, "##ln": 0, "\u00fcberhaupt": 0, "keinerlei": 0, "Aussage": 0, "##kraft": 4, "v": 0, "a": 0, "meinen": 0, "passieren": 0, "##zw": 0, "wenn": 0, "Vergleich": 0, "Ansicht": 0, "##skar": 0, "##gas": 0, "##mus": 0, "Spr": 0, "##\u00f6ss": 0, "##ling": 0, "##rei\u00dfen": 0, "##emit": 0, "##haft": 1, "sieben": 0, "ar": 0, "##ithm": 0, "##etische": 0, "okay": 0, "ap": 0, "##ost": 0, "##roph": 0, "Fall": 0, "dringend": 0, "analysieren": 0, "eigen": 2, "Sche": 0, "##ma": 0, "durchge": 0, "##hen": 0, "betrachten": 0, "L\u00f6sung": 0, "lauten": 0, "wiederum": 0, "H\u00fcr": 1, "mein": 0, "vermutlich": 0, "form": 0, "##ulieren": 0, "irgendwie": 0, "##sal": 0, "ander": 0, "Formulierung": 10, "##shi": 5, "##lf": 5, "unterst\u00fctzen": 0, "##\u00f6ren": 0, "vorschlagen": 0, "Vorstellung": 1, "Problem": 0, "##bes": 0, "##eitigung": 0, "vorher": 0, "##sehen": 0, "L\u00f6sungs": 0, "##ansa": 0, "weiteres": 0, "belief": 0, "##ern": 0, "mehr": 0, "weniger": 0, "Betreuung": 0, "multi": 0, "##faktor": 0, "##iell": 0, "\u00dcber": 0, "##legen": 0, "##reiben": 1, "erfolgen": 0, "Schrift": 4, "##sprache": 4, "not": 0, "sp\u00e4t": 0, "O": 0, "\u00c4": 0, "wozu": 0, "denn": 0, "sonst": 0, "daran": 0, "schlie\u00dfen": 0, "letzt": 0, "Punkt": 1, "wann": 0, "pass": 0, "##genau": 0, "##oss": 0, "Demonstration": 1, "hohe": 0, "bem\u00fc": 0, "##\u00dfig": 0, "Ki": 0, "##ste": 0, "R\u00fcck": 5, "##meldung": 2, "erkennbar": 0, "mittels": 0, "##ta": 0, "##rk": 0, "n\u00fctzlich": 0, "Sicht": 0, "schwach": 0, "unsicher": 0, "immer": 0, "gro\u00df": 0, "Herausforderung": 1, "##karte": 0, "bede": 0, "##nk": 0, "##termin": 0, "##ologie": 0, "Liebe": 0, "Kir": 0, "##sten": 0, "##idee": 4, "viel": 0, "leider": 0, "deutlich": 8, "Beschreibung": 0, "Vogel": 0, "erreichen": 0, "Schwier": 0, "##igkeit": 11, "Deutsch": 0, "hierf\u00fcr": 0, "kn": 0, "##lig": 0, "komplex": 0, "vorge": 0, "##ben": 0, "wegen": 0, "hoch": 0, "##an": 16, "##forderung": 2, "sondern": 0, "klein": 4, "arbeiten": 0, "Farbe": 0, "ohnehin": 0, "Farb": 0, "Bestandteil": 0, "minim": 0, "##al": 5, "Anzahl": 0, "Feder": 0, "n": 0, "Schnabel": 0, "Brust": 0, "Steck": 0, "##brief": 0, "wollen": 0, "spontan": 0, "falls": 0, "##stehen": 0, "hoffen": 0, "ber\u00fccksichtigen": 0, "ansonsten": 0, "'": 0, "s": 0, "kla": 0, "##ppen": 0, "Leidenschaft": 0, "Bud": 0, "r\u00fccken": 0, "Knie": 0, "##bei": 0, "##\u00dfer": 0, "Off": 1, "du": 0, "##fte": 0, "Geb\u00e4ude": 0, "##komplex": 0, "Mon": 0, "##ade": 1, "t\u00e4tig": 0, "sowieso": 0, "Element": 3, "Nu": 0, "##us": 4, "Mam": 0, "zug": 0, "##ange": 0, "einen": 0, "Besuch": 0, "##tat": 0, "##ten": 0, "vorausgesetzt": 0, "dass": 0, "Zun": 0, "##eigung": 0, "beher": 0, "##zigen": 0, "vorteil": 0, "vorne": 0, "##weg": 2, "kein": 0, "Entwurf": 0, "4": 0, "5": 0, "6": 0, "fr\u00fche": 0, "##stens": 0, "sowohl": 0, "Erwart": 4, "anbieten": 1, "vieler": 0, "eingest": 0, "##\u00e4ndig": 0, "anschauen": 0, "intensiv": 0, "zurecht": 0, "fassen": 0, "verf": 0, "##\u00e4nglich": 0, "Vorlage": 0, "vollkommen": 0, "au\u00dfen": 0, "##lassen": 0, "Wissens": 7, "##aufbau": 5, "woher": 1, "Info": 0, "Kopf": 0, "dort": 0, "bestehend": 0, "Wissen": 8, "vern": 0, "##etzen": 0, "exist": 0, "##ent": 2, "##gan": 0, "##listen": 0, "##sicherung": 6, "##besch": 4, "##affung": 4, "hei\u00dfen": 0, "Rest": 0, "angesprochen": 0, "liter": 0, "##arische": 0, "Werk": 0, "aufbauen": 0, "vergessen": 0, "##dr": 0, "inner": 0, "##vier": 0, "Verst\u00e4nd": 1, "##igung": 2, "fremde": 0, "Gruppe": 0, "Klassen": 0, "##stufe": 1, "Inhalt": 2, "##fassen": 0, "erz\u00e4hlen": 0, "neu": 5, "gezwungen": 0, "gr": 0, "##upp": 0, "anders": 0, "direkt": 0, "auffallen": 0, "Lesen": 10, "betre": 0, "##uen": 0, "Su": 1, "##jet": 1, "studieren": 1, "sonn": 0, "fa": 0, "##bri": 0, "##zier": 1, "stattfinden": 0, "Versp": 4, "##rach": 4, "Alltags": 0, "statt": 0, "Unterst\u00fctzung": 2, "Bildungs": 0, "Gef\u00fchl": 0, "Moment": 0, "##sens": 14, "##ib": 14, "veranstaltet": 0, "Volks": 0, "##mund": 0, "daher": 0, "mechan": 0, "leb": 0, "gl\u00fcck": 0, "zer": 0, "##spl": 0, "##ittern": 0, "##springen": 0, "abstra": 2, "##kt": 2, "Ah": 0, "##a": 2, "verbinden": 0, "Empfehlung": 0, "versuchen": 0, "rund": 0, "Ganze": 0, "Teils": 0, "##ritt": 0, "##binden": 0, "Test": 0, "heraus": 0, "##stellen": 3, "##orientierung": 4, "verste": 0, "##if": 0, "f\u00fchren": 0, "eben": 0, "Eindruck": 0, "au\u00dferdem": 0, "rau": 0, "##mg": 0, "##reifen": 0, "wir": 0, "gar": 0, "mal": 0, "fast": 0, "nichts": 0, "sagen": 0, "bleiben": 2, "dargestellt": 0, "Vorgehensweise": 3, "Hinsicht": 0, "allgemein": 0, "##uliert": 0, "Kooperation": 4, "##vern": 2, "##etzung": 2, "Beihilfe": 0, "Umgang": 6, "Handhabung": 2, "Reise": 0, "##plan": 1, "pla": 1, "##ibel": 1, "verb": 3, "##uchen": 0, "##sr": 0, "##unde": 0, "ungeh": 0, "##obel": 0, "##ter": 6, "Kerl": 0, "##gr": 0, "##\u00fc": 2, "##ppchen": 0, "Ent": 0, "##werfen": 0, "buchen": 0, "weitaus": 0, "soll": 0, "##nt": 2, "##asi": 0, "##eb": 0, "##ega": 0, "##bt": 0, "Erlebnis": 0, "sens": 0, "gesammelt": 0, "Bei": 0, "##stand": 7, "no": 0, "##etisch": 0, "lieben": 0, "##sw\u00fcrd": 0, "##iger": 0, "##weise": 1, "Ab": 0, "Drei": 0, "##eck": 0, "vorn": 0, "##oti": 0, "##eren": 0, "m\u00f6gen": 0, "spielen": 0, "##techn": 4, "bemerken": 0, "gemein": 0, "muss": 0, "ti": 0, "gew\u00e4hlt": 0, "zudem": 0, "Vie": 0, "##ee": 0, "grunds\u00e4tzlich": 0, "\u00fcberlegen": 0, "Einstieg": 2, "gestalten": 0, "Aktivit\u00e4t": 0, "inhaltlich": 6, "rot": 0, "bis": 0, "fortsetzen": 0, "h\u00e4ngen": 0, "los": 0, "Raum": 0, "##be": 4, "##zug": 6, "Fokus": 0, "welcher": 2, "Themenk": 0, "##omp": 0, "##lex": 9, "passen": 2, "danach": 0, "##reihe": 0, "ober": 0, "##fl\u00e4ch": 0, "punkt": 0, "##uell": 2, "betreffen": 0, "Weiteren": 0, "mitmachen": 0, "per": 0, "se": 0, "unver": 0, "##et": 0, "##motiv": 0, "kommun": 2, "herunter": 0, "##h\u00e4ngen": 0, "Region": 0, "hat": 0, "irgend": 0, "##jemand": 0, "jemand": 0, "Detail": 0, "##ech": 0, "##bar": 2, "Vis": 0, "##ualisierung": 0, "dazu": 0, "F\u00f6rderung": 2, "##\u00f6n": 0, "##nen": 1, "keine": 1, "Symbol": 0, "Arbeits": 20, "##auftrag": 8, "hinter": 0, "stif": 0, "Sprech": 7, "##bl": 0, "##ase": 0, "Einzel": 0, "w\u00e4hlen": 2, "Modus": 0, "bild": 8, "##licher": 0, "Job": 0, "##wenden": 0, "Geschichte": 0, "Merkmal": 0, "Jahreszeit": 0, "themat": 0, "unbedingt": 0, "##auf": 1, "##nehmen": 0, "Beispiel": 0, "suchen": 0, "##ziehen": 0, "legitim": 0, "##ierbar": 0, "langen": 0, "kurzer": 0, "Sinn": 0, "zwingend": 0, "h\u00f6chste": 0, "Ma\u00dfe": 0, "ta": 0, "##uschen": 0, "aktiviert": 0, "##lichen": 0, "Sache": 0, "eint": 0, "##auschen": 0, "Mission": 0, "getrennt": 0, "Kapit": 1, "##ulation": 1, "Nachwuchs": 1, "experimente": 0, "##ll": 0, "Erf": 0, "##ors": 0, "##chen": 0, "##helfen": 0, "Taschen": 0, "##lam": 0, "##pe": 0, "Licht": 0, "##quelle": 0, "Glob": 0, "Ball": 0, "erg": 0, "##r\u00fc": 0, "##nde": 0, "Information": 6, "Videos": 0, "Tafel": 0, "Nachrichten": 0, "##gehalt": 0, "versch": 0, "##anzen": 0, "##ungs": 10, "##hor": 2, "##izont": 2, "erg\u00e4nzen": 0, "sicherer": 0, "Quelle": 0, "##k\u00f6mm": 0, "hinzu": 0, "##rech": 0, "Verfolg": 0, "umf": 0, "##orm": 5, "abgetr": 0, "##ennt": 0, "best": 0, "Brief": 0, "Handhab": 0, "Kontext": 0, "zwei": 0, "Buch": 0, "##seite": 0, "wobei": 0, "Vorbereitung": 0, "Lieblings": 0, "##jahres": 0, "##zeit": 0, "##x": 0, "Sitz": 0, "##kreis": 0, "d\u00fcrfen": 0, "Anfang": 0, "Ursache": 0, "Bel": 0, "##ang": 0, "beide": 0, "Universum": 0, "##fahr": 0, "Graph": 0, "##ik": 0, "Saison": 0, "lau": 0, "##schen": 2, "Hintergrund": 0, "Kleinen": 0, "zukommen": 0, "Umlauf": 0, "Kreis": 0, "je": 0, "nachdem": 0, "m\u00f6glichst": 0, "vis": 0, "Syn": 0, "##onym": 0, "Erkl\u00e4r": 0, "experimen": 0, "S": 0, "8": 0, "Seite": 0, "durchs": 0, "##chi": 0, "##mmer": 0, "offenbar": 0, "Experiment": 0, "##ein": 0, "##att": 0, "testen": 0, "Honig": 0, "sau": 0, "##gen": 0, "Band": 0, "aust": 0, "##est": 0, "Fla": 0, "sei": 0, "Studie": 0, "Experten": 0, "b": 2, "Frage": 9, "verschieden": 0, "Zeit": 0, "anderer": 0, "Suche": 0, "ideal": 0, "sprechen": 7, "Bilder": 0, "##folg": 0, "ggf": 0, "\u00dcbertragung": 1, "Heft": 0, "Abschluss": 0, "Reflex": 12, "geteilt": 0, "abgeben": 0, "Gro\u00df": 0, "##unternehmen": 0, "kosten": 0, "Zugangs": 0, "Ret": 0, "##rie": 0, "##val": 0, "Maxim": 0, "st": 0, "##utz": 0, "min": 0, "##i": 0, "##ars": 0, "##itzung": 0, "unbe": 1, "##deuten": 0, "##samm": 0, "di": 1, "##da": 1, "##ktisch": 1, "T": 0, "unten": 0, "anf": 0, "##\u00fcgen": 0, "Kommentar": 1, "ignor": 0, "En": 0, "Klarheit": 0, "dar\u00fcber": 0, "insbesondere": 0, "M\u00f6glichkeit": 0, "Wasser": 0, "##lauf": 4, "verd": 0, "##unsten": 0, "flie\u00dfen": 0, "tats\u00e4chlich": 0, "Denken": 0, "seit": 0, "Monat": 0, "lernen": 0, "##qu": 0, "##ick": 0, "interessieren": 0, "##san": 1, "##gebot": 1, "gebracht": 0, "blu": 0, "##ts": 14, "##verw": 2, "##andt": 0, "Per": 0, "##ip": 0, "##hra": 0, "##se": 2, "sk": 0, "##izz": 0, "sch\u00e4tzen": 0, "ger": 0, "##man": 0, "erl": 0, "##ernen": 0, "Kritik": 0, "zwar": 0, "##fertigt": 0, "##mat": 0, "Stichwort": 0, "F\u00fcll": 0, "leisten": 0, "entsprechend": 0, "defen": 0, "##siv": 0, "Motivation": 0, "verlassen": 0, "einmal": 0, "beantworten": 0, "recht": 0, "##lastung": 0, "Gruppen": 0, "##dehn": 0, "ents": 0, "##leun": 0, "##igen": 1, "ent": 0, "##lasten": 0, "Besten": 0, "##stoff": 0, "gerne": 0, "verteidigen": 0, "tro": 0, "##st": 1, "##gangs": 0, "Segen": 0, "##eit": 0, "verlang": 0, "##samen": 0, "ansprechen": 0, "Planungs": 2, "hinein": 0, "##schauen": 0, "achten": 0, "einsetzen": 0, "jewei": 0, "Ern\u00e4hrung": 0, "Ding": 0, "Lebe": 0, "##wesen": 0, "Mensch": 0, "essen": 0, "Frucht": 0, "Inse": 0, "Maus": 0, "Fisch": 0, "Blatt": 0, "Katalog": 0, "Kategorie": 0, "Lebensraum": 0, "Ort": 0, "leben": 0, "Ern\u00e4hrungs": 0, "Gesch": 0, "##\u00f6pf": 0, "Ess": 0, "##sachen": 0, "Hex": 0, "##apo": 0, "Liebes": 0, "##per": 0, "Zwie": 1, "##fisch": 0, "Bir": 0, "##ne": 0, "wesentlich": 2, "Anlass": 0, "Kn": 0, "##ir": 0, "##ps": 0, "tier": 0, "##isches": 1, "Vorhaben": 0, "ans": 1, "jedoch": 0, "ausb": 0, "##\u00e4h": 0, "##wie": 0, "##fern": 0, "urspr\u00fcnglich": 0, "jetz": 0, "k": 1, "##ind": 1, "##gerecht": 1, "motiv": 3, "##ierend": 11, "br\u00fc": 0, "##g": 0, "Komp": 2, "##osit": 2, "Lehr": 4, "##werk": 0, "sch\u00f6n": 0, "\u00dcbung": 0, "No": 0, "##me": 0, "bilden": 0, "Wald": 0, "Am": 0, "##eise": 1, "##ame": 0, "##ise": 0, "fro": 0, "##iv": 6, "##aw": 0, "##isse": 0, "unbeg": 1, "##reif": 1, "##por": 1, "versorgen": 0, "Tut": 0, "##oria": 0, "G\u00f6r": 0, "bedenken": 0, "funktionieren": 0, "##pers": 2, "##pekt": 2, "##ive": 2, "##sichtlich": 0, "mus": 0, "##g\u00fcltig": 0, "Blick": 0, "gelingen": 0, "Darstellung": 6, "Vorgehen": 0, "abl": 0, "##aufen": 0, "ben": 0, "##ennen": 0, "angemessen": 0, "rechnen": 0, "##ier": 0, "soweit": 0, "doppelt": 0, "gr\u00fcn": 0, "w\u00e4hrend": 2, "##werkstatt": 0, "Grund": 1, "##voraus": 0, "##setzung": 0, "mater": 0, "##ial": 0, "##side": 2, "Doppel": 0, "un": 6, "##ichtung": 0, "##heben": 0, "wach": 0, "##sam": 0, "##\u00f6s": 0, "\u2192": 0, "##igungs": 0, "##stunde": 0, "entstehen": 0, "Zahlen": 0, "##geschichte": 0, "h": 0, "##\u00e4n": 0, "##seln": 0, "Leb": 0, "##kuchen": 0, "Gre": 0, "##tel": 0, "25": 0, "Gleich": 0, "aufstellen": 0, "7": 0, "An": 0, "##erb": 2, "##ieten": 0, "relativ": 0, "Kor": 0, "##re": 0, "Westen": 0, "##tasche": 0, "##nf": 0, "Rechnung": 0, "stabil": 0, "Bedeutung": 0, "Achtung": 0, "Peer": 4, "##feed": 0, "entfallen": 0, "dir": 0, "heute": 0, "unser": 0, "\u00dcbungs": 2, "Woche": 0, "schlecht": 0, "genauso": 0, "leicht": 0, "##dauer": 0, "hy": 0, "hand": 0, "##bares": 0, "Gut": 0, "weise": 0, "Voraus": 0, "##sicht": 0, "handeln": 0, "aktuelle": 0, "Lage": 0, "Dinge": 0, "gl\u00fccklich": 0, "Tage": 0, "sach": 0, "##dien": 0, "au\u00dfergew\u00f6hnlich": 0, "geschenkt": 0, "hervorragend": 0, "getr": 0, "##fektion": 0, "##ism": 22, "##u": 18, "Fin": 0, "wertvoll": 0, "besonders": 0, "f\u00e4l": 0, "##len": 0, "string": 2, "them": 0, "##bedingt": 0, "reduzieren": 0, "mathemat": 0, "weiterhin": 0, "##rift": 0, "Besch": 0, "Reis": 0, "##haufen": 0, "perfekt": 0, "s\u00e4m": 2, "##tlich": 2, "aussch": 0, "##\u00f6pfen": 0, "Zeichnung": 1, "le": 1, "##hr": 1, "Schlacht": 1, "##gei": 0, "Werks": 1, "##ff": 6, "vom": 0, "Stan": 0, "##ger": 0, "Adam": 0, "Ries": 0, "abweichen": 0, "krei": 0, "mitten": 0, "Wanderung": 0, "##zimmer": 0, "Weg": 0, "sammeln": 0, "Erfahrung": 0, "Plan": 1, "halten": 0, "##stu": 0, "Re": 8, "Orts": 0, "Legende": 0, "z\u00e4hlen": 0, "strukturiert": 2, "fein": 2, "Abstra": 0, "##ktions": 0, "##verm\u00f6gen": 0, "##beschreibung": 0, "Ausflug": 0, "drau\u00dfen": 0, "schlie\u00dflich": 0, "Audio": 0, "##aufnahme": 0, "##\u00fcndig": 0, "##einheit": 0, "##alt": 0, "Schuls": 0, "##tu": 0, "mancher": 0, "##orts": 0, "Migration": 0, "Team": 0, "##sinn": 0, "Kenntnis": 1, "entz": 0, "##iffer": 0, "authen": 0, "##tisch": 0, "N\u00f6": 0, "sch\u00f6ne": 0, "##fach": 0, "##handlung": 11, "fragen": 0, "Entschuldigung": 0, "links": 0, "rechts": 0, "##biegen": 0, "##as": 0, "Himmels": 0, "##richtung": 0, "n\u00f6rdlich": 0, "\u00f6stlich": 0, "Kos": 0, "##mos": 0, "Verfahrens": 0, "##izieren": 0, "vielf\u00e4ltig": 0, "##format": 0, "##iver": 0, "Akt": 0, "R\u00fcckseite": 0, "feststellen": 0, "fest": 0, "u": 0, "##kon": 5, "##kret": 5, "ste": 0, "g\u00e4ng": 0, "Schritt": 0, "##pro": 4, "##ze\u00df": 4, "vier": 0, "Ablauf": 2, "##arbeitung": 0, "erf\u00fcllen": 0, "Kriterium": 0, "Kreativit\u00e4t": 0, "Bereich": 0, "angehen": 0, "hau": 1, "##\u00fcnn": 1, "tun": 1, "willkommen": 0, "zufrieden": 0, "Ideal": 0, "##erweise": 0, "Impuls": 0, "Klein": 0, "bearbeiten": 0, "anschlie\u00dfend": 0, "ord": 0, "Herz": 0, "erfassen": 0, "##kod": 0, "zusammengefasst": 0, "hinsichtlich": 0, "kooper": 2, "Schull": 0, "##ehrer": 0, "bel": 0, "##atsch": 0, "##bekommen": 0, "k\u00fcmmer": 0, "erweitern": 0, "ewig": 0, "ni": 0, "##schi": 0, "schrift": 1, "##steller": 1, "leist": 0, "uner": 0, "##for": 0, "##scht": 0, "##\u00f6sen": 0, "gegebenenfalls": 0, "komplett": 0, "##seit": 0, "echt": 0, "Materie": 0, "fort": 0, "Bla": 0, "##ge": 0, "grob": 0, "Aufbau": 3, "traurig": 0, "##heitlich": 0, "##fahrung": 2, "Ha": 0, "##pt": 8, "bas": 0, "##teln": 0, "pr\u00e4zise": 2, "##k\u00e4": 0, "##rt": 0, "##blatt": 0, "sympath": 0, "kl": 0, "##otz": 0, "Nachdruck": 0, "Pech": 0, "##che": 0, "erwe": 0, "##cken": 0, "Block": 1, "Prinzip": 0, "Arbeitsweise": 0, "vol": 0, "##ens": 0, "erwerben": 0, "Ritter": 0, "##schlag": 0, "Herr": 0, "Page": 0, "##sf": 5, "Lan": 0, "##ze": 0, "Schild": 0, "Mittelalter": 0, "kennenlernen": 0, "beob": 1, "##acht": 1, "men": 0, "##tal": 0, "Was": 0, "Verhaltens": 1, "verwenden": 0, "H\u00f6": 0, "##flich": 0, "Zeichen": 4, "MA": 0, "ex": 0, "##tend": 0, "bew": 1, "##eis": 1, "einer": 0, "Namen": 0, "Anwendung": 0, "spezif": 0, "Koll": 0, "##oka": 0, "erhalten": 0, "\u201d": 0, "Land": 0, "besitzen": 0, "christ": 0, "Glauben": 0, "erz": 0, "##ieh": 0, "hm": 0, "gew": 4, "##i\u00df": 2, "##sie": 0, "##rung": 0, "##gehen": 0, "merken": 0, "kombin": 0, "Funktions": 0, "##verb": 0, "##gef\u00fc": 0, "Work": 0, "##sh": 0, "Live": 0, "##work": 0, "com": 0, "##kind": 0, "em": 0, "##sig": 0, "Standard": 0, "##ulierung": 4, "##m\u00e4dchen": 0, "##weisen": 0, "wohnen": 0, "f": 0, "##irm": 0, "Ade": 0, "Da": 0, "kinder": 0, "Pr\u00e4": 0, "##itu": 0, "##ms": 0, "Pr\u00e4sen": 0, "##\u00fcbung": 2, "dies": 0, "Gramm": 4, "##atik": 6, "liegen": 0, "##tik": 0, "mg": 0, "Aktiv": 0, "f\u00f6rdern": 2, "einsam": 0, "##mel": 0, "Kammer": 0, "Sp": 0, "##ie\u00df": 0, "Wild": 0, "##ill": 0, "##rieren": 0, "Sach": 0, "##buch": 0, "Kita": 0, "Jahrgang": 0, "##sst": 0, "##ufe": 0, "niedrig": 0, "erm\u00f6glichen": 0, "darauf": 0, "gr\u00fcndlich": 0, "schl": 0, "##aue": 0, "Motiv": 0, "##ha": 0, "##nach": 0, "Pres": 0, "##tige": 0, "zuerst": 0, "Rollen": 0, "##spiel": 0, "Lebensweise": 0, "Stand": 0, "Verk": 0, "##leidung": 0, "schl\u00fc": 0, "##pfen": 0, "Lebens": 0, "##ums": 0, "##gruppen": 0, "ausf\u00fchren": 0, "Rahmen": 0, "Qu": 0, "##phase": 1, "Niveau": 0, "ad": 0, "##\u00e4qu": 0, "dienen": 0, "gefallen": 0, "sichern": 0, "Zusammenfassung": 0, "\u00fcbers": 0, "einbringen": 0, "##laufen": 0, "wahrscheinlich": 0, "Vorschlag": 0, "Figur": 0, "##sagen": 0, "verhalten": 0, "ausgest": 0, "##alten": 0, "Dialog": 0, "euer": 0, "Sam": 0, "##ura": 0, "##arat": 0, "Verm": 0, "##umm": 0, "origin": 0, "##ell": 4, "##tention": 0, "The": 0, "##sau": 0, "##rus": 0, "nutz": 0, "##bringen": 2, "ann": 0, "##ehm": 0, "##quir": 0, "##zusammen": 0, "##fassung": 0, "entwickeln": 0, "verm": 0, "##erken": 0, "Meister": 0, "erw": 0, "##irts": 0, "##ften": 0, "rat": 0, "##ional": 0, "geometr": 0, "niemand": 0, "kann": 0, "ihm": 0, "F\u00fchrung": 1, "strei": 0, "##tig": 0, "Protokoll": 0, "Gestalt": 0, "Smart": 0, "##board": 0, "darstellen": 2, "typisch": 6, "Ausr\u00fcstung": 0, "##steil": 0, "Pferd": 0, "Schwert": 0, "hac": 0, "Schwein": 0, "Getreide": 0, "vergleichen": 0, "Variante": 1, "Platz": 0, "Tabl": 0, "klass": 1, "##min": 1, "##nis": 0, "Sar": 0, "##issa": 0, "##\u00e4ck": 0, "Korn": 0, "##setzen": 0, "Termin": 1, "Que": 1, "Speise": 0, "##zettel": 0, "offen": 2, "Absatz": 1, "ac": 0, "legen": 0, "somit": 0, "##wu": 0, "rein": 0, "\u00dcberblick": 0, "##rechen": 0, "mon": 0, "##adi": 0, "Syl": 0, "ernst": 0, "##weisung": 14, "##up": 0, "##id": 0, "##ollen": 0, "recher": 0, "##muster": 0, "Bauern": 0, "mehrere": 0, "Auswahl": 0, "\u00e4": 0, "analog": 0, "sitzen": 0, "Gem": 0, "sagst": 0, "belegt": 0, "Diskriminierung": 43, "Nichts": 0, "Genau": 0, "wei\u00df": 0, "schn": 0, "##allen": 0, "Port": 0, "##ra": 0, "##it": 0, "##f\u00fchrung": 0, "erste": 0, "Garde": 0, "Schluss": 1, "##folger": 1, "Edel": 0, "Krieger": 0, "ange": 0, "##go": 0, "\u00e4hnlich": 0, "Tabelle": 0, "fertig": 0, "##f\u00fcllen": 0, "jederzeit": 0, "holen": 0, "Landwirt": 0, "Gang": 0, "beiden": 0, "Flo": 0, "##hma": 0, "##verg": 0, "##angen": 0, "ass": 0, "##erv": 0, "gre": 0, "Lem": 0, "abstimmen": 0, "Fl\u00fcgel": 0, "Rott": 0, "Erfolg": 0, "wieder": 0, "Alters": 0, "##pla": 0, "erledigen": 0, "hilfreich": 0, "vornehmlich": 0, "##dies": 0, "Hin": 0, "##enken": 0, "Mega": 0, "##poten": 0, "##tial": 0, "reden": 0, "##denken": 0, "wor": 0, "##h\u00f6ren": 0, "gen\u00fcgend": 0, "##f\u00e4higkeit": 2, "verlieren": 0, "diagnost": 2, "n\u00e4mlich": 0, "##frage": 0, "Reihe": 0, "##\u00fcchtern": 0, "Kollege": 0, "bezahlen": 0, "##eli": 0, "##au": 0, "Gespr\u00e4ch": 2, "##anteil": 10, "L": 0, "antworten": 0, "mi": 0, "##\u00df": 0, "##brauch": 0, "Reiz": 0, "##geber": 0, "antwor": 0, "erlauben": 0, "Interview": 0, "Fernsehen": 0, "##regen": 0, "Vortrag": 0, "weiter": 0, "##tragen": 0, "ind": 0, "##uk": 0, "##tiv": 0, "Verstand": 0, "Praxis": 0, "Modell": 17, "Niederlage": 0, "erfahren": 0, "Einsicht": 1, "prim\u00e4r": 0, "##folge": 0, "Ohren": 0, "Unbekannte": 0, "Get": 0, "##reuer": 1, "raus": 0, "##pfe": 0, "bl": 0, "##itz": 0, "##gesch": 0, "vers": 0, "Anh\u00e4nger": 0, "J\u00fcnger": 0, "Pla": 0, "##zet": 0, "Tisch": 0, "pro": 0, "darin": 0, "vermuten": 0, "10": 0, "Min": 0, "Zeitungs": 0, "##artikel": 0, "Aussch": 0, "##nitt": 0, "100": 0, "%": 0, "I": 0, "Mur": 0, "##f\u00e4llig": 1, "bestehen": 0, "Leit": 0, "Befra": 0, "##gte": 0, "befragt": 0, "K\u00e4r": 0, "##tchen": 0, "Chance": 0, "ausmachen": 0, "erster": 0, "##strahlen": 0, "[": 0, "Fernseh": 0, "Radio": 0, "##sendung": 0, "]": 0, "Kleine": 0, "Erhebung": 0, "ak": 0, "##kum": 0, "M\u00fche": 0, "verbunden": 0, "##oma": 0, "##lie": 0, "Un": 0, "##regel": 0, "##m\u00e4\u00dfigkeit": 0, "##ringen": 0, "##arbeitungs": 0, "##m\u00f6glichkeit": 0, "\u00fcben": 0, "##satz": 0, "##lesen": 0, "runter": 0, "##bet": 1, "bereit": 0, "zus\u00e4tzliche": 0, "wechsel": 1, "##seitig": 1, "beeinflussen": 0, "dasselbe": 0, "weshalb": 0, "Samen": 0, "##erg": 0, "##uss": 0, "Du": 0, "##\u00f6": 0, "##gl": 0, "##ing": 44, "##ragen": 0, "##kur": 0, "##beln": 0, "schaffen": 0, "eins": 0, "##bereit": 0, "wider": 2, "##spiegel": 2, "##and": 1, "Seminar": 0, "##uns": 0, "bauen": 0, "##leistung": 0, "akzeptieren": 0, "umfangreich": 0, "Gedanke": 0, "##splan": 0, "Schilder": 0, "wonach": 0, "gegen": 0, "\u00fcberliefert": 0, "##ad": 3, "Einver": 0, "##st\u00e4nd": 0, "blicken": 0, "worauf": 0, "Ber\u00fchrung": 1, "##ie": 2, "Haupt": 2, "##rede": 2, "Denk": 4, "Holz": 0, "##stern": 0, "Mathematik": 0, "Anf": 2, "##order": 2, "Forum": 0, "benutzen": 0, "##hren": 0, "gr\u00fc": 0, "Befehl": 1, "bestimmt": 2, "Nur": 0, "Mo": 0, "f\u00fc": 0, "For": 0, "##beitrag": 0, "festgestellt": 0, "gelangen": 0, "##f\u00fchr": 0, "Urs": 1, "24": 0, "Kommunikation": 3, "Verh\u00e4ltnis": 1, "sp": 0, "##ucken": 0, "##alisieren": 0, "veranl": 0, "##asst": 0, "nachdenken": 0, "Ausdruck": 1, "Wissenschafts": 0, "##disziplin": 0, "Rechn": 0, "kommunizieren": 0, "Rechen": 3, "##ae": 0, "schi": 0, "spann": 0, "Best": 0, "##\u00fcr": 2, "##zung": 0, "geraten": 0, "hin": 0, "uns": 0, "sorgen": 0, "\u00dcbersch": 0, "##u\u00df": 0, "problematisch": 0, "##liste": 2, "##arbeits": 0, "Kommun": 0, "ra": 0, "##ffen": 0, "ausgeben": 0, "Summe": 0, "Tee": 0, "##licht": 0, "Ausgabe": 0, "Brett": 0, "add": 0, "verf\u00fcgbar": 0, "##leute": 1, "gebrauchen": 0, "##archen": 0, "zuge": 0, "neb": 0, "Verf\u00fcg": 0, "##mach": 0, "untersch": 0, "##\u00e4tzen": 0, "Bau": 0, "##element": 0, "professionell": 0, "Abschnitt": 0, "##ieb": 0, "Glo": 0, "##ssa": 0, "##pr\u00e4": 2, "##gung": 2, "darum": 0, "H\u00e4lfte": 0, "verbringen": 0, "\u00c4u\u00dfer": 0, "Kommunikations": 0, "aller": 0, "##utlich": 0, "F\u00e4higkeit": 0, "ausw\u00e4hlen": 0, "alter": 0, "##sg": 2, "##erecht": 0, "Kurs": 0, "praktisch": 0, "m\u00f6chten": 0, "sele": 0, "##ktieren": 0, "beitragen": 2, "Erwerb": 2, "Jahr": 0, "Angebot": 0, "##schul": 0, "##bereich": 0, "stetig": 0, "steigen": 0, "scheinen": 0, "nei": 0, "Aufschwung": 0, "Erforschung": 0, "schul": 0, "Alltag": 0, "angesichts": 0, "hor": 0, "##ren": 0, "##kos": 0, "explod": 0, "frei": 0, "verk": 0, "##\u00e4uf": 0, "Internet": 0, "detaill": 2, "fund": 0, "notwendig": 0, "Klaus": 0, "##ur": 3, "##tro": 0, "##tt": 0, "R\u00fccksicht": 0, "ausgeschrieben": 0, "Ins": 0, "geboten": 0, "beschrieben": 0, "##l\u00e4nge": 0, "Problems": 0, "##tell": 1, "##veranstaltung": 0, "pra": 0, "##xis": 0, "##orientiert": 2, "Verkn\u00fc": 0, "##pfung": 2, "Kon": 1, "##not": 0, "9": 0, "##si": 20, "diskrimin": 16, "##krit": 8, "Diver": 18, "Klicken": 0, "herunterladen": 0, "##oo": 0, "##men": 0, "Zusammenhang": 0, "Mehr": 6, "Ungleich": 4, "##behandlung": 4, "Tun": 0, "Lassen": 0, "##fa": 1, "##ire": 1, "Behandlung": 0, "11": 0, "Komponente": 0, "beding": 0, "Bezug": 0, "National": 0, "Repertoire": 0, "##welt": 0, "Familie": 1, "Medium": 0, "bedienen": 0, "##wechslung": 0, "Bestimmung": 3, "Gewohn": 0, "##heit": 3, "Br\u00fccke": 0, "##ref": 9, "##ktiert": 0, "ster": 0, "##eo": 0, "##typ": 0, "##geleitet": 0, "Handeln": 0, "##ystem": 0, "sozial": 0, "Herkunft": 0, "nachweisen": 0, "Beh": 2, "##err": 2, "akadem": 4, "Haushalt": 0, "##system": 4, "erfolglos": 0, "med": 0, "\u00dcberzeugung": 0, "auseinander": 0, "Selbst": 4, "verbreitete": 0, "##miss": 0, "##verst\u00e4ndlich": 0, "Rassismus": 17, "Rassen": 1, "##rimin": 0, "##bezogen": 6, "institution": 0, "##literatur": 0, "h\u00e4ufig": 0, "tief": 0, "systematisch": 0, "rass": 10, "Struktur": 0, "ansehen": 0, "wissenschaft": 0, "Literatur": 0, "Tagesordnung": 0, "ged": 0, "##anken": 0, "sor": 0, "##tiert": 0, "heu": 0, "Jahrzehnt": 0, "##ideo": 1, "##log": 1, "\u00fcbertrieben": 0, "risk": 0, "zehn": 0, "Jahre": 0, "zahl": 0, "##reich": 0, "welchem": 0, "benachteil": 1, "##konstruktion": 4, "Vielzahl": 0, "##dimension": 8, "Individ": 0, "##uum": 0, "Identit\u00e4t": 0, "pr\u00e4gen": 0, "aufgrund": 0, "##sse": 0, "Ag": 0, "unters": 0, "##agen": 0, "straf": 0, "##rechtlich": 0, "verfolgen": 0, "Rasse": 1, "Ethn": 1, "Geschlecht": 0, "Religion": 0, "Welt": 0, "##ans": 0, "Alter": 0, "Behinderung": 0, "sexuell": 0, "##ese": 0, "Berlin": 0, "Gesetz": 0, "Ausgrenzung": 0, "konvention": 0, "Menge": 0, "\u00fcberall": 0, "Ke": 0, "##gel": 0, "religi\u00f6se": 0, "Hemm": 0, "##leich": 0, "Stein": 0, "Anst": 0, "##o\u00df": 0, "Des": 0, "##integr": 0, "gesellschaft": 2, "Geburt": 0, "Ph\u00e4nomen": 0, "Ben": 1, "##achteil": 1, "12": 0, "ergeben": 0, "##rel": 8, "##ev": 8, "##ant": 12, "##eg": 0, "##orie": 0, "gezielt": 0, "\u2014": 0, "Tu": 0, "Dresden": 0, "tu": 0, "dre": 0, "##sd": 0, "d": 0, "Schule": 0, "hinaus": 0, "Dimension": 4, "folglich": 0, "TH": 0, "El": 0, "##bf": 0, "##lor": 0, "##enz": 0, "Florenz": 0, "Elbe": 0, "##institution": 0, "frische": 0, "Luft": 0, "leid": 0, "Brand": 0, "Hab": 0, "Beg": 0, "##abu": 0, "Leistungs": 0, "bedeut": 0, "He": 0, "##ogen": 0, "##it\u00e4ts": 0, "##merkmale": 0, "2017": 0, "20": 0, "beachten": 0, "Leben": 0, "13": 0, "Lehre": 0, "Position": 0, "##ner": 0, "##linie": 0, "Wechsel": 0, "##beziehung": 0, "##ungsvoll": 0, "Lehrer": 2, "ho": 0, "Methodik": 0, "zumeist": 0, "setzen": 2, "oftmals": 0, "verg": 0, "##egen": 0, "##w\u00e4rtig": 0, "inwieweit": 0, "##real": 0, "##it\u00e4t": 0, "Mit": 0, "weiterer": 0, "korre": 0, "##ond": 0, "Ausma\u00df": 0, "Folge": 0, "lern": 0, "verh\u00e4lt": 0, "ausreichend": 0, "refle": 0, "schlimm": 0, "sogar": 0, "Nad": 0, "##ny": 0, "Stefan": 0, "2021": 0, "##sek": 0, "##tional": 0, "politisch": 0, "gekl\u00e4rt": 0, "15": 0, "ersch": 0, "##weren": 0, "##kommen": 0, "stets": 0, "Kombination": 0, "auftreten": 0, "##r\u00e4nkt": 0, "geschehen": 0, "separ": 0, "anzutreffen": 0, "bedingt": 0, "##komm": 0, "Online": 0, "H": 0, "##ttp": 0, "www": 0, "ro": 0, "##ux": 0, "publ": 0, "##ikation": 0, "375": 0, "##78": 0, "##ita": 0, "zuletzt": 0, "pr\u00fcfen": 0, "01": 0, "07": 0, "Besch\u00e4ftigung": 2, "gelten": 0, "P\u00e4dagog": 0, "besch\u00e4ftigen": 0, "Zugeh\u00f6rigkeit": 0, "Hauptstadt": 0, "Deutschland": 0, "##T": 0, "##TP": 0, "Multi": 0, "##ualis": 0, "weder": 0, "m\u00e4nn": 0, "weib": 0, "Bestand": 0, "g\u00fcltig": 0, "Erziehungs": 0, "##wissenschaft": 0, "gebr\u00e4uch": 0, "Vereinigung": 0, "Spannungs": 1, "##verh\u00e4ltnis": 1, "individuell": 0, "Faktor": 0, "Herrschafts": 0, "##ef": 0, "##fekt": 0, "Mart": 0, "Busch": 0, "\u00ab": 0, "Sub": 0, "##jekt": 0, "\u00bb": 0, "Pers\u00f6nlichkeit": 0, "##sent": 0, "##wicklung": 0, "ums": 0, "##lie\u00dfen": 0, "##\u00e4lt": 1, "Dete": 0, "##rm": 0, "##ina": 0, "##nte": 2, "Er": 0, "##achten": 0, "Kompetenz": 6, "Komplexit\u00e4t": 4, "Viel": 0, "##schicht": 0, "dessen": 0, "integrieren": 0, "Anlehnung": 0, "Andreas": 0, "Fo": 0, "vielmehr": 0, "eleg": 0, "scheiter": 0, "14": 0, "Handlungs": 8, "trotz": 0, "##icherheit": 0, "p\u00e4dagog": 0, "F\u00e4l": 0, "##keits": 0, "##tag": 0, "Weise": 0, "f\u00f6rder": 1, "Angst": 0, "mei": 0, "##den": 2, "Deb": 0, "Katharina": 0, "Stu": 0, "##ve": 0, "Olaf": 0, "Scheitern": 0, "##eri": 0, "##\u00e4s": 0, "##euen": 0, "Neut": 0, "##ral": 0, "Gesicht": 0, "bekommen": 0, "##anst": 0, "Wert": 0, "##freiheit": 0, "Grundsatz": 2, "##verst\u00e4ndnis": 0, "metho": 0, "##dis": 0, "Dog": 0, "dauerhaft": 0, "aufta": 0, "##heits": 0, "priv": 0, "##ileg": 0, "\u2013": 0, "Kosten": 0, "gesteckt": 0, "Regel": 2, "##sprechen": 2, "##rungen": 0, "Papier": 0, "chron": 0, "##rechten": 0, "##statten": 0, "##kosten": 0, "##zen": 1, "zun\u00e4chst": 0, "Wider": 2, "position": 0, "##here": 0, "Verhalten": 0, "irgendeiner": 0, "##ag": 0, "18": 0, "23": 0, "beziehen": 0, "Privileg": 0, "##ussen": 0, "##ierte": 0, "luxuri": 0, "Situation": 0, "Reduzierung": 0, "Ster": 0, "Gewalt": 0, "Marg": 0, "##li": 0, "##rte": 0, "lustig": 0, "f\u00fchlen": 0, "fung": 0, "Ca": 0, "##usa": 0, "##tre": 0, "##wendung": 0, "Ice": 0, "##rd": 4, "1966": 0, "Haut": 0, "##farbe": 0, "Abstammung": 0, "national": 0, "Ursprung": 0, "##tum": 0, "beruhen": 0, "##lie\u00df": 0, "Beschr\u00e4nkung": 0, "Bevor": 0, "dadurch": 0, "##berechtigt": 0, "##erkennen": 0, "Genie\u00dfen": 0, "aus\u00fcben": 0, "Menschen": 4, "##recht": 0, "wirtschaftlich": 0, "kultur": 0, "\u00f6ffentlich": 0, "ver": 0, "##eite": 0, "beeintr\u00e4chtigen": 0, "Fleisch": 0, "Kategor": 0, "entlang": 0, "sog": 0, "aufrechter": 0, "sub": 0, "##jektiv": 0, "verh": 0, "##\u00e4rten": 0, "bre": 0, "##zlich": 0, "volle": 0, "festhalten": 0, "impl": 0, "##rasse": 4, "halt": 0, "dem": 0, "##gegen\u00fcber": 0, "verpassen": 0, "unbekannte": 0, "F\u00e4lle": 0, "##zien": 0, "##tif": 0, "klug": 0, "##ew": 0, "##erk": 0, "Susan": 0, "Arn": 0, "##dt": 0, "##ja": 0, "Of": 0, "##ua": 0, "##y": 0, "al": 0, "##azar": 0, "17": 0, "definieren": 0, "##cis": 0, "Pre": 0, "##ju": 0, "##di": 0, "##ce": 0, "Power": 0, "Rass": 10, "##ismen": 6, "##stuf": 0, "Bewertung": 0, "Macht": 0, "##end": 1, "##ium": 0, "##ismus": 2, "geh\u00f6ren": 0, "##willig": 0, "Besitz": 0, "##urteil": 0, "anl\u00e4sslich": 0, "##fass": 0, "eigentlich": 0, "vorliegen": 3, "ungleich": 0, "behandeln": 0, "Charakter": 0, "drehen": 0, "Wei\u00df": 0, "##sein": 0, "genie\u00dfen": 0, "kontro": 0, "##vers": 0, "ausnahm": 0, "##sl": 0, "##os": 0, "Gelegenheit": 2, "##rog": 0, "Location": 0, "unterscheiden": 0, "Abbildung": 0, "Ali": 0, "Val": 0, "##jen": 0, "na": 0, "##zi": 0, "net": 0, "##ap": 0, "Ex": 1, "##kurs": 0, "positiv": 7, "19": 0, "eng": 0, "ethn": 0, "verwandt": 0, "Konzept": 1, "Absch": 0, "##wei": 0, "##fung": 0, "dicht": 0, "anziehen": 0, "\u00f6fter": 0, "is": 0, "langer": 1, "Atem": 0, "res": 4, "##\u00fcm": 0, "Look": 0, "Aussehen": 0, "##ili": 4, "Gesundheit": 0, "Ad": 0, "##ult": 0, "jung": 0, "Antisemitismus": 0, "Klass": 0, "Schicht": 0, "Tran": 0, "feind": 0, "##kei": 0, "Sex": 0, "Gen": 0, "##der": 0, "Alte": 0, "anti": 0, "##lim": 0, "Islam": 0, "##feind": 0, "Hom": 0, "##oph": 0, "##obi": 0, "Anti": 0, "##zig": 0, "##ani": 0, "Rom": 0, "Sin": 0, "Lin": 18, "##iz": 18, "Unger": 1, "##echtigkeit": 1, "##arte": 0, "alt": 0, "soziale": 0, "##ph": 0, "Stadt": 0, "H\u00fcgel": 0, "Zunge": 0, "gewalt": 0, "gering": 0, "Liter": 0, "##serfahrung": 0, "nieders": 0, "##lagen": 0, "##f\u00f6rderung": 0, "irre": 0, "##lev": 0, "Ak": 0, "##zent": 0, "Aussprache": 0, "##gew": 0, "##ohn": 0, "##jung": 0, "dis": 0, "##par": 0, "Eigent": 0, "Ot": 6, "##her": 6, "Kultur": 8, "##alisierung": 8, "betr\u00e4chtlich": 0, "Mech": 0, "Dir": 0, "##im": 0, "Mel": 0, "2010": 0, "42": 0, "det": 0, "Erkl\u00e4rung": 4, "Handlung": 6, "Einstellung": 0, "Konflikt": 0, "##sweise": 0, "bedeutend": 0, "jeder": 0, "extra": 0, "Initiativen": 0, "Kali": 0, "##brie": 0, "Dich": 0, "##oto": 0, "##mi": 0, "Zweite": 0, "##il": 0, "Gesellschaft": 0, "Zuge": 0, "##h\u00f6rige": 0, "Nicht": 0, "verst\u00e4rkt": 0, "Zusch": 0, "##reibung": 0, "##produz": 0, "Zweig": 0, "##ete": 0, "##ilt": 0, "Att": 0, "##ribution": 0, "Chi": 0, "Besorgnis": 0, "##regend": 0, "bedeuten": 2, "Ru": 0, "ko": 4, "Ne": 0, "##o": 0, "Datei": 0, "wiederholt": 0, "Male": 0, "Ausrichtung": 0, "Dialekt": 0, "##tritt": 0, "##sem": 0, "##hl": 0, "Gymnasium": 0, "erteilen": 0, "##art": 0, "deutsch": 0, "101": 0, "hinweg": 0, "Anerkennung": 1, "mitgebracht": 0, "jede": 0, "Ehre": 1, "##rb": 1, "##ietung": 1, "ma": 0, "agieren": 0, "bek\u00e4mpfen": 0, "annehmen": 0, "##reis": 0, "##spr\u00e4": 0, "Str\u00f6m": 0, "potenzie": 0, "##eh": 4, "##\u00f6r": 4, "##folgend": 0, "m\u00e4\u00df": 0, "strik": 0, "Beziehung": 0, "dr\u00fccken": 2, "ohn": 0, "##m\u00e4chtig": 0, "Opfer": 0, "##rolle": 0, "##zwei": 0, "##fel": 0, "best\u00e4": 0, "emp": 1, "##ath": 1, "kompens": 0, "Kom": 0, "bu": 1, "##ck": 1, "##lige": 1, "Verwand": 0, "##tschaft": 0, "gen": 0, "verst\u00e4rken": 0, "##f\u00fchl": 1, "##sti": 0, "Betroffene": 0, "Verfasst": 0, "Fortbildung": 0, "besuchen": 0, "Gesellschafts": 0, "r": 0, "wecken": 2, "Hoffnung": 0, "sit": 0, "##ert": 0, "##arm": 0, "##losen": 0, "2016": 0, "stand": 0, "web": 0, "p": 0, "##df": 0, "or": 0, "fac": 0, "Sicherheit": 0, "wirksam": 0, "Werkzeug": 0, "beispielsweise": 0, "Id": 0, "##b": 0, "##tage": 0, "##freie": 0, "|": 0, "Institut": 0, "Bildung": 0, "generell": 0, "Anlauf": 0, "##stelle": 0, "##erkennung": 1, "Geb": 0, "##ildet": 0, "Auskunft": 0, "##elle": 0, "##klus": 0, "Demokratie": 0, "Wirtschafts": 0, "Bew": 0, "##usste": 0, "##reh": 0, "##ul": 0, "##able": 0, "derjenige": 0, "##staat": 0, "Zustand": 0, "Finanz": 0, "##sprit": 0, "Staub": 0, "##igur": 0, "Landes": 0, "##anti": 0, "##gesetz": 0, "62": 0, "##1": 0, "##fu": 0, "##bi": 0, "fu": 0, "bit": 0, "##stream": 0, "##18": 0, "##8": 0, "169": 0, "##70": 0, "##dg": 0, "##quen": 0, "Isa": 0, "##llo": 0, "##we": 0, "y": 0, "##sk": 2, "##rit": 2, "unterrichten": 0, "kolle": 0, "##gia": 0, "Beratung": 0, "Ereignis": 0, "nachtr\u00e4glich": 0, "k\u00fcnftig": 0, "##iker": 0, "Design": 0, "Zut": 0, "##un": 0, "Auftreten": 0, "inkl": 2, "sensi": 2, "voraus": 0, "Dist": 0, "##inkt": 0, "Gur": 0, "##tr": 1, "beinhalten": 0, "Schulen": 0, "##tw": 0, "##lung": 0, "demokrat": 0, "Stimme": 0, "##zieht": 0, "bef": 0, "verringern": 0, "part": 0, "einver": 0, "Schau": 1, "##hm": 0, "Mehrfach": 4, "anerkennen": 0, "oft": 0, "##wirken": 0, "Verh\u00e4ltnisse": 0, "organisieren": 0, "Furcht": 0, "Homosex": 0, "##uellen": 0, "ins": 0, "Haus": 0, "Ganz": 0, "##tags": 0, "##kinder": 0, "##garten": 0, "Erzieher": 0, "Zugang": 0, "verschaffen": 0, "wert": 0, "##\u00e4tzt": 0, "##spr": 0, "wahrnehmen": 0, "##usst": 0, "##sei": 0, "fot": 0, "enorm": 0, "beschr\u00e4nken": 0, "Noten": 0, "##gebung": 0, "Sel": 0, "##ekt": 0, "F\u00f6rder": 0, "##ma\u00dfnahme": 0, "ankommen": 0, "Bl\u00fcten": 0, "##les": 0, "21": 0, "sp\u00e4testens": 0, "Sekundar": 0, "bal": 0, "treffen": 0, "meiste": 0, "##rn": 2, "Notwendigkeit": 0, "Mittelpunkt": 0, "##presse": 0, "Kette": 0, "Ausbau": 3, "richten": 0, "##kompetenz": 8, "verf\u00fcgen": 0, "gewinnen": 0, "Vernetzung": 0, "Einsatz": 1, "bekannt": 0, "##machen": 0, "Schm": 0, "##\u00f6lzer": 0, "eib": 0, "2006": 0, "179": 0, "Lauf": 0, "sechs": 0, "kon": 4, "##zeption": 2, "vertraut": 0, "heran": 0, "aufweisen": 0, "##spezif": 0, "erweitert": 0, "Schub": 0, "bieten": 0, "##gegen": 0, "G\u00fcltigkeit": 0, "Res": 0, "##so": 4, "##urce": 4, "zur\u00fcck": 0, "##greifen": 0, "Hilfsmittel": 0, "##alisch": 2, "##ologisch": 0, "Hindernis": 0, "End": 1, "##zweck": 1, "##planung": 6, "beanspr": 0, "Pr\u00fcfung": 0, "kurs": 0, "Fra": 0, "##ktur": 0, "unge": 1, "warten": 0, "Anzeichen": 0, "Zum": 0, "##utung": 0, "Ges": 0, "##agte": 0, "stattdessen": 0, "##bern": 0, "solch": 0, "bew\u00e4ltigen": 0, "Autor": 0, "vorlegen": 0, "##ungsbereich": 0, "##decken": 0, "##\u00f6rper": 0, "Gewicht": 1, "Ausf\u00fchrung": 2, "Vorbild": 0, "Video": 0, "Zweck": 0, "Feld": 2, "##grenzen": 0, "W": 1, "##dh": 0, "Ba": 0, "Genre": 5, "Verst\u00e4ndnis": 0, "schriftlich": 2, "Tages": 0, "##geschehen": 0, "Gr\u00f6\u00dfen": 0, "##ordnung": 0, "##akt": 2, "f\u00fcnf": 0, "vorgeschlagen": 0, "##inter": 2, "dar": 0, "kat": 0, "##alys": 0, "her": 0, "##transport": 0, "solche": 0, "##kehr": 0, "seinen": 0, "Vert": 0, "##ief": 0, "##gn": 2, "##itiv": 2, "Operation": 0, "2014": 0, "bezeichnen": 0, "ausgel\u00f6st": 0, "Ausstattung": 0, "##mal": 2, "Verbindung": 0, "dahinter": 0, "nieder": 0, "##liegen": 0, "##struktur": 2, "verarbeiten": 0, "##geben": 0, "derart": 0, "dementsprechend": 0, "entfernt": 0, "invol": 0, "##ichern": 0, "anwend": 0, "Festlegung": 2, "festlegen": 0, "##antwort": 0, "erforderlich": 0, "s\u00e4": 0, "vorkommen": 0, "l\u00e4ngst": 0, "aufgegeben": 0, "deswegen": 0, "##inen": 0, "neue": 1, "Erkenntnisse": 0, "welches": 0, "existieren": 0, "##uster": 2, "ka": 0, "schlicht": 0, "Str": 0, "Wirkung": 0, "Qualit\u00e4t": 2, "erh\u00f6hen": 0, "k\u00fcmmern": 0, "Nomin": 0, "Pass": 0, "etc": 0, "pl": 0, "##uri": 0, "##lit": 0, "##era": 0, "##ci": 0, "ec": 0, "##ml": 0, "at": 0, "port": 0, "##als": 0, "54": 0, "##utt": 0, "app": 0, "##ro": 0, "##ach": 0, "into": 0, "##ctic": 0, "##erst": 0, "Unterst\u00fctzungs": 0, "##zahlung": 0, "sech": 0, "Minuten": 0, "nah": 0, "System": 4, "##ministrat": 3, "##or": 3, "##egal": 0, "eines": 0, "Wahrscheinlich": 0, "##raums": 0, "lich": 0, "##tv": 0, "##oll": 0, "Kampagne": 0, "Fe": 0, "##fall": 0, "##r\u00e4ts": 0, "##eln": 0, "Schreiben": 9, "Sprechen": 6, "Ewigkeit": 0, "##p\u00e4dagog": 0, "##ener": 2, "Bearbeitung": 2, "initi": 0, "lenken": 0, "signif": 0, "system": 0, "##atis": 0, "2019": 0, "D": 0, "R": 0, "erfordern": 0, "Chron": 0, "Versuchs": 0, "Vordergrund": 0, "hinten": 0, "ausdr\u00fcck": 0, "vorab": 0, "sp\u00e4ter": 0, "Fass": 0, "##ette": 0, "exp": 0, "##rim": 0, "Regelung": 0, "Versuch": 0, "pr\u00fc": 2, "##fungs": 2, "Rep": 0, "##rod": 0, "Transfer": 1, "##organisation": 0, "sicherlich": 0, "Lehren": 0, "verst\u00e4nd": 0, "##bahnen": 0, "Repl": 0, "##ikat": 2, "Synchron": 0, "##isation": 0, "gew\u00e4hrleisten": 0, "theoretisch": 2, "Fund": 0, "Referenz": 2, "realisiert": 0, "etwa": 0, "2002": 0, "Tax": 0, "##onom": 0, "grundlegend": 0, "verschw": 0, "Realisierung": 0, "untersuchen": 0, "entschieden": 1, "anlegen": 0, "##reng": 0, "Wesen": 1, "Feier": 0, "indirekt": 0, "##izit": 0, "erscheinen": 0, "meistens": 0, "erwartet": 0, "son": 0, "Inst": 0, "##ru": 0, "##ktion": 0, "Sy": 1, "Verfahren": 0, "##\u00fcchte": 0, "16": 0, "Projekt": 0, "Merc": 0, "int": 0, "vornehmen": 0, "##merk": 2, "Co": 1, "##ule": 1, "angenehm": 0, "##denklich": 0, "bewusst": 0, "##xi": 0, "genannt": 0, "##sch\u00fcler": 0, "Rout": 0, "Gel": 0, "##ahrt": 0, "Verzeichnis": 0, "Benennung": 0, "##ark": 0, "zusammenh\u00e4ngen": 2, "##zip": 0, "schwarz": 0, "Le": 0, "diesbez\u00fcglich": 0, "Stoff": 0, "Bele": 0, "Fahr": 0, "##gerichtet": 0, "erw\u00e4hnt": 0, "einher": 2, "##gehend": 3, "Nam": 0, "Statistik": 0, "Umst\u00e4nde": 0, "l\u00f6": 0, "##sb": 0, "Lied": 0, "Freie": 0, "h\u00f6chst": 0, "##wahrscheinlich": 0, "Konver": 0, "##tierung": 0, "Lex": 1, "##ikon": 0, "##eint": 0, "##rag": 0, "W\u00f6rter": 0, "Bra": 0, "##inst": 0, "Mind": 0, "##cr": 0, "Inhalts": 0, "##wieder": 0, "##gabe": 0, "Sum": 0, "##mar": 0, "##erz": 0, "##\u00e4hl": 0, "Gebrauch": 0, "Anteil": 0, "Man": 0, "##ual": 0, "diskon": 0, "##tinuier": 0, "Dia": 0, "##gramm": 0, "Bericht": 0, "Zeitung": 0, "##ature": 0, "##modell": 0, "Bewerbung": 0, "Expl": 0, "##ain": 0, "Grafik": 0, "Refer": 0, "Hypoth": 0, "begr\u00fcndet": 0, "Vorher": 0, "##sage": 0, "Conc": 0, "##ep": 0, "Argument": 1, "Arg": 0, "##\u00f6rter": 0, "##ay": 0, "Tra": 0, "Quellen": 0, "Bes": 0, "##innung": 0, "##fs": 0, "ev": 0, "##iden": 0, "##zb": 0, "Natur": 0, "Interpretation": 0, "fik": 0, "viert": 0, "##ige": 0, "##\u00fcndel": 0, "Bachelor": 0, "Begriffs": 1, "##kl\u00e4rung": 0, "##klar": 0, "##atorisch": 0, "Om": 0, "Beweis": 2, "##lehre": 0, "Diensten": 0, "##f\u00fcgen": 0, "technisch": 0, "gesprochen": 0, "Turn": 0, "##strategie": 2, "Autorit\u00e4t": 0, "H\u00f6ren": 7, "Koh": 0, "##\u00e4ren": 0, "Strategie": 9, "##innen": 0, "anschlie\u00dfen": 0, "\u00fcblicherweise": 0, "korrekt": 2, "Kalk": 1, "##\u00fcl": 1, "Besser": 0, "endlich": 0, "tauchen": 0, "auff\u00e4llig": 0, "Ma\u00dfnahme": 0, "##gut": 0, "Durchschnitt": 0, "techn": 0, "##icus": 0, "geht": 0, "##atisch": 0, "##erei": 0, "##ktik": 0, "##fertig": 0, "Fertig": 2, "m": 0, "##dl": 0, "gelungen": 0, "ausgehend": 0, "Landtags": 0, "##abgeordnete": 0, "Pl": 0, "A": 0, "Fak": 1, "Tatsache": 1, "Innern": 0, "C": 0, "inne": 0, "e": 0, "eignen": 0, "F": 0, "Tipp": 0, "verbessern": 0, "Her": 1, "##vor": 1, "##bringung": 1, "Still": 0, "Cor": 0, "##pus": 0, "Del": 0, "##ict": 0, "##ischen": 0, "##reichte": 0, "##fort": 2, "messen": 0, "Erg\u00e4nzung": 0, "Make": 0, "bezogen": 0, "verwechsel": 0, "##gebiet": 1, "##ernte": 0, "##elli": 0, "##gi": 0, "Vermittlung": 4, "##rufen": 0, "steuern": 0, "##fragen": 0, "ver\u00e4ndern": 0, "Ko": 0, "##ition": 0, "anwenden": 0, "resultieren": 0, "schriftliche": 0, "mer": 0, "##cat": 0, "con": 0, "##lo": 0, "##ads": 0, "allen": 0, "Not": 0, "n\u00e4chsten": 0, "begegnen": 0, "Tag": 0, "Sport": 0, "Kalender": 0, "kennen": 0, "zeitlich": 0, "begrenzt": 0, "##ziell": 0, "##ker": 0, "2015": 0, "84": 0, "##ometr": 0, "Ger": 2, "##\u00fcst": 2, "selbstst\u00e4ndig": 0, "bewegen": 0, "schm": 0, "##ieden": 0, "Pauli": 0, "Gib": 0, "##bon": 0, "\u00fcbertragen": 0, "Josef": 0, "leise": 0, "28": 0, "kalk": 0, "##isen": 0, "##gemeinschaft": 0, "hingegen": 0, "##ozi": 0, "Fr": 0, "##ustr": 0, "Zone": 0, "##versuch": 0, "So": 0, "##das": 0, "optimal": 0, "##situation": 0, "Aufrechter": 2, "Development": 0, "erh": 0, "##aben": 0, "bes": 0, "##ehen": 0, "Erfordern": 0, "##is": 0, "rauf": 0, "##reffen": 0, "Offensive": 2, "##praxis": 0, "prinzip": 0, "##griff": 0, "##ust": 0, "Instrument": 0, "Erwerbs": 2, "voran": 0, "Ut": 0, "##melde": 2, "##technische": 2, "herz": 0, "drauf": 0, "##schaffen": 0, "Fraktion": 0, "zweit": 0, "##ebene": 0, "durchaus": 0, "st\u00e4ndig": 0, "##person": 0, "Reduktion": 0, "zugunsten": 0, "Um": 0, "Front": 0, "lang": 0, "##put": 0, "Ausbilder": 0, "ga": 0, "g\u00e4be": 0, "char": 0, "Mikro": 17, "Mak": 4, "##ros": 4, "##ca": 4, "Phase": 0, "neben": 0, "Schall": 1, "##nehmer": 1, "##gie": 0, "##big": 0, "erw\u00e4": 0, "hierzu": 0, "verst\u00e4ndlich": 0, "##erium": 0, "formuliert": 0, "erkl\u00e4r": 0, "Teile": 0, "##ment": 0, "Bedarf": 2, "##stands": 4, "##let": 0, "##zt": 0, "Pro": 0, "##vok": 0, "aktuell": 0, "ermitteln": 2, "Lat": 0, "modern": 0, "absch": 0, "behalten": 0, "Geben": 0, "umfassen": 0, "Gesamtheit": 0, "##technik": 28, "##st\u00e4ndigkeit": 0, "Methoden": 0, "##vielfalt": 0, "##sc": 16, "plan": 0, "##gespr\u00e4ch": 2, "unvor": 0, "##gesehen": 0, "##schwier": 0, "Ho": 0, "##c": 0, "reagieren": 0, "auswirken": 0, "Einzelfall": 0, "\u00c4ra": 0, "Mach": 0, "sofort": 0, "hierbei": 0, "Technik": 4, "##kommun": 0, "mitge": 0, "##stal": 0, "Medik": 1, "##ament": 1, "unvoll": 0, "##st\u00e4ndig": 0, "gegeben": 0, "##kompl": 0, "##ett": 0, "Ahnung": 0, "vertrauen": 0, "##ct": 0, "Grundlage": 0, "Sog": 0, "##bau": 2, "tragen": 0, "##ding": 0, "Lang": 0, "##uage": 0, "Cur": 0, "##ulu": 0, "121": 0, "##f\u00fchrende": 0, "##rw": 3, "Beachtung": 0, "R\u00fccken": 0, "##deckung": 0, "trotzdem": 0, "Anspruch": 0, "gesetzlich": 0, "##hec": 0, "rum": 0, "Erscheinungs": 0, "wof\u00fcr": 0, "##all": 0, "##\u00fcb": 0, "geleitet": 0, "\u00dcbersicht": 0, "Goethe": 0, "inst": 0, "##itut": 0, "Be": 0, "Et": 0, "Al": 0, "35": 0, "beherrschen": 0, "eingesetzt": 0, "Schreib": 0, "besonder": 0, "##verk": 2, "langfristig": 0, "##bieten": 0, "Vorles": 1, "Stab": 1, "##emin": 1, "##vent": 1, "hohen": 0, "Stellenwert": 0, "Disziplin": 0, "Zuwachs": 1, "bewirken": 0, "##n\u00f6": 0, "##beh": 0, "##rl": 0, "##ich": 0, "sicherstellen": 0, "registrieren": 0, "Zir": 0, "##kel": 0, "Leistung": 0, "##bogen": 0, "Fundament": 0, "Falle": 0, "Poly": 0, "##handen": 0, "Kunst": 0, "Ge": 0, "##ometrie": 0, "Bemerkung": 0, "##artig": 0, "Dom": 0, "##\u00e4ne": 0, "Eu": 0, "##kl": 0, "umso": 0, "Bann": 1, "##zeichen": 1, "Kl\u00e4r": 0, "##\u00e4ltigung": 0, "gerecht": 0, "Reinigung": 0, "wit": 0, "##tr\u00e4ger": 0, "Tool": 0, "##forschung": 0, "##entscheidung": 0, "Kasten": 0, "gesamt": 0, "##vorgang": 2, "M\u00fcnster": 0, "Wa": 0, "Verlag": 0, "49": 0, "##instrument": 0, "erw\u00e4hnen": 0, "berichten": 0, "Studierende": 0, "Master": 0, "parallel": 0, "laufen": 0, "gestellt": 0, "inten": 0, "Szene": 0, "gesetzt": 0, "Konkret": 0, "##isierungs": 0, "##ras": 6, "geeignet": 0, "sogen": 0, "##annt": 0, "##kapit": 0, "##ger\u00e4t": 0, "zweck": 0, "##m\u00e4\u00dfig": 0, "Erleichterung": 0, "fol": 0, "##gern": 0, "Rast": 0, "Einf\u00fchrung": 0, "altern": 0, "befassen": 0, "n\u00e4chst": 0, "Grundschule": 0, "sim": 0, "##pel": 0, "konfrontiert": 0, "Themen": 1, "mittel": 0, "##cht": 0, "Modul": 0, "##abschluss": 0, "##pr\u00fcfung": 0, "\u00fcbersehen": 0, "Abgabe": 0, "selten": 0, "Vorteil": 0, "##proben": 0, "detaillierte": 0, "Ausarbeitung": 0, "Ausge": 0, "##reift": 0, "##eignet": 0, "lo": 0, "##hnen": 0, "Verwendung": 0, "Erfinder": 0, "durchf\u00fchren": 0, "verkehren": 0, "##gra": 0, "##eisten": 0, "Gun": 0, "##\u00e4l": 1, "Memor": 1, "konzentrieren": 0, "genehmigt": 0, "Bord": 0, "Erl\u00e4u": 0, "##terung": 0, "##endung": 2, "Publikation": 0, "##bene": 0, "Neben": 1, "##s\u00e4tz": 1, "Abd": 0, "##ruck": 0, "##kehren": 0, "Daten": 0, "Gar": 0, "##nit": 0, "Gl": 1, "##ieds": 1, "Gegensatz": 0, "Trick": 0, "##best": 0, "Englisch": 0, "Franz\u00f6sisch": 0, "Erst": 0, "frag": 0, "franz\u00f6sische": 0, "pl\u00f6tzlich": 0, "Deutsche": 0, "##h\u00fc": 4, "Revision": 0, "Vertra": 0, "##ut": 0, "##werden": 0, "##tra": 0, "herausfinden": 0, "Unterseite": 0, "Nutzen": 7, "##h\u00e4ngt": 0, "P": 0, "dat": 0, "##eie": 0, "Hinweis": 0, "ziehen": 0, "Freuden": 0, "##unt": 0, "gutes": 0, "St\u00fcck": 0, "Kollegin": 0, "Dr": 0, "Maria": 0, "Gro\u00dfe": 0, "##gaben": 0, "##info": 0, "ku": 0, "Magn": 0, "k\u00e4": 0, "##uf": 0, "l": 0, "##ugen": 0, "Zer": 0, "##emonie": 0, "link": 0, "frage": 0, "Konzentration": 0, "Schacht": 0, "##els": 0, "Eind": 1, "##eu": 1, "##tigkeit": 1, "##deu": 0, "##fra": 0, "Ei": 0, "60": 0, "dazuge": 0, "##h\u00f6r": 0, "Fort": 0, "##pflanz": 0, "Erinnerung": 0, "##sw": 4, "ausgew\u00e4hlt": 0, "sc": 0, "Bitte": 0, "Pr\u00e4z": 2, "Zug": 0, "##zwang": 0, "Ziels": 0, "##tur": 0, "Kontrast": 6, "##vergleich": 0, "##ingu": 1, "##kunft": 0, "wiederauf": 0, "korrig": 0, "Wieder": 0, "##holen": 0, "ziel": 2, "##cast": 8, "##wahl": 0, "Aufforderung": 14, "##kor": 0, "##rektur": 0, "Verweis": 0, "Eliz": 0, "##iti": 0, "##erung": 4, "##holung": 0, "Mi": 0, "##k": 0, "Gest": 0, "26": 0, "Folgende": 0, "##sv": 0, "Daniela": 0, "Rotter": 0, "ow": 0, "##ituation": 2, "##oren": 0, "##laden": 0, "Pet": 0, "exakt": 0, "ausges": 0, "Ob": 0, "##serv": 0, "##anz": 0, "Matrix": 0, "fehler": 0, "##eben": 0, "verkehrt": 0, "Aufruf": 2, "Fehl": 0, "Mah": 2, "##nung": 2, "Set": 0, "##tin": 0, "##altern": 2, "##ative": 2, "##ld": 0, "o": 0, "##sz": 0, "##ena": 0, "##rio": 0, "erkennt": 0, "erleichtern": 0, "dahin": 0, "vern\u00fcnf": 0, "F\u00fchrungs": 1, "##team": 1, "##\u00fchrung": 0, "ber\u00fchren": 0, "veran": 0, "##schau": 0, "gleichzeitig": 0, "person": 0, "Steuerung": 0, "Lei": 0, "##iede": 0, "Dampf": 0, "##maschinen": 0, "##steuerung": 0, "arrang": 0, "Nacht": 0, "tri": 0, "##via": 0, "##ler": 0, "##w\u00e4": 0, "Unsicherheit": 0, "##wissenschaftler": 0, "Knapp": 0, "beobachten": 0, "vielfach": 0, "\u00fcbersch": 0, "Rat": 0, "Bedenken": 0, "kontrollieren": 0, "Sch": 0, "Spa": 0, "##sich": 0, "orientieren": 0, "nett": 0, "l\u00e4": 0, "schnell": 0, "K\u00fcrze": 0, "Geh": 0, "##emmt": 0, "Initi": 0, "##alz": 0, "##\u00fcndung": 0, "Version": 0, "voll": 0, "par": 0, "##aver": 0, "##bal": 0, "##tem": 2, "##po": 2, "Beton": 2, "##pause": 0, "real": 0, "##sebene": 0, "Gestaltung": 1, "##gst": 0, "##frei": 0, "ermu": 2, "\u00e4u\u00dfern": 0, "Ren": 0, "##omme": 0, "Hand": 0, "langsam": 0, "gew\u00e4hren": 0, "##em": 0, "Tempo": 0, "augen": 1, "autor": 0, "Werkzeuge": 0, "##schullehrer": 0, "40": 0, "##dessen": 0, "##z\u00e4": 0, "##he": 0, "ziemlich": 0, "zust": 0, "Perspektive": 0, "##arch": 0, "as": 0, "##ym": 0, "##met": 0, "##ris": 0, "sozio": 0, "##kultur": 0, "##theorie": 0, "konstru": 0, "##l\u00f6sen": 0, "erzeugen": 0, "anscheinend": 0, "allem": 0, "##schie": 0, "konstruiert": 0, "traditionell": 0, "##\u00e4g": 0, "erlangen": 0, "Absicht": 0, "grav": 0, "##sver": 4, "bitten": 0, "##10": 0, "verhaf": 0, "Vermutung": 0, "##junkt": 0, "##11": 0, "Schwe": 0, "Akte": 0, "jemanden": 0, "wenden": 0, "##angabe": 0, "Frau": 0, "natur": 0, "stil": 0, "##ug": 0, "Erkenntnis": 0, "verp": 0, "##acken": 0, "Probe": 0, "pers\u00f6nlich": 2, "allt\u00e4": 0, "Erk": 0, "##skon": 0, "##struktion": 0, "##information": 0, "ann\u00e4h": 0, "Betrachtung": 0, "sp\u00fcrbar": 0, "Pon": 0, "gibt": 0, "##fluss": 0, "##w\u00e4l": 0, "##atten": 0, "sinn": 0, "##stift": 0, "Bull": 0, "##etin": 0, "vorgestellt": 0, "Entwicklung": 0, "Mechan": 0, "Br\u00fccken": 0, "Voraussetzung": 0, "n\u00e4her": 0, "K\u00f6rper": 0, "##mitte": 0, "Entstehung": 0, "##esch": 0, "##ichte": 0, "Kontakt": 0, "einerseits": 0, "konfron": 0, "andererseits": 0, "##wegs": 0, "gegen\u00fcber": 0, "dist": 1, "kaum": 0, "produ": 0, "Vollendung": 0, "qu": 0, "##leben": 0, "##tischen": 1, "Ansatz": 0, "##abel": 0, "x": 0, "trennen": 1, "##het": 0, "##zeigen": 0, "##ction": 0, "##klam": 0, "get": 0, "##\u00fcrk": 0, "eventuell": 0, "blo\u00df": 0, "Interesse": 0, "automatisch": 0, "Neu": 0, "##gier": 0, "keiner": 0, "Regen": 1, "unauf": 0, "##dring": 0, "nebenbei": 0, "##ns": 0, "##cho": 0, "halb": 0, "nachhaltig": 0, "##echt": 0, "berufen": 0, "daraufhin": 0, "solcher": 0, "##gest": 0, "lautet": 0, "Nenn": 0, "Visier": 0, "jedenfalls": 0, "anstelle": 4, "freilich": 0, "##ischer": 0, "##stecken": 0, "Prom": 8, "ran": 0, "anstatt": 0, "##antie": 0, "Nutzung": 3, "anhalten": 0, "zitiert": 0, "##und": 0, "##dition": 1, "##gebrauch": 0, "##rieb": 0, "##med": 0, "##dar": 1, "##ft": 1, "besser": 0, "##\u00e4r": 0, "##fen": 0, "Zur": 1, "##echsel": 4, "Option": 0, "empfehlen": 0, "zugest": 0, "##anden": 0, "Periode": 0, "##auer": 0, "Modelle": 1, "##rs": 1, "n\u00fctz": 1, "Abb": 0, "##ild": 0, "##ions": 6, "##bewusst": 0, "Aufmerksamkeit": 0, "##enkung": 0, "Inner": 0, "Di": 0, "##\u00e4t": 0, "Abgeordnete": 0, "##schaft": 0, "Alkohol": 0, "Chemie": 0, "Suf": 0, "##fi": 0, "Fle": 0, "##ons": 0, "##quis": 0, "##ki": 0, "##dest": 0, "##on": 0, "begleiten": 0, "Sprachen": 0, "##omen": 0, "wel": 0, "Komposition": 0, "Der": 0, "##iva": 0, "##las": 0, "##ti": 0, "sin": 0, "non": 0, "##ktive": 0, "##lohn": 0, "##tarif": 0, "technische": 0, "M\u00f6glichkeiten": 0, "bezeichnet": 0, "Korrektur": 0, "unbes": 0, "##etzt": 0, "Monitor": 0, "Anzeige": 0, "behauptet": 0, "##ona": 0, "wiederholen": 0, "Hinter": 0, "##t\u00fcr": 0, "kalt": 0, "Metall": 0, "##platte": 0, "ert": 0, "##rinken": 0, "##jar": 1, "##gon": 1, "##wahr": 0, "dauern": 0, "Sekunde": 0, "andauern": 0, "##bewegung": 0, "Heb": 0, "Augen": 0, "##bra": 0, "##ue": 0, "aufmerksam": 0, "Mie": 0, "Erh\u00f6hung": 0, "St\u00fctz": 0, "Studium": 0, "bisher": 0, "vorgehen": 0, "Einst": 0, "##eiger": 0, "Schaden": 0, "##lehr": 0, "Falls": 0, "weiteren": 0, "he": 0, "##mmen": 0, "Umstand": 0, "Foss": 4, "Abbruch": 0, "Sta": 1, "##gna": 1, "erworben": 0, "Null": 1, "##wachstum": 1, "##brechen": 0, "##grad": 0, "demnach": 0, "werfen": 0, "verde": 0, "Aussicht": 0, "Sprung": 0, "gleicherma\u00dfen": 0, "Defizit": 0, "St\u00e4rke": 0, "Mei": 0, "sicher": 0, "junge": 0, "Gl\u00fcck": 0, "Ressourcen": 4, "##blick": 0, "sch\u00e4r": 0, "##\u00fcler": 4, "##freundlich": 2, "##verh": 0, "##alte": 0, "etablieren": 0, "zulassen": 0, "Weichen": 0, "durchsetzen": 0, "##ufa": 0, "##immt": 0, "kunst": 0, "dokumen": 0, "Zweit": 0, "Kas": 0, "beeinfl": 0, "garantiert": 0, "su": 0, "##rate": 0, "Auge": 0, "##\u00e4u\u00dfer": 2, "beurteilen": 0, "herange": 0, "##dia": 0, "##ose": 0, "Ann\u00e4herung": 0, "##treten": 0, "gesagt": 0, "regelm\u00e4\u00dfig": 0, "neutr": 2, "##eing": 1, "##renzung": 1, "##ver": 0, "hervor": 0, "##nor": 4, "##ient": 4, "Nass": 1, "flexibel": 0, "Fol": 0, "##ien": 0, "##ly": 0, "##ruf": 0, "Kriterien": 6, "unum": 0, "##g\u00e4ng": 0, "Over": 0, "##head": 0, "##la": 0, "kritisieren": 0, "Format": 0, "bek": 0, "##ritte": 0, "Ernst": 0, "Zielsetzung": 0, "##schrift": 0, "Leitfaden": 0, "anpassen": 0, "einstellen": 0, "cu": 2, "##rr": 2, "##ic": 2, "##ular": 2, "davon": 0, "direkte": 0, "Rel": 0, "##hre": 0, "##rf": 0, "##ort": 0, "22": 0, "##orientierte": 4, "E": 0, "Aller": 0, "ma\u00dfgeblich": 0, "##bur": 0, "Gesichts": 0, "Fal": 0, "##sif": 0, "versp": 0, "##\u00fcren": 0, "Verw": 2, "##enden": 2, "Stellungnahme": 1, "N\u00e4chste": 0, "meine": 0, "Wenig": 0, "basierend": 0, "mark": 0, "Meinung": 0, "V": 0, "2007": 0, "wagen": 0, "##flie\u00dfen": 0, "erinnern": 0, "R\u00fcckgabe": 0, "Schulzeit": 0, "##f\u00f6rder": 0, "Auseinander": 0, "Spielen": 1, "eil": 0, "##abelle": 0, "##ack": 0, "Zoll": 0, "Halbjahr": 0, "melden": 0, "sodass": 0, "##zu": 0, "##wachs": 0, "ausgehen": 0, "##ender": 0, "Resonanz": 0, "Panorama": 0, "##inn": 2, "probieren": 0, "##abell": 0, "##emp": 0, "tot": 0, "Transparenz": 2, "Wurzeln": 0, "schlagen": 0, "Know": 0, "how": 0, "Dienst": 0, "##ecu": 0, "hind": 0, "##euten": 0, "mobil": 0, "jedes": 0, "Y": 0, "realisieren": 0, "Ausw": 0, "Leg": 0, "##esp": 0, "##iel": 0, "Realit\u00e4t": 0, "Math": 0, "Zahl": 0, "Pu": 0, "##zz": 0, "Fleck": 0, "verlangen": 0, "Ver": 0, "##verl": 0, "nennt": 0, "t\u00e4gliche": 0, "Brot": 0, "geb": 0, "##\u00fchren": 0, "##odie": 0, "##dens": 0, "##piel": 0, "Fitness": 0, "ant": 0, "l\u00e4uft": 0, "##xe": 0, "German": 0, "##hei": 0, "St": 1, "##\u00e4tte": 1, "Angelegenheit": 0, "voneinander": 0, "Leib": 0, "Aspekte": 0, "menschliche": 0, "Reg": 0, "voller": 1, "Vera": 0, "minder": 0, "G\u00fcte": 0, "Kompl": 0, "##iziert": 0, "konzip": 0, "Erfahrungen": 0, "Wer": 0, "kennt": 0, "Kla": 0, "##strahl": 0, "mehrmals": 0, "dank": 0, "falsche": 0, "##land": 0, "hoff": 1, "##\u00e4rt": 1, "##vis": 0, "cle": 0, "##wand": 0, "Behauptung": 0, "aufeinander": 0, "enden": 0, "Schw\u00e4che": 0, "gelegentlich": 0, "Mangel": 2, "##tigen": 0, "##zentrum": 0, "Er\u00f6ffnung": 0, "Sorge": 0, "verraten": 0, "Philosophie": 0, "Sens": 0, "Erm": 0, "##angel": 0, "##imo": 0, "verl\u00e4ngert": 0, "beacht": 0, "##opp": 0, "beeindruckt": 0, "pr\u00e4": 0, "##grenze": 0, "verdienen": 0, "au\u00dferhalb": 0, "ausschlie\u00dflich": 0, "##\u00fcss": 0, "Fett": 0, "Auftrag": 0, "gro\u00dfartig": 0, "##imi": 0, "##nier": 0, "Linie": 0, "Philosoph": 0, "interessant": 2, "##ma\u00df": 0, "gep": 0, "##ols": 0, "##tert": 0, "fantast": 0, "Wertpapier": 0, "Beleg": 0, "inform": 2, "Theo": 0, "##ret": 0, "##ana": 0, "##s\u00e4tzlich": 0, "Standpunkt": 0, "unterm": 0, "##auern": 0, "geblieben": 0, "##udi": 0, "Gegeben": 0, "Arbeitsplatz": 0, "gro\u00dfer": 0, "Wichtig": 0, "##wurf": 1, "Vorsicht": 0, "wa": 0, "##lt": 0, "Hed": 2, "##ging": 2, "##\u00f6t": 0, "##igt": 0, "State": 0, "##ilien": 0, "Standort": 0, "##schluss": 1, "Posit": 0, "Mitarbeiter": 0, "##r\u00fcckt": 0, "##erkl\u00e4rung": 1, "ausbauen": 0, "Entwicklungs": 1, "bed": 0, "##\u00fcrf": 0, "wohin": 0, "Amts": 0, "Organisation": 1, "Institution": 1, "##\u00fcre": 0}, "I-Feedback_Criteria": {"[UNK]": 132, "3": 0, ")": 36, "Analyse": 5, "##rahmen": 2, "zur": 2, "Sprach": 41, "##lichkeit": 6, "des": 6, "Fach": 34, "##lernen": 0, "##s": 7, "(": 36, "angel": 0, "##ehnt": 0, "an": 19, "Ta": 0, "##jm": 0, "##el": 0, "&": 0, "Voll": 0, "##mer": 0, "/": 38, "Th\u00fcr": 0, "##mann": 2, ";": 0, "Lo": 0, "##hs": 0, "##e": 9, "1": 0, ".": 11, "Gibt": 0, "es": 6, "sprach": 94, "##liche": 2, "H\u00fcrden": 2, ",": 36, "die": 7, "das": 0, "fach": 12, "Lernen": 10, "beh": 0, "##indern": 1, "k\u00f6nnten": 0, "?": 0, "2": 6, "Lern": 40, "##gelegen": 0, "##heiten": 0, "in": 92, "der": 197, "Stunde": 6, "f\u00fcr": 22, "typische": 4, "\u201e": 14, "Ritu": 2, "##ale": 2, "\u201c": 18, "Eng": 0, "treiben": 1, "Nar": 1, "##de": 39, "Unterricht": 15, "##liches": 0, "##handel": 2, "##n": 30, "Typ": 0, "##ische": 0, "Disk": 8, "##urs": 8, "##funktionen": 0, "Materialien": 0, "Rezeption": 1, "Mittel": 27, "Produktion": 1, "Zu": 3, "erstellen": 3, "Texte": 2, "\u2022": 0, "Muss": 0, "m\u00fcnd": 8, "Unterrichts": 26, "-": 22, "inter": 2, "##aktion": 21, "gest\u00fctzt": 4, "werden": 12, "M\u00fc": 0, "##ssen": 0, "SU": 0, "##S": 0, "Informationen": 2, "besch": 6, "##affen": 6, "eine": 4, "Ergebnis": 6, "##pr\u00e4sent": 2, "##ation": 2, "##lich": 112, "Ist": 0, "Met": 2, "##ako": 0, "##mm": 7, "##uni": 0, "##kat": 4, "##ion": 7, "\u00fcber": 11, "##prozess": 2, "geplant": 2, "Wie": 0, "gehe": 0, "ich": 14, "mit": 37, "Fehler": 30, "um": 5, "K\u00f6nnen": 2, "##er": 2, "im": 5, "Laufe": 0, "##funktion": 8, "ein": 55, "##\u00fcben": 14, "Etwas": 0, "beschreiben": 0, "erkl\u00e4ren": 2, "diskutieren": 0, "aus": 12, "argumen": 0, "##tieren": 0, "oder": 18, "bewerten": 1, "Spiel": 0, "##t": 12, "Text": 27, "##sor": 10, "##te": 3, "Rolle": 2, "deren": 0, "Merkmale": 0, "explizit": 0, "gemacht": 0, "m\u00fcssen": 3, "re": 2, "##zept": 0, "##iven": 0, "Kern": 6, "##wort": 9, "sch": 2, "##atz": 4, "unbekannt": 0, "ist": 0, "Stehen": 0, "bestimmte": 2, "##begriff": 10, "Wort": 11, "##feld": 4, "Zentrum": 3, "Welche": 0, "konkreten": 0, "##schatz": 8, "ben\u00f6tigen": 1, "Sch\u00fcler": 39, "Aufgabe": 9, "zu": 137, "l\u00f6sen": 0, "Wahrnehmung": 1, "##bereitung": 1, "Mitteln": 5, "Sprache": 26, "verhandeln": 0, "nicht": 20, "erschlossen": 0, "weg": 0, "Dreh": 1, "und": 84, "Angel": 1, "##punkt": 1, "brauchen": 1, "Gef": 3, "##ol": 3, "##gs": 3, "Art": 0, "Bereitstellung": 4, "domin": 0, "##ante": 0, "gra": 7, "##atische": 0, "Form": 12, "ben\u00f6tigt": 2, "wird": 2, "typischen": 0, "Rede": 20, "##mittel": 17, "meines": 2, "##es": 2, "k\u00f6nnte": 2, "fokuss": 2, "##ieren": 39, "##fordern": 5, "Wird": 0, "bestimmtes": 0, "Register": 4, "erfordert": 2, "einzu": 0, "##halten": 0, "struktur": 2, "Kann": 0, "Erste": 0, "##llen": 0, "von": 83, "##ko": 10, "##h\u00e4re": 11, "##z": 11, "\u201a": 10, "rote": 2, "##r": 3, "Faden": 12, "\u2018": 10, "einge": 2, "##\u00fcbt": 2, "Wann": 0, "gebe": 0, "Feed": 23, "##back": 25, "Versorgung": 2, "fordern": 1, "Song": 1, "##text": 3, "##bilden": 12, "##d": 22, "planen": 3, "Schul": 3, "##unterricht": 15, "identifizieren": 2, "sie": 12, "Aspekt": 4, "schwierig": 2, "sein": 18, "nennen": 0, "daraus": 0, "folgen": 0, "m\u00f6glich": 1, "##ziel": 14, "=": 0, "Bedarfs": 0, "##analyse": 0, "+": 0, "##bestimmung": 0, "so": 6, "##dann": 0, "w": 5, "##\u00f6rtlich": 5, "erl\u00e4u": 0, "##tern": 0, "wie": 2, "dieser": 12, "Schwerpunkt": 4, "konkret": 5, "umgehen": 5, "Wirklichkeit": 1, "man": 5, "erz\u00e4hlt": 1, "sich": 3, "welche": 4, "Hilfs": 4, "##angebot": 3, "bereits": 7, "##telle": 6, "Stellung": 0, "bringen": 0, "Zusatz": 0, "##material": 8, "denkbar": 0, "innov": 2, "##ativ": 2, "spieler": 2, "##isch": 11, "Methode": 7, "*": 6, "innen": 43, "k\u00f6nnen": 14, "Kurz": 0, "anhand": 0, "selbst": 0, "produziert": 0, "Plak": 0, "##at": 1, "begr\u00fcnden": 0, "warum": 0, "Milch": 0, "##ku": 0, "##h": 0, "Nutz": 0, "##tier": 0, "Te": 0, "##acher": 0, "_": 6, "fe": 2, "##ed": 2, "mich": 0, "jetzt": 2, "Teil": 6, "Einheit": 0, "spannend": 0, "noch": 10, "sehen": 1, ":": 46, "kommen": 0, "Ziel": 12, "innerhalb": 2, "via": 0, "angefertigt": 0, "Dauer": 0, "##seller": 0, "Zwischen": 0, "##schritt": 4, "Gemeinsam": 0, "##keit": 4, "er": 3, "##sp": 4, "##\u00e4he": 0, "Klasse": 0, "gemeinsam": 1, "Informations": 3, "Thema": 10, "lesen": 0, "dabei": 2, "besprechen": 3, "Vor": 11, "##wissen": 10, "aktiv": 15, "Haltung": 4, "Herstellung": 0, ">": 0, "hier": 3, "nochmal": 1, "genau": 2, "schauen": 0, "was": 4, "!": 0, "vorstellen": 1, "einfach": 1, "Plen": 0, "##um": 2, "eher": 2, "Lese": 0, "##stra": 0, "##teg": 0, "##ia": 0, "Leser": 0, "##out": 0, "##ine": 0, "Kind": 5, "eigens": 4, "##t\u00e4": 8, "##nd": 4, "##ig": 7, "Erl": 1, "##esen": 0, "vermitteln": 0, "Artikel": 2, "bei": 8, "Begriff": 13, "denken": 6, "miteinander": 1, "Gehalt": 1, "##iert": 4, "##aus": 0, "##druck": 0, "kritisch": 1, "bele": 1, "##uchten": 1, "Fertigung": 0, "Cash": 0, "##co": 0, "##w": 0, "do": 0, "##mes": 0, "##tiz": 0, "##iertes": 0, "Tier": 0, "##hink": 0, "##ommen": 0, "zum": 1, "ersten": 0, "Mal": 0, "pe": 0, "##ni": 0, "##bel": 0, "vor": 3, "##f\u00fchren": 3, "Nach": 0, "##komme": 0, "Ly": 1, "##ric": 1, "Name": 1, "Schlei": 1, "##fe": 2, "##bauen": 4, "euch": 0, "Verlauf": 0, "##produkt": 8, "nun": 2, "gegenseitig": 0, "nutzen": 0, "gern": 0, "##hilfe": 12, "Material": 2, "##the": 0, "##ke": 0, "Stufe": 0, "einzeln": 2, "erst": 2, "dann": 0, "Ende": 1, "produzieren": 0, "herstellen": 0, "Us": 0, "differenz": 1, "Satz": 0, "##baus": 0, "##in": 2, "##anfang": 0, "L\u00fccken": 0, "Vorber": 0, "##eiten": 0, "Pr\u00e4sentation": 3, "mu": 0, "##w\u00e4rts": 0, "Wende": 1, "##schlei": 1, "##beziehen": 0, "Freude": 0, "gesucht": 1, "Bild": 2, "anfangs": 0, "Ebene": 0, "h\u00f6ren": 0, "vorbereiten": 0, "falsch": 4, "aber": 5, "individ": 0, "##ualisiert": 0, "auf": 29, "Differenz": 5, "##ierungs": 4, "stehen": 3, "sollen": 3, "jed": 0, "passend": 2, "Sc": 14, "##aff": 18, "##old": 20, "##suchen": 0, "davor": 0, "abge": 1, "##tan": 1, "Aufgaben": 5, "##stellung": 8, "erstmal": 0, "Ok": 0, "wichtig": 0, "wo": 1, "finden": 4, "Hilfe": 25, "Z": 0, "B": 2, "einst": 0, "##eigen": 0, "auch": 11, "##sa": 0, "##ktiv": 0, "##ierung": 12, "n\u00f6tig": 0, "fair": 0, "m\u00e4chtig": 0, "Mithilfe": 1, "##klin": 0, "##ken": 1, "Sachver": 2, "##halt": 4, "einzig": 0, "relevant": 0, "daf\u00fcr": 0, "ebenfalls": 0, "ob": 1, "wirklich": 0, "Unterschied": 1, "unterschiedlich": 0, "Reihenfolge": 0, "kl\u00e4ren": 0, "ganz": 1, "transparent": 2, "diesem": 0, "Zeitpunkt": 0, "ine": 0, "##gal": 0, "Vari": 0, "oben": 0, "Unterscheidung": 2, "In": 0, "Zwei": 0, "##erte": 0, "##am": 0, "jeweils": 0, "vorgegeben": 0, "Pfeil": 0, "Verf\u00fcgung": 6, "stellen": 8, "##\u00fcte": 0, "diver": 0, "Lebensmittel": 0, "quasi": 0, "Proze\u00df": 0, "Produkt": 4, "gut": 3, "Idee": 5, "hoffentlich": 0, "##riften": 0, "lassen": 3, "doch": 0, "super": 0, "Vorgang": 0, "nochmals": 0, "schon": 4, "zeigen": 2, "als": 3, "zus\u00e4tzlich": 0, "wer": 0, "nehmen": 1, "einig": 2, "reichen": 0, "vielleicht": 0, "nur": 4, "##sprach": 7, "Verb": 0, "verstehen": 4, "nach": 2, "Ein": 4, "Partner": 0, "##arbeit": 0, "pr\u00e4sentieren": 3, "also": 0, "klar": 5, "Wiederholung": 0, "##ss": 0, "##ch": 6, "##lei": 0, "gleich": 0, "Auf": 0, "##schreiben": 0, "anfangen": 0, "Aus": 4, "##hang": 0, "erarbeiten": 4, "Eben": 0, "##bild": 0, "Order": 0, "Ste": 0, "##ady": 0, "Milcher": 0, "##zeugnis": 0, "Nahrung": 0, "Erzeugnis": 0, "dein": 0, "Wille": 0, "gesch": 0, "##ehe": 0, "Offenbar": 0, "##ung": 46, "den": 1, "Mund": 1, "betreffend": 2, "entdecken": 0, "packen": 0, "Panz": 0, "Beginn": 2, "fertigen": 0, "Kid": 0, "##die": 0, "Geschehen": 0, "Arbeit": 0, "Tan": 0, "##dem": 0, "einem": 0, "Gu": 0, "beginnen": 0, "##ams": 0, "Anordnung": 0, "bestimmen": 2, "##ordnen": 0, "erwarten": 2, "Antwort": 2, "Begr\u00fcndung": 0, "gerade": 0, "fallen": 0, "mir": 0, "schwer": 2, "Mehrwert": 0, "erkennen": 9, "sehr": 7, "anspruchs": 0, "##voll": 0, "ba": 0, "##na": 0, "##l": 7, "weil": 0, "Kuh": 0, "geben": 11, "damit": 2, "K\u00e4se": 0, "machen": 3, "unklar": 0, "Muster": 2, "##l\u00f6sung": 0, "aussehen": 1, "Stelle": 4, "sinnvoll": 2, "zusammen": 0, "Rational": 0, "##isierung": 2, "speziell": 0, "##ucht": 0, "##war": 0, "##m": 0, "G": 4, "##sch": 4, "##rop": 2, "##p": 3, "##\u00e4hler": 0, "##leiten": 2, "##teil": 1, "Dunkel": 0, "Kol": 1, "##ori": 1, "Fazit": 0, "insgesamt": 2, "gehen": 1, "richtig": 6, "Richtung": 1, "vorhanden": 6, "allerdings": 1, "kurz": 0, "wieso": 0, "fehlen": 0, "stark": 1, "##bindung": 4, "M\u00fcn": 3, "##dlich": 3, "ab": 2, "##zielen": 0, "alle": 0, "Fest": 0, "durch": 21, "paar": 0, "Austausch": 5, "##runde": 2, "locker": 0, "ausf\u00fchrlich": 2, "Diskussion": 2, "indem": 0, "Recherche": 0, "Beitrag": 0, "Rinder": 0, "##haltung": 1, "Klimawandel": 0, "usw": 0, "Pod": 0, "##iums": 0, "##disk": 1, "##ussion": 0, "zwischen": 0, "Bauer": 0, "Klima": 0, "##aktiv": 0, "##ist": 0, "Veg": 0, "##aner": 0, "gegeneinander": 0, "st\u00fctzen": 16, "nat\u00fcrlich": 0, "da": 0, "Potential": 4, "la": 0, "##tent": 0, "Gr\u00f6\u00dfe": 0, "am": 1, "Lager": 0, "gest": 0, "##ochen": 0, "Worte": 7, "mitgeteilt": 7, "energ": 0, "Kleiner": 0, "angeben": 1, "Mist": 0, "##vie": 0, "Or": 1, "##alit\u00e4t": 2, "ebenso": 0, "beim": 0, "Wick": 0, "kriegen": 0, "Paar": 0, "##menge": 0, "Wandel": 0, "strenge": 0, "Veget": 0, "##arier": 0, "lin": 1, "##gu": 1, "##istisch": 1, "##ielen": 0, "Anlage": 0, "ihr": 18, "Dreier": 2, "##gruppe": 2, "knapp": 6, "De": 0, "Fac": 0, "##to": 0, "drei": 0, "##aufgabe": 2, "w\u00fcnschen": 0, "##swert": 0, "haben": 7, "Planung": 0, "aufnehmen": 0, "##isieren": 1, "plus": 0, "weit": 4, "Person": 0, "mindestens": 0, "wirken": 0, "etwas": 6, "z": 3, "##\u00f6ger": 3, "trauen": 0, "ruhig": 0, "kre": 0, "##ativer": 0, "lebendig": 0, "solange": 0, "zentral": 3, "##bildungs": 6, "##prinzip": 4, "Inter": 13, "Ans": 1, "##cha": 1, "##uu": 1, "##ng": 1, "##sm": 0, "##aterial": 0, "Map": 0, "inspir": 0, "https": 0, "mo": 0, "##od": 0, "##le": 0, "##lab": 0, "hu": 0, "ber": 0, "##lin": 0, "de": 0, "mod": 0, "ur": 0, "view": 0, "ph": 0, "id": 0, "111": 0, "Gegenstand": 2, "begr\u00fc\u00dfen": 0, "Int": 0, "##ui": 0, "##tion": 1, "unent": 3, "##schlossen": 1, "verhei": 0, "##raten": 0, "Bewegung": 0, "Anregung": 3, "##blicken": 0, "St\u00e4rkung": 1, "gehabt": 0, "##arbeiten": 0, "Umsetzung": 0, "Se": 2, "##quenz": 2, "Entlastung": 0, "sowie": 0, "\u00c4nderung": 0, "Sozial": 4, "##form": 16, "viele": 0, "umsetzen": 2, "Station": 0, "##gf": 2, "Check": 0, "i": 1, "Warm": 0, "up": 0, "bevor": 0, "verteilen": 0, "drin": 4, "##glich": 1, "Schuld": 0, "##befrei": 0, "##z\u00fcglich": 0, "unter": 4, "Leute": 0, "dennoch": 0, "vollst\u00e4ndig": 0, "##bildung": 2, "##nu": 2, "##tz": 2, "##en": 13, "##kart": 0, "vorrangig": 0, "ohne": 3, "diese": 2, "abs": 0, "##ds": 0, "##los": 1, "unterst": 0, "##reichen": 0, "##durch": 1, "aufs": 3, "Neue": 1, "Formul": 0, "helfen": 0, "meist": 0, "wissen": 5, "ja": 0, "versprach": 0, "##g\u00e4ngig": 0, "all": 1, "Opera": 16, "##tor": 16, "schreiben": 0, "Definition": 0, "wenig": 2, "Ro": 1, "##ot": 1, "User": 1, "All": 0, "Unter": 0, "begr": 0, "##iff": 0, "Abgrenzung": 0, "el": 0, "##ement": 0, "##ar": 0, "starten": 0, "Karte": 0, "Funktion": 1, "zumindest": 0, "liefern": 0, "versammel": 2, "enthalten": 0, "##speicher": 0, "Bruch": 0, "eindeutig": 0, "gr\u00f6\u00dftenteils": 0, "allein": 0, "einige": 0, "Bananen": 0, "##oper": 0, "##ator": 0, "ihnen": 2, "einsch": 2, "##mu": 0, "##gge": 0, "##ln": 0, "\u00fcberhaupt": 7, "keinerlei": 0, "Aussage": 1, "##kraft": 4, "v": 2, "a": 0, "meinen": 0, "passieren": 0, "##zw": 2, "wenn": 1, "Vergleich": 0, "Ansicht": 0, "##skar": 0, "##gas": 0, "##mus": 0, "Spr": 1, "##\u00f6ss": 0, "##ling": 0, "##rei\u00dfen": 0, "##emit": 0, "##haft": 0, "sieben": 0, "ar": 1, "##ithm": 1, "##etische": 1, "okay": 0, "ap": 0, "##ost": 0, "##roph": 0, "Fall": 1, "dringend": 0, "analysieren": 0, "eigen": 2, "Sche": 1, "##ma": 0, "durchge": 0, "##hen": 1, "betrachten": 0, "L\u00f6sung": 0, "lauten": 0, "wiederum": 0, "H\u00fcr": 25, "mein": 0, "vermutlich": 0, "form": 2, "##ulieren": 2, "irgendwie": 0, "##sal": 0, "ander": 4, "Formulierung": 2, "##shi": 0, "##lf": 0, "unterst\u00fctzen": 5, "##\u00f6ren": 0, "vorschlagen": 0, "Vorstellung": 1, "Problem": 0, "##bes": 0, "##eitigung": 0, "vorher": 0, "##sehen": 0, "L\u00f6sungs": 0, "##ansa": 0, "weiteres": 0, "belief": 0, "##ern": 0, "mehr": 0, "weniger": 0, "Betreuung": 1, "multi": 0, "##faktor": 0, "##iell": 0, "\u00dcber": 13, "##legen": 2, "##reiben": 2, "erfolgen": 2, "Schrift": 8, "##sprache": 26, "not": 0, "sp\u00e4t": 0, "O": 0, "\u00c4": 0, "wozu": 0, "denn": 0, "sonst": 0, "daran": 1, "schlie\u00dfen": 0, "letzt": 0, "Punkt": 0, "wann": 2, "pass": 0, "##genau": 0, "##oss": 1, "Demonstration": 0, "hohe": 0, "bem\u00fc": 0, "##\u00dfig": 0, "Ki": 0, "##ste": 0, "R\u00fcck": 4, "##meldung": 4, "erkennbar": 4, "mittels": 0, "##ta": 1, "##rk": 1, "n\u00fctzlich": 0, "Sicht": 0, "schwach": 0, "unsicher": 0, "immer": 0, "gro\u00df": 0, "Herausforderung": 2, "##karte": 0, "bede": 0, "##nk": 0, "##termin": 1, "##ologie": 1, "Liebe": 0, "Kir": 0, "##sten": 0, "##idee": 2, "viel": 6, "leider": 1, "deutlich": 0, "Beschreibung": 0, "Vogel": 0, "erreichen": 0, "Schwier": 2, "##igkeit": 4, "Deutsch": 0, "hierf\u00fcr": 0, "kn": 0, "##lig": 2, "komplex": 0, "vorge": 0, "##ben": 2, "wegen": 0, "hoch": 5, "##an": 3, "##forderung": 5, "sondern": 0, "klein": 2, "arbeiten": 0, "Farbe": 0, "ohnehin": 0, "Farb": 0, "Bestandteil": 0, "minim": 0, "##al": 1, "Anzahl": 0, "Feder": 0, "n": 0, "Schnabel": 0, "Brust": 0, "Steck": 0, "##brief": 0, "wollen": 0, "spontan": 0, "falls": 1, "##stehen": 0, "hoffen": 0, "ber\u00fccksichtigen": 1, "ansonsten": 0, "'": 0, "s": 0, "kla": 0, "##ppen": 1, "Leidenschaft": 0, "Bud": 0, "r\u00fccken": 0, "Knie": 0, "##bei": 0, "##\u00dfer": 0, "Off": 0, "du": 0, "##fte": 0, "Geb\u00e4ude": 0, "##komplex": 0, "Mon": 0, "##ade": 0, "t\u00e4tig": 0, "sowieso": 0, "Element": 0, "Nu": 0, "##us": 0, "Mam": 0, "zug": 0, "##ange": 0, "einen": 1, "Besuch": 0, "##tat": 0, "##ten": 0, "vorausgesetzt": 0, "dass": 2, "Zun": 0, "##eigung": 0, "beher": 0, "##zigen": 0, "vorteil": 0, "vorne": 0, "##weg": 2, "kein": 0, "Entwurf": 0, "4": 0, "5": 0, "6": 0, "fr\u00fche": 0, "##stens": 0, "sowohl": 0, "Erwart": 0, "anbieten": 1, "vieler": 0, "eingest": 0, "##\u00e4ndig": 0, "anschauen": 0, "intensiv": 0, "zurecht": 0, "fassen": 1, "verf": 2, "##\u00e4nglich": 0, "Vorlage": 0, "vollkommen": 0, "au\u00dfen": 0, "##lassen": 0, "Wissens": 4, "##aufbau": 2, "woher": 0, "Info": 0, "Kopf": 0, "dort": 0, "bestehend": 0, "Wissen": 11, "vern": 0, "##etzen": 0, "exist": 0, "##ent": 0, "##gan": 0, "##listen": 0, "##sicherung": 0, "##besch": 2, "##affung": 2, "hei\u00dfen": 0, "Rest": 0, "angesprochen": 0, "liter": 1, "##arische": 1, "Werk": 4, "aufbauen": 6, "vergessen": 1, "##dr": 0, "inner": 2, "##vier": 1, "Verst\u00e4nd": 2, "##igung": 4, "fremde": 0, "Gruppe": 2, "Klassen": 0, "##stufe": 0, "Inhalt": 1, "##fassen": 0, "erz\u00e4hlen": 0, "neu": 6, "gezwungen": 0, "gr": 0, "##upp": 1, "anders": 0, "direkt": 3, "auffallen": 0, "Lesen": 0, "betre": 0, "##uen": 0, "Su": 0, "##jet": 0, "studieren": 0, "sonn": 0, "fa": 0, "##bri": 0, "##zier": 0, "stattfinden": 0, "Versp": 0, "##rach": 0, "Alltags": 4, "statt": 10, "Unterst\u00fctzung": 7, "Bildungs": 8, "Gef\u00fchl": 0, "Moment": 0, "##sens": 8, "##ib": 4, "veranstaltet": 0, "Volks": 2, "##mund": 2, "daher": 0, "mechan": 0, "leb": 0, "gl\u00fcck": 0, "zer": 0, "##spl": 0, "##ittern": 0, "##springen": 0, "abstra": 0, "##kt": 2, "Ah": 0, "##a": 1, "verbinden": 0, "Empfehlung": 0, "versuchen": 0, "rund": 0, "Ganze": 0, "Teils": 0, "##ritt": 0, "##binden": 0, "Test": 0, "heraus": 4, "##stellen": 0, "##orientierung": 0, "verste": 0, "##if": 0, "f\u00fchren": 2, "eben": 0, "Eindruck": 2, "au\u00dferdem": 0, "rau": 0, "##mg": 0, "##reifen": 0, "wir": 2, "gar": 0, "mal": 6, "fast": 0, "nichts": 0, "sagen": 0, "bleiben": 2, "dargestellt": 0, "Vorgehensweise": 1, "Hinsicht": 2, "allgemein": 2, "##uliert": 2, "Kooperation": 0, "##vern": 2, "##etzung": 2, "Beihilfe": 2, "Umgang": 7, "Handhabung": 0, "Reise": 0, "##plan": 0, "pla": 0, "##ibel": 4, "verb": 3, "##uchen": 0, "##sr": 0, "##unde": 0, "ungeh": 0, "##obel": 0, "##ter": 6, "Kerl": 0, "##gr": 1, "##\u00fc": 3, "##ppchen": 1, "Ent": 0, "##werfen": 0, "buchen": 0, "weitaus": 0, "soll": 0, "##nt": 1, "##asi": 0, "##eb": 0, "##ega": 0, "##bt": 0, "Erlebnis": 0, "sens": 0, "gesammelt": 1, "Bei": 1, "##stand": 13, "no": 0, "##etisch": 1, "lieben": 0, "##sw\u00fcrd": 0, "##iger": 0, "##weise": 3, "Ab": 0, "Drei": 0, "##eck": 0, "vorn": 0, "##oti": 0, "##eren": 0, "m\u00f6gen": 0, "spielen": 0, "##techn": 1, "bemerken": 1, "gemein": 0, "muss": 0, "ti": 0, "gew\u00e4hlt": 0, "zudem": 0, "Vie": 0, "##ee": 0, "grunds\u00e4tzlich": 0, "\u00fcberlegen": 2, "Einstieg": 2, "gestalten": 5, "Aktivit\u00e4t": 2, "inhaltlich": 0, "rot": 8, "bis": 0, "fortsetzen": 0, "h\u00e4ngen": 0, "los": 0, "Raum": 0, "##be": 0, "##zug": 0, "Fokus": 4, "welcher": 4, "Themenk": 0, "##omp": 0, "##lex": 5, "passen": 0, "danach": 0, "##reihe": 0, "ober": 0, "##fl\u00e4ch": 0, "punkt": 0, "##uell": 0, "betreffen": 0, "Weiteren": 0, "mitmachen": 0, "per": 0, "se": 0, "unver": 0, "##et": 0, "##motiv": 1, "kommun": 0, "herunter": 1, "##h\u00e4ngen": 0, "Region": 0, "hat": 0, "irgend": 1, "##jemand": 0, "jemand": 0, "Detail": 0, "##ech": 0, "##bar": 2, "Vis": 1, "##ualisierung": 1, "dazu": 0, "F\u00f6rderung": 0, "##\u00f6n": 0, "##nen": 1, "keine": 0, "Symbol": 0, "Arbeits": 4, "##auftrag": 1, "hinter": 0, "stif": 0, "Sprech": 2, "##bl": 0, "##ase": 0, "Einzel": 0, "w\u00e4hlen": 0, "Modus": 1, "bild": 6, "##licher": 0, "Job": 0, "##wenden": 0, "Geschichte": 0, "Merkmal": 5, "Jahreszeit": 0, "themat": 0, "unbedingt": 0, "##auf": 2, "##nehmen": 4, "Beispiel": 0, "suchen": 0, "##ziehen": 0, "legitim": 0, "##ierbar": 0, "langen": 0, "kurzer": 0, "Sinn": 2, "zwingend": 0, "h\u00f6chste": 0, "Ma\u00dfe": 0, "ta": 0, "##uschen": 0, "aktiviert": 0, "##lichen": 0, "Sache": 0, "eint": 0, "##auschen": 0, "Mission": 0, "getrennt": 0, "Kapit": 0, "##ulation": 0, "Nachwuchs": 0, "experimente": 0, "##ll": 0, "Erf": 0, "##ors": 0, "##chen": 0, "##helfen": 0, "Taschen": 0, "##lam": 0, "##pe": 0, "Licht": 0, "##quelle": 0, "Glob": 0, "Ball": 0, "erg": 0, "##r\u00fc": 0, "##nde": 0, "Information": 1, "Videos": 0, "Tafel": 0, "Nachrichten": 0, "##gehalt": 0, "versch": 2, "##anzen": 0, "##ungs": 7, "##hor": 0, "##izont": 0, "erg\u00e4nzen": 0, "sicherer": 0, "Quelle": 0, "##k\u00f6mm": 0, "hinzu": 0, "##rech": 0, "Verfolg": 0, "umf": 0, "##orm": 2, "abgetr": 0, "##ennt": 0, "best": 0, "Brief": 0, "Handhab": 0, "Kontext": 3, "zwei": 0, "Buch": 0, "##seite": 0, "wobei": 0, "Vorbereitung": 0, "Lieblings": 0, "##jahres": 0, "##zeit": 2, "##x": 0, "Sitz": 0, "##kreis": 0, "d\u00fcrfen": 0, "Anfang": 0, "Ursache": 0, "Bel": 1, "##ang": 1, "beide": 2, "Universum": 0, "##fahr": 0, "Graph": 0, "##ik": 2, "Saison": 0, "lau": 0, "##schen": 2, "Hintergrund": 0, "Kleinen": 1, "zukommen": 0, "Umlauf": 0, "Kreis": 0, "je": 0, "nachdem": 0, "m\u00f6glichst": 6, "vis": 0, "Syn": 0, "##onym": 0, "Erkl\u00e4r": 0, "experimen": 0, "S": 0, "8": 0, "Seite": 2, "durchs": 0, "##chi": 0, "##mmer": 0, "offenbar": 0, "Experiment": 0, "##ein": 1, "##att": 0, "testen": 0, "Honig": 0, "sau": 0, "##gen": 1, "Band": 0, "aust": 0, "##est": 0, "Fla": 0, "sei": 0, "Studie": 0, "Experten": 0, "b": 0, "Frage": 13, "verschieden": 4, "Zeit": 0, "anderer": 0, "Suche": 0, "ideal": 1, "sprechen": 0, "Bilder": 0, "##folg": 0, "ggf": 0, "\u00dcbertragung": 0, "Heft": 0, "Abschluss": 0, "Reflex": 0, "geteilt": 0, "abgeben": 0, "Gro\u00df": 0, "##unternehmen": 0, "kosten": 0, "Zugangs": 0, "Ret": 0, "##rie": 0, "##val": 0, "Maxim": 0, "st": 1, "##utz": 1, "min": 0, "##i": 1, "##ars": 0, "##itzung": 0, "unbe": 1, "##deuten": 0, "##samm": 0, "di": 2, "##da": 2, "##ktisch": 2, "T": 0, "unten": 0, "anf": 0, "##\u00fcgen": 0, "Kommentar": 1, "ignor": 0, "En": 0, "Klarheit": 4, "dar\u00fcber": 0, "insbesondere": 0, "M\u00f6glichkeit": 0, "Wasser": 0, "##lauf": 0, "verd": 0, "##unsten": 0, "flie\u00dfen": 0, "tats\u00e4chlich": 1, "Denken": 6, "seit": 0, "Monat": 0, "lernen": 0, "##qu": 1, "##ick": 1, "interessieren": 0, "##san": 0, "##gebot": 0, "gebracht": 1, "blu": 0, "##ts": 4, "##verw": 0, "##andt": 0, "Per": 0, "##ip": 0, "##hra": 0, "##se": 0, "sk": 0, "##izz": 0, "sch\u00e4tzen": 1, "ger": 0, "##man": 0, "erl": 0, "##ernen": 0, "Kritik": 0, "zwar": 2, "##fertigt": 0, "##mat": 0, "Stichwort": 0, "F\u00fcll": 0, "leisten": 0, "entsprechend": 0, "defen": 2, "##siv": 2, "Motivation": 0, "verlassen": 0, "einmal": 0, "beantworten": 0, "recht": 0, "##lastung": 0, "Gruppen": 2, "##dehn": 0, "ents": 0, "##leun": 0, "##igen": 0, "ent": 0, "##lasten": 0, "Besten": 0, "##stoff": 0, "gerne": 0, "verteidigen": 0, "tro": 0, "##st": 0, "##gangs": 0, "Segen": 0, "##eit": 0, "verlang": 0, "##samen": 0, "ansprechen": 0, "Planungs": 0, "hinein": 1, "##schauen": 0, "achten": 0, "einsetzen": 5, "jewei": 2, "Ern\u00e4hrung": 0, "Ding": 0, "Lebe": 0, "##wesen": 0, "Mensch": 0, "essen": 0, "Frucht": 0, "Inse": 0, "Maus": 0, "Fisch": 0, "Blatt": 0, "Katalog": 0, "Kategorie": 2, "Lebensraum": 0, "Ort": 0, "leben": 0, "Ern\u00e4hrungs": 0, "Gesch": 0, "##\u00f6pf": 0, "Ess": 0, "##sachen": 0, "Hex": 0, "##apo": 0, "Liebes": 0, "##per": 0, "Zwie": 0, "##fisch": 0, "Bir": 0, "##ne": 1, "wesentlich": 0, "Anlass": 0, "Kn": 0, "##ir": 0, "##ps": 0, "tier": 0, "##isches": 0, "Vorhaben": 0, "ans": 0, "jedoch": 0, "ausb": 0, "##\u00e4h": 0, "##wie": 0, "##fern": 0, "urspr\u00fcnglich": 0, "jetz": 0, "k": 0, "##ind": 0, "##gerecht": 0, "motiv": 1, "##ierend": 1, "br\u00fc": 0, "##g": 0, "Komp": 0, "##osit": 0, "Lehr": 6, "##werk": 0, "sch\u00f6n": 0, "\u00dcbung": 0, "No": 0, "##me": 0, "bilden": 0, "Wald": 0, "Am": 0, "##eise": 0, "##ame": 0, "##ise": 0, "fro": 0, "##iv": 0, "##aw": 0, "##isse": 0, "unbeg": 0, "##reif": 0, "##por": 0, "versorgen": 0, "Tut": 0, "##oria": 0, "G\u00f6r": 0, "bedenken": 0, "funktionieren": 0, "##pers": 0, "##pekt": 1, "##ive": 0, "##sichtlich": 1, "mus": 0, "##g\u00fcltig": 0, "Blick": 6, "gelingen": 0, "Darstellung": 4, "Vorgehen": 4, "abl": 0, "##aufen": 0, "ben": 0, "##ennen": 0, "angemessen": 3, "rechnen": 0, "##ier": 0, "soweit": 0, "doppelt": 0, "gr\u00fcn": 0, "w\u00e4hrend": 0, "##werkstatt": 0, "Grund": 4, "##voraus": 0, "##setzung": 2, "mater": 0, "##ial": 1, "##side": 0, "Doppel": 0, "un": 1, "##ichtung": 0, "##heben": 0, "wach": 0, "##sam": 0, "##\u00f6s": 0, "\u2192": 0, "##igungs": 0, "##stunde": 0, "entstehen": 1, "Zahlen": 0, "##geschichte": 0, "h": 0, "##\u00e4n": 0, "##seln": 0, "Leb": 0, "##kuchen": 0, "Gre": 0, "##tel": 0, "25": 0, "Gleich": 0, "aufstellen": 0, "7": 0, "An": 1, "##erb": 6, "##ieten": 1, "relativ": 0, "Kor": 0, "##re": 2, "Westen": 0, "##tasche": 0, "##nf": 0, "Rechnung": 0, "stabil": 1, "Bedeutung": 2, "Achtung": 0, "Peer": 0, "##feed": 0, "entfallen": 0, "dir": 0, "heute": 0, "unser": 8, "\u00dcbungs": 0, "Woche": 0, "schlecht": 0, "genauso": 0, "leicht": 1, "##dauer": 0, "hy": 0, "hand": 0, "##bares": 0, "Gut": 0, "weise": 0, "Voraus": 0, "##sicht": 0, "handeln": 2, "aktuelle": 0, "Lage": 0, "Dinge": 0, "gl\u00fccklich": 0, "Tage": 0, "sach": 0, "##dien": 0, "au\u00dfergew\u00f6hnlich": 0, "geschenkt": 0, "hervorragend": 0, "getr": 0, "##fektion": 0, "##ism": 0, "##u": 0, "Fin": 0, "wertvoll": 1, "besonders": 0, "f\u00e4l": 0, "##len": 0, "string": 0, "them": 0, "##bedingt": 0, "reduzieren": 3, "mathemat": 8, "weiterhin": 0, "##rift": 0, "Besch": 0, "Reis": 0, "##haufen": 0, "perfekt": 0, "s\u00e4m": 0, "##tlich": 0, "aussch": 2, "##\u00f6pfen": 2, "Zeichnung": 0, "le": 0, "##hr": 2, "Schlacht": 0, "##gei": 0, "Werks": 0, "##ff": 2, "vom": 0, "Stan": 0, "##ger": 0, "Adam": 0, "Ries": 0, "abweichen": 0, "krei": 0, "mitten": 0, "Wanderung": 0, "##zimmer": 0, "Weg": 1, "sammeln": 0, "Erfahrung": 0, "Plan": 0, "halten": 2, "##stu": 0, "Re": 0, "Orts": 0, "Legende": 0, "z\u00e4hlen": 0, "strukturiert": 0, "fein": 0, "Abstra": 0, "##ktions": 0, "##verm\u00f6gen": 4, "##beschreibung": 0, "Ausflug": 0, "drau\u00dfen": 0, "schlie\u00dflich": 0, "Audio": 0, "##aufnahme": 0, "##\u00fcndig": 0, "##einheit": 0, "##alt": 1, "Schuls": 2, "##tu": 0, "mancher": 0, "##orts": 0, "Migration": 0, "Team": 0, "##sinn": 0, "Kenntnis": 0, "entz": 0, "##iffer": 0, "authen": 0, "##tisch": 0, "N\u00f6": 0, "sch\u00f6ne": 0, "##fach": 0, "##handlung": 2, "fragen": 0, "Entschuldigung": 0, "links": 2, "rechts": 0, "##biegen": 0, "##as": 0, "Himmels": 0, "##richtung": 0, "n\u00f6rdlich": 0, "\u00f6stlich": 0, "Kos": 0, "##mos": 0, "Verfahrens": 0, "##izieren": 2, "vielf\u00e4ltig": 0, "##format": 0, "##iver": 0, "Akt": 0, "R\u00fcckseite": 0, "feststellen": 2, "fest": 0, "u": 0, "##kon": 0, "##kret": 0, "ste": 0, "g\u00e4ng": 0, "Schritt": 0, "##pro": 6, "##ze\u00df": 6, "vier": 0, "Ablauf": 0, "##arbeitung": 0, "erf\u00fcllen": 2, "Kriterium": 0, "Kreativit\u00e4t": 2, "Bereich": 2, "angehen": 0, "hau": 0, "##\u00fcnn": 0, "tun": 0, "willkommen": 0, "zufrieden": 0, "Ideal": 0, "##erweise": 0, "Impuls": 0, "Klein": 0, "bearbeiten": 2, "anschlie\u00dfend": 0, "ord": 0, "Herz": 0, "erfassen": 0, "##kod": 0, "zusammengefasst": 0, "hinsichtlich": 0, "kooper": 0, "Schull": 0, "##ehrer": 0, "bel": 0, "##atsch": 0, "##bekommen": 0, "k\u00fcmmer": 0, "erweitern": 0, "ewig": 0, "ni": 0, "##schi": 0, "schrift": 0, "##steller": 0, "leist": 0, "uner": 0, "##for": 0, "##scht": 0, "##\u00f6sen": 0, "gegebenenfalls": 0, "komplett": 0, "##seit": 0, "echt": 0, "Materie": 0, "fort": 0, "Bla": 0, "##ge": 0, "grob": 1, "Aufbau": 0, "traurig": 0, "##heitlich": 0, "##fahrung": 1, "Ha": 0, "##pt": 4, "bas": 0, "##teln": 0, "pr\u00e4zise": 0, "##k\u00e4": 0, "##rt": 0, "##blatt": 0, "sympath": 0, "kl": 0, "##otz": 0, "Nachdruck": 0, "Pech": 1, "##che": 0, "erwe": 0, "##cken": 0, "Block": 0, "Prinzip": 0, "Arbeitsweise": 0, "vol": 0, "##ens": 0, "erwerben": 3, "Ritter": 0, "##schlag": 1, "Herr": 0, "Page": 0, "##sf": 8, "Lan": 0, "##ze": 1, "Schild": 0, "Mittelalter": 0, "kennenlernen": 0, "beob": 0, "##acht": 0, "men": 0, "##tal": 0, "Was": 0, "Verhaltens": 2, "verwenden": 3, "H\u00f6": 0, "##flich": 0, "Zeichen": 2, "MA": 0, "ex": 0, "##tend": 0, "bew": 0, "##eis": 0, "einer": 0, "Namen": 0, "Anwendung": 0, "spezif": 0, "Koll": 0, "##oka": 0, "erhalten": 0, "\u201d": 0, "Land": 0, "besitzen": 0, "christ": 0, "Glauben": 0, "erz": 0, "##ieh": 1, "hm": 0, "gew": 0, "##i\u00df": 0, "##sie": 2, "##rung": 2, "##gehen": 0, "merken": 0, "kombin": 0, "Funktions": 0, "##verb": 0, "##gef\u00fc": 0, "Work": 0, "##sh": 0, "Live": 0, "##work": 0, "com": 0, "##kind": 0, "em": 0, "##sig": 0, "Standard": 0, "##ulierung": 1, "##m\u00e4dchen": 1, "##weisen": 0, "wohnen": 0, "f": 0, "##irm": 0, "Ade": 0, "Da": 0, "kinder": 0, "Pr\u00e4": 0, "##itu": 0, "##ms": 0, "Pr\u00e4sen": 0, "##\u00fcbung": 0, "dies": 0, "Gramm": 1, "##atik": 2, "liegen": 2, "##tik": 1, "mg": 0, "Aktiv": 0, "f\u00f6rdern": 3, "einsam": 0, "##mel": 0, "Kammer": 0, "Sp": 1, "##ie\u00df": 0, "Wild": 0, "##ill": 0, "##rieren": 0, "Sach": 0, "##buch": 0, "Kita": 0, "Jahrgang": 0, "##sst": 4, "##ufe": 0, "niedrig": 2, "erm\u00f6glichen": 0, "darauf": 0, "gr\u00fcndlich": 0, "schl": 0, "##aue": 0, "Motiv": 2, "##ha": 0, "##nach": 0, "Pres": 0, "##tige": 0, "zuerst": 0, "Rollen": 0, "##spiel": 0, "Lebensweise": 0, "Stand": 0, "Verk": 0, "##leidung": 0, "schl\u00fc": 0, "##pfen": 2, "Lebens": 1, "##ums": 0, "##gruppen": 0, "ausf\u00fchren": 0, "Rahmen": 0, "Qu": 0, "##phase": 2, "Niveau": 2, "ad": 2, "##\u00e4qu": 1, "dienen": 0, "gefallen": 0, "sichern": 3, "Zusammenfassung": 0, "\u00fcbers": 0, "einbringen": 0, "##laufen": 1, "wahrscheinlich": 0, "Vorschlag": 0, "Figur": 0, "##sagen": 0, "verhalten": 0, "ausgest": 0, "##alten": 0, "Dialog": 0, "euer": 0, "Sam": 0, "##ura": 0, "##arat": 0, "Verm": 0, "##umm": 0, "origin": 0, "##ell": 5, "##tention": 0, "The": 0, "##sau": 3, "##rus": 0, "nutz": 0, "##bringen": 2, "ann": 0, "##ehm": 0, "##quir": 1, "##zusammen": 0, "##fassung": 0, "entwickeln": 1, "verm": 1, "##erken": 1, "Meister": 0, "erw": 1, "##irts": 0, "##ften": 0, "rat": 0, "##ional": 0, "geometr": 0, "niemand": 0, "kann": 0, "ihm": 0, "F\u00fchrung": 0, "strei": 0, "##tig": 0, "Protokoll": 0, "Gestalt": 0, "Smart": 0, "##board": 0, "darstellen": 4, "typisch": 0, "Ausr\u00fcstung": 0, "##steil": 0, "Pferd": 0, "Schwert": 0, "hac": 0, "Schwein": 0, "Getreide": 0, "vergleichen": 0, "Variante": 0, "Platz": 0, "Tabl": 0, "klass": 0, "##min": 0, "##nis": 4, "Sar": 0, "##issa": 0, "##\u00e4ck": 0, "Korn": 0, "##setzen": 5, "Termin": 0, "Que": 0, "Speise": 0, "##zettel": 0, "offen": 0, "Absatz": 0, "ac": 1, "legen": 1, "somit": 0, "##wu": 0, "rein": 0, "\u00dcberblick": 0, "##rechen": 0, "mon": 0, "##adi": 0, "Syl": 0, "ernst": 0, "##weisung": 3, "##up": 0, "##id": 0, "##ollen": 0, "recher": 0, "##muster": 3, "Bauern": 0, "mehrere": 0, "Auswahl": 1, "\u00e4": 0, "analog": 0, "sitzen": 0, "Gem": 0, "sagst": 0, "belegt": 0, "Diskriminierung": 15, "Nichts": 0, "Genau": 0, "wei\u00df": 1, "schn": 0, "##allen": 0, "Port": 0, "##ra": 0, "##it": 0, "##f\u00fchrung": 1, "erste": 0, "Garde": 0, "Schluss": 0, "##folger": 0, "Edel": 0, "Krieger": 0, "ange": 0, "##go": 0, "\u00e4hnlich": 0, "Tabelle": 0, "fertig": 0, "##f\u00fcllen": 0, "jederzeit": 0, "holen": 1, "Landwirt": 0, "Gang": 0, "beiden": 0, "Flo": 0, "##hma": 0, "##verg": 0, "##angen": 0, "ass": 0, "##erv": 0, "gre": 0, "Lem": 0, "abstimmen": 0, "Fl\u00fcgel": 0, "Rott": 0, "Erfolg": 0, "wieder": 0, "Alters": 0, "##pla": 0, "erledigen": 0, "hilfreich": 1, "vornehmlich": 0, "##dies": 0, "Hin": 0, "##enken": 0, "Mega": 0, "##poten": 0, "##tial": 0, "reden": 2, "##denken": 0, "wor": 0, "##h\u00f6ren": 0, "gen\u00fcgend": 0, "##f\u00e4higkeit": 2, "verlieren": 0, "diagnost": 0, "n\u00e4mlich": 0, "##frage": 0, "Reihe": 0, "##\u00fcchtern": 1, "Kollege": 0, "bezahlen": 0, "##eli": 0, "##au": 0, "Gespr\u00e4ch": 6, "##anteil": 2, "L": 0, "antworten": 0, "mi": 0, "##\u00df": 0, "##brauch": 0, "Reiz": 0, "##geber": 0, "antwor": 0, "erlauben": 0, "Interview": 0, "Fernsehen": 0, "##regen": 0, "Vortrag": 0, "weiter": 4, "##tragen": 0, "ind": 2, "##uk": 4, "##tiv": 2, "Verstand": 0, "Praxis": 0, "Modell": 1, "Niederlage": 0, "erfahren": 0, "Einsicht": 0, "prim\u00e4r": 0, "##folge": 0, "Ohren": 0, "Unbekannte": 0, "Get": 1, "##reuer": 1, "raus": 0, "##pfe": 0, "bl": 0, "##itz": 0, "##gesch": 0, "vers": 0, "Anh\u00e4nger": 0, "J\u00fcnger": 0, "Pla": 0, "##zet": 0, "Tisch": 0, "pro": 0, "darin": 0, "vermuten": 0, "10": 0, "Min": 0, "Zeitungs": 0, "##artikel": 0, "Aussch": 0, "##nitt": 0, "100": 0, "%": 0, "I": 0, "Mur": 0, "##f\u00e4llig": 0, "bestehen": 1, "Leit": 1, "Befra": 0, "##gte": 0, "befragt": 0, "K\u00e4r": 0, "##tchen": 0, "Chance": 0, "ausmachen": 0, "erster": 0, "##strahlen": 0, "[": 4, "Fernseh": 0, "Radio": 0, "##sendung": 0, "]": 4, "Kleine": 0, "Erhebung": 0, "ak": 0, "##kum": 0, "M\u00fche": 0, "verbunden": 0, "##oma": 0, "##lie": 0, "Un": 0, "##regel": 0, "##m\u00e4\u00dfigkeit": 0, "##ringen": 0, "##arbeitungs": 0, "##m\u00f6glichkeit": 0, "\u00fcben": 0, "##satz": 0, "##lesen": 0, "runter": 0, "##bet": 1, "bereit": 2, "zus\u00e4tzliche": 0, "wechsel": 0, "##seitig": 0, "beeinflussen": 1, "dasselbe": 0, "weshalb": 0, "Samen": 0, "##erg": 0, "##uss": 0, "Du": 0, "##\u00f6": 0, "##gl": 0, "##ing": 14, "##ragen": 0, "##kur": 0, "##beln": 0, "schaffen": 0, "eins": 0, "##bereit": 0, "wider": 0, "##spiegel": 0, "##and": 2, "Seminar": 0, "##uns": 0, "bauen": 0, "##leistung": 0, "akzeptieren": 0, "umfangreich": 0, "Gedanke": 2, "##splan": 0, "Schilder": 0, "wonach": 0, "gegen": 2, "\u00fcberliefert": 0, "##ad": 0, "Einver": 0, "##st\u00e4nd": 0, "blicken": 0, "worauf": 0, "Ber\u00fchrung": 0, "##ie": 0, "Haupt": 0, "##rede": 0, "Denk": 13, "Holz": 0, "##stern": 0, "Mathematik": 0, "Anf": 29, "##order": 29, "Forum": 0, "benutzen": 0, "##hren": 0, "gr\u00fc": 0, "Befehl": 1, "bestimmt": 0, "Nur": 0, "Mo": 0, "f\u00fc": 0, "For": 0, "##beitrag": 0, "festgestellt": 0, "gelangen": 0, "##f\u00fchr": 0, "Urs": 0, "24": 0, "Kommunikation": 1, "Verh\u00e4ltnis": 0, "sp": 0, "##ucken": 0, "##alisieren": 2, "veranl": 1, "##asst": 1, "nachdenken": 2, "Ausdruck": 0, "Wissenschafts": 1, "##disziplin": 1, "Rechn": 2, "kommunizieren": 3, "Rechen": 0, "##ae": 2, "schi": 1, "spann": 1, "Best": 1, "##\u00fcr": 1, "##zung": 1, "geraten": 1, "hin": 0, "uns": 0, "sorgen": 0, "\u00dcbersch": 0, "##u\u00df": 0, "problematisch": 0, "##liste": 0, "##arbeits": 2, "Kommun": 2, "ra": 1, "##ffen": 1, "ausgeben": 1, "Summe": 0, "Tee": 0, "##licht": 0, "Ausgabe": 0, "Brett": 0, "add": 0, "verf\u00fcgbar": 0, "##leute": 1, "gebrauchen": 1, "##archen": 0, "zuge": 0, "neb": 0, "Verf\u00fcg": 2, "##mach": 2, "untersch": 0, "##\u00e4tzen": 4, "Bau": 0, "##element": 0, "professionell": 0, "Abschnitt": 0, "##ieb": 0, "Glo": 0, "##ssa": 0, "##pr\u00e4": 3, "##gung": 4, "darum": 0, "H\u00e4lfte": 0, "verbringen": 0, "\u00c4u\u00dfer": 1, "Kommunikations": 1, "aller": 0, "##utlich": 0, "F\u00e4higkeit": 3, "ausw\u00e4hlen": 0, "alter": 0, "##sg": 0, "##erecht": 0, "Kurs": 0, "praktisch": 0, "m\u00f6chten": 0, "sele": 0, "##ktieren": 3, "beitragen": 0, "Erwerb": 2, "Jahr": 0, "Angebot": 0, "##schul": 0, "##bereich": 0, "stetig": 0, "steigen": 0, "scheinen": 0, "nei": 0, "Aufschwung": 0, "Erforschung": 0, "schul": 0, "Alltag": 0, "angesichts": 0, "hor": 0, "##ren": 1, "##kos": 0, "explod": 0, "frei": 0, "verk": 2, "##\u00e4uf": 0, "Internet": 0, "detaill": 0, "fund": 2, "notwendig": 0, "Klaus": 0, "##ur": 0, "##tro": 0, "##tt": 0, "R\u00fccksicht": 0, "ausgeschrieben": 0, "Ins": 1, "geboten": 0, "beschrieben": 0, "##l\u00e4nge": 0, "Problems": 3, "##tell": 3, "##veranstaltung": 0, "pra": 0, "##xis": 0, "##orientiert": 1, "Verkn\u00fc": 0, "##pfung": 0, "Kon": 0, "##not": 0, "9": 0, "##si": 4, "diskrimin": 2, "##krit": 4, "Diver": 4, "Klicken": 0, "herunterladen": 0, "##oo": 0, "##men": 0, "Zusammenhang": 1, "Mehr": 0, "Ungleich": 0, "##behandlung": 0, "Tun": 0, "Lassen": 0, "##fa": 1, "##ire": 1, "Behandlung": 2, "11": 0, "Komponente": 0, "beding": 0, "Bezug": 5, "National": 0, "Repertoire": 0, "##welt": 0, "Familie": 0, "Medium": 0, "bedienen": 0, "##wechslung": 0, "Bestimmung": 0, "Gewohn": 0, "##heit": 6, "Br\u00fccke": 0, "##ref": 5, "##ktiert": 0, "ster": 3, "##eo": 3, "##typ": 3, "##geleitet": 0, "Handeln": 4, "##ystem": 2, "sozial": 0, "Herkunft": 0, "nachweisen": 0, "Beh": 0, "##err": 0, "akadem": 0, "Haushalt": 0, "##system": 2, "erfolglos": 0, "med": 1, "\u00dcberzeugung": 5, "auseinander": 4, "Selbst": 26, "verbreitete": 1, "##miss": 0, "##verst\u00e4ndlich": 0, "Rassismus": 3, "Rassen": 1, "##rimin": 1, "##bezogen": 0, "institution": 4, "##literatur": 0, "h\u00e4ufig": 3, "tief": 0, "systematisch": 0, "rass": 0, "Struktur": 14, "ansehen": 0, "wissenschaft": 0, "Literatur": 0, "Tagesordnung": 0, "ged": 0, "##anken": 0, "sor": 0, "##tiert": 0, "heu": 0, "Jahrzehnt": 0, "##ideo": 0, "##log": 0, "\u00fcbertrieben": 0, "risk": 0, "zehn": 0, "Jahre": 0, "zahl": 0, "##reich": 0, "welchem": 0, "benachteil": 0, "##konstruktion": 0, "Vielzahl": 0, "##dimension": 0, "Individ": 0, "##uum": 0, "Identit\u00e4t": 0, "pr\u00e4gen": 0, "aufgrund": 4, "##sse": 0, "Ag": 0, "unters": 0, "##agen": 0, "straf": 0, "##rechtlich": 0, "verfolgen": 0, "Rasse": 0, "Ethn": 0, "Geschlecht": 0, "Religion": 0, "Welt": 0, "##ans": 0, "Alter": 0, "Behinderung": 0, "sexuell": 0, "##ese": 0, "Berlin": 0, "Gesetz": 0, "Ausgrenzung": 0, "konvention": 0, "Menge": 0, "\u00fcberall": 0, "Ke": 0, "##gel": 0, "religi\u00f6se": 0, "Hemm": 1, "##leich": 0, "Stein": 0, "Anst": 0, "##o\u00df": 0, "Des": 0, "##integr": 0, "gesellschaft": 2, "Geburt": 0, "Ph\u00e4nomen": 0, "Ben": 2, "##achteil": 2, "12": 0, "ergeben": 0, "##rel": 0, "##ev": 0, "##ant": 0, "##eg": 4, "##orie": 4, "gezielt": 0, "\u2014": 0, "Tu": 0, "Dresden": 0, "tu": 0, "dre": 0, "##sd": 0, "d": 0, "Schule": 4, "hinaus": 0, "Dimension": 0, "folglich": 0, "TH": 0, "El": 0, "##bf": 0, "##lor": 0, "##enz": 0, "Florenz": 0, "Elbe": 0, "##institution": 0, "frische": 0, "Luft": 0, "leid": 0, "Brand": 0, "Hab": 0, "Beg": 0, "##abu": 0, "Leistungs": 0, "bedeut": 0, "He": 0, "##ogen": 0, "##it\u00e4ts": 0, "##merkmale": 0, "2017": 0, "20": 0, "beachten": 2, "Leben": 0, "13": 0, "Lehre": 0, "Position": 2, "##ner": 0, "##linie": 0, "Wechsel": 1, "##beziehung": 1, "##ungsvoll": 0, "Lehrer": 0, "ho": 0, "Methodik": 0, "zumeist": 0, "setzen": 1, "oftmals": 0, "verg": 0, "##egen": 0, "##w\u00e4rtig": 0, "inwieweit": 0, "##real": 0, "##it\u00e4t": 0, "Mit": 0, "weiterer": 0, "korre": 4, "##ond": 4, "Ausma\u00df": 0, "Folge": 2, "lern": 4, "verh\u00e4lt": 2, "ausreichend": 2, "refle": 3, "schlimm": 0, "sogar": 0, "Nad": 0, "##ny": 0, "Stefan": 0, "2021": 0, "##sek": 0, "##tional": 0, "politisch": 0, "gekl\u00e4rt": 0, "15": 0, "ersch": 2, "##weren": 2, "##kommen": 1, "stets": 0, "Kombination": 0, "auftreten": 0, "##r\u00e4nkt": 2, "geschehen": 1, "separ": 0, "anzutreffen": 0, "bedingt": 2, "##komm": 1, "Online": 0, "H": 0, "##ttp": 0, "www": 0, "ro": 0, "##ux": 0, "publ": 0, "##ikation": 2, "375": 0, "##78": 0, "##ita": 0, "zuletzt": 0, "pr\u00fcfen": 0, "01": 0, "07": 0, "Besch\u00e4ftigung": 0, "gelten": 0, "P\u00e4dagog": 0, "besch\u00e4ftigen": 0, "Zugeh\u00f6rigkeit": 0, "Hauptstadt": 0, "Deutschland": 0, "##T": 0, "##TP": 0, "Multi": 0, "##ualis": 0, "weder": 0, "m\u00e4nn": 0, "weib": 0, "Bestand": 0, "g\u00fcltig": 0, "Erziehungs": 0, "##wissenschaft": 2, "gebr\u00e4uch": 0, "Vereinigung": 0, "Spannungs": 0, "##verh\u00e4ltnis": 0, "individuell": 2, "Faktor": 1, "Herrschafts": 2, "##ef": 2, "##fekt": 2, "Mart": 0, "Busch": 0, "\u00ab": 0, "Sub": 0, "##jekt": 0, "\u00bb": 0, "Pers\u00f6nlichkeit": 0, "##sent": 0, "##wicklung": 0, "ums": 0, "##lie\u00dfen": 0, "##\u00e4lt": 0, "Dete": 1, "##rm": 1, "##ina": 1, "##nte": 3, "Er": 2, "##achten": 0, "Kompetenz": 4, "Komplexit\u00e4t": 3, "Viel": 2, "##schicht": 0, "dessen": 0, "integrieren": 0, "Anlehnung": 0, "Andreas": 0, "Fo": 0, "vielmehr": 0, "eleg": 0, "scheiter": 0, "14": 0, "Handlungs": 5, "trotz": 0, "##icherheit": 0, "p\u00e4dagog": 0, "F\u00e4l": 0, "##keits": 0, "##tag": 0, "Weise": 3, "f\u00f6rder": 0, "Angst": 0, "mei": 0, "##den": 0, "Deb": 0, "Katharina": 0, "Stu": 0, "##ve": 0, "Olaf": 0, "Scheitern": 0, "##eri": 0, "##\u00e4s": 0, "##euen": 0, "Neut": 0, "##ral": 0, "Gesicht": 0, "bekommen": 0, "##anst": 0, "Wert": 0, "##freiheit": 0, "Grundsatz": 0, "##verst\u00e4ndnis": 0, "metho": 0, "##dis": 0, "Dog": 0, "dauerhaft": 0, "aufta": 0, "##heits": 0, "priv": 0, "##ileg": 0, "\u2013": 0, "Kosten": 0, "gesteckt": 0, "Regel": 0, "##sprechen": 0, "##rungen": 0, "Papier": 0, "chron": 0, "##rechten": 0, "##statten": 0, "##kosten": 0, "##zen": 1, "zun\u00e4chst": 0, "Wider": 0, "position": 1, "##here": 0, "Verhalten": 0, "irgendeiner": 0, "##ag": 0, "18": 0, "23": 0, "beziehen": 0, "Privileg": 0, "##ussen": 0, "##ierte": 0, "luxuri": 0, "Situation": 0, "Reduzierung": 0, "Ster": 0, "Gewalt": 0, "Marg": 0, "##li": 0, "##rte": 0, "lustig": 0, "f\u00fchlen": 0, "fung": 0, "Ca": 0, "##usa": 0, "##tre": 0, "##wendung": 0, "Ice": 0, "##rd": 0, "1966": 0, "Haut": 0, "##farbe": 0, "Abstammung": 0, "national": 0, "Ursprung": 0, "##tum": 0, "beruhen": 0, "##lie\u00df": 0, "Beschr\u00e4nkung": 0, "Bevor": 0, "dadurch": 0, "##berechtigt": 0, "##erkennen": 0, "Genie\u00dfen": 0, "aus\u00fcben": 0, "Menschen": 0, "##recht": 0, "wirtschaftlich": 0, "kultur": 0, "\u00f6ffentlich": 0, "ver": 1, "##eite": 0, "beeintr\u00e4chtigen": 0, "Fleisch": 0, "Kategor": 0, "entlang": 0, "sog": 0, "aufrechter": 0, "sub": 2, "##jektiv": 3, "verh": 0, "##\u00e4rten": 0, "bre": 0, "##zlich": 0, "volle": 0, "festhalten": 0, "impl": 1, "##rasse": 0, "halt": 0, "dem": 2, "##gegen\u00fcber": 0, "verpassen": 0, "unbekannte": 0, "F\u00e4lle": 1, "##zien": 0, "##tif": 0, "klug": 0, "##ew": 0, "##erk": 0, "Susan": 0, "Arn": 0, "##dt": 0, "##ja": 0, "Of": 0, "##ua": 0, "##y": 0, "al": 0, "##azar": 0, "17": 0, "definieren": 2, "##cis": 0, "Pre": 0, "##ju": 0, "##di": 0, "##ce": 0, "Power": 0, "Rass": 0, "##ismen": 0, "##stuf": 0, "Bewertung": 0, "Macht": 0, "##end": 2, "##ium": 0, "##ismus": 0, "geh\u00f6ren": 0, "##willig": 0, "Besitz": 0, "##urteil": 0, "anl\u00e4sslich": 0, "##fass": 0, "eigentlich": 0, "vorliegen": 0, "ungleich": 0, "behandeln": 0, "Charakter": 0, "drehen": 0, "Wei\u00df": 0, "##sein": 0, "genie\u00dfen": 0, "kontro": 0, "##vers": 0, "ausnahm": 0, "##sl": 0, "##os": 0, "Gelegenheit": 0, "##rog": 0, "Location": 0, "unterscheiden": 0, "Abbildung": 0, "Ali": 0, "Val": 0, "##jen": 0, "na": 0, "##zi": 0, "net": 0, "##ap": 0, "Ex": 0, "##kurs": 0, "positiv": 0, "19": 0, "eng": 0, "ethn": 0, "verwandt": 0, "Konzept": 0, "Absch": 0, "##wei": 0, "##fung": 0, "dicht": 0, "anziehen": 0, "\u00f6fter": 0, "is": 0, "langer": 0, "Atem": 1, "res": 6, "##\u00fcm": 0, "Look": 0, "Aussehen": 0, "##ili": 0, "Gesundheit": 0, "Ad": 0, "##ult": 0, "jung": 0, "Antisemitismus": 0, "Klass": 0, "Schicht": 0, "Tran": 0, "feind": 0, "##kei": 0, "Sex": 0, "Gen": 0, "##der": 0, "Alte": 0, "anti": 0, "##lim": 0, "Islam": 0, "##feind": 0, "Hom": 0, "##oph": 0, "##obi": 0, "Anti": 0, "##zig": 0, "##ani": 0, "Rom": 0, "Sin": 0, "Lin": 0, "##iz": 0, "Unger": 0, "##echtigkeit": 0, "##arte": 0, "alt": 0, "soziale": 0, "##ph": 0, "Stadt": 0, "H\u00fcgel": 0, "Zunge": 0, "gewalt": 0, "gering": 0, "Liter": 0, "##serfahrung": 0, "nieders": 0, "##lagen": 0, "##f\u00f6rderung": 0, "irre": 0, "##lev": 0, "Ak": 0, "##zent": 0, "Aussprache": 0, "##gew": 0, "##ohn": 0, "##jung": 1, "dis": 0, "##par": 0, "Eigent": 0, "Ot": 0, "##her": 1, "Kultur": 0, "##alisierung": 0, "betr\u00e4chtlich": 0, "Mech": 0, "Dir": 0, "##im": 0, "Mel": 0, "2010": 0, "42": 0, "det": 0, "Erkl\u00e4rung": 4, "Handlung": 0, "Einstellung": 1, "Konflikt": 0, "##sweise": 2, "bedeutend": 0, "jeder": 0, "extra": 0, "Initiativen": 0, "Kali": 0, "##brie": 0, "Dich": 0, "##oto": 0, "##mi": 1, "Zweite": 0, "##il": 0, "Gesellschaft": 2, "Zuge": 0, "##h\u00f6rige": 0, "Nicht": 0, "verst\u00e4rkt": 0, "Zusch": 0, "##reibung": 0, "##produz": 0, "Zweig": 0, "##ete": 0, "##ilt": 0, "Att": 0, "##ribution": 0, "Chi": 0, "Besorgnis": 0, "##regend": 1, "bedeuten": 0, "Ru": 0, "ko": 4, "Ne": 0, "##o": 0, "Datei": 0, "wiederholt": 0, "Male": 0, "Ausrichtung": 1, "Dialekt": 0, "##tritt": 0, "##sem": 0, "##hl": 0, "Gymnasium": 0, "erteilen": 0, "##art": 0, "deutsch": 0, "101": 0, "hinweg": 0, "Anerkennung": 0, "mitgebracht": 2, "jede": 0, "Ehre": 0, "##rb": 0, "##ietung": 0, "ma": 0, "agieren": 3, "bek\u00e4mpfen": 0, "annehmen": 0, "##reis": 0, "##spr\u00e4": 1, "Str\u00f6m": 1, "potenzie": 0, "##eh": 0, "##\u00f6r": 0, "##folgend": 0, "m\u00e4\u00df": 0, "strik": 0, "Beziehung": 2, "dr\u00fccken": 0, "ohn": 1, "##m\u00e4chtig": 1, "Opfer": 2, "##rolle": 1, "##zwei": 2, "##fel": 2, "best\u00e4": 1, "emp": 0, "##ath": 0, "kompens": 2, "Kom": 1, "bu": 0, "##ck": 0, "##lige": 0, "Verwand": 1, "##tschaft": 1, "gen": 1, "verst\u00e4rken": 1, "##f\u00fchl": 0, "##sti": 0, "Betroffene": 2, "Verfasst": 2, "Fortbildung": 0, "besuchen": 0, "Gesellschafts": 0, "r": 4, "wecken": 0, "Hoffnung": 2, "sit": 0, "##ert": 0, "##arm": 0, "##losen": 0, "2016": 0, "stand": 0, "web": 0, "p": 0, "##df": 0, "or": 0, "fac": 0, "Sicherheit": 0, "wirksam": 0, "Werkzeug": 0, "beispielsweise": 0, "Id": 0, "##b": 0, "##tage": 0, "##freie": 0, "|": 0, "Institut": 0, "Bildung": 0, "generell": 0, "Anlauf": 0, "##stelle": 0, "##erkennung": 0, "Geb": 0, "##ildet": 0, "Auskunft": 0, "##elle": 0, "##klus": 0, "Demokratie": 0, "Wirtschafts": 0, "Bew": 0, "##usste": 0, "##reh": 0, "##ul": 0, "##able": 0, "derjenige": 0, "##staat": 0, "Zustand": 0, "Finanz": 1, "##sprit": 1, "Staub": 0, "##igur": 0, "Landes": 0, "##anti": 0, "##gesetz": 0, "62": 0, "##1": 0, "##fu": 0, "##bi": 0, "fu": 0, "bit": 0, "##stream": 0, "##18": 0, "##8": 0, "169": 0, "##70": 0, "##dg": 0, "##quen": 0, "Isa": 0, "##llo": 0, "##we": 0, "y": 0, "##sk": 0, "##rit": 0, "unterrichten": 2, "kolle": 0, "##gia": 0, "Beratung": 0, "Ereignis": 0, "nachtr\u00e4glich": 0, "k\u00fcnftig": 0, "##iker": 0, "Design": 0, "Zut": 0, "##un": 0, "Auftreten": 0, "inkl": 0, "sensi": 0, "voraus": 0, "Dist": 1, "##inkt": 1, "Gur": 1, "##tr": 2, "beinhalten": 2, "Schulen": 0, "##tw": 0, "##lung": 0, "demokrat": 0, "Stimme": 0, "##zieht": 0, "bef": 0, "verringern": 2, "part": 0, "einver": 0, "Schau": 0, "##hm": 0, "Mehrfach": 0, "anerkennen": 4, "oft": 0, "##wirken": 0, "Verh\u00e4ltnisse": 0, "organisieren": 2, "Furcht": 0, "Homosex": 0, "##uellen": 0, "ins": 1, "Haus": 1, "Ganz": 0, "##tags": 0, "##kinder": 0, "##garten": 0, "Erzieher": 0, "Zugang": 0, "verschaffen": 0, "wert": 2, "##\u00e4tzt": 0, "##spr": 0, "wahrnehmen": 1, "##usst": 0, "##sei": 0, "fot": 0, "enorm": 0, "beschr\u00e4nken": 0, "Noten": 0, "##gebung": 2, "Sel": 0, "##ekt": 0, "F\u00f6rder": 0, "##ma\u00dfnahme": 0, "ankommen": 0, "Bl\u00fcten": 0, "##les": 0, "21": 0, "sp\u00e4testens": 0, "Sekundar": 0, "bal": 0, "treffen": 0, "meiste": 0, "##rn": 2, "Notwendigkeit": 2, "Mittelpunkt": 0, "##presse": 0, "Kette": 0, "Ausbau": 0, "richten": 0, "##kompetenz": 0, "verf\u00fcgen": 0, "gewinnen": 2, "Vernetzung": 0, "Einsatz": 6, "bekannt": 1, "##machen": 0, "Schm": 0, "##\u00f6lzer": 0, "eib": 0, "2006": 0, "179": 0, "Lauf": 0, "sechs": 0, "kon": 0, "##zeption": 0, "vertraut": 2, "heran": 0, "aufweisen": 0, "##spezif": 0, "erweitert": 0, "Schub": 0, "bieten": 0, "##gegen": 0, "G\u00fcltigkeit": 0, "Res": 1, "##so": 7, "##urce": 6, "zur\u00fcck": 0, "##greifen": 0, "Hilfsmittel": 1, "##alisch": 1, "##ologisch": 0, "Hindernis": 2, "End": 0, "##zweck": 0, "##planung": 0, "beanspr": 0, "Pr\u00fcfung": 0, "kurs": 0, "Fra": 0, "##ktur": 0, "unge": 0, "warten": 1, "Anzeichen": 0, "Zum": 1, "##utung": 1, "Ges": 0, "##agte": 0, "stattdessen": 0, "##bern": 0, "solch": 1, "bew\u00e4ltigen": 2, "Autor": 0, "vorlegen": 0, "##ungsbereich": 4, "##decken": 4, "##\u00f6rper": 0, "Gewicht": 0, "Ausf\u00fchrung": 0, "Vorbild": 1, "Video": 0, "Zweck": 0, "Feld": 0, "##grenzen": 0, "W": 4, "##dh": 0, "Ba": 0, "Genre": 2, "Verst\u00e4ndnis": 2, "schriftlich": 1, "Tages": 0, "##geschehen": 0, "Gr\u00f6\u00dfen": 0, "##ordnung": 2, "##akt": 0, "f\u00fcnf": 0, "vorgeschlagen": 0, "##inter": 6, "dar": 0, "kat": 1, "##alys": 1, "her": 1, "##transport": 1, "solche": 1, "##kehr": 0, "seinen": 1, "Vert": 0, "##ief": 0, "##gn": 8, "##itiv": 4, "Operation": 3, "2014": 0, "bezeichnen": 0, "ausgel\u00f6st": 0, "Ausstattung": 0, "##mal": 0, "Verbindung": 0, "dahinter": 0, "nieder": 0, "##liegen": 0, "##struktur": 0, "verarbeiten": 0, "##geben": 0, "derart": 0, "dementsprechend": 0, "entfernt": 0, "invol": 0, "##ichern": 0, "anwend": 0, "Festlegung": 0, "festlegen": 0, "##antwort": 2, "erforderlich": 0, "s\u00e4": 0, "vorkommen": 0, "l\u00e4ngst": 0, "aufgegeben": 0, "deswegen": 0, "##inen": 0, "neue": 0, "Erkenntnisse": 1, "welches": 0, "existieren": 0, "##uster": 0, "ka": 0, "schlicht": 0, "Str": 0, "Wirkung": 0, "Qualit\u00e4t": 1, "erh\u00f6hen": 0, "k\u00fcmmern": 0, "Nomin": 0, "Pass": 0, "etc": 0, "pl": 0, "##uri": 0, "##lit": 0, "##era": 0, "##ci": 0, "ec": 0, "##ml": 0, "at": 0, "port": 0, "##als": 0, "54": 0, "##utt": 0, "app": 0, "##ro": 0, "##ach": 0, "into": 0, "##ctic": 0, "##erst": 0, "Unterst\u00fctzungs": 2, "##zahlung": 1, "sech": 0, "Minuten": 0, "nah": 0, "System": 0, "##ministrat": 0, "##or": 0, "##egal": 0, "eines": 0, "Wahrscheinlich": 0, "##raums": 0, "lich": 0, "##tv": 0, "##oll": 0, "Kampagne": 0, "Fe": 0, "##fall": 0, "##r\u00e4ts": 0, "##eln": 0, "Schreiben": 2, "Sprechen": 4, "Ewigkeit": 0, "##p\u00e4dagog": 0, "##ener": 0, "Bearbeitung": 0, "initi": 2, "lenken": 0, "signif": 0, "system": 0, "##atis": 0, "2019": 0, "D": 0, "R": 0, "erfordern": 2, "Chron": 0, "Versuchs": 0, "Vordergrund": 0, "hinten": 0, "ausdr\u00fcck": 0, "vorab": 0, "sp\u00e4ter": 0, "Fass": 0, "##ette": 0, "exp": 0, "##rim": 0, "Regelung": 0, "Versuch": 0, "pr\u00fc": 0, "##fungs": 0, "Rep": 1, "##rod": 1, "Transfer": 0, "##organisation": 0, "sicherlich": 0, "Lehren": 0, "verst\u00e4nd": 0, "##bahnen": 0, "Repl": 0, "##ikat": 0, "Synchron": 0, "##isation": 0, "gew\u00e4hrleisten": 0, "theoretisch": 0, "Fund": 2, "Referenz": 2, "realisiert": 2, "etwa": 0, "2002": 0, "Tax": 0, "##onom": 0, "grundlegend": 0, "verschw": 0, "Realisierung": 2, "untersuchen": 0, "entschieden": 0, "anlegen": 1, "##reng": 0, "Wesen": 0, "Feier": 0, "indirekt": 0, "##izit": 0, "erscheinen": 0, "meistens": 0, "erwartet": 0, "son": 0, "Inst": 0, "##ru": 0, "##ktion": 0, "Sy": 1, "Verfahren": 1, "##\u00fcchte": 0, "16": 0, "Projekt": 0, "Merc": 0, "int": 0, "vornehmen": 0, "##merk": 0, "Co": 0, "##ule": 0, "angenehm": 0, "##denklich": 1, "bewusst": 0, "##xi": 0, "genannt": 0, "##sch\u00fcler": 2, "Rout": 0, "Gel": 0, "##ahrt": 0, "Verzeichnis": 0, "Benennung": 0, "##ark": 0, "zusammenh\u00e4ngen": 0, "##zip": 0, "schwarz": 1, "Le": 2, "diesbez\u00fcglich": 0, "Stoff": 0, "Bele": 2, "Fahr": 0, "##gerichtet": 1, "erw\u00e4hnt": 0, "einher": 0, "##gehend": 0, "Nam": 0, "Statistik": 0, "Umst\u00e4nde": 1, "l\u00f6": 0, "##sb": 2, "Lied": 0, "Freie": 0, "h\u00f6chst": 0, "##wahrscheinlich": 0, "Konver": 0, "##tierung": 0, "Lex": 0, "##ikon": 0, "##eint": 0, "##rag": 0, "W\u00f6rter": 0, "Bra": 0, "##inst": 0, "Mind": 0, "##cr": 0, "Inhalts": 0, "##wieder": 4, "##gabe": 2, "Sum": 0, "##mar": 0, "##erz": 1, "##\u00e4hl": 0, "Gebrauch": 0, "Anteil": 0, "Man": 0, "##ual": 0, "diskon": 0, "##tinuier": 0, "Dia": 0, "##gramm": 0, "Bericht": 0, "Zeitung": 0, "##ature": 0, "##modell": 0, "Bewerbung": 0, "Expl": 0, "##ain": 0, "Grafik": 0, "Refer": 0, "Hypoth": 0, "begr\u00fcndet": 1, "Vorher": 0, "##sage": 0, "Conc": 0, "##ep": 0, "Argument": 0, "Arg": 0, "##\u00f6rter": 0, "##ay": 0, "Tra": 0, "Quellen": 0, "Bes": 0, "##innung": 0, "##fs": 0, "ev": 0, "##iden": 0, "##zb": 0, "Natur": 0, "Interpretation": 0, "fik": 0, "viert": 0, "##ige": 0, "##\u00fcndel": 0, "Bachelor": 0, "Begriffs": 0, "##kl\u00e4rung": 0, "##klar": 0, "##atorisch": 0, "Om": 0, "Beweis": 1, "##lehre": 0, "Diensten": 0, "##f\u00fcgen": 0, "technisch": 0, "gesprochen": 0, "Turn": 0, "##strategie": 0, "Autorit\u00e4t": 0, "H\u00f6ren": 0, "Koh": 1, "##\u00e4ren": 1, "Strategie": 2, "##innen": 0, "anschlie\u00dfen": 0, "\u00fcblicherweise": 0, "korrekt": 1, "Kalk": 0, "##\u00fcl": 0, "Besser": 0, "endlich": 0, "tauchen": 0, "auff\u00e4llig": 0, "Ma\u00dfnahme": 2, "##gut": 1, "Durchschnitt": 1, "techn": 1, "##icus": 1, "geht": 1, "##atisch": 6, "##erei": 2, "##ktik": 0, "##fertig": 0, "Fertig": 0, "m": 0, "##dl": 0, "gelungen": 0, "ausgehend": 0, "Landtags": 0, "##abgeordnete": 0, "Pl": 0, "A": 0, "Fak": 0, "Tatsache": 0, "Innern": 1, "C": 0, "inne": 0, "e": 0, "eignen": 0, "F": 0, "Tipp": 0, "verbessern": 0, "Her": 0, "##vor": 1, "##bringung": 0, "Still": 0, "Cor": 3, "##pus": 1, "Del": 1, "##ict": 1, "##ischen": 1, "##reichte": 2, "##fort": 2, "messen": 2, "Erg\u00e4nzung": 0, "Make": 1, "bezogen": 4, "verwechsel": 0, "##gebiet": 0, "##ernte": 0, "##elli": 0, "##gi": 0, "Vermittlung": 0, "##rufen": 0, "steuern": 0, "##fragen": 0, "ver\u00e4ndern": 0, "Ko": 2, "##ition": 2, "anwenden": 0, "resultieren": 0, "schriftliche": 1, "mer": 0, "##cat": 0, "con": 0, "##lo": 0, "##ads": 0, "allen": 0, "Not": 0, "n\u00e4chsten": 0, "begegnen": 0, "Tag": 0, "Sport": 0, "Kalender": 0, "kennen": 0, "zeitlich": 0, "begrenzt": 0, "##ziell": 0, "##ker": 0, "2015": 0, "84": 0, "##ometr": 0, "Ger": 3, "##\u00fcst": 3, "selbstst\u00e4ndig": 2, "bewegen": 2, "schm": 1, "##ieden": 1, "Pauli": 0, "Gib": 0, "##bon": 0, "\u00fcbertragen": 0, "Josef": 0, "leise": 0, "28": 0, "kalk": 0, "##isen": 0, "##gemeinschaft": 1, "hingegen": 0, "##ozi": 0, "Fr": 0, "##ustr": 0, "Zone": 0, "##versuch": 0, "So": 0, "##das": 0, "optimal": 0, "##situation": 0, "Aufrechter": 0, "Development": 0, "erh": 0, "##aben": 0, "bes": 0, "##ehen": 2, "Erfordern": 2, "##is": 2, "rauf": 1, "##reffen": 0, "Offensive": 0, "##praxis": 0, "prinzip": 0, "##griff": 0, "##ust": 0, "Instrument": 1, "Erwerbs": 0, "voran": 0, "Ut": 0, "##melde": 0, "##technische": 0, "herz": 0, "drauf": 0, "##schaffen": 0, "Fraktion": 0, "zweit": 0, "##ebene": 0, "durchaus": 0, "st\u00e4ndig": 0, "##person": 0, "Reduktion": 0, "zugunsten": 0, "Um": 0, "Front": 0, "lang": 0, "##put": 0, "Ausbilder": 0, "ga": 0, "g\u00e4be": 0, "char": 0, "Mikro": 4, "Mak": 2, "##ros": 2, "##ca": 2, "Phase": 0, "neben": 1, "Schall": 0, "##nehmer": 0, "##gie": 2, "##big": 0, "erw\u00e4": 1, "hierzu": 0, "verst\u00e4ndlich": 1, "##erium": 2, "formuliert": 2, "erkl\u00e4r": 1, "Teile": 0, "##ment": 0, "Bedarf": 0, "##stands": 2, "##let": 0, "##zt": 0, "Pro": 0, "##vok": 0, "aktuell": 2, "ermitteln": 0, "Lat": 0, "modern": 0, "absch": 0, "behalten": 2, "Geben": 0, "umfassen": 0, "Gesamtheit": 0, "##technik": 0, "##st\u00e4ndigkeit": 2, "Methoden": 0, "##vielfalt": 0, "##sc": 2, "plan": 0, "##gespr\u00e4ch": 4, "unvor": 0, "##gesehen": 0, "##schwier": 2, "Ho": 0, "##c": 0, "reagieren": 0, "auswirken": 2, "Einzelfall": 0, "\u00c4ra": 0, "Mach": 0, "sofort": 0, "hierbei": 0, "Technik": 0, "##kommun": 2, "mitge": 0, "##stal": 0, "Medik": 0, "##ament": 0, "unvoll": 0, "##st\u00e4ndig": 0, "gegeben": 0, "##kompl": 0, "##ett": 0, "Ahnung": 0, "vertrauen": 0, "##ct": 0, "Grundlage": 0, "Sog": 0, "##bau": 0, "tragen": 0, "##ding": 0, "Lang": 0, "##uage": 0, "Cur": 0, "##ulu": 0, "121": 0, "##f\u00fchrende": 0, "##rw": 4, "Beachtung": 0, "R\u00fccken": 0, "##deckung": 0, "trotzdem": 0, "Anspruch": 1, "gesetzlich": 0, "##hec": 0, "rum": 0, "Erscheinungs": 0, "wof\u00fcr": 0, "##all": 0, "##\u00fcb": 0, "geleitet": 0, "\u00dcbersicht": 0, "Goethe": 0, "inst": 0, "##itut": 0, "Be": 0, "Et": 0, "Al": 0, "35": 0, "beherrschen": 0, "eingesetzt": 0, "Schreib": 0, "besonder": 0, "##verk": 0, "langfristig": 0, "##bieten": 0, "Vorles": 0, "Stab": 0, "##emin": 0, "##vent": 0, "hohen": 0, "Stellenwert": 0, "Disziplin": 0, "Zuwachs": 0, "bewirken": 0, "##n\u00f6": 0, "##beh": 0, "##rl": 0, "##ich": 0, "sicherstellen": 0, "registrieren": 0, "Zir": 0, "##kel": 0, "Leistung": 1, "##bogen": 0, "Fundament": 0, "Falle": 0, "Poly": 0, "##handen": 0, "Kunst": 0, "Ge": 0, "##ometrie": 0, "Bemerkung": 1, "##artig": 0, "Dom": 0, "##\u00e4ne": 0, "Eu": 0, "##kl": 0, "umso": 0, "Bann": 0, "##zeichen": 0, "Kl\u00e4r": 2, "##\u00e4ltigung": 0, "gerecht": 0, "Reinigung": 0, "wit": 0, "##tr\u00e4ger": 1, "Tool": 0, "##forschung": 0, "##entscheidung": 0, "Kasten": 0, "gesamt": 0, "##vorgang": 0, "M\u00fcnster": 0, "Wa": 0, "Verlag": 0, "49": 0, "##instrument": 0, "erw\u00e4hnen": 0, "berichten": 0, "Studierende": 0, "Master": 0, "parallel": 0, "laufen": 0, "gestellt": 0, "inten": 0, "Szene": 0, "gesetzt": 0, "Konkret": 0, "##isierungs": 0, "##ras": 6, "geeignet": 0, "sogen": 0, "##annt": 0, "##kapit": 0, "##ger\u00e4t": 0, "zweck": 0, "##m\u00e4\u00dfig": 0, "Erleichterung": 1, "fol": 0, "##gern": 0, "Rast": 0, "Einf\u00fchrung": 1, "altern": 0, "befassen": 0, "n\u00e4chst": 0, "Grundschule": 2, "sim": 1, "##pel": 1, "konfrontiert": 0, "Themen": 0, "mittel": 0, "##cht": 4, "Modul": 0, "##abschluss": 0, "##pr\u00fcfung": 0, "\u00fcbersehen": 0, "Abgabe": 0, "selten": 0, "Vorteil": 0, "##proben": 0, "detaillierte": 1, "Ausarbeitung": 1, "Ausge": 1, "##reift": 1, "##eignet": 0, "lo": 0, "##hnen": 0, "Verwendung": 0, "Erfinder": 0, "durchf\u00fchren": 0, "verkehren": 0, "##gra": 0, "##eisten": 0, "Gun": 0, "##\u00e4l": 2, "Memor": 0, "konzentrieren": 0, "genehmigt": 0, "Bord": 0, "Erl\u00e4u": 0, "##terung": 0, "##endung": 0, "Publikation": 0, "##bene": 0, "Neben": 0, "##s\u00e4tz": 0, "Abd": 0, "##ruck": 0, "##kehren": 0, "Daten": 0, "Gar": 0, "##nit": 0, "Gl": 0, "##ieds": 0, "Gegensatz": 0, "Trick": 0, "##best": 0, "Englisch": 0, "Franz\u00f6sisch": 0, "Erst": 0, "frag": 0, "franz\u00f6sische": 0, "pl\u00f6tzlich": 0, "Deutsche": 0, "##h\u00fc": 0, "Revision": 0, "Vertra": 0, "##ut": 0, "##werden": 0, "##tra": 0, "herausfinden": 0, "Unterseite": 0, "Nutzen": 0, "##h\u00e4ngt": 0, "P": 0, "dat": 0, "##eie": 0, "Hinweis": 0, "ziehen": 0, "Freuden": 0, "##unt": 0, "gutes": 0, "St\u00fcck": 0, "Kollegin": 0, "Dr": 0, "Maria": 0, "Gro\u00dfe": 0, "##gaben": 0, "##info": 0, "ku": 0, "Magn": 0, "k\u00e4": 0, "##uf": 0, "l": 0, "##ugen": 0, "Zer": 0, "##emonie": 0, "link": 0, "frage": 2, "Konzentration": 2, "Schacht": 2, "##els": 2, "Eind": 0, "##eu": 1, "##tigkeit": 2, "##deu": 2, "##fra": 2, "Ei": 0, "60": 0, "dazuge": 0, "##h\u00f6r": 0, "Fort": 1, "##pflanz": 1, "Erinnerung": 0, "##sw": 2, "ausgew\u00e4hlt": 0, "sc": 2, "Bitte": 0, "Pr\u00e4z": 2, "Zug": 0, "##zwang": 0, "Ziels": 0, "##tur": 0, "Kontrast": 4, "##vergleich": 0, "##ingu": 0, "##kunft": 0, "wiederauf": 0, "korrig": 2, "Wieder": 0, "##holen": 0, "ziel": 0, "##cast": 0, "##wahl": 0, "Aufforderung": 0, "##kor": 18, "##rektur": 18, "Verweis": 0, "Eliz": 2, "##iti": 2, "##erung": 2, "##holung": 4, "Mi": 1, "##k": 1, "Gest": 2, "26": 0, "Folgende": 0, "##sv": 0, "Daniela": 0, "Rotter": 0, "ow": 0, "##ituation": 0, "##oren": 0, "##laden": 0, "Pet": 0, "exakt": 0, "ausges": 0, "Ob": 0, "##serv": 0, "##anz": 0, "Matrix": 1, "fehler": 0, "##eben": 0, "verkehrt": 0, "Aufruf": 0, "Fehl": 0, "Mah": 0, "##nung": 0, "Set": 0, "##tin": 0, "##altern": 0, "##ative": 0, "##ld": 0, "o": 0, "##sz": 2, "##ena": 0, "##rio": 0, "erkennt": 1, "erleichtern": 2, "dahin": 0, "vern\u00fcnf": 0, "F\u00fchrungs": 0, "##team": 0, "##\u00fchrung": 6, "ber\u00fchren": 0, "veran": 0, "##schau": 0, "gleichzeitig": 0, "person": 0, "Steuerung": 0, "Lei": 0, "##iede": 0, "Dampf": 0, "##maschinen": 0, "##steuerung": 0, "arrang": 1, "Nacht": 0, "tri": 0, "##via": 0, "##ler": 0, "##w\u00e4": 0, "Unsicherheit": 5, "##wissenschaftler": 0, "Knapp": 0, "beobachten": 0, "vielfach": 0, "\u00fcbersch": 0, "Rat": 0, "Bedenken": 1, "kontrollieren": 0, "Sch": 1, "Spa": 0, "##sich": 0, "orientieren": 0, "nett": 0, "l\u00e4": 0, "schnell": 1, "K\u00fcrze": 1, "Geh": 1, "##emmt": 1, "Initi": 0, "##alz": 0, "##\u00fcndung": 0, "Version": 0, "voll": 0, "par": 0, "##aver": 0, "##bal": 0, "##tem": 0, "##po": 0, "Beton": 0, "##pause": 2, "real": 0, "##sebene": 0, "Gestaltung": 2, "##gst": 2, "##frei": 2, "ermu": 2, "\u00e4u\u00dfern": 0, "Ren": 0, "##omme": 0, "Hand": 0, "langsam": 0, "gew\u00e4hren": 0, "##em": 0, "Tempo": 0, "augen": 0, "autor": 0, "Werkzeuge": 0, "##schullehrer": 2, "40": 0, "##dessen": 0, "##z\u00e4": 0, "##he": 0, "ziemlich": 2, "zust": 2, "Perspektive": 0, "##arch": 0, "as": 0, "##ym": 0, "##met": 0, "##ris": 0, "sozio": 0, "##kultur": 6, "##theorie": 0, "konstru": 2, "##l\u00f6sen": 0, "erzeugen": 0, "anscheinend": 0, "allem": 0, "##schie": 0, "konstruiert": 0, "traditionell": 0, "##\u00e4g": 1, "erlangen": 0, "Absicht": 0, "grav": 0, "##sver": 0, "bitten": 0, "##10": 0, "verhaf": 0, "Vermutung": 0, "##junkt": 0, "##11": 0, "Schwe": 0, "Akte": 0, "jemanden": 0, "wenden": 0, "##angabe": 0, "Frau": 0, "natur": 2, "stil": 0, "##ug": 2, "Erkenntnis": 0, "verp": 0, "##acken": 0, "Probe": 0, "pers\u00f6nlich": 0, "allt\u00e4": 0, "Erk": 0, "##skon": 0, "##struktion": 0, "##information": 0, "ann\u00e4h": 0, "Betrachtung": 0, "sp\u00fcrbar": 0, "Pon": 0, "gibt": 0, "##fluss": 0, "##w\u00e4l": 0, "##atten": 0, "sinn": 2, "##stift": 2, "Bull": 0, "##etin": 0, "vorgestellt": 0, "Entwicklung": 0, "Mechan": 0, "Br\u00fccken": 1, "Voraussetzung": 1, "n\u00e4her": 0, "K\u00f6rper": 0, "##mitte": 0, "Entstehung": 0, "##esch": 0, "##ichte": 0, "Kontakt": 0, "einerseits": 1, "konfron": 0, "andererseits": 0, "##wegs": 0, "gegen\u00fcber": 0, "dist": 0, "kaum": 0, "produ": 0, "Vollendung": 0, "qu": 0, "##leben": 0, "##tischen": 0, "Ansatz": 1, "##abel": 0, "x": 0, "trennen": 0, "##het": 1, "##zeigen": 2, "##ction": 2, "##klam": 0, "get": 0, "##\u00fcrk": 0, "eventuell": 1, "blo\u00df": 0, "Interesse": 1, "automatisch": 0, "Neu": 1, "##gier": 1, "keiner": 0, "Regen": 0, "unauf": 2, "##dring": 2, "nebenbei": 1, "##ns": 1, "##cho": 1, "halb": 0, "nachhaltig": 1, "##echt": 0, "berufen": 0, "daraufhin": 0, "solcher": 1, "##gest": 1, "lautet": 0, "Nenn": 0, "Visier": 0, "jedenfalls": 0, "anstelle": 0, "freilich": 1, "##ischer": 2, "##stecken": 1, "Prom": 4, "ran": 0, "anstatt": 0, "##antie": 1, "Nutzung": 0, "anhalten": 0, "zitiert": 0, "##und": 2, "##dition": 0, "##gebrauch": 0, "##rieb": 0, "##med": 0, "##dar": 0, "##ft": 0, "besser": 1, "##\u00e4r": 0, "##fen": 0, "Zur": 0, "##echsel": 2, "Option": 0, "empfehlen": 0, "zugest": 0, "##anden": 0, "Periode": 0, "##auer": 0, "Modelle": 0, "##rs": 0, "n\u00fctz": 0, "Abb": 1, "##ild": 1, "##ions": 0, "##bewusst": 0, "Aufmerksamkeit": 0, "##enkung": 0, "Inner": 0, "Di": 0, "##\u00e4t": 0, "Abgeordnete": 0, "##schaft": 0, "Alkohol": 0, "Chemie": 0, "Suf": 0, "##fi": 0, "Fle": 0, "##ons": 0, "##quis": 0, "##ki": 0, "##dest": 0, "##on": 0, "begleiten": 0, "Sprachen": 0, "##omen": 0, "wel": 0, "Komposition": 0, "Der": 0, "##iva": 0, "##las": 0, "##ti": 0, "sin": 0, "non": 0, "##ktive": 0, "##lohn": 0, "##tarif": 0, "technische": 0, "M\u00f6glichkeiten": 0, "bezeichnet": 0, "Korrektur": 4, "unbes": 0, "##etzt": 0, "Monitor": 0, "Anzeige": 0, "behauptet": 0, "##ona": 0, "wiederholen": 0, "Hinter": 0, "##t\u00fcr": 0, "kalt": 0, "Metall": 0, "##platte": 0, "ert": 0, "##rinken": 0, "##jar": 0, "##gon": 0, "##wahr": 0, "dauern": 0, "Sekunde": 0, "andauern": 0, "##bewegung": 0, "Heb": 0, "Augen": 0, "##bra": 0, "##ue": 0, "aufmerksam": 0, "Mie": 1, "Erh\u00f6hung": 0, "St\u00fctz": 1, "Studium": 0, "bisher": 0, "vorgehen": 2, "Einst": 0, "##eiger": 0, "Schaden": 1, "##lehr": 0, "Falls": 0, "weiteren": 0, "he": 2, "##mmen": 2, "Umstand": 0, "Foss": 0, "Abbruch": 0, "Sta": 0, "##gna": 0, "erworben": 2, "Null": 0, "##wachstum": 0, "##brechen": 0, "##grad": 0, "demnach": 0, "werfen": 2, "verde": 0, "Aussicht": 1, "Sprung": 0, "gleicherma\u00dfen": 0, "Defizit": 0, "St\u00e4rke": 0, "Mei": 0, "sicher": 0, "junge": 0, "Gl\u00fcck": 0, "Ressourcen": 0, "##blick": 0, "sch\u00e4r": 0, "##\u00fcler": 0, "##freundlich": 0, "##verh": 2, "##alte": 2, "etablieren": 2, "zulassen": 0, "Weichen": 0, "durchsetzen": 0, "##ufa": 0, "##immt": 0, "kunst": 1, "dokumen": 0, "Zweit": 0, "Kas": 0, "beeinfl": 0, "garantiert": 0, "su": 0, "##rate": 2, "Auge": 0, "##\u00e4u\u00dfer": 0, "beurteilen": 2, "herange": 0, "##dia": 2, "##ose": 2, "Ann\u00e4herung": 1, "##treten": 0, "gesagt": 1, "regelm\u00e4\u00dfig": 0, "neutr": 0, "##eing": 0, "##renzung": 0, "##ver": 0, "hervor": 1, "##nor": 4, "##ient": 4, "Nass": 0, "flexibel": 0, "Fol": 0, "##ien": 0, "##ly": 0, "##ruf": 0, "Kriterien": 4, "unum": 0, "##g\u00e4ng": 0, "Over": 0, "##head": 0, "##la": 1, "kritisieren": 0, "Format": 1, "bek": 0, "##ritte": 0, "Ernst": 0, "Zielsetzung": 0, "##schrift": 0, "Leitfaden": 0, "anpassen": 1, "einstellen": 1, "cu": 0, "##rr": 0, "##ic": 0, "##ular": 0, "davon": 0, "direkte": 0, "Rel": 0, "##hre": 0, "##rf": 0, "##ort": 0, "22": 0, "##orientierte": 0, "E": 0, "Aller": 0, "ma\u00dfgeblich": 0, "##bur": 0, "Gesichts": 0, "Fal": 0, "##sif": 0, "versp": 1, "##\u00fcren": 1, "Verw": 0, "##enden": 0, "Stellungnahme": 0, "N\u00e4chste": 0, "meine": 1, "Wenig": 1, "basierend": 0, "mark": 0, "Meinung": 0, "V": 0, "2007": 0, "wagen": 0, "##flie\u00dfen": 0, "erinnern": 0, "R\u00fcckgabe": 0, "Schulzeit": 0, "##f\u00f6rder": 2, "Auseinander": 2, "Spielen": 0, "eil": 0, "##abelle": 0, "##ack": 0, "Zoll": 0, "Halbjahr": 0, "melden": 0, "sodass": 0, "##zu": 0, "##wachs": 0, "ausgehen": 0, "##ender": 0, "Resonanz": 1, "Panorama": 0, "##inn": 0, "probieren": 0, "##abell": 0, "##emp": 0, "tot": 0, "Transparenz": 0, "Wurzeln": 0, "schlagen": 0, "Know": 0, "how": 0, "Dienst": 0, "##ecu": 0, "hind": 0, "##euten": 0, "mobil": 1, "jedes": 0, "Y": 0, "realisieren": 0, "Ausw": 0, "Leg": 0, "##esp": 0, "##iel": 0, "Realit\u00e4t": 0, "Math": 0, "Zahl": 0, "Pu": 0, "##zz": 0, "Fleck": 0, "verlangen": 0, "Ver": 0, "##verl": 0, "nennt": 0, "t\u00e4gliche": 1, "Brot": 1, "geb": 0, "##\u00fchren": 0, "##odie": 0, "##dens": 0, "##piel": 0, "Fitness": 1, "ant": 0, "l\u00e4uft": 0, "##xe": 0, "German": 0, "##hei": 0, "St": 0, "##\u00e4tte": 0, "Angelegenheit": 0, "voneinander": 0, "Leib": 0, "Aspekte": 0, "menschliche": 0, "Reg": 0, "voller": 0, "Vera": 1, "minder": 0, "G\u00fcte": 0, "Kompl": 1, "##iziert": 1, "konzip": 1, "Erfahrungen": 0, "Wer": 0, "kennt": 0, "Kla": 0, "##strahl": 0, "mehrmals": 0, "dank": 0, "falsche": 0, "##land": 0, "hoff": 0, "##\u00e4rt": 0, "##vis": 0, "cle": 0, "##wand": 0, "Behauptung": 0, "aufeinander": 0, "enden": 0, "Schw\u00e4che": 0, "gelegentlich": 0, "Mangel": 0, "##tigen": 0, "##zentrum": 0, "Er\u00f6ffnung": 0, "Sorge": 0, "verraten": 0, "Philosophie": 0, "Sens": 0, "Erm": 0, "##angel": 0, "##imo": 0, "verl\u00e4ngert": 0, "beacht": 0, "##opp": 0, "beeindruckt": 0, "pr\u00e4": 0, "##grenze": 0, "verdienen": 0, "au\u00dferhalb": 0, "ausschlie\u00dflich": 0, "##\u00fcss": 0, "Fett": 0, "Auftrag": 0, "gro\u00dfartig": 0, "##imi": 0, "##nier": 0, "Linie": 0, "Philosoph": 0, "interessant": 0, "##ma\u00df": 0, "gep": 0, "##ols": 0, "##tert": 0, "fantast": 0, "Wertpapier": 0, "Beleg": 0, "inform": 0, "Theo": 0, "##ret": 0, "##ana": 0, "##s\u00e4tzlich": 0, "Standpunkt": 0, "unterm": 0, "##auern": 0, "geblieben": 0, "##udi": 0, "Gegeben": 0, "Arbeitsplatz": 0, "gro\u00dfer": 0, "Wichtig": 0, "##wurf": 0, "Vorsicht": 2, "wa": 2, "##lt": 2, "Hed": 0, "##ging": 0, "##\u00f6t": 0, "##igt": 0, "State": 0, "##ilien": 1, "Standort": 0, "##schluss": 0, "Posit": 0, "Mitarbeiter": 0, "##r\u00fcckt": 0, "##erkl\u00e4rung": 0, "ausbauen": 2, "Entwicklungs": 0, "bed": 0, "##\u00fcrf": 0, "wohin": 0, "Amts": 1, "Organisation": 0, "Institution": 0, "##\u00fcre": 2}}