{"O": {"[UNK]": 764, "3": 76, ")": 612, "Analyse": 42, "##rahmen": 4, "zur": 6, "Sprach": 90, "##lichkeit": 3, "des": 7, "Fach": 83, "##lernen": 2, "##s": 34, "(": 576, "angel": 2, "##ehnt": 2, "an": 150, "Ta": 4, "##jm": 4, "##el": 14, "&": 12, "Voll": 21, "##mer": 18, "/": 232, "Th\u00fcr": 20, "##mann": 25, ";": 38, "Lo": 2, "##hs": 2, "##e": 57, "1": 100, ".": 1917, "Gibt": 10, "es": 243, "sprach": 88, "##liche": 11, "H\u00fcrden": 0, ",": 2041, "die": 19, "das": 7, "fach": 34, "Lernen": 30, "beh": 3, "##indern": 3, "k\u00f6nnten": 2, "?": 560, "2": 86, "Lern": 54, "##gelegen": 4, "##heiten": 1, "in": 628, "der": 2434, "Stunde": 23, "f\u00fcr": 197, "typische": 0, "\u201e": 52, "Ritu": 2, "##ale": 0, "\u201c": 58, "he": 1, "##mmen": 1, "Unterricht": 52, "##liches": 1, "##handel": 3, "##n": 62, "Typ": 4, "##ische": 3, "Disk": 10, "##urs": 10, "##funktionen": 0, "Materialien": 0, "Rezeption": 2, "Mittel": 5, "Produktion": 3, "Zu": 4, "erstellen": 9, "##de": 28, "Texte": 5, "\u2022": 182, "Muss": 4, "m\u00fcnd": 13, "Unterrichts": 36, "-": 358, "inter": 12, "##aktion": 4, "gest\u00fctzt": 0, "werden": 432, "M\u00fc": 1, "##ssen": 1, "SU": 0, "##S": 0, "Informationen": 0, "besch": 4, "##affen": 0, "eine": 16, "Ergebnis": 9, "##pr\u00e4sent": 2, "##ation": 11, "##lich": 160, "Ist": 2, "Met": 6, "##ako": 4, "##mm": 10, "##uni": 6, "##kat": 9, "##ion": 19, "\u00fcber": 70, "##prozess": 0, "geplant": 0, "Wie": 16, "gehe": 0, "ich": 126, "mit": 236, "Fehler": 37, "um": 106, "K\u00f6nnen": 2, "##er": 38, "im": 20, "Laufe": 2, "##funktion": 9, "ein": 714, "##\u00fcben": 2, "Etwas": 2, "beschreiben": 44, "erkl\u00e4ren": 29, "diskutieren": 4, "aus": 115, "argumen": 8, "##tieren": 14, "oder": 204, "bewerten": 13, "Spiel": 0, "##t": 58, "Text": 83, "##sor": 16, "##te": 8, "Rolle": 17, "deren": 2, "Merkmale": 2, "explizit": 23, "gemacht": 2, "m\u00fcssen": 121, "re": 9, "##zept": 2, "##iven": 0, "Kern": 0, "##wort": 15, "sch": 1, "##atz": 7, "unbekannt": 5, "ist": 5, "Stehen": 0, "bestimmte": 0, "##begriff": 2, "Wort": 53, "##feld": 2, "Zentrum": 3, "Welche": 4, "konkreten": 0, "##schatz": 17, "ben\u00f6tigen": 30, "Sch\u00fcler": 121, "Aufgabe": 71, "zu": 503, "l\u00f6sen": 9, "Ko": 0, "##gn": 19, "##ition": 1, "Informations": 6, "##tr\u00e4ger": 0, "gezwungen": 5, "sehen": 55, "schn": 1, "##uck": 0, "##eli": 3, "##g": 24, "Mitteln": 1, "Sprache": 35, "abs": 7, "##ichtlich": 0, "angeben": 2, "wert": 3, "##sch": 15, "##\u00e4tzen": 7, "Part": 1, "Stadt": 0, "Schul": 16, "##jung": 0, "Art": 7, "Bereitstellung": 0, "domin": 2, "##ante": 2, "gra": 6, "##atische": 0, "Form": 36, "ben\u00f6tigt": 2, "wird": 0, "typischen": 0, "Rede": 10, "##mittel": 5, "meines": 0, "##es": 19, "k\u00f6nnte": 0, "fokuss": 15, "##ieren": 91, "und": 732, "##fordern": 17, "Wird": 2, "bestimmtes": 0, "Register": 6, "erfordert": 0, "einzu": 4, "##halten": 16, "struktur": 6, "Kann": 2, "Erste": 2, "##llen": 2, "von": 359, "##ko": 0, "##h\u00e4re": 1, "##z": 6, "\u201a": 0, "rote": 1, "##r": 10, "Faden": 3, "\u2018": 0, "einge": 0, "##\u00fcbt": 2, "Wann": 1, "gebe": 2, "Feed": 10, "##back": 72, "Verfahren": 1, "Pr\u00e4": 5, "##gung": 3, "gew\u00fcnscht": 0, "Schlag": 1, "##verzeichnis": 1, "Struktur": 12, "Rote": 0, "welchem": 4, "Fall": 23, "##bilden": 10, "##d": 140, "planen": 5, "identifizieren": 0, "sie": 450, "Aspekt": 18, "schwierig": 8, "sein": 688, "nennen": 11, "daraus": 6, "folgen": 47, "m\u00f6glich": 48, "##ziel": 7, "=": 650, "Bedarfs": 0, "##analyse": 6, "+": 14, "##bestimmung": 0, "pre": 1, "##k\u00e4": 5, "her": 3, "##nach": 4, "erl\u00e4u": 6, "##tern": 6, "wie": 233, "dieser": 164, "Schwerpunkt": 1, "konkret": 47, "umgehen": 4, "Schule": 9, "kurs": 0, "welche": 55, "Hilfs": 10, "##angebot": 0, "bereits": 40, "##telle": 6, "Zusatz": 4, "##material": 22, "denkbar": 17, "innov": 5, "##ativ": 13, "spieler": 1, "##isch": 63, "Methode": 6, "*": 16, "innen": 98, "k\u00f6nnen": 312, "Kurz": 4, "anhand": 8, "selbst": 58, "produziert": 2, "Plak": 18, "##at": 31, "begr\u00fcnden": 14, "warum": 8, "Milch": 24, "##ku": 7, "##h": 8, "Nutz": 14, "##tier": 13, "Te": 59, "##acher": 58, "_": 76, "fe": 59, "##ed": 62, "mich": 10, "jetzt": 19, "Teil": 50, "Einheit": 7, "spannend": 2, "noch": 134, ":": 632, "kommen": 39, "Ziel": 14, "Gef": 4, "##ol": 11, "##gs": 3, "drin": 4, "verm": 4, "##itte": 2, "##ls": 2, "##vie": 1, "Weg": 21, "##marke": 1, "Or": 2, "##gas": 2, "##mus": 5, "Klasse": 27, "gemeinsam": 16, "##text": 33, "Thema": 47, "lesen": 17, "dabei": 13, "besprechen": 2, "Vor": 34, "##wissen": 20, "aktiv": 10, "Haltung": 4, "Herstellung": 1, ">": 66, "hier": 186, "man": 108, "nochmal": 33, "genau": 46, "schauen": 17, "was": 135, "!": 143, "sich": 226, "vorstellen": 7, "einfach": 32, "Plen": 29, "##um": 37, "eher": 29, "Lese": 2, "##stra": 0, "##teg": 0, "##ia": 0, "Leser": 0, "##out": 2, "##ine": 2, "Kind": 139, "eigens": 2, "##t\u00e4": 18, "##nd": 11, "##ig": 67, "Erl": 2, "##esen": 2, "vermitteln": 4, "Artikel": 5, "bei": 129, "Begriff": 10, "denken": 16, "geschlossen": 3, "Fertigung": 1, "Mel": 3, "##kk": 1, "##uh": 1, "Vieh": 1, "Her": 1, "##vor": 3, "##bringung": 1, "etwas": 52, "aufs": 3, "Auge": 3, "ged": 2, "##r\u00fcckt": 1, "bekommen": 4, "behandeln": 3, "ba": 2, "##na": 8, "##l": 50, "Nachwuchs": 4, "hin": 6, "##\u00fcber": 3, "##bringen": 12, "##abschnitt": 1, "Schlei": 0, "##fe": 3, "##bauen": 14, "euch": 8, "Verlauf": 9, "##produkt": 6, "nun": 20, "gegenseitig": 14, "nutzen": 32, "gern": 14, "##hilfe": 8, "Material": 25, "##the": 2, "##ke": 3, "Stufe": 7, "einzeln": 23, "erst": 36, "dann": 86, "Ende": 22, "produzieren": 8, "herstellen": 8, "Us": 32, "##w": 35, "differenz": 3, "##iert": 8, "Satz": 32, "##baus": 2, "##in": 38, "##anfang": 14, "L\u00fccken": 10, "Vorber": 4, "##eiten": 10, "Pr\u00e4sentation": 0, "w": 2, "##\u00f6rtlich": 2, "Mol": 1, "##ker": 3, "##ei": 2, "Abschnitt": 4, "unabh\u00e4ngig": 1, "seiner": 3, "ganzen": 3, "Breite": 3, "Zur": 0, "Schau": 1, "Stellen": 0, "nicht": 214, "falsch": 15, "aber": 118, "individ": 1, "##ualisiert": 1, "auf": 224, "Differenz": 2, "##ierungs": 8, "stehen": 16, "sollen": 74, "so": 60, "jed": 62, "passend": 11, "Sc": 12, "##aff": 14, "##old": 16, "##suchen": 4, "art": 2, "##if": 3, "##iz": 15, "##iell": 5, "nach": 38, "den": 9, "W\u00fcnschen": 1, "Kunden": 1, "still": 0, "##stehen": 4, "erw\u00e4": 2, "##hlen": 1, "Aufgaben": 10, "##stellung": 20, "erstmal": 21, "Ok": 6, "wichtig": 25, "wo": 32, "finden": 35, "Hilfe": 16, "Z": 98, "B": 119, "einst": 6, "##eigen": 6, "auch": 253, "##sa": 5, "##ktiv": 7, "##ierung": 11, "n\u00f6tig": 22, "zwingend": 1, "ant": 3, "##reffen": 2, "G": 38, "##rop": 3, "##p": 11, "Be": 2, "##zeichner": 0, "einzig": 7, "relevant": 18, "daf\u00fcr": 11, "ebenfalls": 7, "ob": 13, "wirklich": 11, "Unterschied": 2, "unterschiedlich": 27, "Reihenfolge": 5, "kl\u00e4ren": 6, "ganz": 29, "transparent": 0, "Mitarbeit": 1, "praktisch": 5, "Licht": 5, "Angelegenheit": 3, "bringen": 8, "Vari": 0, "oben": 7, "In": 13, "Zwei": 4, "##erte": 4, "##am": 2, "jeweils": 7, "vorgegeben": 4, "Bild": 47, "Pfeil": 6, "Verf\u00fcgung": 7, "stellen": 19, "##\u00fcte": 2, "diver": 6, "Lebensmittel": 2, "quasi": 3, "Proze\u00df": 14, "Produkt": 7, "gut": 61, "Idee": 6, "hoffentlich": 1, "##riften": 2, "lassen": 25, "doch": 16, "super": 2, "Vorgang": 4, "nochmals": 7, "schon": 66, "zeigen": 15, "als": 163, "zus\u00e4tzlich": 11, "wer": 44, "brauchen": 22, "nehmen": 13, "einig": 16, "reichen": 3, "vielleicht": 20, "nur": 109, "##sprach": 26, "Verb": 10, "verstehen": 26, "Ein": 12, "Partner": 7, "##arbeit": 25, "pr\u00e4sentieren": 3, "also": 42, "klar": 14, "Wiederholung": 9, "##ss": 6, "##ch": 38, "##lei": 6, "gleich": 22, "Auf": 28, "##schreiben": 4, "anfangen": 1, "gewisser": 1, "##ma\u00dfen": 1, "Wirtschafts": 3, "##gut": 1, "Gott": 1, "will": 1, "packen": 2, "gegen": 14, "do": 3, "##mes": 1, "##tiz": 1, "##iertes": 1, "Tier": 14, "En": 5, "##lohn": 1, "##ungs": 16, "##tarif": 1, "k": 3, "##\u00f6pfen": 1, "##halb": 1, "##ams": 2, "Anordnung": 5, "bestimmen": 8, "##ordnen": 18, "erwarten": 14, "Antwort": 25, "Begr\u00fcndung": 3, "gerade": 30, "fallen": 10, "mir": 35, "schwer": 19, "Mehrwert": 2, "erkennen": 7, "sehr": 48, "anspruchs": 2, "##voll": 5, "weil": 34, "Kuh": 6, "geben": 80, "damit": 50, "K\u00e4se": 2, "machen": 64, "unklar": 2, "Muster": 7, "##l\u00f6sung": 8, "aussehen": 5, "Stelle": 11, "sinnvoll": 14, "Que": 2, "##st": 3, "wieso": 12, "verh\u00e4ng": 1, "##en": 88, "pf": 1, "##eil": 1, "##ger": 1, "##ade": 1, "kein": 57, "Zucker": 1, "##le": 25, "##cken": 5, "Kleine": 3, "geschenkt": 1, "einmal": 12, "Eindruck": 2, "Fazit": 13, "insgesamt": 17, "gehen": 41, "richtig": 17, "Richtung": 8, "vorhanden": 7, "allerdings": 7, "kurz": 24, "fehlen": 25, "stark": 6, "##bindung": 0, "M\u00fcn": 0, "##dlich": 0, "##keit": 21, "ab": 28, "##zielen": 4, "alle": 39, "Fest": 8, "durch": 83, "paar": 5, "Austausch": 9, "##runde": 2, "locker": 3, "ausf\u00fchrlich": 5, "Diskussion": 9, "indem": 27, "Recherche": 5, "Beitrag": 4, "Rinder": 4, "##haltung": 4, "Klimawandel": 4, "usw": 34, "Pod": 2, "##iums": 2, "##disk": 4, "##ussion": 2, "zwischen": 15, "Bauer": 29, "Klima": 4, "##aktiv": 9, "##ist": 4, "Veg": 4, "##aner": 4, "gegeneinander": 4, "vorbereiten": 9, "st\u00fctzen": 6, "nat\u00fcrlich": 24, "da": 43, "Potential": 8, "liefer": 1, "##bar": 17, "Nachdruck": 0, "Zielsetzung": 2, "deutlich": 11, "Bla": 1, "mu": 0, "##w\u00e4rts": 0, "etwa": 7, "op": 1, "##ulen": 1, "Gedanken": 5, "##austausch": 3, "##sr": 9, "##unde": 2, "Barbar": 1, "tun": 26, "Wege": 1, "leiten": 2, "ihr": 144, "Dreier": 2, "##gruppe": 19, "knapp": 0, "De": 7, "Fac": 5, "##to": 14, "drei": 20, "##aufgabe": 30, "w\u00fcnschen": 8, "##swert": 6, "haben": 179, "Planung": 6, "aufnehmen": 9, "##isieren": 17, "plus": 7, "weit": 42, "Person": 19, "mindestens": 4, "wirken": 8, "z": 6, "##\u00f6ger": 0, "trauen": 4, "ruhig": 3, "kre": 5, "##ativer": 4, "lebendig": 3, "solange": 4, "zentral": 10, "##bildungs": 10, "##prinzip": 4, "Inter": 6, "Ans": 9, "##cha": 16, "##uu": 11, "##ng": 26, "##sm": 12, "##aterial": 8, "Map": 30, "inspir": 3, "https": 10, "mo": 4, "##od": 26, "##lab": 4, "hu": 6, "ber": 6, "##lin": 7, "de": 22, "mod": 12, "ur": 4, "view": 4, "ph": 4, "id": 7, "111": 4, "Unter": 7, "##schm": 1, "##ei\u00dfen": 1, "Post": 1, "erzeugen": 3, "wenn": 109, "Sie": 1, "meinen": 21, "frisch": 1, "log": 1, "##gen": 19, "##techn": 0, "sei": 1, "Vergn\u00fcgen": 1, "##regen": 11, "Daumen": 1, "zum": 7, "ersten": 1, "Mal": 5, "Internet": 4, "##adresse": 1, "##arbeiten": 1, "Umsetzung": 0, "Se": 2, "##quenz": 8, "Entlastung": 2, "sowie": 12, "\u00c4nderung": 2, "Sozial": 0, "##form": 17, "viele": 5, "umsetzen": 6, "Station": 4, "##gf": 36, "Check": 5, "i": 9, "Warm": 4, "up": 6, "bevor": 4, "verteilen": 10, "Stoff": 0, "Wirklichkeit": 1, "##holen": 10, "Gestaltung": 0, "Auftrag": 3, "ehe": 1, "publ": 3, "##izieren": 4, "dennoch": 7, "vollst\u00e4ndig": 2, "##bildung": 43, "##nu": 0, "##tz": 10, "##kart": 8, "vorrangig": 5, "##halt": 10, "ohne": 35, "diese": 23, "wohin": 4, "##gegen": 2, "Sinn": 16, "Sache": 3, "##wohl": 2, "Formul": 4, "helfen": 23, "meist": 20, "wissen": 30, "ja": 17, "versprach": 6, "##g\u00e4ngig": 1, "all": 43, "Opera": 12, "##tor": 12, "schreiben": 10, "Definition": 13, "St\u00e4rkung": 0, "mehr": 27, "string": 1, "##ent": 8, "el": 9, "##ement": 7, "##ar": 9, "starten": 2, "Karte": 7, "Funktion": 6, "zumindest": 9, "liefern": 2, "versammel": 0, "enthalten": 8, "##speicher": 6, "Bruch": 6, "##teil": 9, "eindeutig": 6, "gr\u00f6\u00dftenteils": 5, "allein": 6, "einige": 6, "Bananen": 2, "##oper": 2, "##ator": 5, "ihnen": 30, "einsch": 3, "##mu": 4, "##gge": 2, "##ln": 9, "\u00fcberhaupt": 10, "keinerlei": 2, "Aussage": 10, "##kraft": 45, "v": 22, "a": 26, "passieren": 10, "##zw": 26, "Vergleich": 10, "mal": 17, "eben": 6, "lieben": 3, "Kleinen": 3, "schi": 4, "er": 21, "##spr": 1, "##ie\u00df": 1, "Besser": 1, "vergleichen": 8, "dringend": 2, "##raten": 2, "analysieren": 13, "eigen": 38, "Sche": 8, "##ma": 13, "durchge": 4, "##hen": 5, "betrachten": 15, "kritisch": 15, "L\u00f6sung": 20, "lauten": 4, "wiederum": 4, "H\u00fcr": 0, "mein": 58, "vermutlich": 6, "form": 12, "##ulieren": 21, "irgendwie": 5, "vor": 74, "##sal": 4, "ander": 58, "Formulierung": 6, "##shi": 4, "##lf": 4, "par": 3, "##sen": 3, "Kre": 0, "wiederholt": 2, "Male": 1, "F\u00e4": 1, "##zes": 1, "Ri": 1, "##post": 1, "wohl": 2, "Erleichterung": 1, "Word": 1, "##ing": 35, "\u00dcber": 22, "##legen": 16, "##reiben": 2, "erfolgen": 9, "Schrift": 7, "##sprache": 32, "not": 8, "sp\u00e4t": 7, "O": 19, "\u00c4": 4, "wozu": 2, "denn": 10, "sonst": 10, "daran": 10, "schlie\u00dfen": 2, "letzt": 8, "Punkt": 23, "wann": 10, "pein": 2, "wa": 1, "##ag": 1, "##recht": 3, "Literatur": 1, "Produkte": 1, "##igen": 9, "##schaft": 5, "veranl": 4, "##asst": 4, "Parallel": 1, "##ep": 3, "##ipe": 1, "Koll": 6, "Iss": 2, "##ue": 4, "mark": 4, "erkennbar": 2, "mittels": 6, "##ta": 5, "##rk": 6, "n\u00fctzlich": 2, "weniger": 4, "Sicht": 3, "schwach": 4, "unsicher": 7, "immer": 31, "gro\u00df": 18, "Herausforderung": 4, "##karte": 10, "Schluss": 3, "abl": 9, "risk": 1, "##ant": 7, "begreifen": 1, "Liebe": 11, "Kir": 14, "##sten": 14, "##idee": 2, "viel": 35, "leider": 9, "Beschreibung": 11, "Vogel": 6, "erreichen": 2, "Schwier": 5, "##igkeit": 17, "Deutsch": 11, "hierf\u00fcr": 6, "##sehen": 4, "kn": 1, "##iff": 2, "##lig": 19, "komplex": 7, "vorge": 15, "##ben": 15, "wegen": 6, "hoch": 12, "##an": 5, "##forderung": 8, "sondern": 38, "klein": 26, "arbeiten": 16, "Farbe": 1, "ohnehin": 4, "Farb": 1, "Bestandteil": 5, "minim": 1, "##al": 27, "Anzahl": 4, "Feder": 2, "n": 4, "Schnabel": 3, "Brust": 2, "Steck": 4, "##brief": 4, "wollen": 12, "spontan": 6, "falls": 1, "hoffen": 4, "ber\u00fccksichtigen": 9, "ansonsten": 9, "'": 4, "s": 6, "kla": 4, "##ppen": 6, "recht": 12, "Wid": 1, "##rig": 1, "Zun": 3, "##eigung": 3, "diesbe": 2, "##zweck": 2, "anwend": 2, "##bezogen": 2, "##ige": 5, "ra": 3, "##ff": 8, "##iniert": 1, "Geschw": 2, "##ader": 2, "##ken": 8, "bem\u00fc": 4, "##\u00dfig": 4, "f\u00fchlen": 6, "Fell": 1, "##farbe": 4, "Farben": 1, "Nie": 1, "##drig": 1, "Schnau": 1, "##pe": 6, "Portr\u00e4t": 1, "soweit": 3, "vorne": 2, "##weg": 6, "Entwurf": 1, "4": 56, "5": 42, "6": 6, "fr\u00fche": 2, "##stens": 2, "sowohl": 7, "Erwart": 2, "##ung": 69, "anbieten": 4, "vieler": 10, "Zeit": 13, "Ewigkeit": 2, "Lay": 1, "relativ": 1, "##tischen": 1, "gen": 9, "##\u00f6t": 8, "##igt": 8, "pr\u00e4": 3, "##gna": 2, "##nt": 7, "eingest": 2, "##\u00e4ndig": 2, "anschauen": 3, "vorher": 20, "intensiv": 2, "zurecht": 2, "davor": 2, "vollkommen": 2, "au\u00dfen": 3, "##lassen": 4, "Wissens": 0, "##aufbau": 0, "woher": 2, "Info": 12, "Kopf": 4, "dort": 11, "bestehend": 2, "Wissen": 17, "vern": 3, "##etzen": 5, "Problem": 7, "Buch": 7, "schlagen": 1, "Aus": 5, "##gan": 2, "##listen": 3, "##sicherung": 2, "##besch": 0, "##affung": 0, "hei\u00dfen": 34, "dass": 135, "Rest": 2, "##leiten": 0, "aufbauen": 6, "vergessen": 6, "##dr": 3, "innerhalb": 8, "Nikolaus": 1, "aufstellen": 2, "h\u00f6chst": 1, "Gruppe": 34, "Klassen": 7, "##stufe": 2, "Inhalt": 16, "zusammen": 24, "##fassen": 11, "erz\u00e4hlen": 1, "Ebene": 19, "neu": 27, "Jahrgang": 4, "##sst": 6, "##ufe": 5, "vom": 1, "Stapel": 1, "Gehalt": 1, "direkt": 6, "auffallen": 4, "Lesen": 5, "ausgest": 2, "##alten": 2, "Weis": 0, "Kid": 3, "##die": 3, "davon": 5, "ausgehen": 3, "kna": 1, "schrift": 2, "##steller": 2, "##isches": 3, "Werk": 3, "sagt": 1, "stattfinden": 7, "Versp": 4, "##rach": 4, "Alltags": 6, "statt": 16, "Unterst\u00fctzung": 1, "Bildungs": 16, "Gef\u00fchl": 6, "Moment": 2, "inner": 10, "##sens": 10, "##ib": 18, "##zogen": 2, "F\u00fcr": 1, "Sekunde": 9, "no": 1, "##etisch": 1, "Bele": 1, "##hr": 1, "daher": 30, "mechan": 4, "leb": 2, "##los": 6, "gl\u00fcck": 2, "zer": 4, "##spl": 2, "##ittern": 2, "abstra": 1, "##kt": 10, "Ah": 4, "##a": 10, "verbinden": 5, "Empfehlung": 4, "versuchen": 15, "rund": 4, "Ganze": 6, "Teils": 6, "##ritt": 6, "wahrscheinlich": 10, "arrang": 1, "Durch": 2, "##sage": 2, "##orientierung": 2, "verste": 2, "f\u00fchren": 15, "au\u00dferdem": 5, "rau": 2, "##mg": 2, "##reifen": 2, "wir": 83, "gar": 11, "Heft": 4, "Hand": 6, "halten": 5, "Ne": 5, "gegangen": 1, "fast": 5, "nichts": 7, "sagen": 11, "bleiben": 9, "dargestellt": 2, "Vorgehensweise": 1, "Hinsicht": 2, "allgemein": 9, "heraus": 3, "unge": 5, "##gens": 1, "Ablauf": 0, "##plan": 8, "Einstellung": 4, "##uliert": 4, "Arbeits": 16, "##weisung": 5, "Kooperation": 2, "##vern": 0, "##etzung": 0, "Umgang": 5, "abge": 1, "k\u00e4": 0, "##uf": 0, "erwerben": 9, "##sichtlich": 1, "Zeitpunkt": 5, "F\u00e4l": 0, "bieten": 10, "Posten": 1, "Schnell": 1, "wes": 1, "##wegen": 1, "tier": 1, "Lebe": 6, "##wesen": 6, "lei": 1, "##wand": 4, "Mitwirkung": 0, "ran": 2, "Verl": 1, "##iebt": 1, "reichlich": 1, "##webe": 1, "Stoffe": 1, "##pf": 1, "##fen": 8, "Worte": 4, "mitgeteilt": 4, "natur": 1, "##gegeben": 1, "ag": 0, "##greg": 0, "ma": 0, "##u": 37, "##auftrag": 4, "funktionieren": 5, "Anschlag": 3, "med": 3, "##ias": 1, "res": 1, "Erkenntnis": 2, "Mitte": 0, "Gun": 0, "##be": 7, "##zei": 2, "Ber\u00fchrung": 0, "Ab": 7, "Drei": 2, "##eck": 4, "Gemeinsam": 1, "vorn": 10, "##oti": 2, "##eren": 10, "m\u00f6gen": 2, "spielen": 19, "untereinander": 0, "kap": 0, "##pen": 0, "Zusammenarbeit": 3, "setzen": 6, "gew\u00e4hlt": 2, "zudem": 7, "Vie": 2, "##ee": 14, "R\u00fcck": 5, "##meldung": 5, "grunds\u00e4tzlich": 3, "\u00fcberlegen": 16, "Einstieg": 7, "gestalten": 2, "Aktivit\u00e4t": 10, "inhaltlich": 2, "rot": 5, "bis": 10, "fortsetzen": 2, "h\u00e4ngen": 4, "los": 3, "Raum": 7, "##zug": 10, "Fokus": 13, "r\u00fccken": 1, "welcher": 24, "Themenk": 2, "##omp": 2, "##lex": 4, "passen": 6, "danach": 5, "##reihe": 4, "ober": 4, "##fl\u00e4ch": 5, "punkt": 3, "##uell": 9, "betreffen": 9, "Gegenstand": 8, "abgesehen": 1, "grundlegend": 4, "Gehirn": 2, "##zellen": 1, "anstren": 1, "m\u00f6glicherweise": 1, "##drei": 1, "##genommen": 1, "Kor": 3, "##di": 12, "##ller": 1, "irgendeiner": 2, "##pielen": 2, "darauf": 11, "einigen": 1, "F\u00e4llen": 1, "Sp": 5, "minus": 1, "Vis": 5, "##ualisierung": 2, "dazu": 43, "##ite": 2, "##tat": 4, "##ten": 9, "Symbol": 4, "hinter": 4, "stif": 7, "Sprech": 2, "##bl": 2, "##ase": 2, "Einzel": 6, "w\u00e4hlen": 5, "Modus": 0, "Verzicht": 1, "##wenden": 1, "Arbeit": 21, "Tan": 1, "##dem": 2, "Geschichte": 1, "Merkmal": 27, "Jahreszeit": 8, "themat": 9, "unbedingt": 8, "##auf": 10, "##nehmen": 5, "Beispiel": 21, "suchen": 6, "unter": 26, "##ziehen": 10, "legitim": 2, "##ierbar": 2, "Verf": 1, "##lossen": 1, "##heit": 12, "##sp": 3, "##\u00e4he": 2, "einzigartig": 1, "Tax": 3, "##on": 7, "zugleich": 1, "ta": 2, "##uschen": 2, "aktiviert": 2, "##lichen": 3, "Frage": 58, "na": 5, "##rr": 1, "Problems": 1, "##tell": 2, "experimente": 2, "##ll": 4, "Erf": 1, "##ors": 4, "##chen": 8, "##helfen": 5, "Taschen": 2, "##lam": 2, "##quelle": 2, "Glob": 1, "##us": 6, "Ball": 1, "erfor": 1, "##schen": 5, "anlegen": 1, "Terr": 1, "Tanz": 1, "##veranstaltung": 3, "Information": 3, "Videos": 4, "Tafel": 9, "##bild": 2, "sorgf\u00e4ltig": 1, "bezogen": 2, "##hor": 2, "##izont": 2, "erg\u00e4nzen": 4, "Halt": 1, "ausgepr\u00e4gt": 1, "umf": 2, "##orm": 13, "bestimmt": 37, "best": 2, "rei": 1, "##flich": 1, "Job": 1, "##sv": 5, "##lag": 2, "komp": 1, "##akt": 1, "Men\u00fc": 1, "Kontext": 6, "zwei": 9, "##seite": 4, "wobei": 5, "Vorbereitung": 2, "Lieblings": 4, "##jahres": 3, "##zeit": 18, "##x": 9, "Sitz": 2, "##kreis": 6, "d\u00fcrfen": 8, "Anfang": 2, "Ursache": 6, "Figur": 9, "Demo": 0, "Mick": 1, "##ym": 3, "##aus": 4, "wodurch": 1, "Universum": 2, "Fotografie": 1, "Saison": 4, "##z\u00fcglich": 1, "Ly": 2, "##ric": 4, "beide": 11, "lau": 3, "Hintergrund": 3, "beiden": 2, "Nach": 7, "##komme": 3, "##tragen": 5, "Umlauf": 2, "Kreis": 2, "je": 3, "nachdem": 1, "m\u00f6glichst": 10, "vis": 7, "Syn": 2, "##onym": 2, "Erkl\u00e4r": 2, "experimen": 1, "S": 45, "8": 10, "Seite": 96, "durchs": 6, "##chi": 7, "##mmer": 2, "offenbar": 1, "Experiment": 4, "##ein": 2, "##beziehen": 10, "pro": 9, "dem": 8, "einen": 5, "Versuch": 5, "ankommen": 1, "geltend": 1, "kon": 3, "##zi": 3, "einem": 1, "unbest": 1, "##immten": 1, "##probieren": 2, "scheinen": 2, "zwangsl\u00e4ufig": 1, "Experten": 6, "b": 16, "verschieden": 29, "anderer": 18, "Suche": 2, "ideal": 8, "sprechen": 19, "Bilder": 2, "##folg": 2, "ggf": 2, "\u00dcbertragung": 3, "Abschluss": 2, "Reflex": 2, "##\u00e4qu": 5, "Spann": 1, "##finden": 4, "##ld": 1, "##ern": 7, "ergreifen": 1, "st": 6, "##ocken": 0, "Gaz": 1, "##ette": 3, "Kompl": 1, "##etti": 2, "##erung": 3, "##schritt": 2, "di": 3, "##da": 6, "##ktisch": 4, "T": 2, "unten": 4, "anf": 4, "##\u00fcgen": 2, "Kommentar": 9, "ignor": 2, "Klarheit": 1, "dar\u00fcber": 9, "insbesondere": 19, "M\u00f6glichkeit": 14, "Wasser": 5, "##lauf": 5, "verd": 4, "##unsten": 2, "flie\u00dfen": 2, "tats\u00e4chlich": 7, "Denken": 2, "seit": 1, "wenig": 6, "Monat": 2, "lernen": 10, "##rg": 1, "##eb": 1, "##nis": 3, "erb": 0, "##auen": 0, "##unt": 1, "ha": 1, "##ark": 2, "##lein": 1, "Lu": 1, "Um": 4, "##ulierung": 1, "angefangen": 1, "kaum": 3, "te": 3, "##uto": 2, "##nisch": 2, "Kritik": 4, "##punkt": 13, "zwar": 10, "##fertigt": 2, "##mat": 2, "Stichwort": 8, "F\u00fcll": 2, "leisten": 12, "entsprechend": 3, "defen": 2, "##siv": 4, "Motivation": 2, "verlassen": 3, "##komplex": 1, "beantworten": 6, "##lastung": 4, "Gruppen": 6, "##dehn": 2, "ents": 1, "##leun": 1, "ent": 6, "##lasten": 6, "ungef\u00e4hr": 1, "besorgen": 3, "wahrnehmen": 8, "verteidigen": 2, "gro\u00dfer": 2, "Kunst": 3, "##fertig": 5, "gek": 1, "##\u00fc": 1, "##pft": 1, "weiteres": 1, "Gang": 1, "herunter": 4, "##schalten": 1, "ansprechen": 5, "Planungs": 8, "hinein": 2, "##schauen": 2, "achten": 8, "umso": 3, "einsetzen": 5, "jewei": 18, "Ern\u00e4hrung": 3, "Ding": 4, "Mensch": 15, "essen": 6, "Frucht": 2, "Inse": 2, "Maus": 2, "Fisch": 1, "Nu": 1, "Blatt": 3, "Katalog": 1, "Kategorie": 10, "Lebensraum": 2, "Ort": 2, "leben": 4, "##erken": 1, "Nut": 1, "##rit": 1, "Wesen": 1, "Nahrungsmittel": 1, "Zwie": 1, "##bel": 4, "##fisch": 1, "Denk": 8, "##zentrum": 4, "fern": 1, "erw\u00e4hnen": 9, "Liste": 1, "irgend": 3, "##wer": 3, "Welt": 8, "##all": 1, "Vorhaben": 2, "ans": 8, "##weise": 13, "jedoch": 17, "ausb": 2, "##\u00e4h": 2, "##wie": 2, "##fern": 2, "urspr\u00fcnglich": 4, "jetz": 3, "##ind": 0, "##gerecht": 0, "motiv": 0, "##ierend": 16, "br\u00fc": 2, "Komp": 3, "##osit": 0, "Lehr": 68, "##werk": 15, "sch\u00f6n": 5, "\u00dcbung": 5, "No": 4, "##me": 2, "bilden": 3, "Wald": 6, "Am": 2, "##eise": 5, "##ame": 2, "##ise": 3, "fro": 5, "##iv": 10, "##aw": 2, "##isse": 2, "gesamte": 1, "halb": 3, "##wegs": 1, "vertreten": 1, "##ui": 11, "##off": 2, "Prozess": 0, "derzeit": 2, "real": 4, "erreichbar": 1, "etliche": 1, "Geschehen": 0, "##pers": 3, "##pekt": 4, "##ive": 5, "mus": 2, "##ter": 20, "##g\u00fcltig": 2, "Blick": 11, "gelingen": 13, "Darstellung": 7, "Vorgehen": 2, "##aufen": 4, "ben": 12, "##ennen": 14, "angemessen": 6, "alles": 1, "pal": 1, "##vis": 1, "erster": 0, "leeren": 1, "doppelt": 2, "gr\u00fcn": 2, "w\u00e4hrend": 10, "##werkstatt": 2, "Grund": 19, "##voraus": 2, "##setzung": 2, "mater": 3, "##ial": 5, "##side": 0, "##gh": 1, "##ell": 22, "tre": 1, "##sicher": 1, "\u2192": 2, "##igungs": 4, "##stunde": 6, "entstehen": 7, "Zahlen": 6, "##geschichte": 2, "h": 4, "##\u00e4n": 2, "##seln": 2, "sieben": 3, "Leb": 2, "##kuchen": 1, "Gre": 2, "##tel": 2, "25": 6, "Gleich": 6, "7": 12, "An": 5, "##bot": 2, "Ware": 2, "##zelt": 1, "##arat": 1, "##hink": 1, "##\u00f6n": 1, "##nen": 6, "##versammlung": 3, "Achtung": 5, "Peer": 8, "##feed": 4, "entfallen": 2, "dir": 4, "heute": 7, "unser": 30, "\u00dcbungs": 8, "Woche": 1, "schlecht": 7, "genauso": 3, "leicht": 5, "\u00c4u\u00dfer": 8, "##statten": 1, "Verst\u00e4nd": 4, "##igung": 8, "H\u00e4nde": 2, "Garde": 1, "##ma\u00df": 1, "Tage": 1, "hom": 1, "##ogen": 3, "gleichen": 1, "Sinne": 1, "##leuchten": 1, "allen": 3, "Fleisch": 3, "hervorragend": 1, "getr": 2, "##ost": 2, "Per": 2, "##fektion": 2, "##ism": 24, "verb": 13, "##uchen": 5, "Fin": 4, "##et": 7, "wertvoll": 2, "##stand": 3, "besonders": 11, "f\u00e4l": 2, "##len": 4, "them": 2, "##bedingt": 2, "reduzieren": 3, "mathemat": 3, "weiterhin": 4, "versch": 5, "##rift": 5, "Besch": 4, "Reis": 2, "##haufen": 2, "perfekt": 2, "s\u00e4m": 0, "##tlich": 0, "aussch": 3, "begn": 1, "##adet": 1, "eint": 1, "##ragen": 3, "be": 0, "##ugen": 2, "Sonder": 1, "ev": 6, "##ident": 1, "konsequent": 0, "##setzen": 9, "Ma\u00df": 1, "Adam": 1, "Ries": 1, "Potenzial": 0, "##pu": 0, "##mp": 1, "abweichen": 5, "krei": 2, "mitten": 3, "Wanderung": 2, "##zimmer": 2, "sammeln": 8, "Erfahrung": 6, "Plan": 6, "##stu": 2, "Re": 10, "Orts": 4, "Legende": 1, "z\u00e4hlen": 5, "strukturiert": 0, "fein": 0, "Abstra": 2, "##ktions": 2, "##verm\u00f6gen": 2, "##beschreibung": 9, "Ausflug": 1, "drau\u00dfen": 1, "schlie\u00dflich": 16, "Audio": 2, "##aufnahme": 2, "##\u00fcndig": 2, "##einheit": 12, "Werks": 1, "origin": 1, "Vier": 1, "##undzwanzig": 2, "##stel": 1, "eines": 2, "Tages": 1, "vieles": 1, "##h\u00e4": 3, "##ufen": 2, "Erfahrungen": 2, "Kalk": 1, "##\u00fcl": 1, "Eintritts": 1, "##n\u00f6": 3, "M\u00e4rchen": 1, "##falls": 1, "fl": 1, "##\u00e4ch": 1, "Tour": 1, "freien": 1, "Wild": 1, "##bahn": 1, "Sicherheit": 4, "hand": 2, "##bares": 0, "Gut": 2, "##fach": 7, "##handlung": 4, "fragen": 3, "Entschuldigung": 2, "links": 3, "rechts": 2, "##biegen": 2, "##as": 2, "Himmels": 2, "##richtung": 2, "n\u00f6rdlich": 2, "\u00f6stlich": 2, "Kos": 3, "##mos": 3, "\u00fcberd": 1, "##enken": 4, "per": 3, "##format": 4, "feststellen": 3, "fest": 9, "u": 6, "un": 7, "##kon": 0, "##kret": 0, "rein": 11, "sichern": 1, "provo": 0, "##kant": 0, "g\u00e4ng": 6, "Schritt": 7, "##pro": 12, "##ze\u00df": 12, "vier": 17, "##arbeitung": 6, "erf\u00fcllen": 3, "Kriterium": 7, "Kreativit\u00e4t": 0, "Bereich": 16, "angehen": 6, "langen": 1, "kurzer": 2, "begr": 1, "Zweck": 4, "Amt": 1, "beachten": 1, "leist": 1, "Abb": 1, "##ild": 1, "Ideal": 1, "##erweise": 2, "Impuls": 5, "Klein": 4, "bearbeiten": 2, "anschlie\u00dfend": 5, "ord": 3, "Herz": 3, "erfassen": 11, "##kod": 4, "zusammengefasst": 2, "hinsichtlich": 2, "kooper": 3, "ansch": 0, "Best": 1, "ca": 1, "##se": 5, "##bieten": 0, "irgendeine": 2, "Anschluss": 1, "k\u00fcmmer": 1, "Sieb": 1, "strei": 1, "Song": 3, "schenken": 1, "blu": 1, "##ts": 7, "##verw": 9, "##andt": 5, "##f\u00e4llig": 9, "##wirken": 3, "komplett": 3, "weg": 4, "Doppel": 2, "##seit": 2, "Haus": 1, "Band": 1, "grob": 4, "Aufbau": 0, "traurig": 2, "##heitlich": 0, "##fahrung": 6, "Ha": 2, "##pt": 6, "##ik": 18, "bas": 4, "##teln": 4, "pr\u00e4zise": 2, "##rt": 4, "##blatt": 9, "allem": 4, "Respekt": 1, "Einst": 0, "##eiger": 0, "leid": 1, "tut": 1, "aufzu": 1, "uneingesch": 0, "##r\u00e4nkt": 0, "pr\u00e4z": 0, "##is": 0, "Stellung": 0, "Mithilfe": 1, "treffen": 3, "Block": 15, "Prinzip": 9, "Ritter": 30, "##schlag": 6, "Herr": 2, "Page": 3, "##sf": 13, "Lan": 4, "##ze": 5, "Schild": 5, "Mittelalter": 7, "kennenlernen": 9, "erweitern": 5, "beob": 2, "##acht": 2, "men": 4, "##tal": 4, "Was": 12, "Verhaltens": 5, "verwenden": 11, "Innern": 4, "##eign": 2, "##dr\u00fccke": 1, "Bel": 1, "##obi": 5, "Mon": 1, "##arch": 3, "Dienst": 1, "gutes": 1, "Ben": 4, "##ehmen": 1, "Wurf": 1, "##spe": 1, "lin": 2, "##gu": 10, "##istisch": 11, "pass": 2, "spezif": 7, "##oka": 4, "##tion": 19, "erhalten": 11, "\u201d": 8, "Land": 5, "besitzen": 8, "christ": 2, "Glauben": 2, "erz": 1, "##ieh": 1, "hm": 2, "gew": 3, "##i\u00df": 0, "##sie": 4, "##rung": 2, "##bei": 8, "##gehen": 8, "merken": 9, "kombin": 2, "Funktions": 7, "##verb": 4, "##gef\u00fc": 4, "##ge": 2, "Work": 2, "##sh": 4, "Live": 2, "##work": 2, "com": 2, "charakter": 2, "erlangen": 1, "schul": 8, "Anwendung": 1, "Krieger": 2, "heran": 6, "f": 4, "##irm": 2, "Anh\u00e4nger": 3, "keine": 3, "Ahnung": 2, "sp": 4, "##arta": 1, "Da": 2, "kinder": 2, "##itu": 4, "##ms": 2, "Pr\u00e4sen": 2, "##\u00fcbung": 0, "dies": 36, "Gramm": 3, "##atik": 4, "liegen": 12, "##bli": 1, "##termin": 5, "##ologie": 5, "mg": 4, "Aktiv": 0, "f\u00f6rdern": 11, "einsam": 2, "##mel": 7, "Vertreter": 1, "m\u00e4nnlichen": 1, "Geschlechts": 1, "Hast": 1, "Plattform": 1, "Agrar": 1, "##ier": 5, "sank": 2, "Order": 0, "gew\u00e4hren": 3, "Sach": 10, "##buch": 17, "gerne": 2, "Kita": 3, "niedrig": 0, "erm\u00f6glichen": 9, "gr\u00fcndlich": 2, "Unterscheidung": 2, "Besch\u00e4ftigung": 3, "##\u00f6": 4, "##gl": 10, "ger": 3, "##\u00fcttel": 1, "##ichtung": 2, "schl": 5, "##aue": 1, "MA": 1, "Falls": 0, "##tr": 9, "##ick": 7, "##ims": 1, "##m\u00e4\u00dfig": 3, "Rollen": 10, "##spiel": 15, "Lebensweise": 3, "Stand": 6, "Verk": 2, "##leidung": 2, "schl\u00fc": 3, "##pfen": 2, "Lebens": 13, "##ums": 2, "##tan": 2, "Beginn": 3, "##gruppen": 2, "ausf\u00fchren": 3, "Rahmen": 2, "Qu": 2, "##atsch": 2, "##phase": 11, "Niveau": 2, "fordern": 1, "ad": 4, "dienen": 9, "okay": 2, "gefallen": 1, "am": 13, "Zusammenfassung": 11, "\u00fcbers": 4, "einbringen": 3, "##laufen": 3, "Vorschlag": 2, "dein": 11, "##sagen": 4, "verhalten": 1, "Dialog": 1, "euer": 4, "##art": 4, "Rand": 2, "##fahr": 1, "hei": 1, "ins": 4, "Erzeugnis": 1, "##gehend": 1, "g\u00fcltige": 1, "Benennung": 2, "ej": 1, "##akul": 1, "##xt": 2, "deuten": 1, "verdienen": 3, "Gebot": 1, "geometr": 1, "Aussehen": 4, "##\u00f6gern": 1, "##m\u00fc": 1, "Smart": 4, "##board": 4, "darstellen": 14, "typisch": 8, "Ausr\u00fcstung": 2, "##steil": 2, "Pferd": 2, "Schwert": 2, "hac": 2, "Schwein": 2, "Getreide": 1, "##durch": 2, "Variante": 1, "Platz": 3, "Tabl": 2, "klass": 8, "la": 4, "##min": 4, "Edel": 1, "Korn": 1, "Mod": 1, "##ifikation": 1, "##computer": 1, "Bill": 1, "##ett": 1, "vern\u00fcnf": 3, "##tig": 5, "somit": 17, "unbe": 3, "##wu": 2, "\u00dcberblick": 3, "del": 1, "##ori": 2, "Hindernis": 0, "Gar": 0, "Lager": 0, "Position": 7, "abgetr": 2, "##ennt": 2, "Arbeitsplatz": 1, "definitiv": 1, "##f\u00fchrung": 4, "##up": 3, "##id": 2, "Team": 3, "##ollen": 2, "erarbeiten": 4, "recher": 3, "##muster": 16, "Bauern": 2, "mehrere": 9, "Auswahl": 5, "\u00e4": 3, "analog": 2, "sitzen": 2, "Still": 3, "Kollektiv": 1, "aust": 1, "##eilen": 3, "##zeitlich": 1, "T\u00e4ter": 1, "ermitteln": 2, "Anth": 1, "##no": 2, "Reck": 1, "Feststellung": 1, "Anpassung": 1, "\u00e4hnlich": 2, "Tabelle": 4, "fertig": 1, "##f\u00fcllen": 4, "jederzeit": 1, "holen": 1, "News": 1, "##gro": 1, "Reiter": 1, "##kriege": 1, "dis": 2, "##pon": 4, "##ibel": 4, "Spezie": 1, "##list": 1, "Musik": 2, "Rott": 1, "Element": 5, "Wahrscheinlich": 1, "##keits": 1, "##raums": 1, "stetig": 5, "sorgen": 4, "wieder": 19, "unterst\u00fctzen": 1, "Alters": 1, "##pla": 4, "erledigen": 2, "haupts\u00e4chlich": 2, "Hin": 3, "Mega": 2, "##poten": 2, "##tial": 2, "reden": 1, "##denken": 1, "wor": 8, "##h\u00f6ren": 3, "gen\u00fcgend": 2, "##f\u00e4higkeit": 2, "##h\u00e4ngen": 2, "verlieren": 2, "diagnost": 0, "n\u00e4mlich": 2, "##frage": 6, "Reihe": 4, "h\u00f6ren": 5, "##\u00fcchtern": 1, "Kollege": 2, "bezahlen": 2, "##au": 1, "Gespr\u00e4ch": 3, "##anteil": 4, "L": 2, "antworten": 4, "mi": 3, "##\u00df": 2, "##brauch": 2, "Reiz": 2, "##geber": 2, "antwor": 2, "erlauben": 8, "Interview": 7, "Fernsehen": 1, "Vortrag": 4, "weiter": 13, "##f\u00fchren": 5, "entdecken": 4, "ind": 2, "##uk": 14, "##tiv": 7, "##ars": 2, "##itzung": 2, "Unbekannte": 1, "Stimme": 2, "erheben": 1, "benutzen": 1, "Zugangs": 1, "##code": 1, "Welten": 2, "##raum": 2, "hy": 1, "##per": 1, "Knie": 1, "##\u00dfer": 1, "hor": 3, "##tl": 1, "weitere": 2, "find": 1, "Aussprache": 5, "##sid": 1, "reagieren": 9, "Get": 2, "##reuer": 2, "Fernseh": 1, "schau": 1, "##lle": 2, "angeblich": 1, "begegnen": 4, "Tisch": 4, "fassen": 6, "darin": 8, "vermuten": 2, "10": 8, "Min": 16, "Zeitungs": 2, "##artikel": 2, "Aussch": 4, "##nitt": 2, "100": 4, "%": 4, "I": 4, "Mur": 4, "bestehen": 11, "Leit": 4, "Befra": 2, "##gte": 2, "befragt": 2, "K\u00e4r": 1, "##tchen": 1, "Chance": 1, "ausmachen": 4, "Befragung": 1, "anst": 2, "##ands": 2, "annehmen": 5, "##fangen": 1, "Res": 1, "##si": 16, "Un": 4, "##regel": 1, "##m\u00e4\u00dfigkeit": 2, "Untersuchung": 2, "bedeutend": 2, "handeln": 5, "et": 1, "##iten": 1, "##itter": 1, "##schwer": 1, "##raf": 1, "##schlei": 0, "##arbeitungs": 2, "##m\u00f6glichkeit": 3, "\u00fcben": 8, "##satz": 11, "##lesen": 5, "runter": 2, "##bet": 2, "bereit": 2, "sind": 1, "##urz": 1, "##rei\u00dfen": 1, "Ero": 1, "##tem": 1, "egal": 2, "Horizont": 2, "ewigen": 1, "Jagd": 1, "##gr\u00fcnde": 1, "eingehen": 1, "##drucken": 1, "sk": 6, "##izz": 6, "wider": 6, "##spiegel": 2, "##and": 2, "Seminar": 2, "##uns": 4, "##ens": 2, "bauen": 2, "##leistung": 2, "akzeptieren": 2, "umfangreich": 1, "Gedanke": 5, "##splan": 2, "Schilder": 1, "wonach": 1, "bet": 1, "##r\u00fc": 2, "##bt": 1, "ausgedehn": 1, "Grenzen": 2, "##rieb": 5, "worauf": 3, "Verbindung": 2, "Haupt": 5, "##rede": 0, "Meister": 3, "Holz": 4, "##stern": 4, "Mathematik": 4, "##unterricht": 34, "Anf": 7, "##order": 7, "Forum": 2, "Praxis": 8, "kunst": 1, "dar": 3, "Anstellung": 1, "Geh": 1, "##ei\u00df": 1, "existieren": 2, "Anregung": 4, "[": 38, "Nur": 2, "Mo": 22, "]": 34, "f\u00fc": 4, "For": 2, "##beitrag": 3, "hinzu": 8, "festgestellt": 2, "gelangen": 2, "Forderung": 0, "diesem": 0, "sek": 0, "##und": 0, "##pra": 1, "##che": 4, "24": 28, "Modell": 22, "Kommunikation": 0, "##alisieren": 1, "##stelle": 3, "Sachver": 2, "nachdenken": 3, "##kreisen": 1, "Rechn": 0, "kommunizieren": 4, "Rechen": 0, "##ae": 0, "nachvollzieh": 1, "port": 3, "##r\u00e4t": 1, "uns": 18, "\u00dcbersch": 2, "##u\u00df": 2, "problematisch": 5, "##liste": 6, "##arbeits": 0, "Kommun": 0, "Gur": 3, "Gegenzug": 1, "Sorgen": 1, "Daten": 3, "problem": 1, "##beh": 2, "##aft": 2, "##auschen": 0, "Summe": 4, "Tee": 2, "##licht": 2, "Ausgabe": 1, "Brett": 2, "add": 2, "verf\u00fcgbar": 13, "Gebrauch": 3, "Betrag": 1, "Ausdruck": 8, "Verf\u00fcg": 0, "##mach": 4, "##ichtig": 2, "##stoff": 1, "professionell": 2, "f\u00e4hig": 1, "erfahren": 4, "Lex": 3, "##emin": 1, "##vent": 1, "##zettel": 3, "Glo": 2, "##ssa": 2, "darum": 12, "H\u00e4lfte": 2, "verbringen": 2, "##schieben": 0, "womit": 1, "sterben": 1, "bild": 6, "F\u00e4higkeit": 7, "ausw\u00e4hlen": 2, "alter": 2, "##sg": 7, "##erecht": 2, "Kurs": 2, "m\u00f6chten": 12, "Einbruch": 0, "beitragen": 1, "Erwerb": 2, "Jahr": 1, "Angebot": 2, "##schul": 6, "##bereich": 8, "steigen": 4, "nei": 2, "Kalender": 1, "##jahr": 1, "em": 1, "##itt": 2, "AB": 1, "\u00fcberzogen": 0, "Leistungs": 4, "##erw": 0, "Alltag": 10, "angesichts": 3, "##ren": 7, "##kos": 2, "explod": 2, "frei": 5, "verk": 2, "##\u00e4uf": 2, "detaill": 0, "fund": 2, "notwendig": 2, "Tra": 2, "ausge": 1, "##kl": 1, "##\u00fcgel": 1, "t\u00e4glich": 1, "Brot": 3, "ersch": 2, "solide": 0, "Grundlage": 2, "part": 1, "beschrieben": 2, "##l\u00e4nge": 2, "pra": 4, "##xis": 2, "##orientiert": 2, "Verkn\u00fc": 2, "##pfung": 2, "Su": 1, "##jet": 1, "9": 4, "diskrimin": 6, "##krit": 2, "Diver": 14, "Diskriminierung": 10, "Klicken": 2, "herunterladen": 1, "##oo": 1, "##men": 8, "Zusammenhang": 9, "Mehr": 3, "##wechsel": 0, "einstellen": 1, "sau": 7, "11": 12, "Komponente": 2, "beding": 1, "Bezug": 8, "National": 1, "Repertoire": 3, "##welt": 4, "Familie": 2, "Medium": 4, "Ze": 2, "##tt": 7, "erfordern": 3, "Multi": 1, "##ling": 3, "##ualis": 2, "\u00d6": 1, "##rn": 6, "##ie": 13, "land": 4, "##ab": 2, "Fund": 1, "##ref": 7, "##ktiert": 5, "ster": 2, "##eo": 7, "##typ": 10, "##geleitet": 2, "Handeln": 15, "Schuls": 3, "##ystem": 2, "##faktor": 2, "sozial": 17, "Herkunft": 7, "nachweisen": 1, "Beh": 0, "##err": 1, "akadem": 2, "Haushalt": 2, "##system": 4, "erfolglos": 2, "blo\u00df": 3, "##\u00fcren": 1, "Eva": 1, "\u00dcberzeugung": 0, "auseinander": 8, "Selbst": 8, "Top": 0, "##os": 0, "Beziehung": 2, "Rassismus": 9, "Rassen": 3, "##dok": 2, "institution": 2, "##literatur": 4, "h\u00e4ufig": 19, "tief": 2, "systematisch": 11, "rass": 6, "ansehen": 4, "J\u00fcnger": 3, "verfl": 1, "##ix": 1, "heu": 2, "pla": 5, "Jahrzehnt": 1, "cl": 1, "##own": 1, "##esk": 1, "Zehn": 1, "##zeitraum": 1, "weshalb": 5, "jemand": 9, "zahl": 3, "##reich": 4, "Beweis": 1, "##grund": 1, "##konstruktion": 4, "Vielzahl": 3, "##dimension": 4, "Individ": 6, "##uum": 6, "Identit\u00e4t": 14, "pr\u00e4gen": 6, "aufgrund": 30, "##behandlung": 8, "##sse": 8, "Ag": 8, "unters": 4, "##agen": 4, "straf": 4, "##rechtlich": 4, "verfolgen": 5, "Rasse": 5, "Ethn": 5, "Geschlecht": 5, "Religion": 4, "##ans": 9, "Alter": 4, "Behinderung": 3, "sexuell": 4, "Quelle": 8, "##ese": 7, "Berlin": 16, "Gesetz": 3, "Ausgrenzung": 4, "F\u00fclle": 1, "Kong": 1, "##rue": 1, "##atten": 4, "zugute": 1, "bedingt": 1, "konta": 1, "##freu": 1, "Ph\u00e4nomen": 19, "##achteil": 3, "12": 4, "plan": 3, "My": 1, "##ster": 1, "##ium": 8, "Nachteil": 0, "ergeben": 1, "##rel": 2, "##ev": 2, "##eg": 0, "##orie": 0, "gezielt": 4, "\u2014": 4, "Tu": 2, "Dresden": 4, "tu": 2, "dre": 2, "##sd": 2, "d": 8, "hinaus": 10, "Dimension": 25, "demnach": 3, "H\u00f6he": 1, "Folge": 5, "Technische": 2, "Hochschule": 1, "Universit\u00e4t": 1, "Brand": 8, "Hab": 2, "Beg": 3, "##abu": 2, "bedeut": 2, "##sam": 2, "He": 2, "##it\u00e4ts": 2, "##merkmale": 2, "2017": 4, "20": 10, "Leben": 5, "13": 10, "Lehre": 2, "##ner": 12, "gesellschaft": 2, "Verh\u00e4ltnis": 2, "##linie": 2, "erheblich": 1, "Existenz": 1, "Methodik": 4, "zumeist": 2, "oftmals": 10, "verg": 4, "##egen": 5, "##w\u00e4rtig": 4, "inwieweit": 4, "##real": 6, "##it\u00e4t": 12, "Mit": 4, "weiterer": 5, "korre": 0, "##ond": 0, "Cho": 1, "\u00fcberwiegend": 1, "speziell": 1, "Kenntnisse": 1, "lern": 4, "verh\u00e4lt": 0, "ausreichend": 2, "refle": 8, "##ktieren": 8, "schlimm": 2, "sogar": 5, "Nad": 4, "##ny": 2, "Stefan": 2, "2021": 8, "##sek": 8, "##tional": 10, "politisch": 4, "Lokal": 0, "##isation": 0, "Wirkung": 2, "erstaunlich": 1, "15": 8, "##weren": 2, "##kommen": 4, "stets": 7, "Kombination": 1, "auftreten": 3, "geschehen": 5, "Konst": 1, "##ella": 1, "Abgrenzung": 1, "Gesch": 0, "##ehn": 0, "Online": 1, "H": 8, "##ttp": 2, "www": 4, "ro": 2, "##ux": 2, "##ikation": 2, "375": 2, "##78": 2, "##ita": 2, "zuletzt": 2, "pr\u00fcfen": 1, "01": 2, "07": 2, "gelten": 12, "P\u00e4dagog": 15, "besch\u00e4ftigen": 8, "Zugeh\u00f6rigkeit": 6, "vers": 2, "##ichern": 3, "Gesch\u00e4ft": 1, "Spannungs": 0, "##verh\u00e4ltnis": 0, "individuell": 4, "Faktor": 0, "Herrschafts": 0, "##ef": 0, "##fekt": 1, "Mart": 2, "Busch": 2, "\u00ab": 10, "Sub": 3, "##jekt": 3, "\u00bb": 10, "Pers\u00f6nlichkeit": 4, "##sent": 4, "##wicklung": 4, "Lage": 2, "Ausarbeitung": 1, "tragen": 2, "Berichten": 1, "zufolge": 1, "Amb": 0, "##ivalen": 0, "jeder": 0, "##tent": 2, "Gr\u00f6\u00dfe": 1, "Gro": 1, "##b": 9, "##konzept": 1, "##zed": 1, "Er": 6, "##achten": 4, "Kompetenz": 4, "Komplexit\u00e4t": 4, "Viel": 3, "##schicht": 3, "##iziert": 0, "Betracht": 1, "ziehen": 2, "Anlehnung": 4, "Andreas": 2, "Fo": 2, "##itz": 2, "vielmehr": 2, "eleg": 2, "scheiter": 2, "14": 6, "Handlungs": 6, "trotz": 3, "##icherheit": 2, "p\u00e4dagog": 9, "##ob": 1, "besser": 1, "##pr\u00e4": 1, "Weise": 8, "f\u00f6rder": 7, "Angst": 7, "mei": 3, "##den": 3, "Deb": 4, "Katharina": 4, "Stu": 4, "##ve": 4, "Olaf": 4, "Scheitern": 4, "le": 3, "##hre": 3, "##rh": 1, "##zu": 2, "##hl": 5, "##ich": 2, "Sprung": 1, "entziehen": 1, "Neut": 4, "##ral": 6, "l\u00e4ngst": 1, "##leute": 1, "studieren": 0, "##anst": 2, "##o\u00df": 2, "Wert": 2, "##freiheit": 6, "Grundsatz": 2, "##verst\u00e4ndnis": 1, "metho": 4, "##dis": 5, "Dog": 3, "dauerhaft": 2, "aufta": 2, "Ungleich": 2, "##heits": 2, "priv": 2, "##ileg": 2, "\u2013": 38, "Kosten": 3, "gesteckt": 2, "Regel": 6, "##sprechen": 3, "Samen": 1, "##erg": 2, "##uss": 4, "##gem\u00e4\u00df": 2, "##folger": 4, "zun\u00e4chst": 10, "Wider": 0, "##gabe": 4, "##here": 8, "offen": 6, "Verhalten": 4, "18": 10, "23": 4, "beziehen": 7, "Privileg": 6, "bew": 6, "##ussen": 6, "##ierte": 2, "luxuri": 2, "##\u00f6s": 4, "Situation": 10, "Reduzierung": 2, "Ster": 4, "##isierung": 6, "Gewalt": 2, "Marg": 2, "##ina": 2, "##li": 2, "##rte": 2, "lustig": 2, "Unger": 0, "##echtigkeit": 0, "All": 1, "Ki": 2, "##ste": 2, "konvention": 2, "Ice": 2, "##rd": 2, "1966": 2, "Haut": 3, "Abstammung": 1, "national": 3, "Ursprung": 2, "Volks": 4, "##tum": 2, "beruhen": 2, "##lie\u00df": 2, "Beschr\u00e4nkung": 2, "Bevor": 2, "dadurch": 3, "##berechtigt": 2, "##erkennen": 3, "Genie\u00dfen": 2, "aus\u00fcben": 2, "Menschen": 2, "wirtschaftlich": 2, "kultur": 2, "\u00f6ffentlich": 2, "ver": 3, "##eite": 2, "beeintr\u00e4chtigen": 4, "##ton": 1, "##kunft": 6, "hiermit": 1, "bemerken": 4, "Kategor": 1, "entlang": 1, "sog": 2, "aufrechter": 2, "sub": 2, "##jektiv": 2, "Wahrnehmung": 2, "verh": 4, "##\u00e4rten": 2, "abseits": 2, "dessen": 4, "Klass": 7, "##ifizierung": 1, "Rub": 1, "##rum": 1, "impl": 8, "##rasse": 0, "wissenschaft": 4, "halt": 4, "##ew": 1, "##erk": 1, "Susan": 2, "Arn": 2, "##dt": 2, "##ja": 2, "Of": 2, "##ua": 2, "##y": 6, "al": 2, "##azar": 2, "vorschlagen": 2, "17": 4, "definieren": 4, "##cis": 2, "##m": 11, "Pre": 2, "##ju": 2, "##ce": 4, "Power": 1, "Rass": 0, "##ismen": 0, "##stuf": 6, "Bewertung": 2, "Macht": 6, "##lehr": 3, "##ideo": 5, "##log": 1, "Herrschaft": 1, "##uta": 1, "##cht": 1, "##ismus": 0, "geh\u00f6ren": 4, "##willig": 2, "Verst\u00e4ndnis": 6, "Besitz": 2, "##urteil": 1, "echt": 2, "##behalt": 1, "##ser": 0, "##\u00fcm": 1, "vorliegen": 9, "ungleich": 4, "infolge": 3, "Charakter": 1, "##merk": 1, "##mal": 6, "##leich": 3, "Wei\u00df": 2, "##sein": 5, "genie\u00dfen": 2, "kontro": 2, "##vers": 2, "con": 4, "##ti": 2, "##o": 6, "sin": 1, "qu": 1, "non": 1, "Bezeichnung": 1, "unterscheiden": 4, "Abbildung": 6, "Ali": 2, "Val": 2, "##jen": 2, "net": 2, "##ap": 2, "Ex": 1, "##kurs": 3, "positiv": 5, "19": 6, "eng": 4, "ethn": 4, "verwandt": 2, "Konzept": 4, "anders": 3, "##artig": 2, "##fische": 1, "Schle": 1, "##nk": 5, "Differen": 0, "##tia": 0, "\u00f6fter": 4, "is": 6, "breiter": 1, "Erscheinungs": 1, "Look": 2, "##ili": 2, "Gesundheit": 2, "Ad": 6, "##ult": 4, "jung": 2, "Antisemitismus": 1, "Schicht": 4, "Tran": 1, "feind": 2, "##kei": 2, "Sex": 2, "Gen": 1, "##der": 2, "##eis": 4, "Alte": 2, "anti": 2, "##lim": 2, "Islam": 2, "##feind": 1, "Hom": 5, "##oph": 4, "Anti": 2, "##zig": 2, "##ani": 3, "Rom": 2, "Sin": 2, "Lin": 8, "Trennung": 0, "Juden": 1, "##verfolgung": 1, "Fl": 1, "##\u00f6z": 1, "Polar": 1, "##\u00f6l": 1, "soziale": 1, "##has": 1, "Gelegenheit": 4, "Kommunikations": 2, "gewalt": 2, "gering": 7, "Liter": 2, "##alit\u00e4t": 2, "##serfahrung": 2, "nieders": 2, "##lagen": 2, "##f\u00f6rderung": 2, "irre": 4, "##lev": 2, "Ak": 5, "##zent": 7, "##gew": 2, "##ohn": 2, "Paar": 1, "Stief": 1, "##vort": 1, "##eilung": 1, "Gabe": 1, "wesentlich": 5, "Ot": 2, "##her": 10, "Kultur": 4, "##alisierung": 3, "##lang": 1, "Mech": 4, "##eri": 4, "Dir": 2, "##im": 2, "2010": 8, "42": 2, "det": 2, "Erkl\u00e4rung": 16, "Handlung": 7, "Konflikt": 1, "##sweise": 1, "Wichtig": 1, "Meinungs": 1, "##versch": 1, "##ieden": 1, "Schreib": 5, "dahinter": 3, "##steigen": 1, "Dich": 2, "##oto": 2, "##mi": 8, "Zweite": 2, "##il": 3, "Gesellschaft": 2, "Zuge": 2, "##h\u00f6rige": 4, "Nicht": 2, "zuge": 2, "verst\u00e4rkt": 2, "Zusch": 2, "##reibung": 2, "##produz": 3, "Spar": 1, "Fleck": 1, "bedeuten": 6, "Ru": 4, "ko": 21, "Datei": 3, "Akte": 2, "vielf\u00e4ltig": 6, "Dialekt": 4, "##tritt": 4, "##sem": 6, "##pfe": 4, "Gymnasium": 4, "erteilen": 3, "t\u00e4tigen": 1, "##jemand": 1, "deutsch": 1, "Zunge": 1, "##ns": 2, "101": 2, "hinweg": 2, "Anerkennung": 2, "mitgebracht": 0, "agieren": 0, "bek\u00e4mpfen": 3, "##\u00e4mmen": 1, "Dist": 0, "##inkt": 1, "potenzie": 2, "##eh": 4, "##\u00f6r": 4, "woraufhin": 1, "dr\u00fccken": 0, "ohn": 0, "##m\u00e4chtig": 1, "Opfer": 0, "##rolle": 1, "##erb": 3, "##zwei": 0, "##fel": 1, "best\u00e4": 4, "emp": 0, "##ath": 0, "kompens": 0, "ge": 0, "verst\u00e4rken": 0, "Betroffene": 0, "Verfasst": 0, "Fortbildung": 4, "besuchen": 1, "Gesellschafts": 2, "##zusammen": 2, "##hang": 2, "##\u00fcr": 0, "r": 3, "wecken": 0, "Hoffnung": 0, "sit": 2, "##ert": 10, "Lehrer": 4, "##arm": 2, "##losen": 2, "2016": 2, "stand": 2, "web": 2, "p": 14, "##df": 12, "##tu": 12, "or": 2, "Training": 1, "vermisst": 1, "kompliziert": 1, "##seud": 0, "nachge": 1, "wirksam": 4, "Werkzeug": 2, "beispielsweise": 5, "Id": 4, "##tage": 2, "##freie": 2, "|": 2, "Institut": 2, "Bildung": 5, "generell": 1, "Anlauf": 2, "wirk": 1, "##gebiet": 2, "##klus": 2, "Demokratie": 2, "##unternehmen": 2, "Bew": 7, "##usste": 2, "##reh": 2, "F\u00f6rderung": 1, "##ul": 2, "##able": 2, "derjenige": 2, "##bew": 1, "##\u00e4ltigung": 4, "richten": 1, "Finanz": 1, "##sprit": 1, "aller": 3, "Voraus": 2, "##sicht": 1, "Landes": 2, "##anti": 2, "##rimin": 2, "##gesetz": 2, "62": 2, "##1": 2, "##fu": 2, "##bi": 2, "fu": 4, "bit": 2, "##stream": 2, "##18": 2, "##8": 2, "169": 2, "##70": 2, "##dg": 2, "se": 4, "##quen": 2, "Isa": 2, "##llo": 2, "##we": 2, "y": 2, "##sk": 0, "unterrichten": 0, "beginnen": 6, "folglich": 4, "kolle": 2, "##gia": 1, "Beratung": 2, "Ereignis": 2, "nachtr\u00e4glich": 2, "k\u00fcnftig": 2, "inkl": 0, "sensi": 0, "Ansatz": 0, "##spektrum": 0, "beinhalten": 9, "Schulen": 4, "##tw": 4, "##lung": 5, "demokrat": 2, "##zieht": 2, "bef": 2, "verringern": 0, "Stimm": 1, "##lage": 1, "Mehrfach": 2, "anerkennen": 0, "gesehen": 1, "anderes": 1, "sa": 1, "##pie": 2, "Gesicht": 1, "oft": 15, "organisieren": 2, "Weiterbildung": 1, "Botschaft": 0, "herbei": 0, "##schaffen": 0, "Kindertages": 1, "##st\u00e4tte": 1, "Erzieher": 2, "ihm": 2, "Zugang": 1, "verschaffen": 2, "##\u00e4tzt": 2, "Account": 1, "##eins": 1, "##tim": 1, "##mung": 1, "##usst": 2, "##sei": 4, "##binden": 2, "fot": 2, "enorm": 2, "beschr\u00e4nken": 3, "Noten": 2, "##gebung": 2, "Sel": 2, "##ekt": 2, "F\u00f6rder": 2, "##ma\u00dfnahme": 2, "zuerst": 4, "Phase": 5, "##lecht": 1, "m\u00e4chtig": 1, "21": 30, "sp\u00e4testens": 2, "Sekundar": 4, "bal": 2, "meiste": 4, "Papier": 10, "erinnern": 1, "##kaufen": 0, "Ausbau": 0, "##kompetenz": 2, "verf\u00fcgen": 7, "gewinnen": 2, "Expert": 1, "unbekannte": 1, "Schm": 2, "##\u00f6lzer": 2, "eib": 2, "2006": 2, "179": 2, "Lauf": 4, "sechs": 2, "##zeption": 0, "vertraut": 0, "famili": 0, "##\u00e4r": 3, "separ": 5, "aufweisen": 2, "##spezif": 2, "erweitert": 2, "Ade": 4, "##so": 0, "##urce": 0, "zur\u00fcck": 6, "##greifen": 20, "Betriebs": 0, "##alisch": 1, "##rech": 1, "Name": 4, "betreffend": 1, "Bestimmung": 0, "##chn": 1, "##app": 1, "##planung": 2, "beanspr": 2, "Ins": 2, "sicherer": 1, "warten": 2, "Orientierung": 1, "##ahmen": 1, "entfernt": 1, "Anzeichen": 1, "Ev": 1, "##iden": 3, "Ges": 2, "##agte": 2, "##uen": 4, "stattdessen": 2, "solch": 19, "bew\u00e4ltigen": 0, "untersuchen": 5, "schaffen": 2, "Notwendigkeit": 0, "Autor": 2, "vorlegen": 2, "##ungsbereich": 6, "##decken": 1, "Ausf\u00fchrung": 6, "Vollstre": 0, "##ckung": 0, "obwohl": 1, "Video": 24, "Feld": 0, "##grenzen": 3, "W": 6, "##dh": 4, "Ba": 4, "Genre": 0, "schriftlich": 6, "Entsteh": 1, "Ausdehnung": 2, "Debatte": 1, "f\u00fcnf": 2, "vorgeschlagen": 2, "##inter": 0, "##st\u00e4nd": 1, "Schlaf": 2, "##utz": 0, "##nei": 0, "##schau": 3, "Ris": 0, "##mund": 2, "hingegen": 6, "Vert": 4, "##ief": 4, "Par": 1, "##aph": 1, "##ras": 13, "##itiv": 17, "Operation": 2, "2014": 4, "bezeichnen": 12, "ausgel\u00f6st": 2, "OP": 0, "strik": 1, "technische": 2, "##kind": 2, "System": 2, "##ad": 0, "##ministrat": 0, "##or": 2, "##struktur": 4, "verarbeiten": 1, "##geben": 10, "fung": 2, "##hren": 1, "jede": 1, "Menge": 1, "invol": 4, "##vier": 4, "dementsprechend": 4, "##gewinn": 0, "etablieren": 1, "Festlegung": 0, "festlegen": 2, "##antwort": 5, "erforderlich": 6, "s\u00e4": 3, "vorkommen": 4, "sorg": 2, "Kons": 0, "##istenz": 0, "deswegen": 2, "integrieren": 2, "Trommel": 1, "Anleitung": 2, "welches": 2, "##uster": 0, "ka": 3, "##usa": 3, "multi": 2, "##s\u00e4": 1, "Qualit\u00e4t": 5, "erh\u00f6hen": 6, "k\u00fcmmern": 1, "Nomin": 1, "Pass": 2, "etc": 6, "pl": 6, "##uri": 8, "##lit": 8, "##era": 8, "##ci": 9, "ec": 4, "##ml": 4, "at": 6, "##als": 2, "54": 2, "##utt": 2, "app": 2, "##ro": 4, "##ach": 2, "into": 2, "##ctic": 2, "##erst": 4, "nah": 1, "bedienen": 3, "RT": 1, "##H": 1, "Ro": 0, "##ot": 0, "User": 2, "Ma\u00dfnahme": 0, "##egal": 1, "Seiten": 5, "##fl\u00fcgel": 2, "schlicht": 2, "Schreiben": 2, "Sprechen": 0, "##p\u00e4dagog": 2, "##ener": 0, "Bearbeitung": 0, "initi": 0, "lenken": 5, "anzeigen": 1, "2019": 4, "D": 6, "R": 2, "Chron": 2, "Versuchs": 2, "Vordergrund": 2, "hinten": 1, "ausdr\u00fcck": 5, "kenn": 1, "##zeichnen": 1, "aufgegeben": 1, "Loch": 1, "achte": 1, "##rau": 1, "Regelung": 1, "##ordnung": 2, "pr\u00fc": 2, "##fungs": 2, "Rep": 2, "##rod": 2, "Transfer": 2, "##organisation": 2, "sicherlich": 7, "Lehren": 7, "verst\u00e4nd": 2, "##bahnen": 2, "verf": 2, "##\u00e4nglich": 1, "Themen": 5, "Administrat": 0, "Steuerung": 2, "Stab": 1, "St\u00fctz": 1, "gew\u00e4hrleisten": 2, "theoretisch": 0, "Referenz": 0, "realisiert": 0, "2002": 4, "##onom": 2, "##i": 8, "verschw": 2, "Realisierung": 0, "Sorte": 1, "Laden": 1, "##gesch\u00e4ft": 1, "registrieren": 3, "eis": 1, "##hart": 1, "indirekt": 6, "##izit": 4, "erscheinen": 6, "meistens": 2, "erwartet": 4, "##ender": 2, "Inst": 3, "##ru": 2, "##ktion": 2, "herum": 1, "16": 6, "Projekt": 2, "Merc": 2, "Zeichen": 3, "int": 5, "vornehmen": 4, "Fl\u00fcgel": 2, "Kla": 0, "durchgef\u00fchrt": 1, "normalerweise": 1, "einfache": 0, "##wahl": 6, "bewusst": 6, "genannt": 5, "Auswertung": 2, "##hin": 3, "erstrecken": 2, "##sch\u00fcler": 0, "Ca": 13, "Primar": 0, "schwerwie": 0, "##gend": 0, "blicken": 1, "Weisheit": 1, "zusammenh\u00e4ngen": 0, "##zip": 2, "Neben": 1, "##tra": 5, "diesbez\u00fcglich": 2, "fa": 2, "##th": 0, "##om": 0, "erw\u00e4hnt": 4, "einher": 2, "Nam": 2, "Statistik": 2, "forme": 1, "##von": 1, "anschlie\u00dfen": 0, "##ikon": 2, "##eint": 4, "##rag": 6, "W\u00f6rter": 2, "Bra": 3, "##inst": 3, "Mind": 2, "Des": 3, "##cr": 2, "Inhalts": 2, "##wieder": 4, "Sum": 2, "##mar": 2, "##erz": 2, "##\u00e4hl": 2, "##san": 4, "Anteil": 14, "Man": 2, "##ual": 4, "diskon": 4, "##tinuier": 4, "Dia": 1, "##gramm": 1, "Bericht": 4, "Zeitung": 2, "Radio": 2, "Fe": 2, "##ature": 2, "Protokoll": 2, "##modell": 4, "Bewerbung": 2, "Expl": 2, "##ain": 2, "Grafik": 4, "Refer": 1, "Hypoth": 1, "begr\u00fcndet": 1, "Vorher": 5, "Conc": 2, "Argument": 12, "Arg": 2, "##\u00f6rter": 2, "Ess": 3, "##ay": 3, "Quellen": 2, "Bes": 2, "##innung": 2, "##sau": 2, "##fs": 2, "##zb": 2, "##asi": 2, "Natur": 2, "##wissenschaft": 4, "Interpretation": 1, "##utung": 2, "fik": 2, "viert": 2, "##\u00fcndel": 1, "Bachelor": 4, "##ger\u00e4t": 1, "##kr": 2, "##ip": 2, "Fass": 3, "Bedienung": 1, "##leitung": 1, "##klar": 2, "Sektion": 1, "##sum": 2, "##ption": 1, "sti": 3, "Wahr": 1, "El": 1, "##abor": 1, "##forschung": 2, "Les": 1, "korrekt": 7, "##iger": 1, "##re": 5, "##strategie": 0, "Zus": 1, "##pruch": 2, "Koh": 0, "##\u00e4ren": 0, "Int": 7, "Strategie": 7, "Soc": 1, "Fas": 1, "gesonder": 1, "\u00fcblicherweise": 3, "k\u00fcnd": 1, "endlich": 2, "tauchen": 2, "auff\u00e4llig": 2, "Medik": 0, "##ament": 0, "##gr": 1, "##\u00fcb": 1, "##eln": 3, "Neu": 1, "##land": 1, "Direkt": 1, "##atisch": 4, "ma\u00dfgeblich": 0, "kann": 0, "##haft": 4, "Schub": 1, "kommun": 0, "##ikat": 0, "##sb": 1, "##erei": 0, "##ktik": 2, "Fertig": 4, "m": 1, "##dl": 1, "H\u00f6ren": 0, "gelungen": 1, "ausgehend": 2, "n\u00e4chsten": 1, "Absatz": 3, "Landtags": 1, "##abgeordnete": 1, "Epis": 0, "erfolgreich": 1, "sch\u00e4tz": 1, "##ungsweise": 1, "Erfolg": 1, "Materie": 2, "Weltraum": 2, "Forschungs": 1, "Pl": 2, "##kunde": 0, "A": 6, "Fak": 2, "Geschick": 0, "##bu": 2, "C": 4, "inne": 2, "eins": 2, "Rout": 0, "##tik": 2, "e": 2, "eignen": 4, "F": 2, "legen": 4, "Tipp": 7, "verbessern": 6, "aktuell": 2, "Kenn": 0, "Massen": 1, "Stellungnahme": 1, "##reichte": 0, "Opp": 0, "##ort": 2, "##kenn": 0, "##tn": 0, "##fort": 0, "messen": 0, "Erg\u00e4nzung": 2, "spe": 2, "Gel": 2, "##ernte": 2, "Eng": 1, "treiben": 1, "Vermittlung": 0, "##rufen": 2, "steuern": 1, "Angriff": 1, "anwenden": 3, "Beschaffung": 0, "Vorbild": 0, "n\u00fctz": 2, "mer": 2, "##cat": 2, "##lo": 2, "##ads": 2, "##ech": 3, "Not": 6, "po": 0, "Tag": 1, "Sport": 2, "Erfordern": 0, "Stunden": 1, "kennen": 8, "Begriffs": 2, "##kl\u00e4rung": 2, "zeitlich": 2, "begrenzt": 2, "##ziell": 2, "Unterst\u00fctzungs": 4, "2015": 4, "84": 2, "chron": 1, "##ologisch": 2, "Bedeutung": 12, "Ger": 0, "##\u00fcst": 0, "selbstst\u00e4ndig": 0, "bewegen": 0, "eigener": 0, "Verantwortung": 0, "Eigen": 0, "##reg": 0, "##sinn": 0, "Pauli": 4, "##ne": 4, "Gib": 12, "##bon": 12, "\u00fcbertragen": 2, "Josef": 2, "leise": 2, "28": 16, "kalk": 3, "errech": 1, "Pro": 1, "##vok": 1, "Eingang": 1, "Strat": 1, "##ege": 1, "##partner": 0, "##ozi": 2, "Fr": 3, "##ustr": 3, "Zone": 4, "##versuch": 2, "##f\u00fchl": 2, "So": 4, "##das": 4, "optimal": 1, "##situation": 7, "eigentlich": 7, "Aufrechter": 0, "Development": 2, "Bedarf": 1, "##ill": 1, "##usion": 1, "bestens": 1, "rauf": 0, "Offensive": 0, "##praxis": 2, "prinzip": 4, "Att": 0, "##acke": 0, "Instrument": 5, "Erwerbs": 2, "voran": 6, "Gewicht": 2, "##melde": 0, "##technische": 0, "erl": 1, "##ernen": 1, "zweit": 6, "##ebene": 6, "Verfahrens": 0, "ar": 1, "##rip": 1, "durchaus": 6, "st\u00e4ndig": 2, "##person": 2, "Reduktion": 1, "zugunsten": 2, "##kehr": 2, "Front": 2, "lang": 11, "##put": 2, "mach": 1, "Eint": 0, "##reten": 0, "Senkung": 1, "##ucken": 1, "##ket": 0, "Mikro": 4, "Mak": 2, "##ros": 2, "##ca": 2, "neben": 3, "verbunden": 1, "geht": 0, "hierzu": 2, "verst\u00e4ndlich": 0, "##erium": 0, "formuliert": 0, "Teile": 2, "##ment": 3, "##stands": 2, "Kauf": 0, "##lau": 0, "##let": 2, "##zt": 3, "verpflichten": 1, "Entwicklungs": 1, "schwierige": 1, "Disziplin": 1, "##instrument": 11, "##essen": 2, "behalten": 1, "G\u00fcltigkeit": 2, "Hauptsache": 1, "Anblick": 0, "hundert": 1, "Geben": 1, "umfassen": 8, "Gesamtheit": 2, "##technik": 0, "##st\u00e4ndigkeit": 0, "Design": 1, "mittel": 1, "Fahrplan": 0, "Voraussetzungen": 1, "eb": 0, "Methoden": 2, "##vielfalt": 2, "##sc": 2, "##gespr\u00e4ch": 4, "unvor": 1, "##gesehen": 1, "##schwier": 2, "Ho": 2, "##c": 2, "Gegensatz": 1, "unver": 2, "##hofft": 1, "hierbei": 2, "Technik": 13, "##kommun": 0, "mitge": 2, "##stal": 2, "High": 0, "##tech": 0, "unvoll": 1, "##st\u00e4ndig": 1, "Ka": 1, "##cke": 1, "ausgebildet": 1, "vertrauen": 2, "gew\u00f6hnlich": 1, "##motiv": 1, "Sog": 8, "Einf\u00fchrung": 6, "##ding": 2, "The": 4, "Lang": 2, "##uage": 2, "Cur": 2, "##ulu": 2, "121": 2, "##f\u00fchrende": 2, "##rw": 5, "Beachtung": 2, "##reichung": 1, "Set": 1, "entwickeln": 5, "erz\u00e4hlt": 1, "wof\u00fcr": 1, "bedenken": 2, "leg": 1, "##stellen": 6, "geleitet": 2, "\u00dcbersicht": 2, "Goethe": 2, "inst": 2, "##itut": 2, "Et": 2, "Al": 2, "35": 2, "beherrschen": 2, "eingesetzt": 2, "besonder": 2, "##verk": 0, "langfristig": 2, "Zuwachs": 0, "bewirken": 2, "sicherstellen": 2, "##disziplin": 2, "##ahr": 1, "Zir": 2, "##kel": 2, "Leistung": 3, "kommt": 1, "Geld": 1, "Falle": 1, "Poly": 2, "##handen": 2, "Ge": 1, "##ometrie": 1, "##statt": 1, "entw": 1, "Perspektive": 3, "ex": 2, "##empl": 2, "##arisch": 1, "deutsche": 1, "##arg": 2, "##met": 3, "##rie": 2, "desto": 1, "Kl\u00e4r": 6, "gerecht": 1, "Bedeut": 1, "##samkeit": 1, "reg": 1, "fair": 1, "Tool": 4, "Ret": 1, "##val": 1, "geb": 1, "##acken": 3, "##entscheidung": 2, "Anspruch": 3, "Kasten": 2, "gesamt": 10, "##vorgang": 2, "Rel": 1, "M\u00fcnster": 4, "Wa": 2, "Verlag": 2, "49": 2, "berichten": 4, "Studierende": 2, "Master": 2, "parallel": 2, "laufen": 2, "gestellt": 2, "inten": 2, "Reaktion": 1, "Konkret": 10, "##isierungs": 10, "Hilfsmittel": 2, "geeignet": 2, "sogen": 2, "##annt": 2, "betre": 1, "vorab": 2, "Rast": 2, "selber": 1, "altern": 2, "befassen": 2, "n\u00e4chst": 2, "Grundschule": 2, "sim": 0, "##pel": 0, "letzte": 1, "Zwischen": 2, "\u00fcblich": 1, "Super": 0, "##user": 0, "Modul": 2, "##abschluss": 2, "##pr\u00fcfung": 2, "\u00fcbersehen": 5, "Abgabe": 2, "Vorteil": 2, "##proben": 3, "##eignet": 1, "lo": 2, "##hnen": 2, "Verwendung": 2, "Erfinder": 2, "ebenso": 6, "durchf\u00fchren": 2, "verkehren": 2, "##port": 1, "##un": 1, "Prior": 1, "##fall": 2, "Gestaltungs": 2, "mithilfe": 1, "Bord": 2, "indes": 1, "##ischer": 0, "Erl\u00e4u": 3, "##terung": 3, "##endung": 4, "Publikation": 2, "##bene": 4, "##s\u00e4tz": 0, "Gottes": 1, "Ohr": 2, "Kontroll": 1, "##ansa": 1, "Hemm": 0, "##achtet": 1, "Trick": 1, "##best": 2, "Englisch": 2, "Franz\u00f6sisch": 2, "Erst": 2, "hei\u00dft": 2, "Tut": 2, "##oria": 1, "Mutter": 1, "pl\u00f6tzlich": 3, "Deutsche": 3, "##h\u00fc": 0, "v\u00f6llig": 1, "\u00fcberraschend": 1, "Vorlage": 1, "herausfinden": 3, "Unterseite": 2, "hilfreich": 4, "Nutzen": 1, "ange": 3, "##h\u00e4ngt": 3, "P": 2, "dat": 2, "##eie": 2, "Hinweis": 7, "nette": 1, "seine": 1, "Zwecke": 1, "darunter": 1, "Kollegin": 4, "Dr": 1, "Maria": 4, "Gro\u00dfe": 2, "##gaben": 2, "Verzeichnis": 1, "Doktor": 1, "##grad": 2, "Ausma\u00df": 1, "link": 2, "ti": 3, "frage": 2, "Konzentration": 0, "Schacht": 0, "##els": 0, "Eind": 0, "##eu": 0, "##tigkeit": 0, "##deu": 0, "##fra": 0, "Ei": 2, "60": 2, "dazuge": 2, "##h\u00f6r": 2, "##kur": 2, "Erm": 3, "##\u00e4cht": 1, "we": 1, "Batterie": 0, "##yr": 0, "##inth": 0, "Amph": 0, "##oli": 0, "zweimal": 0, "##f\u00fcllung": 0, "Cal": 1, "Erinnerung": 2, "##sw": 2, "ausgew\u00e4hlt": 2, "sc": 0, "Bitte": 6, "Pr\u00e4z": 2, "Zug": 3, "##zwang": 4, "Ziels": 6, "##tur": 6, "Kontrast": 0, "##vergleich": 10, "##ingu": 2, "wiederauf": 10, "korrig": 12, "Wieder": 8, "ziel": 2, "##cast": 2, "Aufforderung": 4, "##kor": 2, "##rektur": 2, "Verweis": 4, "Eliz": 2, "##iti": 2, "##holung": 2, "Einsatz": 1, "Mi": 6, "##k": 8, "Gest": 4, "26": 28, "Folgende": 2, "Daniela": 4, "Rotter": 4, "ow": 4, "##ituation": 0, "langer": 1, "Atem": 1, "Ausge": 1, "##bur": 1, "Pet": 1, "t\u00e4gliche": 2, "wiederholen": 3, "Aufruf": 0, "Mah": 0, "##nung": 0, "K\u00f6rpers": 1, "##altern": 0, "##ative": 0, "Motiv": 0, "o": 6, "##sz": 2, "##ena": 2, "##rio": 2, "\u00d6ffentlichkeit": 0, "Bereitschaft": 1, "F\u00fchrung": 0, "erleichtern": 2, "F\u00fchrungs": 0, "##cre": 0, "absch": 0, "##w\u00e4": 0, "##\u00fchrung": 2, "ber\u00fchren": 2, "veran": 1, "gleichzeitig": 1, "\u00dcbereinstimmung": 1, "##geschrieben": 1, "person": 1, "Lei": 1, "##iede": 2, "Personal": 1, "##bestand": 1, "Optimierung": 1, "unauf": 1, "Nacht": 2, "##heraus": 1, "Unsicherheit": 0, "##wissenschaftler": 2, "Knapp": 2, "beobachten": 3, "vielfach": 2, "\u00fcbersch": 3, "Visier": 1, "##\u00e4tz": 0, "##barer": 0, "beim": 1, "konzentrieren": 5, "##sich": 2, "orientieren": 4, "##tre": 4, "##f": 1, "##tags": 4, "nett": 2, "l\u00e4": 2, "ni": 1, "schnell": 3, "unent": 1, "Kenntnis": 1, "##weil": 2, "zustimmen": 1, "senken": 1, "Wand": 1, "Im": 0, "##abil": 0, "##ien": 2, "Version": 2, "Bit": 1, "##tg": 1, "##uch": 1, "flach": 1, "voll": 2, "belaufen": 1, "##aver": 2, "##bal": 2, "##po": 2, "Beton": 1, "##pause": 0, "Peg": 1, "Freie": 1, "##sebene": 2, "##gst": 0, "##frei": 0, "##ifest": 0, "##regend": 0, "ermu": 2, "##nte": 1, "\u00e4u\u00dfern": 4, "ak": 2, "langsam": 2, "Transit": 1, "gest": 1, "Werkzeuge": 2, "##schullehrer": 0, "40": 2, "erwe": 1, "weiteren": 1, "einer": 13, "ziemlich": 0, "dro": 0, "zust": 0, "##ehen": 0, "as": 2, "##ris": 2, "sozio": 2, "##kultur": 4, "##theorie": 2, "konstru": 0, "##l\u00f6sen": 3, "anscheinend": 1, "##nnen": 1, "Augen": 2, "##schein": 1, "vert": 1, "frag": 2, "konstruiert": 2, "traditionell": 2, "##\u00e4g": 2, "Geb": 2, "##ildet": 1, "##bleiben": 1, "Wend": 1, "hohem": 1, "Wu": 1, "##chs": 1, "##sver": 0, "bitten": 2, "##10": 2, "ver\u00e4ndern": 1, "verhaf": 1, "Vermutung": 1, "Kon": 1, "##junkt": 1, "##11": 2, "Schwe": 2, "##ur": 4, "\u00e4ndern": 1, "erstes": 1, "lieber": 1, "richtigen": 0, "##ug": 0, "verp": 2, "##ippe": 0, "Br\u00fccke": 1, "pers\u00f6nlich": 2, "allt\u00e4": 2, "##glich": 2, "Erk": 2, "##skon": 2, "##struktion": 2, "##information": 2, "ann\u00e4h": 2, "Schiffs": 1, "##br\u00fccke": 1, "vertrau": 1, "##elli": 2, "sinn": 0, "##stift": 0, "##end": 1, "Griff": 0, "Anlass": 1, "vorgestellt": 2, "##xi": 2, "Entwicklung": 2, "K\u00f6rper": 1, "##kontakt": 1, "einerseits": 1, "konfron": 2, "andererseits": 2, "produ": 2, "einfachen": 1, "Nenn": 3, "Termin": 1, "techn": 1, "##icus": 1, "trennen": 0, "##zeigen": 0, "Cor": 0, "##ction": 0, "##tegie": 1, "##ehlt": 1, "eventuell": 1, "Interesse": 0, "automatisch": 1, "Zweifel": 2, "l\u00e4cherlich": 1, "Leitungs": 1, "inneh": 1, "##aben": 1, "aut": 1, "##oma": 2, "##gis": 1, "keiner": 4, "Regen": 1, "Nass": 1, "##dring": 0, "nebenbei": 0, "##cho": 0, "nachhaltig": 0, "wechsel": 1, "##seitig": 1, "beeinflussen": 1, "solcher": 1, "##gest": 1, "##alt": 1, "leistungs": 1, "##stark": 1, "Wahls": 1, "herange": 2, "##rl": 1, "anstelle": 0, "Prom": 0, "zufrieden": 4, "kass": 1, "anstatt": 2, "pflanz": 1, "Nutzung": 0, "du": 8, "##gebrauch": 4, "##med": 4, "kurzfristig": 1, "uner": 0, "##fahren": 1, "sofern": 0, "besteht": 0, "Bezugs": 0, "demonstrieren": 0, "Blut": 1, "Modelle": 1, "##rs": 1, "##w\u00e4l": 2, "##zen": 3, "un\u00fcber": 1, "##echsel": 0, "Option": 2, "empfehlen": 2, "Periode": 12, "##auer": 2, "koll": 1, "Ausstellung": 1, "##ions": 0, "##bewusst": 2, "Aufmerksamkeit": 2, "##sl": 2, "##enkung": 2, "Inner": 4, "Di": 4, "##\u00e4t": 4, "Abgeordnete": 4, "Alkohol": 4, "Chemie": 4, "End": 3, "Suf": 5, "##fi": 5, "Lot": 1, "Fle": 2, "##kte": 1, "##quis": 2, "##it": 2, "##ki": 2, "##dest": 2, "##ph": 1, "begleiten": 2, "Sprachen": 2, "##omen": 2, "wel": 2, "Komposition": 2, "Der": 2, "##iva": 2, "##las": 2, "##fon": 1, "##gemeinschaft": 2, "Sil": 1, "##ktive": 2, "technischer": 0, "technisch": 0, "gesprochen": 0, "fehler": 4, "Korrektur": 2, "li": 1, "##zenz": 1, "Monitor": 4, "entschieden": 1, "##ona": 3, "##dens": 1, "##piel": 1, "kalt": 3, "gef": 1, "##\u00fchl": 1, "Metall": 2, "##platte": 2, "ert": 2, "##rinken": 1, "dauern": 7, "Appell": 0, "##bewegung": 1, "Heb": 2, "##bra": 1, "aufmerksam": 2, "Finger": 1, "Studium": 2, "bisher": 3, "vorgehen": 0, "Kontakt": 0, "Pat": 0, "##zer": 0, "Ant": 1, "##ritts": 1, "brem": 1, "Umstand": 1, "Foss": 0, "Abbruch": 1, "Sta": 0, "erworben": 0, "Gegeben": 1, "Zer": 1, "Wachstums": 0, "##still": 0, "besorgt": 0, "##brechen": 1, "##auch": 1, "##marsch": 1, "werfen": 0, "verde": 2, "##utlich": 2, "##hend": 0, "Aufnahme": 0, "##rut": 0, "##scher": 0, "Miss": 1, "##griff": 1, "gleicherma\u00dfen": 1, "##gru": 1, "Defizit": 2, "St\u00e4rke": 2, "Richt": 1, "##schn": 1, "bed": 3, "##\u00fcrf": 3, "Ressourcen": 2, "##blick": 2, "sch\u00e4r": 2, "##\u00fcler": 0, "##freundlich": 0, "##verh": 0, "##alte": 0, "##pit": 1, "Taufe": 0, "heben": 0, "Einsicht": 2, "durchsetzen": 2, "Co": 0, "##ule": 0, "dokumen": 1, "Studie": 2, "Zweit": 2, "Kas": 2, "##bau": 0, "beeinfl": 1, "Kurven": 1, "##fassung": 1, "Test": 1, "extern": 1, "manip": 1, "##uli": 1, "##rate": 0, "##gie": 0, "Vorstellung": 1, "##\u00e4u\u00dfer": 0, "beurteilen": 1, "infrage": 1, "##dia": 2, "##ose": 2, "Ann\u00e4herung": 0, "##treten": 1, "regelm\u00e4\u00dfig": 2, "neutr": 0, "geradezu": 1, "##eing": 0, "##renzung": 0, "Zwischenzeit": 1, "\u00fc": 0, "##pp": 0, "gegen\u00fcber": 1, "x": 4, "##nor": 1, "##ient": 0, "berechnen": 0, "Niederschlag": 0, "flexibel": 2, "Ob": 1, "##serv": 1, "##anz": 1, "Fol": 4, "##ly": 2, "##ruf": 2, "Kriterien": 2, "##\u00e4l": 0, "unum": 2, "##g\u00e4ng": 2, "##la": 0, "kritisieren": 2, "anpassen": 0, "##ios": 1, "##yn": 1, "##kra": 1, "##tisch": 1, "cu": 0, "##ic": 0, "##ular": 0, "##unft": 1, "Vorschrift": 0, "##augen": 0, "\u00fcberzeugt": 1, "Erhebung": 2, "##rf": 2, "22": 2, "##orientierte": 0, "E": 1, "Aller": 2, "Auftritt": 0, "schriftliche": 2, "##gebe": 1, "##isp": 1, "##iel": 3, "##r\u00e4um": 1, "Nachweis": 1, "Gegen": 1, "##ument": 1, "Verw": 0, "##enden": 0, "meiner": 0, "##einer": 0, "basierend": 2, "auswirken": 0, "vorteil": 0, "V": 2, "2007": 2, "##verst\u00e4ndlich": 2, "meine": 1, "Wenig": 1, "##wander": 1, "##ffiz": 1, "R\u00fcckgabe": 2, "Klaus": 2, "Schulzeit": 2, "##f\u00f6rder": 0, "Auseinander": 0, "Gl\u00fccks": 0, "eil": 2, "##tiert": 4, "##abelle": 2, "Halbjahr": 2, "\u00e0": 1, "zukommen": 0, "melden": 1, "sodass": 2, "##wachs": 1, "bekannt": 1, "dien": 1, "##erfolg": 1, "Vergn": 1, "##\u00fcg": 1, "##tour": 1, "##inn": 0, "probieren": 2, "##abell": 2, "Transparenz": 0, "Fraktion": 1, "##quir": 0, "Klar": 1, "Location": 1, "Dauer": 2, "Memor": 2, "sollte": 1, "Bie": 0, "L\u00f6sungs": 2, "Y": 2, "##antie": 1, "##ps": 1, "##ilo": 1, "Leg": 2, "##esp": 2, "Realit\u00e4t": 2, "Math": 2, "Zahl": 2, "verlangen": 2, "Ver": 2, "##r\u00e4ts": 2, "F\u00fc\u00dfen": 1, "##abel": 0, "Entscheiden": 1, "Rubrik": 0, "Matrix": 0, "via": 1, "##ons": 1, "##mor": 1, "##phe": 1, "##herz": 0, "Sy": 0, "Parade": 1, "##bund": 1, "gewachsen": 1, "Konter": 1, "##laden": 1, "##lie": 1, "Einrichtung": 0, "##ithm": 0, "##etische": 0, "Areal": 1, "##komm": 1, "bes": 1, "##orgnis": 1, "signif": 1, "##ikan": 1, "Chi": 1, "M\u00f6bel": 1, "##stellt": 1, "Trupp": 0, "##option": 1, "Erziehungs": 1, "##wert": 1, "##rad": 0, "Ter": 1, "##ici": 1, "##leg": 1, "##isen": 1, "Stol": 1, "Besonderes": 1, "Rechts": 1, "##verordnung": 1, "Eltern": 1, "##haus": 1, "Klick": 1, "Bam": 1, "ihn": 0, "kennt": 0, "satt": 0, "##rot": 0, "wenige": 1, "cle": 2, "##ver": 2, "Behauptung": 4, "aufeinander": 2, "enden": 2, "Schw\u00e4che": 2, "gelegentlich": 1, "Mangel": 0, "##tigen": 1, "Er\u00f6ffnung": 1, "Sorge": 2, "verraten": 2, "Philosophie": 1, "Sens": 2, "##angel": 2, "Standard": 1, "Fal": 1, "##sif": 1, "##izierung": 1, "testen": 1, "##\u00f6nen": 1, "##ora": 1, "W\u00e4sche": 0, "##mangel": 0, "zahlreiche": 1, "##ales": 1, "##uver": 1, "##t\u00fcr": 1, "##bekommen": 1, "beeindruckt": 1, "##grenze": 2, "au\u00dferhalb": 2, "ausschlie\u00dflich": 2, "##\u00fcss": 2, "Fett": 1, "gro\u00dfartig": 2, "##imi": 2, "##nier": 2, "Linie": 2, "Philosoph": 2, "interessant": 0, "##gewicht": 1, "Sal": 1, "##do": 1, "inform": 0, "Theo": 2, "##ret": 2, "##iker": 2, "##ana": 2, "##s\u00e4tzlich": 2, "Standpunkt": 1, "unterm": 2, "##auern": 2, "erh": 0, "##ellen": 0, "Grunde": 1, "##eit": 1, "Vorsicht": 0, "##lt": 0, "Hed": 0, "##ging": 0, "Mitarbeiter": 2, "ausbauen": 2, "Zeugnis": 0, "Organisation": 0, "zus\u00e4tzliche": 1, "Le": 0, "##\u00fcre": 0}, "Feedback_Criteria": {"[UNK]": 160, "3": 0, ")": 36, "Analyse": 6, "##rahmen": 3, "zur": 2, "Sprach": 134, "##lichkeit": 8, "des": 6, "Fach": 49, "##lernen": 0, "##s": 9, "(": 36, "angel": 0, "##ehnt": 0, "an": 29, "Ta": 0, "##jm": 0, "##el": 1, "&": 0, "Voll": 0, "##mer": 0, "/": 38, "Th\u00fcr": 0, "##mann": 0, ";": 0, "Lo": 0, "##hs": 0, "##e": 32, "1": 0, ".": 17, "Gibt": 0, "es": 6, "sprach": 298, "##liche": 8, "H\u00fcrden": 2, ",": 36, "die": 8, "das": 0, "fach": 31, "Lernen": 10, "beh": 0, "##indern": 0, "k\u00f6nnten": 0, "?": 0, "2": 5, "Lern": 58, "##gelegen": 4, "##heiten": 2, "in": 102, "der": 209, "Stunde": 5, "f\u00fcr": 27, "typische": 6, "\u201e": 18, "Ritu": 2, "##ale": 2, "\u201c": 18, "he": 2, "##mmen": 2, "Unterricht": 20, "##liches": 4, "##handel": 2, "##n": 36, "Typ": 0, "##ische": 0, "Disk": 56, "##urs": 56, "##funktionen": 2, "Materialien": 2, "Rezeption": 1, "Mittel": 33, "Produktion": 4, "Zu": 5, "erstellen": 4, "##de": 39, "Texte": 2, "\u2022": 0, "Muss": 0, "m\u00fcnd": 22, "Unterrichts": 40, "-": 28, "inter": 4, "##aktion": 32, "gest\u00fctzt": 4, "werden": 11, "M\u00fc": 0, "##ssen": 0, "SU": 1, "##S": 1, "Informationen": 2, "besch": 8, "##affen": 7, "eine": 4, "Ergebnis": 22, "##pr\u00e4sent": 8, "##ation": 12, "##lich": 309, "Ist": 0, "Met": 6, "##ako": 4, "##mm": 14, "##uni": 5, "##kat": 8, "##ion": 26, "\u00fcber": 12, "##prozess": 2, "geplant": 3, "Wie": 0, "gehe": 2, "ich": 14, "mit": 60, "Fehler": 39, "um": 4, "K\u00f6nnen": 2, "##er": 3, "im": 4, "Laufe": 0, "##funktion": 50, "ein": 58, "##\u00fcben": 14, "Etwas": 0, "beschreiben": 0, "erkl\u00e4ren": 6, "diskutieren": 0, "aus": 13, "argumen": 0, "##tieren": 1, "oder": 18, "bewerten": 2, "Spiel": 3, "##t": 29, "Text": 58, "##sor": 18, "##te": 4, "Rolle": 1, "deren": 0, "Merkmale": 0, "explizit": 0, "gemacht": 0, "m\u00fcssen": 4, "re": 5, "##zept": 6, "##iven": 2, "Kern": 6, "##wort": 15, "sch": 6, "##atz": 4, "unbekannt": 0, "ist": 0, "Stehen": 2, "bestimmte": 2, "##begriff": 20, "Wort": 25, "##feld": 10, "Zentrum": 1, "Welche": 0, "konkreten": 2, "##schatz": 12, "ben\u00f6tigen": 2, "Sch\u00fcler": 56, "Aufgabe": 14, "zu": 140, "l\u00f6sen": 0, "Ko": 3, "##gn": 10, "##ition": 3, "Informations": 7, "##tr\u00e4ger": 1, "gezwungen": 0, "sehen": 2, "schn": 1, "##uck": 1, "##eli": 1, "##g": 1, "Mitteln": 9, "Sprache": 36, "abs": 2, "##ichtlich": 1, "angeben": 0, "wert": 2, "##sch": 3, "##\u00e4tzen": 4, "Part": 1, "Stadt": 1, "Schul": 3, "##jung": 3, "Art": 5, "Bereitstellung": 8, "domin": 5, "##ante": 0, "gra": 11, "##atische": 2, "Form": 20, "ben\u00f6tigt": 1, "wird": 2, "typischen": 2, "Rede": 30, "##mittel": 27, "meines": 2, "##es": 3, "k\u00f6nnte": 2, "fokuss": 4, "##ieren": 57, "und": 83, "##fordern": 5, "Wird": 0, "bestimmtes": 2, "Register": 2, "erfordert": 2, "einzu": 2, "##halten": 4, "struktur": 3, "Kann": 0, "Erste": 8, "##llen": 8, "von": 85, "##ko": 10, "##h\u00e4re": 12, "##z": 13, "\u201a": 10, "rote": 1, "##r": 5, "Faden": 9, "\u2018": 10, "einge": 2, "##\u00fcbt": 2, "Wann": 0, "gebe": 0, "Feed": 59, "##back": 61, "Verfahren": 1, "Pr\u00e4": 1, "##gung": 7, "gew\u00fcnscht": 1, "Schlag": 1, "##verzeichnis": 2, "Struktur": 14, "Rote": 1, "welchem": 0, "Fall": 1, "##bilden": 40, "##d": 57, "planen": 4, "identifizieren": 6, "sie": 12, "Aspekt": 6, "schwierig": 2, "sein": 15, "nennen": 0, "daraus": 0, "folgen": 0, "m\u00f6glich": 3, "##ziel": 20, "=": 0, "Bedarfs": 42, "##analyse": 53, "+": 0, "##bestimmung": 2, "pre": 1, "##k\u00e4": 1, "her": 0, "##nach": 0, "erl\u00e4u": 0, "##tern": 0, "wie": 7, "dieser": 14, "Schwerpunkt": 5, "konkret": 10, "umgehen": 8, "Schule": 6, "kurs": 1, "welche": 36, "Hilfs": 6, "##angebot": 4, "bereits": 7, "##telle": 5, "Zusatz": 2, "##material": 12, "denkbar": 0, "innov": 2, "##ativ": 4, "spieler": 4, "##isch": 34, "Methode": 10, "*": 6, "innen": 39, "k\u00f6nnen": 14, "Kurz": 0, "anhand": 0, "selbst": 0, "produziert": 0, "Plak": 0, "##at": 0, "begr\u00fcnden": 0, "warum": 0, "Milch": 0, "##ku": 0, "##h": 0, "Nutz": 0, "##tier": 0, "Te": 0, "##acher": 0, "_": 6, "fe": 2, "##ed": 2, "mich": 0, "jetzt": 2, "Teil": 6, "Einheit": 0, "spannend": 0, "noch": 10, ":": 46, "kommen": 0, "Ziel": 10, "Gef": 2, "##ol": 2, "##gs": 2, "drin": 3, "verm": 0, "##itte": 0, "##ls": 0, "##vie": 0, "Weg": 1, "##marke": 0, "Or": 0, "##gas": 0, "##mus": 2, "Klasse": 0, "gemeinsam": 1, "##text": 2, "Thema": 12, "lesen": 4, "dabei": 2, "besprechen": 3, "Vor": 36, "##wissen": 33, "aktiv": 17, "Haltung": 3, "Herstellung": 0, ">": 0, "hier": 2, "man": 6, "nochmal": 2, "genau": 4, "schauen": 0, "was": 8, "!": 0, "sich": 5, "vorstellen": 2, "einfach": 2, "Plen": 0, "##um": 2, "eher": 2, "Lese": 4, "##stra": 4, "##teg": 4, "##ia": 4, "Leser": 2, "##out": 2, "##ine": 3, "Kind": 8, "eigens": 3, "##t\u00e4": 27, "##nd": 4, "##ig": 15, "Erl": 0, "##esen": 0, "vermitteln": 1, "Artikel": 3, "bei": 12, "Begriff": 38, "denken": 7, "geschlossen": 0, "Fertigung": 0, "Mel": 0, "##kk": 0, "##uh": 0, "Vieh": 0, "Her": 0, "##vor": 0, "##bringung": 0, "etwas": 7, "aufs": 2, "Auge": 0, "ged": 0, "##r\u00fcckt": 0, "bekommen": 0, "behandeln": 1, "ba": 0, "##na": 0, "##l": 20, "Nachwuchs": 0, "hin": 0, "##\u00fcber": 0, "##bringen": 5, "##abschnitt": 1, "Schlei": 2, "##fe": 4, "##bauen": 4, "euch": 0, "Verlauf": 6, "##produkt": 12, "nun": 2, "gegenseitig": 0, "nutzen": 2, "gern": 0, "##hilfe": 50, "Material": 11, "##the": 0, "##ke": 0, "Stufe": 0, "einzeln": 2, "erst": 2, "dann": 0, "Ende": 0, "produzieren": 0, "herstellen": 0, "Us": 0, "##w": 1, "differenz": 12, "##iert": 15, "Satz": 3, "##baus": 0, "##in": 4, "##anfang": 0, "L\u00fccken": 0, "Vorber": 0, "##eiten": 0, "Pr\u00e4sentation": 30, "w": 4, "##\u00f6rtlich": 4, "Mol": 0, "##ker": 0, "##ei": 0, "Abschnitt": 0, "unabh\u00e4ngig": 0, "seiner": 0, "ganzen": 0, "Breite": 0, "Zur": 1, "Schau": 1, "Stellen": 1, "nicht": 22, "falsch": 3, "aber": 4, "individ": 0, "##ualisiert": 0, "auf": 38, "Differenz": 15, "##ierungs": 16, "stehen": 4, "sollen": 2, "so": 8, "jed": 0, "passend": 5, "Sc": 26, "##aff": 46, "##old": 52, "##suchen": 0, "art": 0, "##if": 0, "##iz": 18, "##iell": 0, "nach": 5, "den": 2, "W\u00fcnschen": 0, "Kunden": 0, "still": 1, "##stehen": 1, "erw\u00e4": 1, "##hlen": 0, "Aufgaben": 37, "##stellung": 38, "erstmal": 0, "Ok": 0, "wichtig": 2, "wo": 2, "finden": 3, "Hilfe": 33, "Z": 1, "B": 2, "einst": 4, "##eigen": 4, "auch": 10, "##sa": 16, "##ktiv": 16, "##ierung": 54, "n\u00f6tig": 0, "zwingend": 0, "ant": 1, "##reffen": 1, "G": 3, "##rop": 1, "##p": 2, "Be": 2, "##zeichner": 2, "einzig": 0, "relevant": 2, "daf\u00fcr": 0, "ebenfalls": 0, "ob": 1, "wirklich": 0, "Unterschied": 0, "unterschiedlich": 0, "Reihenfolge": 0, "kl\u00e4ren": 2, "ganz": 2, "transparent": 12, "Mitarbeit": 0, "praktisch": 0, "Licht": 0, "Angelegenheit": 0, "bringen": 1, "Vari": 2, "oben": 0, "In": 2, "Zwei": 0, "##erte": 0, "##am": 0, "jeweils": 0, "vorgegeben": 0, "Bild": 3, "Pfeil": 0, "Verf\u00fcgung": 7, "stellen": 12, "##\u00fcte": 0, "diver": 2, "Lebensmittel": 0, "quasi": 0, "Proze\u00df": 2, "Produkt": 12, "gut": 6, "Idee": 36, "hoffentlich": 0, "##riften": 0, "lassen": 3, "doch": 0, "super": 0, "Vorgang": 0, "nochmals": 0, "schon": 4, "zeigen": 4, "als": 6, "zus\u00e4tzlich": 0, "wer": 0, "brauchen": 0, "nehmen": 1, "einig": 2, "reichen": 0, "vielleicht": 0, "nur": 6, "##sprach": 29, "Verb": 0, "verstehen": 5, "Ein": 7, "Partner": 0, "##arbeit": 1, "pr\u00e4sentieren": 15, "also": 0, "klar": 26, "Wiederholung": 0, "##ss": 4, "##ch": 6, "##lei": 0, "gleich": 1, "Auf": 0, "##schreiben": 0, "anfangen": 0, "gewisser": 0, "##ma\u00dfen": 0, "Wirtschafts": 0, "##gut": 1, "Gott": 0, "will": 0, "packen": 0, "gegen": 2, "do": 0, "##mes": 0, "##tiz": 0, "##iertes": 0, "Tier": 0, "En": 0, "##lohn": 0, "##ungs": 17, "##tarif": 0, "k": 2, "##\u00f6pfen": 2, "##halb": 0, "##ams": 0, "Anordnung": 0, "bestimmen": 4, "##ordnen": 0, "erwarten": 2, "Antwort": 3, "Begr\u00fcndung": 1, "gerade": 0, "fallen": 0, "mir": 0, "schwer": 1, "Mehrwert": 0, "erkennen": 8, "sehr": 6, "anspruchs": 0, "##voll": 0, "weil": 0, "Kuh": 0, "geben": 10, "damit": 2, "K\u00e4se": 0, "machen": 2, "unklar": 8, "Muster": 8, "##l\u00f6sung": 6, "aussehen": 1, "Stelle": 7, "sinnvoll": 2, "Que": 0, "##st": 2, "wieso": 2, "verh\u00e4ng": 0, "##en": 16, "pf": 1, "##eil": 0, "##ger": 0, "##ade": 0, "kein": 0, "Zucker": 0, "##le": 0, "##cken": 0, "Kleine": 1, "geschenkt": 0, "einmal": 0, "Eindruck": 3, "Fazit": 0, "insgesamt": 1, "gehen": 1, "richtig": 6, "Richtung": 1, "vorhanden": 3, "allerdings": 1, "kurz": 0, "fehlen": 2, "stark": 4, "##bindung": 3, "M\u00fcn": 4, "##dlich": 4, "##keit": 6, "ab": 3, "##zielen": 0, "alle": 1, "Fest": 0, "durch": 21, "paar": 0, "Austausch": 6, "##runde": 2, "locker": 0, "ausf\u00fchrlich": 1, "Diskussion": 2, "indem": 0, "Recherche": 0, "Beitrag": 0, "Rinder": 0, "##haltung": 1, "Klimawandel": 0, "usw": 0, "Pod": 0, "##iums": 0, "##disk": 1, "##ussion": 0, "zwischen": 0, "Bauer": 0, "Klima": 0, "##aktiv": 2, "##ist": 0, "Veg": 0, "##aner": 0, "gegeneinander": 0, "vorbereiten": 0, "st\u00fctzen": 16, "nat\u00fcrlich": 0, "da": 0, "Potential": 5, "liefer": 0, "##bar": 5, "Nachdruck": 1, "Zielsetzung": 1, "deutlich": 9, "Bla": 0, "mu": 1, "##w\u00e4rts": 1, "etwa": 0, "op": 0, "##ulen": 0, "Gedanken": 0, "##austausch": 0, "##sr": 0, "##unde": 0, "Barbar": 0, "tun": 2, "Wege": 0, "leiten": 0, "ihr": 18, "Dreier": 2, "##gruppe": 3, "knapp": 16, "De": 1, "Fac": 1, "##to": 0, "drei": 0, "##aufgabe": 4, "w\u00fcnschen": 0, "##swert": 0, "haben": 6, "Planung": 21, "aufnehmen": 0, "##isieren": 2, "plus": 0, "weit": 3, "Person": 0, "mindestens": 0, "wirken": 3, "z": 4, "##\u00f6ger": 4, "trauen": 0, "ruhig": 0, "kre": 0, "##ativer": 0, "lebendig": 0, "solange": 0, "zentral": 5, "##bildungs": 12, "##prinzip": 8, "Inter": 22, "Ans": 1, "##cha": 1, "##uu": 1, "##ng": 2, "##sm": 2, "##aterial": 0, "Map": 0, "inspir": 0, "https": 0, "mo": 0, "##od": 0, "##lab": 1, "hu": 0, "ber": 0, "##lin": 0, "de": 0, "mod": 0, "ur": 0, "view": 0, "ph": 1, "id": 0, "111": 0, "Unter": 0, "##schm": 0, "##ei\u00dfen": 0, "Post": 0, "erzeugen": 0, "wenn": 1, "Sie": 0, "meinen": 0, "frisch": 0, "log": 0, "##gen": 1, "##techn": 5, "sei": 0, "Vergn\u00fcgen": 0, "##regen": 0, "Daumen": 0, "zum": 0, "ersten": 0, "Mal": 0, "Internet": 0, "##adresse": 0, "##arbeiten": 0, "Umsetzung": 3, "Se": 2, "##quenz": 2, "Entlastung": 2, "sowie": 0, "\u00c4nderung": 0, "Sozial": 14, "##form": 32, "viele": 0, "umsetzen": 2, "Station": 0, "##gf": 2, "Check": 0, "i": 1, "Warm": 0, "up": 0, "bevor": 0, "verteilen": 0, "Stoff": 2, "Wirklichkeit": 0, "##holen": 0, "Gestaltung": 4, "Auftrag": 2, "ehe": 0, "publ": 0, "##izieren": 1, "dennoch": 0, "vollst\u00e4ndig": 2, "##bildung": 6, "##nu": 1, "##tz": 1, "##kart": 0, "vorrangig": 0, "##halt": 5, "ohne": 3, "diese": 2, "wohin": 0, "##gegen": 0, "Sinn": 3, "Sache": 1, "##wohl": 1, "Formul": 2, "helfen": 3, "meist": 0, "wissen": 6, "ja": 0, "versprach": 0, "##g\u00e4ngig": 0, "all": 2, "Opera": 56, "##tor": 56, "schreiben": 4, "Definition": 1, "St\u00e4rkung": 1, "mehr": 0, "string": 1, "##ent": 1, "el": 3, "##ement": 2, "##ar": 2, "starten": 0, "Karte": 0, "Funktion": 0, "zumindest": 0, "liefern": 0, "versammel": 2, "enthalten": 0, "##speicher": 2, "Bruch": 0, "##teil": 0, "eindeutig": 2, "gr\u00f6\u00dftenteils": 0, "allein": 0, "einige": 0, "Bananen": 0, "##oper": 1, "##ator": 2, "ihnen": 2, "einsch": 2, "##mu": 0, "##gge": 0, "##ln": 0, "\u00fcberhaupt": 7, "keinerlei": 0, "Aussage": 0, "##kraft": 6, "v": 2, "a": 0, "passieren": 0, "##zw": 2, "Vergleich": 0, "mal": 5, "eben": 0, "lieben": 0, "Kleinen": 0, "schi": 1, "er": 2, "##spr": 0, "##ie\u00df": 0, "Besser": 0, "vergleichen": 0, "dringend": 0, "##raten": 0, "analysieren": 0, "eigen": 3, "Sche": 1, "##ma": 0, "durchge": 0, "##hen": 2, "betrachten": 0, "kritisch": 2, "L\u00f6sung": 0, "lauten": 0, "wiederum": 0, "H\u00fcr": 23, "mein": 0, "vermutlich": 0, "form": 2, "##ulieren": 2, "irgendwie": 0, "vor": 2, "##sal": 0, "ander": 4, "Formulierung": 10, "##shi": 5, "##lf": 5, "par": 1, "##sen": 0, "Kre": 1, "wiederholt": 0, "Male": 0, "F\u00e4": 0, "##zes": 0, "Ri": 0, "##post": 0, "wohl": 0, "Erleichterung": 0, "Word": 1, "##ing": 60, "\u00dcber": 12, "##legen": 1, "##reiben": 2, "erfolgen": 2, "Schrift": 13, "##sprache": 33, "not": 0, "sp\u00e4t": 0, "O": 0, "\u00c4": 0, "wozu": 0, "denn": 0, "sonst": 0, "daran": 0, "schlie\u00dfen": 0, "letzt": 0, "Punkt": 2, "wann": 2, "pein": 0, "wa": 2, "##ag": 0, "##recht": 0, "Literatur": 0, "Produkte": 0, "##igen": 1, "##schaft": 1, "veranl": 0, "##asst": 0, "Parallel": 0, "##ep": 0, "##ipe": 0, "Koll": 0, "Iss": 0, "##ue": 0, "mark": 1, "erkennbar": 5, "mittels": 0, "##ta": 0, "##rk": 1, "n\u00fctzlich": 0, "weniger": 0, "Sicht": 2, "schwach": 0, "unsicher": 0, "immer": 0, "gro\u00df": 1, "Herausforderung": 4, "##karte": 0, "Schluss": 4, "abl": 1, "risk": 0, "##ant": 13, "begreifen": 0, "Liebe": 0, "Kir": 0, "##sten": 0, "##idee": 6, "viel": 6, "leider": 2, "Beschreibung": 0, "Vogel": 0, "erreichen": 0, "Schwier": 2, "##igkeit": 12, "Deutsch": 0, "hierf\u00fcr": 0, "##sehen": 0, "kn": 0, "##iff": 1, "##lig": 3, "komplex": 0, "vorge": 0, "##ben": 3, "wegen": 0, "hoch": 4, "##an": 20, "##forderung": 6, "sondern": 0, "klein": 6, "arbeiten": 0, "Farbe": 0, "ohnehin": 0, "Farb": 0, "Bestandteil": 0, "minim": 0, "##al": 10, "Anzahl": 0, "Feder": 0, "n": 0, "Schnabel": 0, "Brust": 0, "Steck": 0, "##brief": 0, "wollen": 0, "spontan": 0, "falls": 0, "hoffen": 0, "ber\u00fccksichtigen": 1, "ansonsten": 0, "'": 0, "s": 0, "kla": 0, "##ppen": 2, "recht": 0, "Wid": 0, "##rig": 0, "Zun": 0, "##eigung": 0, "diesbe": 0, "##zweck": 0, "anwend": 0, "##bezogen": 6, "##ige": 0, "ra": 0, "##ff": 6, "##iniert": 0, "Geschw": 0, "##ader": 0, "##ken": 0, "bem\u00fc": 0, "##\u00dfig": 0, "f\u00fchlen": 0, "Fell": 0, "##farbe": 0, "Farben": 0, "Nie": 0, "##drig": 0, "Schnau": 0, "##pe": 0, "Portr\u00e4t": 0, "soweit": 0, "vorne": 0, "##weg": 4, "Entwurf": 0, "4": 0, "5": 0, "6": 0, "fr\u00fche": 0, "##stens": 0, "sowohl": 0, "Erwart": 4, "##ung": 60, "anbieten": 1, "vieler": 0, "Zeit": 0, "Ewigkeit": 0, "Lay": 0, "relativ": 0, "##tischen": 0, "gen": 0, "##\u00f6t": 0, "##igt": 0, "pr\u00e4": 1, "##gna": 2, "##nt": 3, "eingest": 0, "##\u00e4ndig": 0, "anschauen": 0, "vorher": 0, "intensiv": 0, "zurecht": 0, "davor": 0, "vollkommen": 0, "au\u00dfen": 2, "##lassen": 0, "Wissens": 13, "##aufbau": 7, "woher": 2, "Info": 0, "Kopf": 0, "dort": 0, "bestehend": 0, "Wissen": 18, "vern": 0, "##etzen": 0, "Problem": 0, "Buch": 0, "schlagen": 0, "Aus": 8, "##gan": 0, "##listen": 0, "##sicherung": 6, "##besch": 6, "##affung": 6, "hei\u00dfen": 0, "dass": 2, "Rest": 0, "##leiten": 2, "aufbauen": 4, "vergessen": 2, "##dr": 0, "innerhalb": 4, "Nikolaus": 0, "aufstellen": 1, "h\u00f6chst": 0, "Gruppe": 2, "Klassen": 0, "##stufe": 1, "Inhalt": 3, "zusammen": 0, "##fassen": 0, "erz\u00e4hlen": 0, "Ebene": 0, "neu": 11, "Jahrgang": 0, "##sst": 4, "##ufe": 0, "vom": 0, "Stapel": 0, "Gehalt": 0, "direkt": 3, "auffallen": 0, "Lesen": 14, "ausgest": 0, "##alten": 1, "Weis": 1, "Kid": 0, "##die": 0, "davon": 0, "ausgehen": 0, "kna": 0, "schrift": 0, "##steller": 0, "##isches": 0, "Werk": 1, "sagt": 0, "stattfinden": 0, "Versp": 4, "##rach": 4, "Alltags": 4, "statt": 10, "Unterst\u00fctzung": 10, "Bildungs": 8, "Gef\u00fchl": 0, "Moment": 0, "inner": 2, "##sens": 22, "##ib": 19, "##zogen": 0, "F\u00fcr": 1, "Sekunde": 0, "no": 0, "##etisch": 0, "Bele": 1, "##hr": 2, "daher": 0, "mechan": 0, "leb": 0, "##los": 0, "gl\u00fcck": 0, "zer": 0, "##spl": 0, "##ittern": 0, "abstra": 2, "##kt": 4, "Ah": 0, "##a": 2, "verbinden": 0, "Empfehlung": 0, "versuchen": 0, "rund": 0, "Ganze": 0, "Teils": 1, "##ritt": 0, "wahrscheinlich": 1, "arrang": 0, "Durch": 0, "##sage": 0, "##orientierung": 4, "verste": 0, "f\u00fchren": 2, "au\u00dferdem": 0, "rau": 0, "##mg": 0, "##reifen": 0, "wir": 2, "gar": 0, "Heft": 0, "Hand": 4, "halten": 1, "Ne": 0, "gegangen": 0, "fast": 0, "nichts": 0, "sagen": 1, "bleiben": 4, "dargestellt": 0, "Vorgehensweise": 3, "Hinsicht": 2, "allgemein": 2, "heraus": 3, "unge": 0, "##gens": 0, "Ablauf": 3, "##plan": 1, "Einstellung": 0, "##uliert": 2, "Arbeits": 25, "##weisung": 20, "Kooperation": 4, "##vern": 4, "##etzung": 4, "Umgang": 15, "abge": 0, "k\u00e4": 1, "##uf": 1, "erwerben": 4, "##sichtlich": 1, "Zeitpunkt": 1, "F\u00e4l": 1, "bieten": 0, "Posten": 0, "Schnell": 0, "wes": 0, "##wegen": 0, "tier": 0, "Lebe": 0, "##wesen": 0, "lei": 1, "##wand": 2, "Mitwirkung": 1, "ran": 0, "Verl": 0, "##iebt": 0, "reichlich": 0, "##webe": 0, "Stoffe": 0, "##pf": 0, "##fen": 0, "Worte": 3, "mitgeteilt": 3, "natur": 2, "##gegeben": 0, "ag": 1, "##greg": 1, "ma": 1, "##u": 20, "##auftrag": 9, "funktionieren": 0, "Anschlag": 0, "med": 1, "##ias": 0, "res": 9, "Erkenntnis": 1, "Mitte": 1, "Gun": 1, "##be": 5, "##zei": 1, "Ber\u00fchrung": 1, "Ab": 2, "Drei": 0, "##eck": 0, "Gemeinsam": 0, "vorn": 0, "##oti": 0, "##eren": 1, "m\u00f6gen": 0, "spielen": 0, "untereinander": 1, "kap": 1, "##pen": 1, "Zusammenarbeit": 0, "setzen": 4, "gew\u00e4hlt": 0, "zudem": 0, "Vie": 0, "##ee": 0, "R\u00fcck": 7, "##meldung": 4, "grunds\u00e4tzlich": 0, "\u00fcberlegen": 2, "Einstieg": 5, "gestalten": 10, "Aktivit\u00e4t": 2, "inhaltlich": 5, "rot": 9, "bis": 0, "fortsetzen": 0, "h\u00e4ngen": 0, "los": 0, "Raum": 0, "##zug": 7, "Fokus": 4, "r\u00fccken": 0, "welcher": 6, "Themenk": 0, "##omp": 0, "##lex": 16, "passen": 1, "danach": 0, "##reihe": 0, "ober": 0, "##fl\u00e4ch": 1, "punkt": 0, "##uell": 2, "betreffen": 0, "Gegenstand": 2, "abgesehen": 0, "grundlegend": 0, "Gehirn": 0, "##zellen": 0, "anstren": 0, "m\u00f6glicherweise": 0, "##drei": 0, "##genommen": 0, "Kor": 0, "##di": 0, "##ller": 0, "irgendeiner": 0, "##pielen": 0, "darauf": 0, "einigen": 0, "F\u00e4llen": 0, "Sp": 0, "minus": 0, "Vis": 2, "##ualisierung": 2, "dazu": 0, "##ite": 0, "##tat": 0, "##ten": 1, "Symbol": 0, "hinter": 0, "stif": 0, "Sprech": 8, "##bl": 0, "##ase": 0, "Einzel": 0, "w\u00e4hlen": 2, "Modus": 2, "Verzicht": 0, "##wenden": 0, "Arbeit": 0, "Tan": 0, "##dem": 0, "Geschichte": 0, "Merkmal": 4, "Jahreszeit": 0, "themat": 1, "unbedingt": 0, "##auf": 2, "##nehmen": 4, "Beispiel": 0, "suchen": 0, "unter": 4, "##ziehen": 0, "legitim": 0, "##ierbar": 0, "Verf": 0, "##lossen": 0, "##heit": 6, "##sp": 4, "##\u00e4he": 1, "einzigartig": 0, "Tax": 0, "##on": 0, "zugleich": 0, "ta": 0, "##uschen": 0, "aktiviert": 0, "##lichen": 0, "Frage": 25, "na": 1, "##rr": 2, "Problems": 2, "##tell": 2, "experimente": 0, "##ll": 0, "Erf": 0, "##ors": 0, "##chen": 1, "##helfen": 0, "Taschen": 0, "##lam": 0, "##quelle": 0, "Glob": 0, "##us": 2, "Ball": 0, "erfor": 0, "##schen": 4, "anlegen": 1, "Terr": 0, "Tanz": 0, "##veranstaltung": 0, "Information": 5, "Videos": 0, "Tafel": 0, "##bild": 0, "sorgf\u00e4ltig": 0, "bezogen": 4, "##hor": 2, "##izont": 2, "erg\u00e4nzen": 0, "Halt": 0, "ausgepr\u00e4gt": 0, "umf": 0, "##orm": 6, "bestimmt": 2, "best": 0, "rei": 0, "##flich": 0, "Job": 0, "##sv": 0, "##lag": 0, "komp": 0, "##akt": 0, "Men\u00fc": 0, "Kontext": 3, "zwei": 1, "##seite": 0, "wobei": 0, "Vorbereitung": 0, "Lieblings": 0, "##jahres": 0, "##zeit": 2, "##x": 0, "Sitz": 0, "##kreis": 0, "d\u00fcrfen": 0, "Anfang": 0, "Ursache": 2, "Figur": 0, "Demo": 1, "Mick": 0, "##ym": 0, "##aus": 0, "wodurch": 0, "Universum": 0, "Fotografie": 0, "Saison": 0, "##z\u00fcglich": 0, "Ly": 0, "##ric": 0, "beide": 1, "lau": 0, "Hintergrund": 0, "beiden": 0, "Nach": 0, "##komme": 0, "##tragen": 0, "Umlauf": 0, "Kreis": 0, "je": 0, "nachdem": 0, "m\u00f6glichst": 6, "vis": 0, "Syn": 0, "##onym": 0, "Erkl\u00e4r": 0, "experimen": 0, "S": 0, "8": 0, "Seite": 0, "durchs": 0, "##chi": 0, "##mmer": 0, "offenbar": 0, "Experiment": 0, "##ein": 0, "##beziehen": 0, "pro": 0, "dem": 2, "einen": 0, "Versuch": 0, "ankommen": 0, "geltend": 0, "kon": 4, "##zi": 1, "einem": 0, "unbest": 0, "##immten": 0, "##probieren": 0, "scheinen": 0, "zwangsl\u00e4ufig": 0, "Experten": 0, "b": 2, "verschieden": 4, "anderer": 0, "Suche": 0, "ideal": 2, "sprechen": 4, "Bilder": 0, "##folg": 0, "ggf": 0, "\u00dcbertragung": 0, "Abschluss": 0, "Reflex": 11, "##\u00e4qu": 0, "Spann": 0, "##finden": 0, "##ld": 0, "##ern": 0, "ergreifen": 1, "st": 3, "##ocken": 1, "Gaz": 0, "##ette": 1, "Kompl": 1, "##etti": 0, "##erung": 6, "##schritt": 12, "di": 6, "##da": 6, "##ktisch": 6, "T": 0, "unten": 0, "anf": 1, "##\u00fcgen": 0, "Kommentar": 0, "ignor": 0, "Klarheit": 4, "dar\u00fcber": 0, "insbesondere": 0, "M\u00f6glichkeit": 0, "Wasser": 0, "##lauf": 4, "verd": 0, "##unsten": 0, "flie\u00dfen": 0, "tats\u00e4chlich": 0, "Denken": 6, "seit": 0, "wenig": 1, "Monat": 0, "lernen": 0, "##rg": 0, "##eb": 0, "##nis": 2, "erb": 1, "##auen": 1, "##unt": 0, "ha": 0, "##ark": 0, "##lein": 0, "Lu": 0, "Um": 0, "##ulierung": 6, "angefangen": 0, "kaum": 1, "te": 0, "##uto": 0, "##nisch": 0, "Kritik": 0, "##punkt": 0, "zwar": 2, "##fertigt": 0, "##mat": 0, "Stichwort": 1, "F\u00fcll": 0, "leisten": 0, "entsprechend": 0, "defen": 2, "##siv": 2, "Motivation": 0, "verlassen": 0, "##komplex": 0, "beantworten": 0, "##lastung": 0, "Gruppen": 2, "##dehn": 0, "ents": 0, "##leun": 0, "ent": 0, "##lasten": 0, "ungef\u00e4hr": 0, "besorgen": 0, "wahrnehmen": 2, "verteidigen": 0, "gro\u00dfer": 0, "Kunst": 0, "##fertig": 0, "gek": 0, "##\u00fc": 3, "##pft": 0, "weiteres": 0, "Gang": 0, "herunter": 0, "##schalten": 0, "ansprechen": 0, "Planungs": 2, "hinein": 1, "##schauen": 0, "achten": 1, "umso": 0, "einsetzen": 8, "jewei": 2, "Ern\u00e4hrung": 0, "Ding": 0, "Mensch": 0, "essen": 0, "Frucht": 0, "Inse": 0, "Maus": 0, "Fisch": 0, "Nu": 0, "Blatt": 0, "Katalog": 0, "Kategorie": 1, "Lebensraum": 0, "Ort": 0, "leben": 0, "##erken": 0, "Nut": 0, "##rit": 2, "Wesen": 0, "Nahrungsmittel": 0, "Zwie": 0, "##bel": 3, "##fisch": 0, "Denk": 16, "##zentrum": 0, "fern": 0, "erw\u00e4hnen": 0, "Liste": 0, "irgend": 1, "##wer": 0, "Welt": 0, "##all": 0, "Vorhaben": 0, "ans": 0, "##weise": 8, "jedoch": 0, "ausb": 0, "##\u00e4h": 0, "##wie": 0, "##fern": 1, "urspr\u00fcnglich": 0, "jetz": 0, "##ind": 2, "##gerecht": 2, "motiv": 5, "##ierend": 12, "br\u00fc": 0, "Komp": 2, "##osit": 2, "Lehr": 9, "##werk": 0, "sch\u00f6n": 0, "\u00dcbung": 0, "No": 0, "##me": 0, "bilden": 0, "Wald": 0, "Am": 0, "##eise": 0, "##ame": 0, "##ise": 0, "fro": 0, "##iv": 6, "##aw": 0, "##isse": 0, "gesamte": 0, "halb": 0, "##wegs": 0, "vertreten": 1, "##ui": 1, "##off": 1, "Prozess": 1, "derzeit": 0, "real": 0, "erreichbar": 0, "etliche": 0, "Geschehen": 1, "##pers": 2, "##pekt": 2, "##ive": 3, "mus": 0, "##ter": 12, "##g\u00fcltig": 0, "Blick": 4, "gelingen": 0, "Darstellung": 10, "Vorgehen": 3, "##aufen": 0, "ben": 0, "##ennen": 0, "angemessen": 3, "alles": 0, "pal": 0, "##vis": 1, "erster": 1, "leeren": 0, "doppelt": 0, "gr\u00fcn": 0, "w\u00e4hrend": 2, "##werkstatt": 0, "Grund": 4, "##voraus": 0, "##setzung": 2, "mater": 0, "##ial": 1, "##side": 2, "##gh": 0, "##ell": 8, "tre": 0, "##sicher": 0, "\u2192": 0, "##igungs": 0, "##stunde": 1, "entstehen": 2, "Zahlen": 0, "##geschichte": 0, "h": 0, "##\u00e4n": 1, "##seln": 0, "sieben": 0, "Leb": 0, "##kuchen": 0, "Gre": 0, "##tel": 1, "25": 0, "Gleich": 0, "7": 0, "An": 4, "##bot": 2, "Ware": 1, "##zelt": 0, "##arat": 0, "##hink": 0, "##\u00f6n": 0, "##nen": 2, "##versammlung": 0, "Achtung": 0, "Peer": 4, "##feed": 0, "entfallen": 0, "dir": 0, "heute": 0, "unser": 8, "\u00dcbungs": 2, "Woche": 0, "schlecht": 0, "genauso": 0, "leicht": 0, "\u00c4u\u00dfer": 2, "##statten": 0, "Verst\u00e4nd": 0, "##igung": 3, "H\u00e4nde": 0, "Garde": 0, "##ma\u00df": 0, "Tage": 0, "hom": 0, "##ogen": 0, "gleichen": 0, "Sinne": 0, "##leuchten": 0, "allen": 0, "Fleisch": 0, "hervorragend": 0, "getr": 0, "##ost": 0, "Per": 0, "##fektion": 0, "##ism": 22, "verb": 9, "##uchen": 0, "Fin": 0, "##et": 0, "wertvoll": 0, "##stand": 20, "besonders": 0, "f\u00e4l": 0, "##len": 0, "them": 0, "##bedingt": 0, "reduzieren": 3, "mathemat": 5, "weiterhin": 0, "versch": 2, "##rift": 0, "Besch": 0, "Reis": 0, "##haufen": 0, "perfekt": 0, "s\u00e4m": 2, "##tlich": 2, "aussch": 1, "begn": 0, "##adet": 0, "eint": 0, "##ragen": 0, "be": 2, "##ugen": 1, "Sonder": 0, "ev": 1, "##ident": 1, "konsequent": 1, "##setzen": 4, "Ma\u00df": 2, "Adam": 2, "Ries": 2, "Potenzial": 1, "##pu": 1, "##mp": 1, "abweichen": 0, "krei": 1, "mitten": 0, "Wanderung": 0, "##zimmer": 0, "sammeln": 0, "Erfahrung": 0, "Plan": 0, "##stu": 0, "Re": 8, "Orts": 0, "Legende": 0, "z\u00e4hlen": 0, "strukturiert": 2, "fein": 2, "Abstra": 0, "##ktions": 0, "##verm\u00f6gen": 4, "##beschreibung": 0, "Ausflug": 0, "drau\u00dfen": 0, "schlie\u00dflich": 0, "Audio": 0, "##aufnahme": 0, "##\u00fcndig": 0, "##einheit": 0, "Werks": 0, "origin": 1, "Vier": 0, "##undzwanzig": 0, "##stel": 0, "eines": 0, "Tages": 0, "vieles": 0, "##h\u00e4": 0, "##ufen": 0, "Erfahrungen": 1, "Kalk": 1, "##\u00fcl": 1, "Eintritts": 0, "##n\u00f6": 0, "M\u00e4rchen": 0, "##falls": 0, "fl": 0, "##\u00e4ch": 0, "Tour": 0, "freien": 0, "Wild": 0, "##bahn": 0, "Sicherheit": 0, "hand": 1, "##bares": 1, "Gut": 1, "##fach": 0, "##handlung": 13, "fragen": 0, "Entschuldigung": 0, "links": 0, "rechts": 0, "##biegen": 0, "##as": 0, "Himmels": 0, "##richtung": 0, "n\u00f6rdlich": 0, "\u00f6stlich": 0, "Kos": 0, "##mos": 0, "\u00fcberd": 0, "##enken": 1, "per": 1, "##format": 1, "feststellen": 1, "fest": 1, "u": 0, "un": 5, "##kon": 6, "##kret": 5, "rein": 0, "sichern": 3, "provo": 1, "##kant": 1, "g\u00e4ng": 0, "Schritt": 0, "##pro": 10, "##ze\u00df": 10, "vier": 0, "##arbeitung": 0, "erf\u00fcllen": 2, "Kriterium": 0, "Kreativit\u00e4t": 2, "Bereich": 2, "angehen": 0, "langen": 0, "kurzer": 0, "begr": 1, "Zweck": 1, "Amt": 0, "beachten": 2, "leist": 0, "Abb": 0, "##ild": 0, "Ideal": 0, "##erweise": 0, "Impuls": 0, "Klein": 0, "bearbeiten": 2, "anschlie\u00dfend": 0, "ord": 0, "Herz": 0, "erfassen": 0, "##kod": 0, "zusammengefasst": 0, "hinsichtlich": 0, "kooper": 1, "ansch": 1, "Best": 0, "ca": 0, "##se": 3, "##bieten": 2, "irgendeine": 0, "Anschluss": 0, "k\u00fcmmer": 0, "Sieb": 0, "strei": 0, "Song": 0, "schenken": 0, "blu": 0, "##ts": 18, "##verw": 2, "##andt": 0, "##f\u00e4llig": 0, "##wirken": 0, "komplett": 0, "weg": 0, "Doppel": 0, "##seit": 0, "Haus": 0, "Band": 0, "grob": 0, "Aufbau": 4, "traurig": 0, "##heitlich": 1, "##fahrung": 2, "Ha": 0, "##pt": 13, "##ik": 1, "bas": 0, "##teln": 0, "pr\u00e4zise": 1, "##rt": 0, "##blatt": 0, "allem": 0, "Respekt": 0, "Einst": 1, "##eiger": 1, "leid": 0, "tut": 0, "aufzu": 0, "uneingesch": 1, "##r\u00e4nkt": 3, "pr\u00e4z": 1, "##is": 6, "Stellung": 1, "Mithilfe": 1, "treffen": 0, "Block": 0, "Prinzip": 0, "Ritter": 0, "##schlag": 0, "Herr": 0, "Page": 0, "##sf": 12, "Lan": 0, "##ze": 0, "Schild": 0, "Mittelalter": 0, "kennenlernen": 0, "erweitern": 0, "beob": 2, "##acht": 2, "men": 0, "##tal": 0, "Was": 0, "Verhaltens": 2, "verwenden": 3, "Innern": 1, "##eign": 0, "##dr\u00fccke": 0, "Bel": 0, "##obi": 0, "Mon": 0, "##arch": 0, "Dienst": 0, "gutes": 0, "Ben": 3, "##ehmen": 0, "Wurf": 0, "##spe": 0, "lin": 2, "##gu": 20, "##istisch": 10, "pass": 0, "spezif": 0, "##oka": 0, "##tion": 5, "erhalten": 0, "\u201d": 0, "Land": 0, "besitzen": 0, "christ": 0, "Glauben": 0, "erz": 0, "##ieh": 0, "hm": 0, "gew": 4, "##i\u00df": 2, "##sie": 2, "##rung": 2, "##bei": 0, "##gehen": 0, "merken": 1, "kombin": 0, "Funktions": 0, "##verb": 0, "##gef\u00fc": 0, "##ge": 0, "Work": 0, "##sh": 0, "Live": 0, "##work": 0, "com": 0, "charakter": 0, "erlangen": 0, "schul": 0, "Anwendung": 0, "Krieger": 0, "heran": 0, "f": 0, "##irm": 0, "Anh\u00e4nger": 0, "keine": 1, "Ahnung": 0, "sp": 0, "##arta": 0, "Da": 0, "kinder": 0, "##itu": 0, "##ms": 0, "Pr\u00e4sen": 0, "##\u00fcbung": 2, "dies": 0, "Gramm": 5, "##atik": 10, "liegen": 2, "##bli": 0, "##termin": 0, "##ologie": 0, "mg": 0, "Aktiv": 2, "f\u00f6rdern": 5, "einsam": 0, "##mel": 0, "Vertreter": 0, "m\u00e4nnlichen": 0, "Geschlechts": 0, "Hast": 0, "Plattform": 0, "Agrar": 0, "##ier": 0, "sank": 0, "Order": 1, "gew\u00e4hren": 0, "Sach": 2, "##buch": 0, "gerne": 0, "Kita": 0, "niedrig": 2, "erm\u00f6glichen": 0, "gr\u00fcndlich": 0, "Unterscheidung": 1, "Besch\u00e4ftigung": 2, "##\u00f6": 1, "##gl": 1, "ger": 0, "##\u00fcttel": 0, "##ichtung": 0, "schl": 0, "##aue": 0, "MA": 0, "Falls": 2, "##tr": 6, "##ick": 2, "##ims": 0, "##m\u00e4\u00dfig": 0, "Rollen": 0, "##spiel": 2, "Lebensweise": 0, "Stand": 0, "Verk": 0, "##leidung": 0, "schl\u00fc": 0, "##pfen": 2, "Lebens": 0, "##ums": 0, "##tan": 0, "Beginn": 1, "##gruppen": 0, "ausf\u00fchren": 0, "Rahmen": 0, "Qu": 0, "##atsch": 0, "##phase": 2, "Niveau": 4, "fordern": 0, "ad": 0, "dienen": 0, "okay": 0, "gefallen": 0, "am": 2, "Zusammenfassung": 0, "\u00fcbers": 0, "einbringen": 0, "##laufen": 0, "Vorschlag": 0, "dein": 0, "##sagen": 0, "verhalten": 0, "Dialog": 0, "euer": 0, "##art": 2, "Rand": 0, "##fahr": 0, "hei": 0, "ins": 0, "Erzeugnis": 0, "##gehend": 2, "g\u00fcltige": 0, "Benennung": 0, "ej": 0, "##akul": 0, "##xt": 0, "deuten": 0, "verdienen": 0, "Gebot": 0, "geometr": 0, "Aussehen": 0, "##\u00f6gern": 0, "##m\u00fc": 0, "Smart": 0, "##board": 0, "darstellen": 4, "typisch": 6, "Ausr\u00fcstung": 0, "##steil": 0, "Pferd": 0, "Schwert": 0, "hac": 0, "Schwein": 0, "Getreide": 0, "##durch": 0, "Variante": 0, "Platz": 0, "Tabl": 0, "klass": 0, "la": 1, "##min": 2, "Edel": 0, "Korn": 0, "Mod": 0, "##ifikation": 0, "##computer": 0, "Bill": 0, "##ett": 0, "vern\u00fcnf": 0, "##tig": 0, "somit": 0, "unbe": 0, "##wu": 0, "\u00dcberblick": 0, "del": 0, "##ori": 0, "Hindernis": 3, "Gar": 2, "Lager": 1, "Position": 2, "abgetr": 0, "##ennt": 0, "Arbeitsplatz": 0, "definitiv": 0, "##f\u00fchrung": 1, "##up": 0, "##id": 0, "Team": 0, "##ollen": 0, "erarbeiten": 5, "recher": 0, "##muster": 2, "Bauern": 0, "mehrere": 0, "Auswahl": 1, "\u00e4": 1, "analog": 0, "sitzen": 1, "Still": 0, "Kollektiv": 0, "aust": 1, "##eilen": 0, "##zeitlich": 0, "T\u00e4ter": 0, "ermitteln": 1, "Anth": 0, "##no": 0, "Reck": 0, "Feststellung": 0, "Anpassung": 0, "\u00e4hnlich": 0, "Tabelle": 0, "fertig": 0, "##f\u00fcllen": 0, "jederzeit": 0, "holen": 0, "News": 0, "##gro": 0, "Reiter": 0, "##kriege": 0, "dis": 0, "##pon": 1, "##ibel": 4, "Spezie": 0, "##list": 0, "Musik": 0, "Rott": 0, "Element": 3, "Wahrscheinlich": 0, "##keits": 0, "##raums": 0, "stetig": 0, "sorgen": 0, "wieder": 0, "unterst\u00fctzen": 5, "Alters": 0, "##pla": 0, "erledigen": 0, "haupts\u00e4chlich": 0, "Hin": 0, "Mega": 0, "##poten": 0, "##tial": 0, "reden": 2, "##denken": 0, "wor": 0, "##h\u00f6ren": 0, "gen\u00fcgend": 0, "##f\u00e4higkeit": 4, "##h\u00e4ngen": 0, "verlieren": 0, "diagnost": 2, "n\u00e4mlich": 0, "##frage": 0, "Reihe": 0, "h\u00f6ren": 4, "##\u00fcchtern": 0, "Kollege": 0, "bezahlen": 0, "##au": 0, "Gespr\u00e4ch": 8, "##anteil": 12, "L": 0, "antworten": 0, "mi": 0, "##\u00df": 0, "##brauch": 0, "Reiz": 0, "##geber": 0, "antwor": 0, "erlauben": 0, "Interview": 0, "Fernsehen": 0, "Vortrag": 0, "weiter": 4, "##f\u00fchren": 1, "entdecken": 0, "ind": 2, "##uk": 5, "##tiv": 2, "##ars": 0, "##itzung": 0, "Unbekannte": 0, "Stimme": 0, "erheben": 1, "benutzen": 0, "Zugangs": 0, "##code": 0, "Welten": 0, "##raum": 0, "hy": 0, "##per": 0, "Knie": 0, "##\u00dfer": 0, "hor": 0, "##tl": 0, "weitere": 0, "find": 0, "Aussprache": 0, "##sid": 0, "reagieren": 0, "Get": 0, "##reuer": 1, "Fernseh": 0, "schau": 0, "##lle": 0, "angeblich": 0, "begegnen": 0, "Tisch": 0, "fassen": 0, "darin": 0, "vermuten": 0, "10": 0, "Min": 0, "Zeitungs": 0, "##artikel": 0, "Aussch": 0, "##nitt": 0, "100": 0, "%": 0, "I": 0, "Mur": 0, "bestehen": 1, "Leit": 0, "Befra": 0, "##gte": 0, "befragt": 0, "K\u00e4r": 0, "##tchen": 0, "Chance": 1, "ausmachen": 0, "Befragung": 0, "anst": 0, "##ands": 0, "annehmen": 0, "##fangen": 0, "Res": 1, "##si": 23, "Un": 0, "##regel": 0, "##m\u00e4\u00dfigkeit": 0, "Untersuchung": 0, "bedeutend": 0, "handeln": 2, "et": 0, "##iten": 0, "##itter": 0, "##schwer": 0, "##raf": 0, "##schlei": 2, "##arbeitungs": 0, "##m\u00f6glichkeit": 0, "\u00fcben": 0, "##satz": 0, "##lesen": 0, "runter": 0, "##bet": 1, "bereit": 1, "sind": 0, "##urz": 0, "##rei\u00dfen": 0, "Ero": 0, "##tem": 2, "egal": 0, "Horizont": 0, "ewigen": 0, "Jagd": 0, "##gr\u00fcnde": 0, "eingehen": 0, "##drucken": 0, "sk": 0, "##izz": 0, "wider": 2, "##spiegel": 2, "##and": 2, "Seminar": 0, "##uns": 0, "##ens": 0, "bauen": 0, "##leistung": 0, "akzeptieren": 0, "umfangreich": 0, "Gedanke": 2, "##splan": 0, "Schilder": 0, "wonach": 0, "bet": 0, "##r\u00fc": 0, "##bt": 0, "ausgedehn": 0, "Grenzen": 0, "##rieb": 0, "worauf": 0, "Verbindung": 2, "Haupt": 3, "##rede": 2, "Meister": 0, "Holz": 0, "##stern": 0, "Mathematik": 0, "##unterricht": 16, "Anf": 30, "##order": 30, "Forum": 0, "Praxis": 0, "kunst": 0, "dar": 0, "Anstellung": 0, "Geh": 1, "##ei\u00df": 1, "existieren": 1, "Anregung": 0, "[": 4, "Nur": 0, "Mo": 0, "]": 4, "f\u00fc": 0, "For": 0, "##beitrag": 0, "hinzu": 0, "festgestellt": 0, "gelangen": 0, "Forderung": 3, "diesem": 1, "sek": 1, "##und": 3, "##pra": 2, "##che": 2, "24": 0, "Modell": 20, "Kommunikation": 4, "##alisieren": 2, "##stelle": 0, "Sachver": 2, "nachdenken": 1, "##kreisen": 0, "Rechn": 2, "kommunizieren": 3, "Rechen": 2, "##ae": 2, "nachvollzieh": 1, "port": 1, "##r\u00e4t": 1, "uns": 0, "\u00dcbersch": 0, "##u\u00df": 0, "problematisch": 0, "##liste": 2, "##arbeits": 2, "Kommun": 1, "Gur": 1, "Gegenzug": 0, "Sorgen": 0, "Daten": 0, "problem": 0, "##beh": 0, "##aft": 0, "##auschen": 1, "Summe": 0, "Tee": 0, "##licht": 0, "Ausgabe": 0, "Brett": 0, "add": 0, "verf\u00fcgbar": 0, "Gebrauch": 1, "Betrag": 0, "Ausdruck": 0, "Verf\u00fcg": 2, "##mach": 2, "##ichtig": 0, "##stoff": 0, "professionell": 0, "f\u00e4hig": 0, "erfahren": 0, "Lex": 0, "##emin": 0, "##vent": 0, "##zettel": 0, "Glo": 0, "##ssa": 0, "darum": 0, "H\u00e4lfte": 0, "verbringen": 0, "##schieben": 1, "womit": 0, "sterben": 0, "bild": 13, "F\u00e4higkeit": 2, "ausw\u00e4hlen": 0, "alter": 0, "##sg": 3, "##erecht": 0, "Kurs": 0, "m\u00f6chten": 0, "Einbruch": 1, "beitragen": 2, "Erwerb": 3, "Jahr": 0, "Angebot": 0, "##schul": 0, "##bereich": 0, "steigen": 0, "nei": 0, "Kalender": 0, "##jahr": 0, "em": 0, "##itt": 0, "AB": 0, "\u00fcberzogen": 2, "Leistungs": 3, "##erw": 2, "Alltag": 0, "angesichts": 0, "##ren": 0, "##kos": 0, "explod": 0, "frei": 0, "verk": 1, "##\u00e4uf": 0, "detaill": 1, "fund": 1, "notwendig": 0, "Tra": 0, "ausge": 0, "##kl": 0, "##\u00fcgel": 0, "t\u00e4glich": 0, "Brot": 0, "ersch": 3, "solide": 2, "Grundlage": 1, "part": 0, "beschrieben": 0, "##l\u00e4nge": 0, "pra": 0, "##xis": 0, "##orientiert": 2, "Verkn\u00fc": 0, "##pfung": 2, "Su": 1, "##jet": 1, "9": 0, "diskrimin": 19, "##krit": 12, "Diver": 21, "Diskriminierung": 54, "Klicken": 0, "herunterladen": 0, "##oo": 0, "##men": 0, "Zusammenhang": 0, "Mehr": 4, "##wechsel": 1, "einstellen": 0, "sau": 0, "11": 0, "Komponente": 0, "beding": 0, "Bezug": 5, "National": 0, "Repertoire": 0, "##welt": 0, "Familie": 2, "Medium": 0, "Ze": 0, "##tt": 0, "erfordern": 2, "Multi": 2, "##ling": 3, "##ualis": 2, "\u00d6": 0, "##rn": 4, "##ie": 2, "land": 0, "##ab": 0, "Fund": 1, "##ref": 16, "##ktiert": 0, "ster": 3, "##eo": 3, "##typ": 3, "##geleitet": 0, "Handeln": 4, "Schuls": 2, "##ystem": 2, "##faktor": 0, "sozial": 1, "Herkunft": 0, "nachweisen": 0, "Beh": 2, "##err": 2, "akadem": 4, "Haushalt": 0, "##system": 6, "erfolglos": 0, "blo\u00df": 0, "##\u00fcren": 0, "Eva": 0, "\u00dcberzeugung": 4, "auseinander": 4, "Selbst": 30, "Top": 1, "##os": 1, "Beziehung": 1, "Rassismus": 18, "Rassen": 4, "##dok": 2, "institution": 4, "##literatur": 0, "h\u00e4ufig": 3, "tief": 0, "systematisch": 0, "rass": 10, "ansehen": 0, "J\u00fcnger": 1, "verfl": 0, "##ix": 0, "heu": 0, "pla": 0, "Jahrzehnt": 0, "cl": 0, "##own": 0, "##esk": 0, "Zehn": 0, "##zeitraum": 0, "weshalb": 0, "jemand": 0, "zahl": 0, "##reich": 1, "Beweis": 4, "##grund": 0, "##konstruktion": 4, "Vielzahl": 0, "##dimension": 8, "Individ": 0, "##uum": 0, "Identit\u00e4t": 0, "pr\u00e4gen": 0, "aufgrund": 5, "##behandlung": 4, "##sse": 0, "Ag": 0, "unters": 0, "##agen": 0, "straf": 0, "##rechtlich": 0, "verfolgen": 0, "Rasse": 2, "Ethn": 0, "Geschlecht": 0, "Religion": 0, "##ans": 0, "Alter": 0, "Behinderung": 1, "sexuell": 0, "Quelle": 0, "##ese": 0, "Berlin": 0, "Gesetz": 0, "Ausgrenzung": 0, "F\u00fclle": 0, "Kong": 0, "##rue": 0, "##atten": 0, "zugute": 0, "bedingt": 0, "konta": 0, "##freu": 0, "Ph\u00e4nomen": 0, "##achteil": 3, "12": 0, "plan": 0, "My": 0, "##ster": 0, "##ium": 0, "Nachteil": 1, "ergeben": 0, "##rel": 8, "##ev": 8, "##eg": 4, "##orie": 4, "gezielt": 0, "\u2014": 0, "Tu": 0, "Dresden": 0, "tu": 0, "dre": 0, "##sd": 0, "d": 0, "hinaus": 0, "Dimension": 4, "demnach": 0, "H\u00f6he": 0, "Folge": 1, "Technische": 0, "Hochschule": 0, "Universit\u00e4t": 0, "Brand": 0, "Hab": 0, "Beg": 0, "##abu": 0, "bedeut": 0, "##sam": 0, "He": 0, "##it\u00e4ts": 0, "##merkmale": 0, "2017": 0, "20": 0, "Leben": 0, "13": 0, "Lehre": 0, "##ner": 0, "gesellschaft": 3, "Verh\u00e4ltnis": 1, "##linie": 0, "erheblich": 0, "Existenz": 0, "Methodik": 0, "zumeist": 0, "oftmals": 0, "verg": 0, "##egen": 0, "##w\u00e4rtig": 0, "inwieweit": 0, "##real": 0, "##it\u00e4t": 1, "Mit": 0, "weiterer": 0, "korre": 4, "##ond": 4, "Cho": 1, "\u00fcberwiegend": 0, "speziell": 0, "Kenntnisse": 0, "lern": 4, "verh\u00e4lt": 2, "ausreichend": 2, "refle": 3, "##ktieren": 3, "schlimm": 0, "sogar": 0, "Nad": 0, "##ny": 0, "Stefan": 0, "2021": 0, "##sek": 0, "##tional": 0, "politisch": 0, "Lokal": 2, "##isation": 1, "Wirkung": 1, "erstaunlich": 0, "15": 0, "##weren": 2, "##kommen": 0, "stets": 0, "Kombination": 0, "auftreten": 0, "geschehen": 1, "Konst": 0, "##ella": 0, "Abgrenzung": 1, "Gesch": 1, "##ehn": 1, "Online": 0, "H": 0, "##ttp": 0, "www": 0, "ro": 0, "##ux": 0, "##ikation": 2, "375": 0, "##78": 0, "##ita": 1, "zuletzt": 0, "pr\u00fcfen": 0, "01": 0, "07": 0, "gelten": 0, "P\u00e4dagog": 0, "besch\u00e4ftigen": 0, "Zugeh\u00f6rigkeit": 0, "vers": 0, "##ichern": 0, "Gesch\u00e4ft": 0, "Spannungs": 1, "##verh\u00e4ltnis": 1, "individuell": 1, "Faktor": 2, "Herrschafts": 2, "##ef": 3, "##fekt": 2, "Mart": 0, "Busch": 0, "\u00ab": 0, "Sub": 1, "##jekt": 1, "\u00bb": 0, "Pers\u00f6nlichkeit": 0, "##sent": 0, "##wicklung": 0, "Lage": 0, "Ausarbeitung": 0, "tragen": 0, "Berichten": 0, "zufolge": 0, "Amb": 1, "##ivalen": 1, "jeder": 1, "##tent": 1, "Gr\u00f6\u00dfe": 1, "Gro": 0, "##b": 0, "##konzept": 0, "##zed": 0, "Er": 2, "##achten": 0, "Kompetenz": 11, "Komplexit\u00e4t": 7, "Viel": 1, "##schicht": 0, "##iziert": 1, "Betracht": 0, "ziehen": 0, "Anlehnung": 0, "Andreas": 0, "Fo": 0, "##itz": 0, "vielmehr": 0, "eleg": 0, "scheiter": 0, "14": 0, "Handlungs": 14, "trotz": 0, "##icherheit": 0, "p\u00e4dagog": 0, "##ob": 0, "besser": 0, "##pr\u00e4": 4, "Weise": 4, "f\u00f6rder": 0, "Angst": 0, "mei": 0, "##den": 3, "Deb": 0, "Katharina": 0, "Stu": 0, "##ve": 0, "Olaf": 0, "Scheitern": 0, "le": 1, "##hre": 0, "##rh": 0, "##zu": 0, "##hl": 0, "##ich": 0, "Sprung": 0, "entziehen": 0, "Neut": 0, "##ral": 0, "l\u00e4ngst": 0, "##leute": 2, "studieren": 1, "##anst": 0, "##o\u00df": 0, "Wert": 0, "##freiheit": 0, "Grundsatz": 2, "##verst\u00e4ndnis": 0, "metho": 0, "##dis": 0, "Dog": 0, "dauerhaft": 0, "aufta": 0, "Ungleich": 4, "##heits": 0, "priv": 0, "##ileg": 0, "\u2013": 0, "Kosten": 0, "gesteckt": 0, "Regel": 1, "##sprechen": 1, "Samen": 0, "##erg": 0, "##uss": 0, "##gem\u00e4\u00df": 0, "##folger": 3, "zun\u00e4chst": 0, "Wider": 1, "##gabe": 2, "##here": 0, "offen": 3, "Verhalten": 0, "18": 0, "23": 0, "beziehen": 0, "Privileg": 0, "bew": 0, "##ussen": 0, "##ierte": 0, "luxuri": 0, "##\u00f6s": 0, "Situation": 0, "Reduzierung": 0, "Ster": 0, "##isierung": 4, "Gewalt": 0, "Marg": 0, "##ina": 0, "##li": 0, "##rte": 0, "lustig": 0, "Unger": 1, "##echtigkeit": 1, "All": 0, "Ki": 0, "##ste": 1, "konvention": 0, "Ice": 0, "##rd": 4, "1966": 0, "Haut": 0, "Abstammung": 0, "national": 0, "Ursprung": 0, "Volks": 1, "##tum": 0, "beruhen": 0, "##lie\u00df": 0, "Beschr\u00e4nkung": 0, "Bevor": 0, "dadurch": 0, "##berechtigt": 0, "##erkennen": 0, "Genie\u00dfen": 0, "aus\u00fcben": 0, "Menschen": 4, "wirtschaftlich": 0, "kultur": 0, "\u00f6ffentlich": 0, "ver": 2, "##eite": 0, "beeintr\u00e4chtigen": 0, "##ton": 0, "##kunft": 0, "hiermit": 0, "bemerken": 0, "Kategor": 0, "entlang": 0, "sog": 0, "aufrechter": 0, "sub": 1, "##jektiv": 2, "Wahrnehmung": 0, "verh": 0, "##\u00e4rten": 0, "abseits": 0, "dessen": 0, "Klass": 0, "##ifizierung": 0, "Rub": 1, "##rum": 1, "impl": 0, "##rasse": 4, "wissenschaft": 0, "halt": 0, "##ew": 0, "##erk": 0, "Susan": 0, "Arn": 0, "##dt": 0, "##ja": 1, "Of": 0, "##ua": 0, "##y": 0, "al": 0, "##azar": 0, "vorschlagen": 0, "17": 0, "definieren": 2, "##cis": 0, "##m": 0, "Pre": 0, "##ju": 0, "##ce": 0, "Power": 0, "Rass": 10, "##ismen": 6, "##stuf": 0, "Bewertung": 0, "Macht": 0, "##lehr": 0, "##ideo": 1, "##log": 1, "Herrschaft": 0, "##uta": 0, "##cht": 1, "##ismus": 2, "geh\u00f6ren": 0, "##willig": 0, "Verst\u00e4ndnis": 3, "Besitz": 0, "##urteil": 0, "echt": 0, "##behalt": 0, "##ser": 1, "##\u00fcm": 2, "vorliegen": 3, "ungleich": 0, "infolge": 0, "Charakter": 1, "##merk": 3, "##mal": 2, "##leich": 0, "Wei\u00df": 0, "##sein": 0, "genie\u00dfen": 0, "kontro": 0, "##vers": 0, "con": 0, "##ti": 0, "##o": 1, "sin": 0, "qu": 0, "non": 0, "Bezeichnung": 0, "unterscheiden": 0, "Abbildung": 0, "Ali": 0, "Val": 0, "##jen": 0, "net": 0, "##ap": 0, "Ex": 0, "##kurs": 0, "positiv": 7, "19": 0, "eng": 0, "ethn": 0, "verwandt": 0, "Konzept": 2, "anders": 0, "##artig": 0, "##fische": 0, "Schle": 0, "##nk": 0, "Differen": 1, "##tia": 1, "\u00f6fter": 0, "is": 0, "breiter": 0, "Erscheinungs": 0, "Look": 0, "##ili": 4, "Gesundheit": 0, "Ad": 2, "##ult": 0, "jung": 0, "Antisemitismus": 0, "Schicht": 0, "Tran": 0, "feind": 0, "##kei": 0, "Sex": 0, "Gen": 0, "##der": 1, "##eis": 0, "Alte": 0, "anti": 0, "##lim": 0, "Islam": 0, "##feind": 0, "Hom": 0, "##oph": 0, "Anti": 0, "##zig": 0, "##ani": 0, "Rom": 0, "Sin": 0, "Lin": 18, "Trennung": 2, "Juden": 0, "##verfolgung": 0, "Fl": 0, "##\u00f6z": 0, "Polar": 0, "##\u00f6l": 0, "soziale": 1, "##has": 0, "Gelegenheit": 1, "Kommunikations": 0, "gewalt": 0, "gering": 0, "Liter": 0, "##alit\u00e4t": 0, "##serfahrung": 0, "nieders": 0, "##lagen": 0, "##f\u00f6rderung": 0, "irre": 0, "##lev": 0, "Ak": 0, "##zent": 0, "##gew": 0, "##ohn": 0, "Paar": 0, "Stief": 0, "##vort": 0, "##eilung": 0, "Gabe": 0, "wesentlich": 2, "Ot": 6, "##her": 6, "Kultur": 8, "##alisierung": 8, "##lang": 0, "Mech": 0, "##eri": 0, "Dir": 0, "##im": 0, "2010": 0, "42": 0, "det": 0, "Erkl\u00e4rung": 7, "Handlung": 6, "Konflikt": 0, "##sweise": 2, "Wichtig": 0, "Meinungs": 0, "##versch": 0, "##ieden": 0, "Schreib": 0, "dahinter": 0, "##steigen": 0, "Dich": 0, "##oto": 0, "##mi": 2, "Zweite": 0, "##il": 0, "Gesellschaft": 2, "Zuge": 0, "##h\u00f6rige": 0, "Nicht": 0, "zuge": 0, "verst\u00e4rkt": 0, "Zusch": 0, "##reibung": 0, "##produz": 0, "Spar": 0, "Fleck": 0, "bedeuten": 2, "Ru": 0, "ko": 7, "Datei": 0, "Akte": 0, "vielf\u00e4ltig": 0, "Dialekt": 0, "##tritt": 0, "##sem": 0, "##pfe": 0, "Gymnasium": 0, "erteilen": 0, "t\u00e4tigen": 1, "##jemand": 0, "deutsch": 0, "Zunge": 0, "##ns": 1, "101": 0, "hinweg": 0, "Anerkennung": 2, "mitgebracht": 2, "agieren": 2, "bek\u00e4mpfen": 0, "##\u00e4mmen": 0, "Dist": 1, "##inkt": 1, "potenzie": 0, "##eh": 4, "##\u00f6r": 4, "woraufhin": 0, "dr\u00fccken": 2, "ohn": 2, "##m\u00e4chtig": 2, "Opfer": 2, "##rolle": 1, "##erb": 8, "##zwei": 2, "##fel": 2, "best\u00e4": 1, "emp": 2, "##ath": 2, "kompens": 2, "ge": 1, "verst\u00e4rken": 1, "Betroffene": 2, "Verfasst": 3, "Fortbildung": 0, "besuchen": 0, "Gesellschafts": 0, "##zusammen": 0, "##hang": 0, "##\u00fcr": 2, "r": 4, "wecken": 2, "Hoffnung": 2, "sit": 0, "##ert": 1, "Lehrer": 2, "##arm": 0, "##losen": 0, "2016": 0, "stand": 0, "web": 0, "p": 1, "##df": 0, "##tu": 0, "or": 0, "Training": 0, "vermisst": 0, "kompliziert": 0, "##seud": 1, "nachge": 0, "wirksam": 0, "Werkzeug": 0, "beispielsweise": 0, "Id": 0, "##tage": 0, "##freie": 0, "|": 0, "Institut": 0, "Bildung": 0, "generell": 0, "Anlauf": 0, "wirk": 0, "##gebiet": 0, "##klus": 0, "Demokratie": 0, "##unternehmen": 0, "Bew": 0, "##usste": 0, "##reh": 0, "F\u00f6rderung": 0, "##ul": 0, "##able": 0, "derjenige": 0, "##bew": 0, "##\u00e4ltigung": 0, "richten": 0, "Finanz": 0, "##sprit": 0, "aller": 1, "Voraus": 0, "##sicht": 0, "Landes": 0, "##anti": 0, "##rimin": 1, "##gesetz": 0, "62": 0, "##1": 0, "##fu": 0, "##bi": 0, "fu": 0, "bit": 0, "##stream": 0, "##18": 0, "##8": 0, "169": 0, "##70": 0, "##dg": 0, "se": 0, "##quen": 0, "Isa": 0, "##llo": 0, "##we": 0, "y": 0, "##sk": 2, "unterrichten": 2, "beginnen": 0, "folglich": 0, "kolle": 0, "##gia": 0, "Beratung": 0, "Ereignis": 0, "nachtr\u00e4glich": 0, "k\u00fcnftig": 0, "inkl": 2, "sensi": 2, "Ansatz": 1, "##spektrum": 1, "beinhalten": 2, "Schulen": 0, "##tw": 0, "##lung": 0, "demokrat": 0, "##zieht": 0, "bef": 0, "verringern": 2, "Stimm": 0, "##lage": 0, "Mehrfach": 4, "anerkennen": 3, "gesehen": 0, "anderes": 0, "sa": 0, "##pie": 0, "Gesicht": 0, "oft": 0, "organisieren": 2, "Weiterbildung": 0, "Botschaft": 1, "herbei": 1, "##schaffen": 1, "Kindertages": 0, "##st\u00e4tte": 0, "Erzieher": 0, "ihm": 0, "Zugang": 0, "verschaffen": 0, "##\u00e4tzt": 0, "Account": 0, "##eins": 0, "##tim": 0, "##mung": 0, "##usst": 0, "##sei": 0, "##binden": 0, "fot": 0, "enorm": 0, "beschr\u00e4nken": 0, "Noten": 0, "##gebung": 2, "Sel": 0, "##ekt": 0, "F\u00f6rder": 0, "##ma\u00dfnahme": 0, "zuerst": 0, "Phase": 0, "##lecht": 0, "m\u00e4chtig": 0, "21": 0, "sp\u00e4testens": 0, "Sekundar": 0, "bal": 0, "meiste": 0, "Papier": 2, "erinnern": 1, "##kaufen": 1, "Ausbau": 4, "##kompetenz": 8, "verf\u00fcgen": 0, "gewinnen": 2, "Expert": 0, "unbekannte": 0, "Schm": 0, "##\u00f6lzer": 0, "eib": 0, "2006": 0, "179": 0, "Lauf": 0, "sechs": 0, "##zeption": 1, "vertraut": 1, "famili": 1, "##\u00e4r": 1, "separ": 0, "aufweisen": 0, "##spezif": 0, "erweitert": 0, "Ade": 1, "##so": 11, "##urce": 10, "zur\u00fcck": 0, "##greifen": 0, "Betriebs": 1, "##alisch": 4, "##rech": 0, "Name": 0, "betreffend": 1, "Bestimmung": 4, "##chn": 0, "##app": 0, "##planung": 6, "beanspr": 0, "Ins": 0, "sicherer": 0, "warten": 0, "Orientierung": 0, "##ahmen": 0, "entfernt": 0, "Anzeichen": 0, "Ev": 0, "##iden": 0, "Ges": 0, "##agte": 0, "##uen": 0, "stattdessen": 0, "solch": 1, "bew\u00e4ltigen": 2, "untersuchen": 0, "schaffen": 0, "Notwendigkeit": 1, "Autor": 0, "vorlegen": 0, "##ungsbereich": 4, "##decken": 4, "Ausf\u00fchrung": 3, "Vollstre": 1, "##ckung": 1, "obwohl": 1, "Video": 0, "Feld": 2, "##grenzen": 0, "W": 3, "##dh": 0, "Ba": 0, "Genre": 7, "schriftlich": 3, "Entsteh": 0, "Ausdehnung": 0, "Debatte": 0, "f\u00fcnf": 0, "vorgeschlagen": 0, "##inter": 8, "##st\u00e4nd": 0, "Schlaf": 0, "##utz": 1, "##nei": 1, "##schau": 0, "Ris": 1, "##mund": 1, "hingegen": 0, "Vert": 0, "##ief": 0, "Par": 0, "##aph": 0, "##ras": 12, "##itiv": 5, "Operation": 3, "2014": 0, "bezeichnen": 0, "ausgel\u00f6st": 0, "OP": 1, "strik": 0, "technische": 0, "##kind": 0, "System": 3, "##ad": 1, "##ministrat": 1, "##or": 2, "##struktur": 2, "verarbeiten": 0, "##geben": 0, "fung": 0, "##hren": 0, "jede": 0, "Menge": 0, "invol": 0, "##vier": 0, "dementsprechend": 0, "##gewinn": 1, "etablieren": 1, "Festlegung": 2, "festlegen": 0, "##antwort": 2, "erforderlich": 0, "s\u00e4": 0, "vorkommen": 0, "sorg": 0, "Kons": 1, "##istenz": 1, "deswegen": 0, "integrieren": 0, "Trommel": 0, "Anleitung": 0, "welches": 0, "##uster": 2, "ka": 0, "##usa": 0, "multi": 0, "##s\u00e4": 0, "Qualit\u00e4t": 2, "erh\u00f6hen": 0, "k\u00fcmmern": 0, "Nomin": 0, "Pass": 0, "etc": 0, "pl": 0, "##uri": 0, "##lit": 0, "##era": 0, "##ci": 0, "ec": 0, "##ml": 0, "at": 0, "##als": 0, "54": 0, "##utt": 0, "app": 0, "##ro": 0, "##ach": 0, "into": 0, "##ctic": 0, "##erst": 0, "nah": 0, "bedienen": 0, "RT": 0, "##H": 0, "Ro": 1, "##ot": 1, "User": 1, "Ma\u00dfnahme": 3, "##egal": 0, "Seiten": 0, "##fl\u00fcgel": 0, "schlicht": 0, "Schreiben": 9, "Sprechen": 11, "##p\u00e4dagog": 0, "##ener": 2, "Bearbeitung": 2, "initi": 2, "lenken": 0, "anzeigen": 0, "2019": 0, "D": 0, "R": 0, "Chron": 0, "Versuchs": 0, "Vordergrund": 0, "hinten": 0, "ausdr\u00fcck": 0, "kenn": 0, "##zeichnen": 1, "aufgegeben": 0, "Loch": 0, "achte": 0, "##rau": 0, "Regelung": 0, "##ordnung": 2, "pr\u00fc": 2, "##fungs": 2, "Rep": 2, "##rod": 2, "Transfer": 2, "##organisation": 0, "sicherlich": 0, "Lehren": 0, "verst\u00e4nd": 0, "##bahnen": 0, "verf": 2, "##\u00e4nglich": 0, "Themen": 1, "Administrat": 1, "Steuerung": 0, "Stab": 0, "St\u00fctz": 1, "gew\u00e4hrleisten": 0, "theoretisch": 2, "Referenz": 4, "realisiert": 2, "2002": 0, "##onom": 0, "##i": 0, "verschw": 0, "Realisierung": 2, "Sorte": 1, "Laden": 0, "##gesch\u00e4ft": 0, "registrieren": 0, "eis": 0, "##hart": 0, "indirekt": 0, "##izit": 0, "erscheinen": 0, "meistens": 0, "erwartet": 0, "##ender": 1, "Inst": 0, "##ru": 0, "##ktion": 0, "herum": 0, "16": 0, "Projekt": 0, "Merc": 0, "Zeichen": 6, "int": 0, "vornehmen": 0, "Fl\u00fcgel": 0, "Kla": 1, "durchgef\u00fchrt": 0, "normalerweise": 0, "einfache": 1, "##wahl": 1, "bewusst": 1, "genannt": 0, "Auswertung": 0, "##hin": 0, "erstrecken": 0, "##sch\u00fcler": 1, "Ca": 0, "Primar": 1, "schwerwie": 1, "##gend": 1, "blicken": 0, "Weisheit": 0, "zusammenh\u00e4ngen": 2, "##zip": 0, "Neben": 1, "##tra": 0, "diesbez\u00fcglich": 0, "fa": 1, "##th": 1, "##om": 1, "erw\u00e4hnt": 0, "einher": 2, "Nam": 0, "Statistik": 0, "forme": 0, "##von": 0, "anschlie\u00dfen": 1, "##ikon": 0, "##eint": 0, "##rag": 0, "W\u00f6rter": 1, "Bra": 0, "##inst": 0, "Mind": 0, "Des": 0, "##cr": 0, "Inhalts": 0, "##wieder": 4, "Sum": 0, "##mar": 0, "##erz": 0, "##\u00e4hl": 0, "##san": 0, "Anteil": 0, "Man": 1, "##ual": 0, "diskon": 0, "##tinuier": 0, "Dia": 0, "##gramm": 0, "Bericht": 0, "Zeitung": 0, "Radio": 0, "Fe": 0, "##ature": 0, "Protokoll": 0, "##modell": 0, "Bewerbung": 0, "Expl": 0, "##ain": 0, "Grafik": 0, "Refer": 0, "Hypoth": 0, "begr\u00fcndet": 0, "Vorher": 0, "Conc": 0, "Argument": 2, "Arg": 0, "##\u00f6rter": 0, "Ess": 0, "##ay": 0, "Quellen": 0, "Bes": 0, "##innung": 0, "##sau": 2, "##fs": 0, "##zb": 0, "##asi": 0, "Natur": 0, "##wissenschaft": 2, "Interpretation": 0, "##utung": 1, "fik": 0, "viert": 0, "##\u00fcndel": 0, "Bachelor": 0, "##ger\u00e4t": 0, "##kr": 0, "##ip": 0, "Fass": 0, "Bedienung": 0, "##leitung": 0, "##klar": 0, "Sektion": 0, "##sum": 0, "##ption": 0, "sti": 0, "Wahr": 0, "El": 0, "##abor": 1, "##forschung": 0, "Les": 0, "korrekt": 2, "##iger": 0, "##re": 2, "##strategie": 2, "Zus": 0, "##pruch": 0, "Koh": 2, "##\u00e4ren": 2, "Int": 1, "Strategie": 10, "Soc": 0, "Fas": 0, "gesonder": 0, "\u00fcblicherweise": 0, "k\u00fcnd": 0, "endlich": 0, "tauchen": 0, "auff\u00e4llig": 0, "Medik": 1, "##ament": 1, "##gr": 0, "##\u00fcb": 0, "##eln": 0, "Neu": 0, "##land": 0, "Direkt": 0, "##atisch": 3, "ma\u00dfgeblich": 1, "kann": 1, "##haft": 2, "Schub": 0, "kommun": 2, "##ikat": 2, "##sb": 2, "##erei": 2, "##ktik": 0, "Fertig": 1, "m": 0, "##dl": 0, "H\u00f6ren": 8, "gelungen": 0, "ausgehend": 0, "n\u00e4chsten": 0, "Absatz": 0, "Landtags": 0, "##abgeordnete": 0, "Epis": 1, "erfolgreich": 0, "sch\u00e4tz": 0, "##ungsweise": 0, "Erfolg": 0, "Materie": 1, "Weltraum": 0, "Forschungs": 0, "Pl": 0, "##kunde": 1, "A": 0, "Fak": 2, "Geschick": 1, "##bu": 0, "C": 0, "inne": 0, "eins": 0, "Rout": 1, "##tik": 0, "e": 0, "eignen": 0, "F": 0, "legen": 0, "Tipp": 0, "verbessern": 0, "aktuell": 3, "Kenn": 1, "Massen": 0, "Stellungnahme": 1, "##reichte": 2, "Opp": 1, "##ort": 1, "##kenn": 1, "##tn": 1, "##fort": 4, "messen": 1, "Erg\u00e4nzung": 0, "spe": 0, "Gel": 0, "##ernte": 0, "Eng": 0, "treiben": 0, "Vermittlung": 4, "##rufen": 0, "steuern": 0, "Angriff": 0, "anwenden": 0, "Beschaffung": 1, "Vorbild": 1, "n\u00fctz": 0, "mer": 0, "##cat": 0, "##lo": 0, "##ads": 0, "##ech": 0, "Not": 0, "po": 1, "Tag": 0, "Sport": 0, "Erfordern": 3, "Stunden": 0, "kennen": 0, "Begriffs": 1, "##kl\u00e4rung": 1, "zeitlich": 0, "begrenzt": 0, "##ziell": 0, "Unterst\u00fctzungs": 2, "2015": 0, "84": 0, "chron": 0, "##ologisch": 0, "Bedeutung": 1, "Ger": 5, "##\u00fcst": 4, "selbstst\u00e4ndig": 1, "bewegen": 2, "eigener": 1, "Verantwortung": 1, "Eigen": 1, "##reg": 1, "##sinn": 1, "Pauli": 0, "##ne": 1, "Gib": 0, "##bon": 0, "\u00fcbertragen": 0, "Josef": 0, "leise": 1, "28": 0, "kalk": 0, "errech": 0, "Pro": 0, "##vok": 1, "Eingang": 0, "Strat": 0, "##ege": 0, "##partner": 1, "##ozi": 0, "Fr": 0, "##ustr": 0, "Zone": 0, "##versuch": 0, "##f\u00fchl": 0, "So": 0, "##das": 0, "optimal": 0, "##situation": 0, "eigentlich": 0, "Aufrechter": 2, "Development": 0, "Bedarf": 2, "##ill": 0, "##usion": 0, "bestens": 0, "rauf": 1, "Offensive": 1, "##praxis": 0, "prinzip": 0, "Att": 1, "##acke": 1, "Instrument": 1, "Erwerbs": 2, "voran": 0, "Gewicht": 0, "##melde": 2, "##technische": 2, "erl": 0, "##ernen": 0, "zweit": 0, "##ebene": 0, "Verfahrens": 2, "ar": 1, "##rip": 0, "durchaus": 0, "st\u00e4ndig": 0, "##person": 0, "Reduktion": 0, "zugunsten": 0, "##kehr": 0, "Front": 0, "lang": 0, "##put": 2, "mach": 0, "Eint": 1, "##reten": 1, "Senkung": 0, "##ucken": 0, "##ket": 1, "Mikro": 22, "Mak": 6, "##ros": 6, "##ca": 6, "neben": 0, "verbunden": 0, "geht": 1, "hierzu": 0, "verst\u00e4ndlich": 2, "##erium": 2, "formuliert": 2, "Teile": 0, "##ment": 0, "##stands": 6, "Kauf": 1, "##lau": 1, "##let": 0, "##zt": 0, "verpflichten": 0, "Entwicklungs": 0, "schwierige": 0, "Disziplin": 0, "##instrument": 0, "##essen": 0, "behalten": 2, "G\u00fcltigkeit": 0, "Hauptsache": 0, "Anblick": 2, "hundert": 0, "Geben": 0, "umfassen": 0, "Gesamtheit": 1, "##technik": 28, "##st\u00e4ndigkeit": 2, "Design": 1, "mittel": 0, "Fahrplan": 1, "Voraussetzungen": 0, "eb": 1, "Methoden": 0, "##vielfalt": 0, "##sc": 18, "##gespr\u00e4ch": 6, "unvor": 0, "##gesehen": 0, "##schwier": 2, "Ho": 0, "##c": 0, "Gegensatz": 0, "unver": 0, "##hofft": 0, "hierbei": 0, "Technik": 3, "##kommun": 2, "mitge": 0, "##stal": 0, "High": 1, "##tech": 1, "unvoll": 0, "##st\u00e4ndig": 0, "Ka": 0, "##cke": 0, "ausgebildet": 0, "vertrauen": 0, "gew\u00f6hnlich": 0, "##motiv": 0, "Sog": 0, "Einf\u00fchrung": 2, "##ding": 0, "The": 0, "Lang": 0, "##uage": 0, "Cur": 0, "##ulu": 0, "121": 0, "##f\u00fchrende": 0, "##rw": 6, "Beachtung": 0, "##reichung": 0, "Set": 0, "entwickeln": 0, "erz\u00e4hlt": 0, "wof\u00fcr": 0, "bedenken": 0, "leg": 0, "##stellen": 4, "geleitet": 0, "\u00dcbersicht": 0, "Goethe": 0, "inst": 0, "##itut": 0, "Et": 0, "Al": 0, "35": 0, "beherrschen": 0, "eingesetzt": 0, "besonder": 0, "##verk": 2, "langfristig": 0, "Zuwachs": 2, "bewirken": 0, "sicherstellen": 0, "##disziplin": 0, "##ahr": 0, "Zir": 0, "##kel": 0, "Leistung": 1, "kommt": 0, "Geld": 1, "Falle": 0, "Poly": 0, "##handen": 0, "Ge": 0, "##ometrie": 0, "##statt": 0, "entw": 0, "Perspektive": 0, "ex": 0, "##empl": 0, "##arisch": 0, "deutsche": 0, "##arg": 0, "##met": 0, "##rie": 0, "desto": 0, "Kl\u00e4r": 2, "gerecht": 0, "Bedeut": 0, "##samkeit": 0, "reg": 0, "fair": 0, "Tool": 0, "Ret": 0, "##val": 0, "geb": 0, "##acken": 0, "##entscheidung": 0, "Anspruch": 0, "Kasten": 0, "gesamt": 0, "##vorgang": 2, "Rel": 0, "M\u00fcnster": 0, "Wa": 0, "Verlag": 0, "49": 0, "berichten": 0, "Studierende": 0, "Master": 0, "parallel": 1, "laufen": 0, "gestellt": 0, "inten": 0, "Reaktion": 0, "Konkret": 0, "##isierungs": 0, "Hilfsmittel": 0, "geeignet": 0, "sogen": 0, "##annt": 0, "betre": 0, "vorab": 0, "Rast": 0, "selber": 0, "altern": 0, "befassen": 0, "n\u00e4chst": 0, "Grundschule": 2, "sim": 2, "##pel": 2, "letzte": 0, "Zwischen": 0, "\u00fcblich": 0, "Super": 2, "##user": 2, "Modul": 0, "##abschluss": 0, "##pr\u00fcfung": 0, "\u00fcbersehen": 0, "Abgabe": 0, "Vorteil": 0, "##proben": 0, "##eignet": 0, "lo": 0, "##hnen": 0, "Verwendung": 0, "Erfinder": 0, "ebenso": 0, "durchf\u00fchren": 0, "verkehren": 0, "##port": 0, "##un": 0, "Prior": 0, "##fall": 0, "Gestaltungs": 0, "mithilfe": 0, "Bord": 0, "indes": 0, "##ischer": 1, "Erl\u00e4u": 0, "##terung": 0, "##endung": 2, "Publikation": 0, "##bene": 0, "##s\u00e4tz": 1, "Gottes": 0, "Ohr": 0, "Kontroll": 0, "##ansa": 0, "Hemm": 1, "##achtet": 0, "Trick": 0, "##best": 0, "Englisch": 0, "Franz\u00f6sisch": 0, "Erst": 0, "hei\u00dft": 0, "Tut": 0, "##oria": 0, "Mutter": 0, "pl\u00f6tzlich": 0, "Deutsche": 0, "##h\u00fc": 4, "v\u00f6llig": 0, "\u00fcberraschend": 0, "Vorlage": 0, "herausfinden": 0, "Unterseite": 0, "hilfreich": 0, "Nutzen": 7, "ange": 0, "##h\u00e4ngt": 0, "P": 0, "dat": 0, "##eie": 0, "Hinweis": 0, "nette": 0, "seine": 0, "Zwecke": 0, "darunter": 0, "Kollegin": 0, "Dr": 0, "Maria": 0, "Gro\u00dfe": 0, "##gaben": 0, "Verzeichnis": 0, "Doktor": 0, "##grad": 0, "Ausma\u00df": 0, "link": 0, "ti": 0, "frage": 2, "Konzentration": 1, "Schacht": 1, "##els": 1, "Eind": 2, "##eu": 2, "##tigkeit": 3, "##deu": 1, "##fra": 1, "Ei": 0, "60": 0, "dazuge": 0, "##h\u00f6r": 0, "##kur": 0, "Erm": 0, "##\u00e4cht": 0, "we": 0, "Batterie": 1, "##yr": 1, "##inth": 1, "Amph": 1, "##oli": 1, "zweimal": 1, "##f\u00fcllung": 1, "Cal": 0, "Erinnerung": 0, "##sw": 6, "ausgew\u00e4hlt": 0, "sc": 2, "Bitte": 0, "Pr\u00e4z": 4, "Zug": 0, "##zwang": 0, "Ziels": 0, "##tur": 0, "Kontrast": 10, "##vergleich": 0, "##ingu": 0, "wiederauf": 0, "korrig": 1, "Wieder": 0, "ziel": 2, "##cast": 8, "Aufforderung": 14, "##kor": 18, "##rektur": 18, "Verweis": 0, "Eliz": 2, "##iti": 2, "##holung": 4, "Einsatz": 3, "Mi": 2, "##k": 2, "Gest": 1, "26": 0, "Folgende": 0, "Daniela": 0, "Rotter": 0, "ow": 0, "##ituation": 2, "langer": 0, "Atem": 0, "Ausge": 0, "##bur": 0, "Pet": 0, "t\u00e4gliche": 0, "wiederholen": 0, "Aufruf": 2, "Mah": 1, "##nung": 1, "K\u00f6rpers": 1, "##altern": 2, "##ative": 2, "Motiv": 2, "o": 0, "##sz": 2, "##ena": 0, "##rio": 0, "\u00d6ffentlichkeit": 1, "Bereitschaft": 0, "F\u00fchrung": 1, "erleichtern": 1, "F\u00fchrungs": 1, "##cre": 1, "absch": 2, "##w\u00e4": 2, "##\u00fchrung": 6, "ber\u00fchren": 0, "veran": 0, "gleichzeitig": 0, "\u00dcbereinstimmung": 0, "##geschrieben": 0, "person": 0, "Lei": 0, "##iede": 0, "Personal": 0, "##bestand": 0, "Optimierung": 0, "unauf": 2, "Nacht": 0, "##heraus": 0, "Unsicherheit": 6, "##wissenschaftler": 0, "Knapp": 0, "beobachten": 0, "vielfach": 0, "\u00fcbersch": 0, "Visier": 0, "##\u00e4tz": 1, "##barer": 1, "beim": 0, "konzentrieren": 0, "##sich": 0, "orientieren": 0, "##tre": 0, "##f": 0, "##tags": 0, "nett": 0, "l\u00e4": 0, "ni": 0, "schnell": 2, "unent": 2, "Kenntnis": 0, "##weil": 0, "zustimmen": 0, "senken": 0, "Wand": 0, "Im": 1, "##abil": 1, "##ien": 1, "Version": 0, "Bit": 0, "##tg": 0, "##uch": 0, "flach": 0, "voll": 0, "belaufen": 0, "##aver": 0, "##bal": 0, "##po": 2, "Beton": 2, "##pause": 2, "Peg": 0, "Freie": 0, "##sebene": 0, "##gst": 1, "##frei": 1, "##ifest": 1, "##regend": 1, "ermu": 4, "##nte": 4, "\u00e4u\u00dfern": 0, "ak": 0, "langsam": 0, "Transit": 0, "gest": 0, "Werkzeuge": 0, "##schullehrer": 2, "40": 0, "erwe": 0, "weiteren": 0, "einer": 0, "ziemlich": 2, "dro": 1, "zust": 2, "##ehen": 2, "as": 0, "##ris": 0, "sozio": 0, "##kultur": 6, "##theorie": 0, "konstru": 2, "##l\u00f6sen": 0, "anscheinend": 0, "##nnen": 0, "Augen": 0, "##schein": 0, "vert": 0, "frag": 0, "konstruiert": 0, "traditionell": 0, "##\u00e4g": 2, "Geb": 0, "##ildet": 0, "##bleiben": 0, "Wend": 0, "hohem": 0, "Wu": 0, "##chs": 0, "##sver": 4, "bitten": 0, "##10": 0, "ver\u00e4ndern": 0, "verhaf": 0, "Vermutung": 0, "Kon": 0, "##junkt": 0, "##11": 0, "Schwe": 0, "##ur": 3, "\u00e4ndern": 0, "erstes": 0, "lieber": 0, "richtigen": 1, "##ug": 2, "verp": 0, "##ippe": 1, "Br\u00fccke": 0, "pers\u00f6nlich": 3, "allt\u00e4": 0, "##glich": 0, "Erk": 0, "##skon": 0, "##struktion": 0, "##information": 0, "ann\u00e4h": 0, "Schiffs": 0, "##br\u00fccke": 0, "vertrau": 0, "##elli": 0, "sinn": 2, "##stift": 2, "##end": 2, "Griff": 1, "Anlass": 0, "vorgestellt": 0, "##xi": 0, "Entwicklung": 0, "K\u00f6rper": 0, "##kontakt": 0, "einerseits": 2, "konfron": 0, "andererseits": 0, "produ": 0, "einfachen": 0, "Nenn": 0, "Termin": 0, "techn": 0, "##icus": 0, "trennen": 2, "##zeigen": 2, "Cor": 2, "##ction": 2, "##tegie": 0, "##ehlt": 0, "eventuell": 2, "Interesse": 2, "automatisch": 0, "Zweifel": 0, "l\u00e4cherlich": 0, "Leitungs": 0, "inneh": 0, "##aben": 0, "aut": 0, "##oma": 0, "##gis": 0, "keiner": 0, "Regen": 1, "Nass": 0, "##dring": 2, "nebenbei": 1, "##cho": 1, "nachhaltig": 1, "wechsel": 0, "##seitig": 0, "beeinflussen": 0, "solcher": 0, "##gest": 0, "##alt": 0, "leistungs": 0, "##stark": 0, "Wahls": 0, "herange": 0, "##rl": 0, "anstelle": 4, "Prom": 12, "zufrieden": 0, "kass": 0, "anstatt": 0, "pflanz": 0, "Nutzung": 4, "du": 0, "##gebrauch": 0, "##med": 0, "kurzfristig": 0, "uner": 1, "##fahren": 1, "sofern": 1, "besteht": 1, "Bezugs": 1, "demonstrieren": 1, "Blut": 0, "Modelle": 0, "##rs": 0, "##w\u00e4l": 0, "##zen": 0, "un\u00fcber": 0, "##echsel": 6, "Option": 0, "empfehlen": 0, "Periode": 0, "##auer": 0, "koll": 0, "Ausstellung": 0, "##ions": 6, "##bewusst": 0, "Aufmerksamkeit": 0, "##sl": 0, "##enkung": 0, "Inner": 0, "Di": 0, "##\u00e4t": 0, "Abgeordnete": 0, "Alkohol": 0, "Chemie": 0, "End": 0, "Suf": 0, "##fi": 0, "Lot": 0, "Fle": 0, "##kte": 0, "##quis": 0, "##it": 0, "##ki": 0, "##dest": 0, "##ph": 0, "begleiten": 0, "Sprachen": 0, "##omen": 1, "wel": 0, "Komposition": 0, "Der": 0, "##iva": 0, "##las": 0, "##fon": 0, "##gemeinschaft": 0, "Sil": 0, "##ktive": 0, "technischer": 1, "technisch": 1, "gesprochen": 1, "fehler": 0, "Korrektur": 4, "li": 0, "##zenz": 0, "Monitor": 0, "entschieden": 0, "##ona": 0, "##dens": 0, "##piel": 0, "kalt": 0, "gef": 0, "##\u00fchl": 0, "Metall": 0, "##platte": 0, "ert": 0, "##rinken": 0, "dauern": 0, "Appell": 1, "##bewegung": 0, "Heb": 0, "##bra": 0, "aufmerksam": 0, "Finger": 0, "Studium": 0, "bisher": 0, "vorgehen": 2, "Kontakt": 1, "Pat": 1, "##zer": 1, "Ant": 0, "##ritts": 0, "brem": 0, "Umstand": 0, "Foss": 4, "Abbruch": 0, "Sta": 1, "erworben": 1, "Gegeben": 0, "Zer": 0, "Wachstums": 1, "##still": 1, "besorgt": 1, "##brechen": 0, "##auch": 0, "##marsch": 0, "werfen": 1, "verde": 0, "##utlich": 0, "##hend": 1, "Aufnahme": 1, "##rut": 1, "##scher": 1, "Miss": 0, "##griff": 0, "gleicherma\u00dfen": 0, "##gru": 0, "Defizit": 0, "St\u00e4rke": 0, "Richt": 0, "##schn": 0, "bed": 0, "##\u00fcrf": 0, "Ressourcen": 4, "##blick": 0, "sch\u00e4r": 0, "##\u00fcler": 4, "##freundlich": 2, "##verh": 2, "##alte": 2, "##pit": 0, "Taufe": 1, "heben": 1, "Einsicht": 0, "durchsetzen": 0, "Co": 1, "##ule": 1, "dokumen": 0, "Studie": 0, "Zweit": 0, "Kas": 0, "##bau": 2, "beeinfl": 0, "Kurven": 0, "##fassung": 0, "Test": 0, "extern": 0, "manip": 0, "##uli": 0, "##rate": 2, "##gie": 2, "Vorstellung": 0, "##\u00e4u\u00dfer": 2, "beurteilen": 2, "infrage": 0, "##dia": 2, "##ose": 2, "Ann\u00e4herung": 2, "##treten": 0, "regelm\u00e4\u00dfig": 0, "neutr": 2, "geradezu": 0, "##eing": 1, "##renzung": 1, "Zwischenzeit": 0, "\u00fc": 1, "##pp": 1, "gegen\u00fcber": 0, "x": 1, "##nor": 8, "##ient": 8, "berechnen": 1, "Niederschlag": 1, "flexibel": 0, "Ob": 0, "##serv": 0, "##anz": 0, "Fol": 0, "##ly": 0, "##ruf": 0, "Kriterien": 10, "##\u00e4l": 2, "unum": 0, "##g\u00e4ng": 0, "##la": 1, "kritisieren": 0, "anpassen": 2, "##ios": 0, "##yn": 0, "##kra": 0, "##tisch": 0, "cu": 2, "##ic": 2, "##ular": 2, "##unft": 0, "Vorschrift": 1, "##augen": 1, "\u00fcberzeugt": 0, "Erhebung": 0, "##rf": 0, "22": 0, "##orientierte": 4, "E": 0, "Aller": 0, "Auftritt": 1, "schriftliche": 0, "##gebe": 0, "##isp": 0, "##iel": 0, "##r\u00e4um": 0, "Nachweis": 0, "Gegen": 0, "##ument": 0, "Verw": 2, "##enden": 2, "meiner": 1, "##einer": 1, "basierend": 0, "auswirken": 2, "vorteil": 1, "V": 0, "2007": 0, "##verst\u00e4ndlich": 0, "meine": 0, "Wenig": 0, "##wander": 0, "##ffiz": 0, "R\u00fcckgabe": 0, "Klaus": 0, "Schulzeit": 0, "##f\u00f6rder": 2, "Auseinander": 2, "Gl\u00fccks": 1, "eil": 0, "##tiert": 0, "##abelle": 0, "Halbjahr": 0, "\u00e0": 0, "zukommen": 1, "melden": 0, "sodass": 0, "##wachs": 0, "bekannt": 0, "dien": 0, "##erfolg": 0, "Vergn": 0, "##\u00fcg": 0, "##tour": 0, "##inn": 2, "probieren": 0, "##abell": 0, "Transparenz": 2, "Fraktion": 0, "##quir": 1, "Klar": 0, "Location": 0, "Dauer": 0, "Memor": 0, "sollte": 0, "Bie": 1, "L\u00f6sungs": 0, "Y": 0, "##antie": 0, "##ps": 0, "##ilo": 0, "Leg": 0, "##esp": 0, "Realit\u00e4t": 0, "Math": 0, "Zahl": 0, "verlangen": 0, "Ver": 0, "##r\u00e4ts": 0, "F\u00fc\u00dfen": 0, "##abel": 1, "Entscheiden": 0, "Rubrik": 1, "Matrix": 1, "via": 0, "##ons": 0, "##mor": 0, "##phe": 0, "##herz": 1, "Sy": 1, "Parade": 0, "##bund": 0, "gewachsen": 0, "Konter": 0, "##laden": 0, "##lie": 0, "Einrichtung": 1, "##ithm": 1, "##etische": 1, "Areal": 0, "##komm": 0, "bes": 0, "##orgnis": 0, "signif": 0, "##ikan": 0, "Chi": 0, "M\u00f6bel": 0, "##stellt": 0, "Trupp": 1, "##option": 0, "Erziehungs": 0, "##wert": 0, "##rad": 1, "Ter": 0, "##ici": 0, "##leg": 0, "##isen": 0, "Stol": 0, "Besonderes": 0, "Rechts": 0, "##verordnung": 0, "Eltern": 0, "##haus": 0, "Klick": 0, "Bam": 0, "ihn": 1, "kennt": 1, "satt": 1, "##rot": 1, "wenige": 0, "cle": 0, "##ver": 0, "Behauptung": 0, "aufeinander": 0, "enden": 0, "Schw\u00e4che": 0, "gelegentlich": 0, "Mangel": 1, "##tigen": 0, "Er\u00f6ffnung": 0, "Sorge": 0, "verraten": 0, "Philosophie": 0, "Sens": 0, "##angel": 0, "Standard": 0, "Fal": 0, "##sif": 0, "##izierung": 0, "testen": 0, "##\u00f6nen": 0, "##ora": 0, "W\u00e4sche": 1, "##mangel": 1, "zahlreiche": 0, "##ales": 0, "##uver": 0, "##t\u00fcr": 0, "##bekommen": 0, "beeindruckt": 0, "##grenze": 0, "au\u00dferhalb": 0, "ausschlie\u00dflich": 0, "##\u00fcss": 0, "Fett": 0, "gro\u00dfartig": 0, "##imi": 0, "##nier": 0, "Linie": 0, "Philosoph": 0, "interessant": 1, "##gewicht": 0, "Sal": 0, "##do": 0, "inform": 1, "Theo": 0, "##ret": 0, "##iker": 0, "##ana": 0, "##s\u00e4tzlich": 0, "Standpunkt": 0, "unterm": 0, "##auern": 0, "erh": 1, "##ellen": 1, "Grunde": 0, "##eit": 0, "Vorsicht": 2, "##lt": 2, "Hed": 2, "##ging": 2, "Mitarbeiter": 0, "ausbauen": 2, "Zeugnis": 1, "Organisation": 2, "zus\u00e4tzliche": 0, "Le": 2, "##\u00fcre": 2}}