{"O": {":": 2665, "ye": 15, "##llo": 19, "##w": 138, "_": 464, "cir": 15, "##cle": 15, "3": 319, ")": 2308, "Analyse": 106, "##rahmen": 18, "zur": 15, "Sprach": 335, "##lichkeit": 18, "des": 15, "Fach": 329, "##lernen": 15, "##s": 64, "(": 2155, "angel": 15, "##ehnt": 15, "an": 568, "Ta": 21, "##jm": 21, "##el": 45, "&": 39, "Voll": 57, "##mer": 57, "/": 1016, "Th\u00fcr": 59, "##mann": 61, ";": 208, "Lo": 15, "##hs": 15, "##e": 210, "1": 395, ".": 6485, "Gibt": 131, "es": 1060, "sprach": 239, "##liche": 49, "H\u00fcrden": 0, ",": 7679, "die": 57, "das": 52, "fach": 102, "Lernen": 98, "beh": 18, "##indern": 18, "k\u00f6nnten": 15, "?": 2775, "2": 302, "Lern": 219, "##gelegen": 14, "##heiten": 0, "in": 2011, "der": 9114, "Stunde": 115, "f\u00fcr": 658, "typische": 0, "\u201e": 102, "Ritu": 5, "##ale": 0, "\u201c": 146, "Unterricht": 194, "##liches": 0, "##handel": 27, "##n": 246, "Typ": 38, "##ische": 38, "Disk": 10, "##urs": 10, "##funktionen": 0, "Materialien": 0, "Rezeption": 0, "Mittel": 5, "Produktion": 19, "Zu": 9, "erstellen": 89, "##de": 46, "Texte": 13, "\u2022": 1386, "Muss": 76, "m\u00fcnd": 59, "Unterrichts": 134, "-": 1370, "inter": 37, "##aktion": 5, "gest\u00fctzt": 0, "werden": 1704, "M\u00fc": 38, "##ssen": 38, "SU": 0, "##S": 0, "Informationen": 0, "besch": 7, "##affen": 0, "eine": 139, "Ergebnis": 36, "##pr\u00e4sent": 4, "##ation": 31, "##lich": 430, "Ist": 38, "Met": 34, "##ako": 14, "##mm": 32, "##uni": 36, "##kat": 29, "##ion": 33, "\u00fcber": 213, "##prozess": 0, "geplant": 0, "Wie": 128, "gehe": 0, "ich": 481, "mit": 766, "Fehler": 121, "um": 470, "K\u00f6nnen": 38, "##er": 72, "im": 38, "Laufe": 38, "##funktion": 7, "ein": 2559, "##\u00fcben": 7, "Etwas": 27, "beschreiben": 154, "erkl\u00e4ren": 110, "diskutieren": 33, "aus": 390, "argumen": 57, "##tieren": 72, "oder": 575, "bewerten": 47, "Spiel": 0, "##t": 85, "Text": 340, "##sor": 19, "##te": 18, "Rolle": 64, "deren": 27, "Merkmale": 27, "explizit": 92, "gemacht": 27, "m\u00fcssen": 636, "re": 33, "##zept": 20, "##iven": 0, "Kern": 0, "##wort": 70, "sch": 8, "##atz": 56, "unbekannt": 45, "ist": 27, "Stehen": 0, "bestimmte": 0, "##begriff": 3, "Wort": 119, "##feld": 2, "Zentrum": 6, "Welche": 64, "konkreten": 0, "##schatz": 62, "ben\u00f6tigen": 88, "Sch\u00fcler": 600, "Aufgabe": 411, "zu": 1767, "l\u00f6sen": 14, "Art": 12, "Bereitstellung": 0, "domin": 37, "##ante": 37, "gra": 18, "##atische": 0, "Form": 110, "ben\u00f6tigt": 7, "wird": 0, "typischen": 0, "Rede": 30, "##mittel": 0, "meines": 0, "##es": 30, "k\u00f6nnte": 0, "fokuss": 62, "##ieren": 311, "und": 2778, "##fordern": 52, "Wird": 37, "bestimmtes": 0, "Register": 26, "erfordert": 0, "einzu": 10, "##halten": 48, "struktur": 12, "Kann": 37, "Erste": 2, "##llen": 2, "von": 1017, "##ko": 0, "##h\u00e4re": 0, "##z": 11, "\u201a": 0, "rote": 0, "##r": 7, "Faden": 13, "\u2018": 0, "einge": 0, "##\u00fcbt": 3, "Wann": 37, "##bilden": 24, "##d": 393, "planen": 33, "identifizieren": 0, "sie": 1854, "Aspekt": 67, "schwierig": 21, "sein": 2382, "nennen": 36, "daraus": 31, "folgen": 166, "m\u00f6glich": 208, "##ziel": 34, "=": 3482, "Bedarfs": 0, "##analyse": 6, "+": 68, "##bestimmung": 0, "erl\u00e4u": 24, "##tern": 24, "wie": 877, "dieser": 477, "Schwerpunkt": 2, "konkret": 352, "umgehen": 16, "welche": 210, "Hilfs": 55, "##angebot": 0, "bereits": 152, "##telle": 46, "Zusatz": 18, "##material": 74, "denkbar": 99, "*": 87, "innen": 486, "k\u00f6nnen": 1139, "Kurz": 4, "anhand": 57, "selbst": 227, "produziert": 4, "Plak": 155, "##at": 224, "begr\u00fcnden": 63, "warum": 28, "Milch": 132, "##ku": 49, "##h": 49, "Nutz": 96, "##tier": 96, "Te": 309, "##acher": 309, "fe": 309, "##ed": 323, "##back": 352, "che": 53, "##ck": 53, "mark": 59, "mich": 37, "jetzt": 50, "Teil": 178, "Einheit": 24, "spannend": 4, "noch": 702, "sehen": 113, "kommen": 161, "Ziel": 40, "Klasse": 131, "gemeinsam": 97, "Informations": 26, "##text": 107, "Thema": 228, "lesen": 70, "dabei": 59, "besprechen": 13, "Vor": 116, "##wissen": 66, "aktiv": 34, "Haltung": 35, "Herstellung": 19, "[UNK]": 3047, ">": 276, "hier": 915, "man": 404, "nochmal": 233, "genau": 239, "schauen": 118, "was": 534, "!": 642, "sich": 783, "vorstellen": 33, "einfach": 142, "Plen": 152, "##um": 167, "eher": 134, "Lese": 14, "##stra": 0, "##teg": 0, "##ia": 0, "Leser": 0, "##out": 0, "##ine": 3, "Kind": 786, "eigens": 19, "##t\u00e4": 51, "##nd": 36, "##ig": 209, "Erl": 19, "##esen": 19, "vermitteln": 24, "Artikel": 4, "bei": 455, "Begriff": 58, "denken": 68, "Schlei": 0, "##fe": 7, "##bauen": 82, "euch": 28, "Verlauf": 27, "##produkt": 21, "nun": 83, "gegenseitig": 67, "nutzen": 116, "gern": 109, "##hilfe": 40, "Material": 105, "##the": 7, "##ke": 7, "Stufe": 24, "einzeln": 105, "erst": 199, "dann": 350, "Ende": 94, "produzieren": 22, "herstellen": 19, "Us": 112, "differenz": 15, "##iert": 24, "Satz": 116, "##baus": 7, "##in": 133, "##anfang": 56, "L\u00fccken": 37, "Vorber": 16, "##eiten": 34, "Pr\u00e4sentation": 0, "nicht": 818, "falsch": 79, "aber": 433, "individ": 10, "##ualisiert": 10, "auf": 655, "Differenz": 1, "##ierungs": 13, "stehen": 44, "sollen": 337, "so": 217, "jed": 183, "passend": 24, "Sc": 55, "##aff": 58, "##old": 62, "##suchen": 17, "Aufgaben": 70, "##stellung": 92, "erstmal": 79, "Ok": 18, "wichtig": 98, "wo": 145, "finden": 125, "Hilfe": 52, "Z": 278, "B": 303, "einst": 19, "##eigen": 22, "auch": 898, "##sa": 16, "##ktiv": 22, "##ierung": 37, "n\u00f6tig": 63, "einzig": 27, "relevant": 65, "daf\u00fcr": 33, "ebenfalls": 18, "ob": 54, "wirklich": 46, "Unterschied": 3, "unterschiedlich": 61, "Reihenfolge": 5, "kl\u00e4ren": 14, "ganz": 82, "transparent": 0, "Vari": 0, "oben": 18, "In": 28, "Zwei": 19, "##erte": 19, "##am": 7, "jeweils": 31, "vorgegeben": 9, "Bild": 186, "Pfeil": 31, "Verf\u00fcgung": 20, "stellen": 82, "##\u00fcte": 7, "diver": 11, "Lebensmittel": 7, "quasi": 16, "Proze\u00df": 67, "Produkt": 37, "gut": 326, "Idee": 0, "hoffentlich": 7, "##riften": 7, "lassen": 95, "doch": 39, "super": 7, "Vorgang": 14, "nochmals": 26, "schon": 376, "zeigen": 47, "als": 485, "zus\u00e4tzlich": 48, "wer": 190, "brauchen": 66, "nehmen": 31, "einig": 63, "reichen": 7, "vielleicht": 112, "nur": 461, "##sprach": 65, "Verb": 45, "verstehen": 90, "nach": 93, "Ein": 27, "Partner": 57, "##arbeit": 183, "pr\u00e4sentieren": 11, "also": 142, "klar": 53, "Wiederholung": 26, "##ss": 11, "##ch": 73, "##lei": 31, "gleich": 95, "Auf": 64, "##schreiben": 20, "anfangen": 7, "##ams": 12, "Anordnung": 27, "bestimmen": 31, "##ordnen": 52, "erwarten": 76, "Antwort": 101, "Begr\u00fcndung": 12, "gerade": 157, "fallen": 33, "mir": 248, "schwer": 48, "Mehrwert": 12, "erkennen": 26, "sehr": 204, "anspruchs": 12, "##voll": 13, "ba": 12, "##na": 40, "##l": 199, "weil": 144, "Kuh": 41, "geben": 320, "damit": 189, "K\u00e4se": 12, "machen": 195, "unklar": 3, "Muster": 19, "##l\u00f6sung": 17, "aussehen": 20, "Stelle": 65, "sinnvoll": 98, "Fazit": 92, "insgesamt": 193, "gehen": 267, "richtig": 88, "Richtung": 40, "vorhanden": 46, "allerdings": 41, "kurz": 98, "wieso": 67, "Tier": 61, "fehlen": 185, "stark": 21, "##bindung": 0, "M\u00fcn": 0, "##dlich": 0, "##keit": 29, "ab": 109, "##zielen": 29, "alle": 162, "Fest": 52, "durch": 295, "paar": 31, "Austausch": 37, "##runde": 14, "locker": 29, "ausf\u00fchrlich": 77, "Diskussion": 37, "indem": 106, "Recherche": 29, "Beitrag": 29, "Rinder": 29, "##haltung": 29, "Klimawandel": 29, "usw": 159, "Pod": 29, "##iums": 29, "##disk": 33, "##ussion": 29, "zwischen": 97, "Bauer": 138, "Klima": 29, "##aktiv": 55, "##ist": 29, "Veg": 29, "##aner": 29, "gegeneinander": 29, "vorbereiten": 60, "st\u00fctzen": 31, "nat\u00fcrlich": 107, "da": 142, "Potential": 38, "ihr": 505, "Dreier": 26, "##gruppe": 83, "knapp": 0, "De": 60, "Fac": 59, "##to": 72, "drei": 189, "##aufgabe": 159, "w\u00fcnschen": 79, "##swert": 74, "haben": 618, "Planung": 12, "aufnehmen": 120, "##isieren": 99, "plus": 66, "weit": 217, "Person": 123, "mindestens": 59, "wirken": 53, "etwas": 227, "z": 26, "##\u00f6ger": 0, "trauen": 59, "ruhig": 59, "kre": 67, "##ativer": 59, "innov": 59, "##ativ": 89, "lebendig": 59, "solange": 59, "zentral": 39, "##bildungs": 15, "##prinzip": 6, "Inter": 21, "Ans": 68, "##cha": 78, "##uu": 67, "##ng": 116, "##sm": 75, "##aterial": 65, "Map": 184, "inspir": 59, "https": 75, "mo": 59, "##od": 135, "##le": 108, "##lab": 59, "hu": 59, "ber": 63, "##lin": 63, "de": 99, "mod": 99, "ur": 59, "view": 59, "ph": 59, "##p": 61, "id": 60, "111": 59, "##arbeiten": 9, "Umsetzung": 0, "Se": 9, "##quenz": 18, "Entlastung": 9, "sowie": 62, "\u00c4nderung": 9, "Sozial": 0, "##form": 34, "viele": 16, "umsetzen": 38, "Station": 18, "G": 137, "##gf": 137, "Check": 15, "i": 27, "Warm": 19, "up": 26, "bevor": 25, "verteilen": 53, "dennoch": 60, "vollst\u00e4ndig": 2, "##bildung": 148, "##nu": 0, "##tz": 15, "##en": 211, "##kart": 49, "vorrangig": 18, "##halt": 33, "ohne": 145, "diese": 82, "Formul": 24, "helfen": 68, "meist": 94, "wissen": 119, "ja": 84, "versprach": 30, "##g\u00e4ngig": 6, "all": 186, "Opera": 20, "##tor": 20, "schreiben": 26, "Definition": 52, "el": 27, "##ement": 26, "##ar": 26, "starten": 13, "Karte": 46, "Funktion": 45, "zumindest": 34, "liefern": 13, "versammel": 0, "enthalten": 32, "##speicher": 29, "Bruch": 21, "##teil": 23, "eindeutig": 24, "gr\u00f6\u00dftenteils": 30, "allein": 16, "einige": 33, "Bananen": 13, "##oper": 13, "##ator": 25, "ihnen": 97, "einsch": 13, "##mu": 20, "##gge": 13, "##ln": 25, "\u00fcberhaupt": 66, "keinerlei": 13, "Aussage": 42, "##kraft": 207, "v": 80, "a": 68, "meinen": 51, "passieren": 67, "##zw": 68, "wenn": 318, "Vergleich": 94, "Fall": 77, "dringend": 8, "##raten": 8, "analysieren": 46, "eigen": 183, "Sche": 16, "##ma": 16, "durchge": 8, "##hen": 18, "betrachten": 64, "kritisch": 30, "L\u00f6sung": 62, "lauten": 12, "wiederum": 16, "H\u00fcr": 0, "mein": 230, "vermutlich": 15, "form": 107, "##ulieren": 130, "irgendwie": 20, "vor": 208, "##sal": 9, "ander": 185, "Formulierung": 40, "##shi": 32, "##lf": 32, "\u00dcber": 128, "##legen": 61, "aufs": 0, "##reiben": 1, "erfolgen": 30, "Schrift": 24, "##sprache": 172, "not": 64, "sp\u00e4t": 51, "O": 76, "\u00c4": 23, "wozu": 17, "denn": 34, "sonst": 32, "daran": 53, "schlie\u00dfen": 17, "letzt": 37, "Punkt": 94, "wann": 14, "Feed": 26, "erkennbar": 2, "mittels": 30, "##ta": 17, "##rk": 20, "n\u00fctzlich": 8, "weniger": 18, "Sicht": 7, "schwach": 8, "unsicher": 31, "immer": 92, "gro\u00df": 53, "Herausforderung": 17, "##karte": 50, "Liebe": 98, "Kir": 98, "##sten": 98, "##idee": 10, "viel": 111, "leider": 91, "deutlich": 16, "Beschreibung": 73, "Vogel": 37, "erreichen": 14, "Schwier": 18, "##igkeit": 50, "Deutsch": 50, "hierf\u00fcr": 28, "##sehen": 14, "kn": 14, "##iff": 14, "##lig": 94, "komplex": 43, "vorge": 36, "##ben": 32, "wegen": 14, "hoch": 41, "##an": 17, "##forderung": 32, "sondern": 158, "klein": 112, "arbeiten": 55, "Farbe": 14, "ohnehin": 20, "Farb": 14, "Bestandteil": 26, "minim": 14, "##al": 101, "Anzahl": 21, "Feder": 14, "n": 19, "Schnabel": 28, "Brust": 14, "Steck": 32, "##brief": 32, "wollen": 49, "spontan": 30, "falls": 14, "##stehen": 16, "hoffen": 28, "ber\u00fccksichtigen": 49, "ansonsten": 43, "'": 22, "s": 22, "kla": 23, "##ppen": 47, "vorne": 6, "##weg": 8, "kein": 167, "Entwurf": 6, "4": 217, "mehr": 93, "5": 175, "6": 10, "fr\u00fche": 6, "##stens": 6, "sowohl": 15, "Erwart": 25, "##ung": 157, "anbieten": 12, "vieler": 40, "eingest": 2, "##\u00e4ndig": 2, "anschauen": 2, "vorher": 97, "intensiv": 2, "zurecht": 2, "vollkommen": 4, "au\u00dfen": 6, "##lassen": 5, "Wissens": 0, "##aufbau": 0, "woher": 4, "Info": 22, "Kopf": 4, "dort": 51, "bestehend": 4, "Wissen": 94, "vern": 4, "##etzen": 35, "Problem": 30, "Aus": 4, "##gan": 4, "##listen": 7, "##sicherung": 10, "##besch": 0, "##affung": 0, "hei\u00dfen": 134, "dass": 393, "Rest": 4, "##leiten": 0, "aufbauen": 11, "vergessen": 38, "##dr": 19, "innerhalb": 14, "Gruppe": 98, "Klassen": 24, "##stufe": 9, "Inhalt": 45, "zusammen": 48, "##fassen": 19, "erz\u00e4hlen": 3, "Ebene": 107, "neu": 107, "direkt": 8, "auffallen": 10, "Lesen": 18, "stattfinden": 56, "Versp": 2, "##rach": 2, "Alltags": 46, "statt": 73, "Unterst\u00fctzung": 0, "Bildungs": 40, "Gef\u00fchl": 13, "Moment": 11, "inner": 19, "##sens": 32, "##ib": 54, "daher": 108, "mechan": 6, "##isch": 175, "leb": 2, "##los": 2, "gl\u00fcck": 2, "zer": 6, "##spl": 2, "##ittern": 2, "abstra": 21, "##kt": 25, "Ah": 9, "##a": 17, "verbinden": 29, "Empfehlung": 6, "versuchen": 70, "rund": 6, "Ganze": 15, "Teils": 8, "##ritt": 8, "##orientierung": 5, "verste": 4, "##if": 4, "f\u00fchren": 93, "eben": 4, "Eindruck": 4, "au\u00dferdem": 11, "rau": 4, "##mg": 4, "##reifen": 4, "wir": 310, "gar": 28, "fast": 31, "nichts": 34, "sagen": 35, "bleiben": 50, "dargestellt": 21, "Vorgehensweise": 0, "Hinsicht": 7, "allgemein": 34, "heraus": 4, "##uliert": 12, "Kooperation": 10, "##vern": 0, "##etzung": 0, "Umgang": 29, "Ab": 28, "Drei": 16, "##eck": 18, "Gemeinsam": 16, "vorn": 32, "##oti": 16, "##eren": 56, "m\u00f6gen": 16, "spielen": 52, "gew\u00e4hlt": 10, "zudem": 39, "Vie": 10, "##ee": 62, "R\u00fcck": 24, "##meldung": 24, "grunds\u00e4tzlich": 15, "\u00fcberlegen": 123, "Einstieg": 33, "gestalten": 6, "Aktivit\u00e4t": 68, "inhaltlich": 15, "rot": 16, "bis": 45, "fortsetzen": 10, "h\u00e4ngen": 30, "los": 17, "Raum": 17, "mal": 46, "##be": 16, "##zug": 19, "Fokus": 50, "r\u00fccken": 10, "welcher": 90, "Themenk": 10, "##omp": 10, "##lex": 12, "passen": 14, "danach": 22, "##reihe": 12, "ober": 14, "##fl\u00e4ch": 14, "punkt": 10, "##uell": 39, "betreffen": 20, "Vis": 4, "##ualisierung": 4, "dazu": 203, "Symbol": 19, "Arbeits": 52, "##auftrag": 3, "hinter": 15, "stif": 32, "##ten": 29, "Sprech": 12, "##bl": 12, "##ase": 12, "Einzel": 42, "w\u00e4hlen": 14, "Modus": 0, "Geschichte": 4, "Merkmal": 46, "Jahreszeit": 46, "themat": 34, "unbedingt": 32, "##auf": 39, "##nehmen": 5, "Beispiel": 90, "suchen": 10, "unter": 85, "##ziehen": 21, "legitim": 4, "##ierbar": 4, "ta": 4, "##uschen": 4, "aktiviert": 4, "##lichen": 9, "experimente": 3, "##ll": 6, "Erf": 3, "##ors": 4, "##chen": 23, "##helfen": 18, "Taschen": 3, "##lam": 3, "##pe": 5, "Licht": 11, "##quelle": 3, "Glob": 3, "##us": 7, "Ball": 3, "Information": 3, "Videos": 7, "Tafel": 30, "##bild": 3, "##ungs": 59, "##hor": 25, "##izont": 25, "erg\u00e4nzen": 19, "umf": 3, "##orm": 37, "best": 10, "Methode": 20, "Kontext": 38, "zwei": 33, "Buch": 18, "##seite": 15, "wobei": 32, "Vorbereitung": 13, "Lieblings": 15, "##jahres": 13, "##zeit": 60, "##x": 18, "Sitz": 13, "##kreis": 34, "d\u00fcrfen": 20, "Anfang": 13, "Ursache": 8, "beide": 68, "lau": 10, "##schen": 10, "Hintergrund": 2, "Umlauf": 4, "Kreis": 4, "je": 13, "nachdem": 4, "m\u00f6glichst": 59, "vis": 29, "Syn": 4, "##onym": 4, "Erkl\u00e4r": 4, "experimen": 4, "S": 128, "8": 24, "Seite": 348, "durchs": 8, "##chi": 42, "##mmer": 4, "offenbar": 4, "Experiment": 6, "##ein": 4, "##beziehen": 42, "Experten": 28, "b": 43, "Frage": 203, "verschieden": 88, "Zeit": 26, "anderer": 69, "Suche": 14, "ideal": 23, "sprechen": 62, "Bilder": 10, "##folg": 10, "ggf": 10, "\u00dcbertragung": 10, "Heft": 17, "Abschluss": 10, "Reflex": 10, "##schritt": 2, "di": 0, "##da": 17, "##ktisch": 14, "T": 19, "unten": 28, "anf": 25, "##\u00fcgen": 19, "Kommentar": 43, "ignor": 19, "En": 25, "Klarheit": 19, "dar\u00fcber": 41, "insbesondere": 96, "M\u00f6glichkeit": 51, "Wasser": 21, "##lauf": 21, "verd": 23, "##unsten": 19, "flie\u00dfen": 19, "tats\u00e4chlich": 25, "Denken": 19, "seit": 19, "wenig": 44, "Monat": 19, "lernen": 46, "Kritik": 8, "##punkt": 19, "zwar": 24, "##fertigt": 4, "##mat": 4, "Stichwort": 10, "F\u00fcll": 4, "leisten": 38, "entsprechend": 4, "defen": 9, "##siv": 14, "Motivation": 4, "verlassen": 11, "einmal": 15, "##komplex": 4, "beantworten": 15, "recht": 71, "##ent": 32, "##lastung": 29, "Gruppen": 34, "##dehn": 4, "ents": 4, "##leun": 4, "##igen": 18, "ent": 24, "##lasten": 24, "ansprechen": 5, "Planungs": 12, "hinein": 2, "##schauen": 2, "achten": 15, "einsetzen": 6, "jewei": 80, "Ern\u00e4hrung": 6, "Ding": 10, "Lebe": 9, "##wesen": 9, "Mensch": 22, "essen": 9, "Frucht": 3, "Inse": 3, "Maus": 3, "Fisch": 3, "Nu": 3, "Blatt": 3, "Katalog": 3, "Kategorie": 34, "Lebensraum": 3, "Ort": 3, "leben": 9, "Vorhaben": 20, "ans": 60, "##weise": 69, "jedoch": 69, "ausb": 20, "##\u00e4h": 20, "##wie": 20, "##fern": 20, "urspr\u00fcnglich": 30, "jetz": 40, "k": 0, "##ind": 0, "##gerecht": 0, "motiv": 0, "##ierend": 48, "br\u00fc": 20, "##g": 94, "Komp": 2, "##osit": 0, "Lehr": 275, "##werk": 55, "sch\u00f6n": 41, "\u00dcbung": 23, "No": 24, "##me": 20, "bilden": 29, "Wald": 46, "Am": 20, "##eise": 23, "##ame": 20, "##ise": 20, "fro": 33, "##nt": 36, "##iv": 36, "##aw": 20, "##isse": 20, "win": 28, "##kin": 28, "fac": 28, "##pers": 9, "##pekt": 9, "##ive": 9, "mus": 10, "##ter": 63, "##g\u00fcltig": 10, "Blick": 27, "gelingen": 59, "Darstellung": 24, "Vorgehen": 13, "abl": 32, "##aufen": 14, "ben": 43, "##ennen": 46, "angemessen": 19, "soweit": 8, "doppelt": 8, "gr\u00fcn": 8, "w\u00e4hrend": 32, "##werkstatt": 8, "Grund": 47, "##voraus": 8, "##setzung": 8, "mater": 8, "##ial": 8, "##side": 0, "\u2192": 14, "##igungs": 14, "##stunde": 30, "entstehen": 39, "Zahlen": 24, "##geschichte": 14, "h": 17, "##\u00e4n": 14, "##seln": 14, "sieben": 14, "Leb": 14, "##kuchen": 14, "Gre": 14, "##tel": 14, "25": 31, "Gleich": 20, "aufstellen": 14, "7": 41, "Achtung": 20, "Peer": 24, "##feed": 17, "entfallen": 7, "dir": 14, "heute": 21, "unser": 78, "\u00dcbungs": 12, "Woche": 7, "schlecht": 12, "genauso": 9, "leicht": 26, "hervorragend": 22, "getr": 22, "##ost": 22, "Per": 22, "##fektion": 22, "##ism": 66, "##u": 92, "verb": 50, "##uchen": 27, "Fin": 24, "##et": 28, "wertvoll": 22, "##stand": 6, "besonders": 49, "f\u00e4l": 22, "##len": 34, "string": 0, "them": 22, "##bedingt": 22, "reduzieren": 30, "mathemat": 24, "weiterhin": 37, "versch": 30, "##rift": 53, "Besch": 31, "Reis": 22, "##haufen": 22, "perfekt": 22, "s\u00e4m": 0, "##tlich": 0, "aussch": 3, "##\u00f6pfen": 0, "abweichen": 32, "krei": 9, "mitten": 13, "Wanderung": 9, "##zimmer": 9, "Weg": 61, "sammeln": 39, "Erfahrung": 22, "Plan": 36, "halten": 11, "##stu": 9, "Re": 29, "Orts": 18, "##plan": 35, "Legende": 9, "z\u00e4hlen": 23, "strukturiert": 0, "fein": 0, "Abstra": 9, "##ktions": 9, "##verm\u00f6gen": 9, "Arbeit": 54, "##beschreibung": 16, "Ausflug": 9, "drau\u00dfen": 9, "schlie\u00dflich": 47, "##igung": 10, "Audio": 9, "##aufnahme": 9, "st": 18, "##\u00fcndig": 9, "##einheit": 53, "##fach": 3, "##handlung": 10, "fragen": 15, "Entschuldigung": 2, "links": 2, "rechts": 2, "##biegen": 2, "##as": 2, "Himmels": 2, "##richtung": 2, "n\u00f6rdlich": 2, "\u00f6stlich": 2, "feststellen": 8, "fest": 19, "u": 15, "un": 14, "##kon": 0, "##kret": 0, "g\u00e4ng": 19, "Schritt": 27, "##pro": 54, "##ze\u00df": 54, "vier": 68, "Ablauf": 0, "##arbeitung": 47, "erf\u00fcllen": 19, "Kriterium": 37, "Kreativit\u00e4t": 0, "Bereich": 52, "angehen": 29, "Ideal": 15, "##erweise": 15, "Impuls": 23, "Klein": 40, "bearbeiten": 15, "anschlie\u00dfend": 35, "ord": 17, "##nen": 17, "Herz": 15, "erfassen": 47, "##kod": 17, "zusammengefasst": 15, "hinsichtlich": 15, "kooper": 20, "komplett": 1, "weg": 6, "Doppel": 1, "##seit": 1, "grob": 24, "Aufbau": 0, "traurig": 31, "##heitlich": 0, "##fahrung": 9, "Ha": 18, "##pt": 18, "##ik": 62, "bas": 21, "##teln": 21, "pr\u00e4zise": 19, "##sch": 29, "##k\u00e4": 20, "##rt": 20, "##blatt": 34, "Block": 37, "Prinzip": 27, "erwerben": 69, "Ritter": 142, "##schlag": 33, "Herr": 24, "Page": 24, "##sf": 39, "Lan": 29, "##ze": 29, "Schild": 29, "Mittelalter": 42, "kennenlernen": 47, "erweitern": 24, "beob": 18, "##acht": 18, "##bar": 37, "men": 20, "##tal": 20, "Was": 70, "Verhaltens": 5, "verwenden": 80, "pass": 6, "spezif": 23, "Koll": 12, "##oka": 12, "##tion": 34, "erhalten": 41, "\u201d": 43, "Land": 6, "besitzen": 16, "christ": 6, "Glauben": 6, "erz": 6, "##ieh": 6, "hm": 6, "gew": 0, "##i\u00df": 0, "##sie": 3, "##rung": 2, "##bei": 28, "##gehen": 25, "merken": 37, "spieler": 6, "kombin": 6, "Funktions": 16, "##verb": 15, "##gef\u00fc": 15, "##ge": 6, "Work": 6, "##sh": 12, "Live": 6, "##work": 6, "##ts": 18, "com": 6, "Da": 6, "kinder": 6, "Pr\u00e4": 6, "##itu": 12, "##ms": 6, "Pr\u00e4sen": 6, "##\u00fcbung": 0, "dies": 127, "Gramm": 6, "##atik": 10, "liegen": 35, "mg": 6, "Aktiv": 0, "f\u00f6rdern": 28, "einsam": 6, "##mel": 13, "Sach": 28, "##buch": 39, "gerne": 9, "Kita": 13, "Jahrgang": 11, "##sst": 26, "##ufe": 11, "niedrig": 0, "erm\u00f6glichen": 29, "darauf": 30, "gr\u00fcndlich": 9, "Rollen": 83, "##spiel": 89, "Lebensweise": 30, "Stand": 28, "Verk": 25, "##leidung": 25, "schl\u00fc": 25, "##pfen": 25, "Lebens": 42, "##ums": 25, "##tan": 25, "Beginn": 25, "##gruppen": 25, "ausf\u00fchren": 25, "Rahmen": 25, "Qu": 25, "##atsch": 25, "##phase": 35, "Niveau": 4, "fordern": 25, "ad": 29, "##\u00e4qu": 25, "dienen": 57, "okay": 25, "gefallen": 25, "##nach": 25, "sichern": 0, "am": 51, "Zusammenfassung": 56, "\u00fcbers": 31, "einbringen": 31, "##laufen": 25, "wahrscheinlich": 48, "Vorschlag": 27, "Mal": 25, "dein": 102, "Figur": 125, "##sagen": 33, "verhalten": 25, "ausgest": 25, "##alten": 25, "Dialog": 25, "euer": 29, "Smart": 10, "##board": 10, "darstellen": 19, "typisch": 24, "Ausr\u00fcstung": 5, "##steil": 5, "Pferd": 5, "Schwert": 5, "hac": 5, "##ken": 5, "Schwein": 5, "Getreide": 5, "##durch": 22, "vergleichen": 30, "Variante": 5, "Platz": 8, "Tabl": 5, "klass": 21, "la": 9, "##min": 7, "somit": 44, "unbe": 15, "##wu": 15, "rein": 37, "##bringen": 23, "\u00dcberblick": 15, "##up": 9, "##id": 9, "Team": 18, "##sr": 23, "##ollen": 9, "erarbeiten": 13, "recher": 18, "##muster": 26, "Bauern": 9, "mehrere": 16, "Auswahl": 21, "\u00e4": 9, "analog": 9, "sitzen": 9, "\u00e4hnlich": 2, "Tabelle": 5, "fertig": 2, "##f\u00fcllen": 5, "jederzeit": 2, "holen": 2, "wieder": 40, "unterst\u00fctzen": 0, "Alters": 6, "##pla": 13, "erledigen": 6, "Hin": 8, "##f\u00fchrung": 13, "##enken": 8, "Mega": 8, "##poten": 8, "##tial": 8, "reden": 8, "##denken": 8, "wor": 25, "##h\u00f6ren": 13, "gen\u00fcgend": 8, "##f\u00e4higkeit": 8, "##h\u00e4ngen": 8, "verlieren": 8, "diagnost": 0, "n\u00e4mlich": 8, "##frage": 19, "Reihe": 10, "h\u00f6ren": 16, "##\u00fcchtern": 8, "Kollege": 8, "bezahlen": 8, "##eli": 8, "schl": 15, "##au": 8, "Gespr\u00e4ch": 13, "##anteil": 2, "L": 8, "antworten": 12, "mi": 8, "##\u00df": 8, "##brauch": 8, "Reiz": 8, "##geber": 8, "antwor": 8, "erlauben": 33, "Interview": 16, "Fernsehen": 8, "##regen": 42, "Vortrag": 9, "weiter": 36, "##f\u00fchren": 11, "##tragen": 8, "entdecken": 18, "ind": 8, "##uk": 67, "##tiv": 25, "Tisch": 4, "pro": 20, "bringen": 12, "fassen": 8, "darin": 9, "vermuten": 6, "10": 15, "Min": 15, "Zeitungs": 2, "##artikel": 2, "Aussch": 5, "##nitt": 2, "100": 14, "%": 5, "I": 4, "Mur": 7, "##f\u00e4llig": 8, "##aus": 2, "bestehen": 12, "Leit": 11, "Befra": 2, "##gte": 2, "befragt": 2, "tun": 31, "K\u00e4r": 2, "##tchen": 2, "Chance": 2, "ausmachen": 5, "##schlei": 0, "##arbeitungs": 10, "##m\u00f6glichkeit": 10, "\u00fcben": 63, "##satz": 21, "##lesen": 14, "runter": 10, "##bet": 10, "bereit": 25, "wider": 21, "##spiegel": 6, "##and": 19, "Seminar": 13, "##uns": 17, "##ens": 13, "bauen": 13, "##leistung": 13, "akzeptieren": 13, "umfangreich": 13, "Gedanke": 34, "##splan": 13, "Schilder": 13, "wonach": 13, "Denk": 4, "Holz": 23, "##stern": 23, "Mathematik": 5, "##unterricht": 89, "Anf": 13, "##order": 13, "Forum": 2, "Praxis": 10, "[": 111, "Nur": 17, "Mo": 76, "]": 108, "f\u00fc": 20, "##gen": 43, "For": 17, "##beitrag": 25, "hinzu": 33, "festgestellt": 17, "Element": 13, "gelangen": 6, "24": 47, "Modell": 69, "Kommunikation": 0, "##alisieren": 0, "Sprache": 83, "Sachver": 4, "nachdenken": 8, "Rechn": 0, "kommunizieren": 3, "Rechen": 0, "##ae": 0, "uns": 71, "sorgen": 37, "\u00dcbersch": 18, "##u\u00df": 18, "problematisch": 30, "##liste": 7, "##arbeits": 0, "Kommun": 0, "##izieren": 4, "Summe": 8, "Tee": 4, "##licht": 4, "Ausgabe": 4, "Brett": 4, "add": 4, "verf\u00fcgbar": 42, "Verf\u00fcg": 0, "##mach": 2, "professionell": 8, "erfahren": 10, "Abschnitt": 10, "Sp": 16, "##ick": 33, "##zettel": 16, "Glo": 3, "##ssa": 3, "darum": 39, "H\u00e4lfte": 4, "verbringen": 4, "bild": 14, "F\u00e4higkeit": 14, "ausw\u00e4hlen": 7, "alter": 7, "##sg": 13, "##erecht": 7, "Kurs": 7, "praktisch": 9, "m\u00f6chten": 38, "beitragen": 2, "Erwerb": 2, "Jahr": 3, "Angebot": 3, "##schul": 13, "##bereich": 32, "stetig": 5, "steigen": 5, "scheinen": 3, "nei": 3, "schul": 30, "Alltag": 38, "angesichts": 8, "hor": 7, "##ren": 9, "##ff": 11, "##kos": 7, "Schul": 27, "explod": 7, "frei": 11, "verk": 7, "##\u00e4uf": 7, "Internet": 7, "detaill": 0, "fund": 4, "notwendig": 7, "beschrieben": 4, "##l\u00e4nge": 4, "Problems": 0, "##tell": 0, "##veranstaltung": 4, "pra": 9, "##xis": 4, "##orientiert": 4, "Verkn\u00fc": 4, "##pfung": 4, "9": 19, "##si": 32, "diskrimin": 8, "##krit": 2, "Diver": 32, "Diskriminierung": 16, "Klicken": 7, "herunterladen": 7, "##oo": 7, "##men": 16, "Zusammenhang": 21, "Mehr": 9, "11": 28, "Komponente": 2, "beding": 2, "Sinn": 37, "Bezug": 26, "National": 2, "Repertoire": 4, "##welt": 3, "Familie": 2, "Medium": 9, "##ref": 16, "##ktiert": 14, "ster": 4, "##eo": 7, "##typ": 13, "##geleitet": 4, "Handeln": 25, "Schuls": 3, "##ystem": 3, "##faktor": 7, "sozial": 31, "Herkunft": 10, "nachweisen": 7, "Beh": 0, "##err": 0, "akadem": 7, "Haushalt": 7, "##system": 10, "erfolglos": 7, "\u00dcberzeugung": 0, "auseinander": 24, "##setzen": 24, "Selbst": 22, "Rassismus": 19, "##bezogen": 0, "institution": 2, "##ell": 60, "##literatur": 10, "h\u00e4ufig": 57, "Ausdruck": 15, "tief": 10, "systematisch": 40, "rass": 13, "##istisch": 16, "Struktur": 37, "ansehen": 10, "heu": 2, "##tig": 2, "pla": 6, "Jahrzehnt": 2, "weshalb": 4, "jemand": 8, "zahl": 5, "##reich": 5, "##konstruktion": 16, "Vielzahl": 4, "##dimension": 8, "Individ": 13, "##uum": 13, "Identit\u00e4t": 23, "pr\u00e4gen": 19, "aufgrund": 66, "##behandlung": 12, "##sse": 12, "Ag": 20, "unters": 6, "##agen": 6, "straf": 6, "##rechtlich": 6, "verfolgen": 9, "Rasse": 9, "Ethn": 6, "##ie": 30, "Geschlecht": 6, "Religion": 6, "Welt": 26, "##ans": 30, "Alter": 6, "Behinderung": 6, "sexuell": 6, "Quelle": 20, "##ese": 8, "Berlin": 25, "Gesetz": 6, "Ausgrenzung": 6, "Ph\u00e4nomen": 42, "Ben": 1, "##achteil": 1, "12": 26, "ergeben": 3, "##rel": 3, "##ev": 3, "##ant": 8, "##eg": 0, "##orie": 0, "gezielt": 22, "\u2014": 6, "Tu": 6, "Dresden": 6, "tu": 3, "dre": 3, "##sd": 3, "d": 30, "Schule": 17, "hinaus": 31, "Dimension": 93, "Brand": 24, "Hab": 6, "Beg": 6, "##abu": 6, "Leistungs": 9, "bedeut": 6, "##sam": 6, "He": 6, "##ogen": 6, "##it\u00e4ts": 6, "##merkmale": 6, "2017": 13, "20": 22, "beachten": 0, "Leben": 11, "13": 26, "Lehre": 1, "Position": 15, "##ner": 49, "gesellschaft": 4, "Verh\u00e4ltnis": 1, "##linie": 1, "Methodik": 12, "zumeist": 12, "setzen": 15, "oftmals": 35, "verg": 12, "##egen": 12, "##w\u00e4rtig": 12, "inwieweit": 12, "##real": 15, "##it\u00e4t": 35, "Mit": 12, "weiterer": 14, "korre": 0, "##sp": 0, "##ond": 0, "Folge": 5, "lern": 7, "verh\u00e4lt": 0, "##nis": 0, "ausreichend": 5, "refle": 31, "##ktieren": 31, "##format": 16, "schlimm": 16, "sogar": 23, "Nad": 19, "##ol": 26, "##ny": 16, "Stefan": 16, "2021": 32, "##sek": 23, "##tional": 24, "politisch": 19, "15": 22, "ersch": 7, "##weren": 7, "##kommen": 7, "stets": 26, "Kombination": 7, "auftreten": 7, "##r\u00e4nkt": 0, "geschehen": 14, "Online": 1, "H": 17, "##ttp": 1, "www": 8, "ro": 1, "##ux": 1, "publ": 1, "##ikation": 1, "375": 1, "##78": 1, "##ita": 1, "zuletzt": 1, "pr\u00fcfen": 1, "01": 1, "07": 1, "Besch\u00e4ftigung": 2, "gelten": 38, "P\u00e4dagog": 36, "besch\u00e4ftigen": 31, "Zugeh\u00f6rigkeit": 9, "Spannungs": 0, "##verh\u00e4ltnis": 0, "individuell": 4, "Faktor": 0, "Herrschafts": 0, "##ef": 0, "##fekt": 0, "Mart": 7, "Busch": 7, "\u00ab": 21, "Sub": 7, "##jekt": 7, "\u00bb": 21, "Pers\u00f6nlichkeit": 11, "##sent": 11, "##wicklung": 11, "Lage": 7, "Er": 17, "##achten": 16, "Kompetenz": 24, "Komplexit\u00e4t": 14, "Viel": 16, "##schicht": 16, "Anlehnung": 27, "Andreas": 4, "Fo": 4, "##itz": 4, "vielmehr": 4, "eleg": 4, "scheiter": 4, "14": 11, "Handlungs": 8, "trotz": 4, "##icherheit": 4, "p\u00e4dagog": 22, "Weise": 6, "f\u00f6rder": 20, "Angst": 33, "mei": 14, "##den": 14, "Deb": 14, "Katharina": 14, "Stu": 14, "##ve": 14, "Olaf": 14, "Scheitern": 14, "##heit": 19, "gegen": 28, "Neut": 4, "##ral": 23, "##anst": 1, "##o\u00df": 1, "Wert": 2, "##freiheit": 7, "Grundsatz": 2, "##verst\u00e4ndnis": 2, "metho": 9, "##dis": 9, "Dog": 2, "dauerhaft": 2, "aufta": 2, "Ungleich": 2, "##heits": 2, "priv": 2, "##ileg": 2, "\u2013": 89, "Kosten": 3, "gesteckt": 2, "Regel": 12, "##sprechen": 2, "##uss": 8, "##folger": 7, "zun\u00e4chst": 35, "Wider": 0, "##here": 16, "offen": 9, "Verhalten": 4, "18": 34, "23": 7, "beziehen": 43, "Privileg": 9, "bew": 16, "##ussen": 16, "##ierte": 4, "luxuri": 4, "##\u00f6s": 7, "Situation": 42, "Reduzierung": 4, "Ster": 3, "##isierung": 6, "Gewalt": 1, "Marg": 1, "##ina": 1, "##li": 1, "##rte": 1, "Gut": 1, "lustig": 1, "f\u00fchlen": 9, "Un": 3, "konvention": 3, "Ice": 3, "##rd": 3, "1966": 3, "Haut": 7, "##farbe": 7, "Abstammung": 3, "national": 6, "Ursprung": 3, "Volks": 3, "##tum": 3, "beruhen": 3, "Unterscheidung": 3, "##lie\u00df": 3, "Beschr\u00e4nkung": 3, "Bevor": 3, "dadurch": 9, "##berechtigt": 3, "An": 4, "##erkennen": 3, "Genie\u00dfen": 3, "aus\u00fcben": 3, "Menschen": 3, "##recht": 3, "wirtschaftlich": 3, "kultur": 3, "\u00f6ffentlich": 1, "ver": 1, "##eite": 1, "beeintr\u00e4chtigen": 6, "abs": 3, "bemerken": 9, "Kategor": 3, "entlang": 3, "sog": 3, "aufrechter": 3, "sub": 3, "##jektiv": 3, "Wahrnehmung": 3, "verh": 4, "##\u00e4rten": 3, "impl": 19, "##rasse": 0, "wissenschaft": 4, "halt": 4, "Nach": 4, "##ew": 3, "##erk": 3, "Susan": 3, "Arn": 3, "##dt": 3, "##ja": 3, "Of": 3, "##ua": 3, "##y": 16, "al": 3, "##azar": 3, "vorschlagen": 3, "17": 15, "definieren": 4, "ra": 3, "##cis": 3, "##m": 12, "Pre": 3, "##ju": 3, "##di": 20, "##ce": 7, "Power": 3, "Rass": 0, "##ismen": 0, "##stuf": 17, "Bewertung": 5, "Macht": 11, "##ismus": 0, "geh\u00f6ren": 17, "##willig": 3, "##urteil": 3, "handeln": 3, "echt": 3, "vorliegen": 16, "ungleich": 4, "behandeln": 4, "##leich": 4, "er": 49, "Wei\u00df": 1, "##sein": 3, "bestimmt": 67, "genie\u00dfen": 1, "kontro": 1, "##vers": 1, "unterscheiden": 10, "Abbildung": 15, "Ali": 4, "Val": 4, "##jen": 4, "na": 4, "##zi": 4, "net": 4, "##ap": 4, "Ex": 4, "##kurs": 6, "positiv": 12, "19": 6, "eng": 7, "ethn": 7, "verwandt": 4, "Konzept": 6, "\u00f6fter": 6, "is": 9, "Look": 7, "Aussehen": 7, "##ili": 7, "Gesundheit": 7, "Ad": 12, "##ult": 10, "jung": 7, "Antisemitismus": 7, "Klass": 12, "Schicht": 16, "Tran": 7, "feind": 7, "##kei": 7, "Sex": 7, "Gen": 7, "##der": 7, "##eis": 14, "Alte": 7, "anti": 7, "##mus": 7, "##lim": 7, "Islam": 3, "##feind": 3, "Hom": 7, "##oph": 7, "##obi": 7, "Anti": 3, "##zig": 3, "##ani": 3, "Rom": 3, "Sin": 3, "Lin": 8, "##gu": 10, "##iz": 26, "gewalt": 1, "gering": 3, "Liter": 1, "##alit\u00e4t": 1, "##serfahrung": 1, "nieders": 1, "##lagen": 1, "##weisung": 3, "##f\u00f6rderung": 1, "irre": 4, "##lev": 1, "Ak": 3, "##zent": 8, "Aussprache": 6, "##gew": 1, "##ohn": 1, "wesentlich": 15, "Ot": 2, "##her": 20, "##ing": 90, "Kultur": 4, "##alisierung": 7, "Mech": 3, "##eri": 3, "Dir": 2, "##im": 2, "Mel": 2, "2010": 31, "42": 2, "det": 2, "Erkl\u00e4rung": 39, "Handlung": 9, "Einstellung": 2, "Konflikt": 2, "##sweise": 2, "Dich": 2, "##oto": 2, "##mi": 18, "Zweite": 2, "##il": 2, "Gesellschaft": 2, "Zuge": 2, "##h\u00f6rige": 4, "Nicht": 2, "zuge": 2, "verst\u00e4rkt": 2, "Zusch": 2, "##reibung": 2, "##produz": 2, "bedeuten": 8, "Ru": 4, "ko": 41, "Ne": 4, "##o": 4, "Datei": 4, "vielf\u00e4ltig": 8, "Dialekt": 2, "##\u00e4tzen": 8, "##tritt": 10, "##sem": 12, "##pfe": 10, "##hl": 10, "Gymnasium": 10, "erteilen": 10, "101": 12, "hinweg": 12, "Anerkennung": 3, "mitgebracht": 0, "##ibel": 4, "agieren": 0, "bek\u00e4mpfen": 12, "##pr\u00e4": 0, "##gung": 0, "annehmen": 14, "potenzie": 3, "##eh": 5, "##\u00f6r": 5, "dr\u00fccken": 0, "ohn": 0, "##m\u00e4chtig": 0, "Opfer": 0, "##rolle": 0, "##erb": 1, "##zwei": 0, "##fel": 0, "best\u00e4": 7, "emp": 0, "##ath": 0, "kompens": 0, "Betroffene": 0, "Verfasst": 0, "Fortbildung": 26, "besuchen": 20, "Gesellschafts": 20, "##zusammen": 20, "##hang": 20, "##\u00fcr": 0, "dem": 0, "r": 4, "wecken": 0, "Hoffnung": 0, "sit": 20, "##ui": 43, "##ert": 32, "Lehrer": 3, "##arm": 1, "##losen": 1, "2016": 1, "stand": 1, "web": 1, "p": 26, "##df": 26, "##tu": 25, "do": 9, "or": 1, "wirksam": 22, "Werkzeug": 2, "beispielsweise": 17, "Id": 4, "##b": 8, "##tage": 2, "##freie": 2, "|": 2, "Institut": 2, "Bildung": 17, "generell": 2, "Anlauf": 2, "##stelle": 2, "##klus": 4, "Demokratie": 4, "Wirtschafts": 4, "##unternehmen": 4, "Bew": 16, "##usste": 4, "##reh": 4, "F\u00f6rderung": 4, "sau": 16, "##ul": 4, "##able": 4, "derjenige": 4, "Landes": 4, "##anti": 4, "##rimin": 4, "##gesetz": 4, "62": 4, "##1": 4, "##fu": 4, "##bi": 4, "fu": 8, "bit": 4, "##stream": 4, "hand": 4, "##18": 4, "##8": 4, "169": 4, "##70": 4, "##dg": 4, "se": 7, "##quen": 4, "Isa": 4, "##we": 4, "y": 4, "##sk": 0, "##rit": 0, "unterrichten": 0, "beginnen": 15, "folglich": 10, "kolle": 4, "##gia": 4, "Beratung": 4, "Ereignis": 1, "nachtr\u00e4glich": 1, "k\u00fcnftig": 1, "inkl": 0, "sensi": 0, "##bel": 0, "Gegenstand": 4, "beinhalten": 35, "Schulen": 17, "##tw": 17, "##lung": 17, "demokrat": 5, "Stimme": 5, "##zieht": 5, "bef": 5, "##ragen": 5, "verringern": 0, "Mehrfach": 2, "anerkennen": 0, "oft": 48, "##wirken": 2, "organisieren": 4, "Erzieher": 3, "ihm": 3, "Zugang": 3, "verschaffen": 3, "wert": 3, "##\u00e4tzt": 3, "wahrnehmen": 7, "hin": 2, "##usst": 2, "##sei": 5, "##binden": 2, "fot": 2, "enorm": 2, "beschr\u00e4nken": 6, "21": 99, "sp\u00e4testens": 12, "Sekundar": 14, "bal": 12, "treffen": 12, "meiste": 21, "##rn": 21, "Ausbau": 0, "##kompetenz": 3, "verf\u00fcgen": 16, "gewinnen": 3, "Mithilfe": 3, "Schm": 9, "##\u00f6lzer": 9, "eib": 9, "2006": 9, "179": 9, "Lauf": 14, "sechs": 9, "kon": 0, "##zeption": 0, "vertraut": 0, "separ": 34, "heran": 3, "aufweisen": 3, "##spezif": 3, "erweitert": 3, "Res": 0, "##so": 0, "##urce": 0, "zur\u00fcck": 10, "##greifen": 58, "##alisch": 4, "Bestimmung": 0, "Hindernis": 0, "##planung": 3, "beanspr": 3, "unge": 5, "warten": 3, "Anzeichen": 3, "Ges": 4, "##agte": 4, "##ulierung": 0, "##uen": 4, "stattdessen": 2, "sk": 6, "##izz": 6, "solch": 62, "bew\u00e4ltigen": 0, "Autor": 4, "vorlegen": 4, "##ungsbereich": 14, "##decken": 2, "Ausf\u00fchrung": 9, "Video": 82, "Zweck": 7, "Feld": 0, "##grenzen": 15, "W": 16, "##dh": 14, "Ba": 14, "Genre": 0, "Verst\u00e4ndnis": 12, "schriftlich": 49, "f\u00fcnf": 2, "vorgeschlagen": 2, "##inter": 0, "Vert": 11, "##ief": 11, "##gn": 47, "##itiv": 37, "Operation": 2, "2014": 23, "bezeichnen": 31, "ausgel\u00f6st": 6, "Verbindung": 3, "dahinter": 3, "##struktur": 6, "verarbeiten": 5, "##geben": 19, "invol": 5, "##vier": 5, "##ichern": 2, "dementsprechend": 7, "Festlegung": 0, "festlegen": 3, "##antwort": 6, "erforderlich": 9, "s\u00e4": 3, "vorkommen": 12, "deswegen": 4, "integrieren": 4, "welches": 3, "existieren": 3, "##uster": 0, "##iell": 8, "ka": 6, "##usa": 6, "multi": 3, "Wirkung": 5, "Qualit\u00e4t": 8, "erh\u00f6hen": 25, "Nomin": 5, "Pass": 5, "etc": 27, "pl": 15, "##uri": 24, "##lit": 24, "##era": 24, "##ci": 24, "ec": 14, "##ml": 14, "at": 19, "port": 5, "##als": 5, "54": 5, "##utt": 5, "app": 5, "##ro": 8, "##ach": 5, "into": 5, "##ctic": 5, "##erst": 6, "nah": 1, "bedienen": 11, "Schreiben": 2, "Sprechen": 0, "##p\u00e4dagog": 9, "##ener": 0, "Bearbeitung": 0, "initi": 0, "lenken": 16, "2019": 8, "D": 19, "R": 6, "erfordern": 3, "Chron": 3, "##ologie": 3, "Versuchs": 3, "zuerst": 3, "Vordergrund": 3, "hinten": 3, "ausdr\u00fcck": 7, "Regelung": 3, "Versuch": 18, "##ordnung": 3, "pr\u00fc": 3, "##fungs": 3, "Rep": 3, "##rod": 3, "Transfer": 3, "##organisation": 3, "sicherlich": 13, "Lehren": 6, "verst\u00e4nd": 3, "##bahnen": 3, "gew\u00e4hrleisten": 23, "theoretisch": 0, "Fund": 0, "Referenz": 0, "realisiert": 0, "etwa": 32, "2002": 35, "Tax": 23, "##onom": 23, "##i": 30, "grundlegend": 31, "verschw": 5, "Realisierung": 0, "untersuchen": 1, "indirekt": 6, "##izit": 15, "erscheinen": 23, "meistens": 2, "erwartet": 4, "Inst": 27, "##ru": 27, "##ktion": 27, "16": 29, "Projekt": 12, "Merc": 12, "Zeichen": 2, "int": 36, "vornehmen": 18, "##merk": 0, "##mal": 16, "bewusst": 5, "##sch\u00fcler": 0, "Ca": 37, "zusammenh\u00e4ngen": 0, "##zip": 7, "diesbez\u00fcglich": 4, "erw\u00e4hnt": 10, "##se": 17, "einher": 8, "##gehend": 0, "##\u00fc": 0, "Nam": 9, "Statistik": 9, "Lex": 1, "##ikon": 1, "##eint": 2, "##rag": 2, "W\u00f6rter": 1, "Bra": 1, "##inst": 1, "Mind": 1, "Des": 1, "##cr": 1, "Inhalts": 1, "##wieder": 13, "##gabe": 1, "Sum": 1, "##mar": 1, "##erz": 1, "##\u00e4hl": 1, "Gebrauch": 2, "##san": 2, "Anteil": 7, "User": 1, "Man": 1, "##ual": 14, "diskon": 2, "##tinuier": 2, "Dia": 1, "##gramm": 1, "Bericht": 16, "Zeitung": 1, "Radio": 1, "Fe": 1, "##ature": 1, "Protokoll": 1, "##modell": 2, "Bewerbung": 1, "Expl": 1, "##ain": 1, "Grafik": 3, "Refer": 1, "Hypoth": 1, "begr\u00fcndet": 1, "Vorher": 5, "##sage": 1, "Conc": 1, "##ep": 1, "Argument": 15, "Arg": 1, "##\u00f6rter": 1, "##tat": 1, "Ess": 1, "##ay": 1, "Tra": 1, "Quellen": 1, "Bes": 1, "##innung": 1, "##sau": 1, "##fs": 1, "ev": 14, "##iden": 1, "##zb": 1, "##asi": 1, "Natur": 1, "##wissenschaft": 3, "Interpretation": 1, "##utung": 1, "fik": 1, "viert": 3, "##ige": 3, "##\u00fcndel": 3, "Bachelor": 7, "##re": 6, "##strategie": 0, "Koh": 0, "##\u00e4ren": 0, "Int": 10, "Strategie": 19, "\u00fcblicherweise": 2, "lin": 2, "korrekt": 9, "endlich": 8, "tauchen": 8, "auff\u00e4llig": 8, "##atisch": 14, "kommun": 0, "##ikat": 0, "##sb": 0, "##erei": 0, "##ktik": 3, "##fertig": 3, "Fertig": 2, "m": 6, "##dl": 6, "H\u00f6ren": 0, "gelungen": 3, "ausgehend": 3, "Pl": 9, "A": 22, "Fak": 2, "C": 8, "inne": 5, "##tik": 13, "e": 13, "eignen": 16, "F": 2, "worauf": 2, "legen": 15, "##termin": 2, "Tipp": 16, "zum": 2, "verbessern": 15, "Beweis": 0, "Gelegenheit": 23, "##reichte": 0, "##fort": 0, "messen": 0, "Erg\u00e4nzung": 9, "Gel": 4, "##ernte": 4, "Vermittlung": 0, "##rufen": 5, "steuern": 5, "mer": 7, "##cat": 7, "##or": 7, "con": 7, "##tent": 7, "##lo": 7, "##ads": 7, "allen": 7, "fa": 7, "##ech": 7, "##ern": 10, "Not": 18, "begegnen": 3, "Tag": 3, "Sport": 3, "kennen": 31, "Name": 2, "Begriffs": 3, "##kl\u00e4rung": 3, "zeitlich": 3, "begrenzt": 3, "##ziell": 3, "Unterst\u00fctzungs": 6, "##ker": 3, "f": 3, "2015": 4, "84": 3, "Ger": 0, "##\u00fcst": 0, "selbstst\u00e4ndig": 0, "bewegen": 0, "Pauli": 14, "##ne": 14, "Gib": 24, "##bon": 24, "\u00fcbertragen": 12, "Josef": 12, "leise": 12, "28": 77, "kalk": 22, "hingegen": 23, "##ozi": 13, "Fr": 26, "##ustr": 26, "Zone": 26, "##versuch": 13, "##f\u00fchl": 13, "So": 21, "##das": 21, "optimal": 13, "##situation": 13, "eigentlich": 25, "Aufrechter": 0, "Development": 13, "Offensive": 0, "##praxis": 5, "prinzip": 7, "Instrument": 10, "Erwerbs": 2, "voran": 10, "##melde": 0, "##technische": 0, "zweit": 10, "##ebene": 8, "durchaus": 15, "st\u00e4ndig": 4, "##person": 4, "Reduktion": 1, "zugunsten": 1, "Um": 1, "##kehr": 1, "Front": 1, "lang": 49, "##put": 1, "Mikro": 5, "Mak": 4, "##ros": 4, "##ca": 4, "Phase": 25, "neben": 23, "hierzu": 11, "verst\u00e4ndlich": 0, "##erium": 0, "formuliert": 0, "Teile": 4, "##ment": 4, "Bedarf": 0, "##stands": 10, "##let": 4, "##zt": 4, "aktuell": 8, "ermitteln": 2, "behalten": 0, "genannt": 23, "Geben": 13, "umfassen": 39, "Gesamtheit": 13, "##technik": 0, "##st\u00e4ndigkeit": 0, "Methoden": 2, "##vielfalt": 2, "##sc": 3, "plan": 2, "##gespr\u00e4ch": 14, "unvor": 2, "##gesehen": 2, "##schwier": 2, "Ho": 2, "##c": 2, "reagieren": 20, "hierbei": 8, "Technik": 42, "##kommun": 0, "mitge": 8, "##stal": 8, "unvoll": 2, "##st\u00e4ndig": 2, "Ahnung": 4, "##vor": 4, "vertrauen": 4, "Grundlage": 8, "bieten": 17, "Sog": 25, "##ding": 2, "The": 4, "Lang": 2, "##uage": 2, "Cur": 2, "##ric": 2, "##ulu": 2, "##gl": 6, "121": 1, "##f\u00fchrende": 3, "##rw": 4, "Beachtung": 3, "entwickeln": 6, "wof\u00fcr": 8, "bedenken": 8, "geleitet": 1, "\u00dcbersicht": 1, "Goethe": 1, "inst": 1, "##itut": 1, "Be": 1, "Et": 1, "Al": 1, "35": 17, "beherrschen": 17, "eingesetzt": 17, "Schreib": 18, "besonder": 17, "##verk": 0, "langfristig": 5, "Zuwachs": 0, "bewirken": 7, "##n\u00f6": 7, "sicherstellen": 4, "##disziplin": 4, "Zir": 14, "##kel": 14, "Leistung": 15, "Falle": 2, "Poly": 2, "##ium": 26, "##handen": 2, "Bedeutung": 22, "Kunst": 2, "Ge": 2, "##ometrie": 2, "umso": 5, "Kl\u00e4r": 19, "##\u00e4ltigung": 10, "gerecht": 4, "Tool": 6, "##entscheidung": 2, "Kasten": 3, "gesamt": 23, "##vorgang": 2, "M\u00fcnster": 4, "Wa": 2, "Verlag": 2, "49": 2, "##instrument": 19, "erw\u00e4hnen": 11, "berichten": 4, "Studierende": 2, "Master": 2, "parallel": 2, "laufen": 2, "gestellt": 2, "anders": 2, "inten": 2, "##die": 2, "System": 6, "Konkret": 27, "##isierungs": 27, "##ras": 39, "Hilfsmittel": 6, "geeignet": 6, "sogen": 6, "##annt": 6, "vorab": 4, "Rast": 4, "altern": 2, "befassen": 2, "n\u00e4chst": 2, "Unter": 10, "Grundschule": 4, "sim": 0, "##pel": 0, "Zwischen": 2, "Modul": 4, "##abschluss": 4, "##pr\u00fcfung": 4, "\u00fcbersehen": 10, "Abgabe": 4, "Vorteil": 9, "##proben": 24, "##eignet": 2, "lo": 2, "##hnen": 2, "Verwendung": 2, "Erfinder": 2, "ebenso": 15, "durchf\u00fchren": 2, "verkehren": 8, "Bord": 5, "Erl\u00e4u": 6, "##terung": 6, "##verw": 24, "##endung": 22, "Publikation": 3, "##bene": 13, "Neben": 0, "##s\u00e4tz": 0, "Trick": 6, "##best": 6, "Englisch": 6, "Franz\u00f6sisch": 6, "Erst": 6, "pl\u00f6tzlich": 4, "Deutsche": 4, "##h\u00fc": 0, "herausfinden": 28, "Unterseite": 8, "hilfreich": 17, "##wn": 8, "ar": 8, "##row": 8, "Nutzen": 8, "ange": 8, "##h\u00e4ngt": 8, "P": 8, "dat": 8, "##eie": 8, "Hinweis": 44, "Kollegin": 12, "Dr": 6, "Maria": 12, "Gro\u00dfe": 12, "##gaben": 1, "link": 24, "ti": 24, "frage": 2, "Konzentration": 0, "Schacht": 0, "##els": 0, "Eind": 0, "##eu": 0, "##tigkeit": 0, "##deu": 0, "##fra": 0, "##cht": 0, "Ei": 1, "Erinnerung": 19, "##sw": 19, "ausgew\u00e4hlt": 19, "sc": 0, "Bitte": 32, "Pr\u00e4z": 2, "Zug": 22, "##zwang": 22, "Ziels": 42, "##tr": 42, "##tur": 42, "Kontrast": 0, "##vergleich": 33, "##ingu": 19, "##ling": 13, "##kunft": 15, "\u00c4u\u00dfer": 20, "wiederauf": 35, "korrig": 37, "Wieder": 35, "##holen": 35, "ziel": 2, "##cast": 13, "##wahl": 24, "Aufforderung": 8, "##kor": 5, "##rektur": 5, "Verweis": 26, "Eliz": 13, "##iti": 13, "##erung": 13, "##holung": 12, "Einsatz": 12, "Mi": 16, "##k": 17, "Gest": 16, "26": 93, "Folgende": 12, "Einf\u00fchrung": 17, "##sv": 17, "##ideo": 17, "Daniela": 18, "Rotter": 18, "ow": 24, "##ituation": 0, "##altern": 0, "##ative": 0, "Motiv": 0, "o": 15, "##sz": 3, "##ena": 3, "##rio": 3, "Ma\u00dfnahme": 0, "F\u00fchrung": 0, "erleichtern": 5, "##\u00fchrung": 5, "ber\u00fchren": 5, "veran": 5, "##schau": 5, "gleichzeitig": 3, "person": 5, "Steuerung": 5, "Lei": 5, "##iede": 5, "Nacht": 2, "Unsicherheit": 0, "##wissenschaftler": 6, "Knapp": 6, "beobachten": 11, "vielfach": 6, "\u00fcbersch": 7, "konzentrieren": 14, "##sich": 5, "orientieren": 15, "##tre": 8, "##tags": 6, "nett": 6, "l\u00e4": 6, "##che": 6, "ni": 6, "##cken": 6, "schnell": 24, "unent": 0, "Version": 6, "voll": 10, "par": 8, "##aver": 8, "##bal": 8, "##tem": 0, "##po": 2, "Beton": 0, "##pause": 0, "Beziehung": 9, "##sebene": 9, "Gestaltung": 0, "##gst": 0, "##frei": 0, "##gebung": 0, "ermu": 1, "##nte": 0, "\u00e4u\u00dfern": 2, "ak": 5, "langsam": 5, "gew\u00e4hren": 5, "Werkzeuge": 7, "##schullehrer": 0, "40": 6, "einer": 40, "ziemlich": 0, "zust": 0, "##ehen": 0, "Perspektive": 2, "##arch": 2, "as": 2, "##ym": 2, "##met": 2, "##ris": 2, "sozio": 7, "##kultur": 12, "##theorie": 7, "konstru": 0, "##l\u00f6sen": 9, "erzeugen": 7, "anscheinend": 7, "##erg": 7, "frag": 8, "konstruiert": 8, "traditionell": 8, "##\u00e4g": 3, "##sver": 0, "bitten": 2, "##10": 2, "ver\u00e4ndern": 2, "Zeitpunkt": 19, "verhaf": 2, "##ier": 4, "Vermutung": 2, "Kon": 2, "##junkt": 2, "##11": 1, "Schwe": 1, "##nk": 1, "Akte": 1, "##ur": 8, "natur": 0, "##ug": 0, "Erkenntnis": 0, "verp": 0, "##acken": 0, "Br\u00fccke": 3, "pers\u00f6nlich": 3, "allt\u00e4": 3, "##glich": 3, "Erk": 3, "##skon": 3, "##struktion": 3, "##information": 3, "ann\u00e4h": 3, "##elli": 0, "##atten": 15, "sinn": 0, "##stift": 0, "##end": 0, "vorgestellt": 10, "##xi": 10, "Entwicklung": 10, "einerseits": 2, "konfron": 2, "andererseits": 2, "kaum": 6, "produ": 6, "trennen": 0, "##zeigen": 0, "Cor": 0, "##ction": 0, "eventuell": 11, "blo\u00df": 11, "##stellen": 15, "Interesse": 0, "automatisch": 11, "Sicherheit": 3, "keiner": 3, "Regen": 3, "unauf": 0, "##dring": 0, "nebenbei": 0, "res": 0, "##ns": 0, "##cho": 0, "halb": 11, "Nenn": 2, "anstelle": 0, "Prom": 0, "zufrieden": 10, "bekommen": 6, "anstatt": 1, "Nutzung": 0, "du": 11, "##und": 0, "Themen": 24, "##gebrauch": 24, "##rieb": 24, "##med": 24, "##w\u00e4l": 3, "##zen": 3, "##\u00e4r": 3, "##fen": 13, "##echsel": 0, "Option": 4, "empfehlen": 4, "Periode": 37, "##auer": 4, "Schau": 7, "##ions": 0, "##bewusst": 3, "Aufmerksamkeit": 3, "##sl": 3, "##enkung": 3, "Inner": 4, "Di": 4, "##\u00e4t": 4, "Abgeordnete": 4, "##andt": 2, "##schaft": 2, "Alkohol": 2, "Chemie": 2, "End": 2, "Suf": 3, "##fi": 3, "##quis": 2, "##it": 2, "##ki": 2, "##tt": 2, "##dest": 2, "##ph": 2, "##on": 2, "begleiten": 2, "Sprachen": 1, "##omen": 1, "wel": 1, "Komposition": 1, "Der": 1, "##iva": 1, "aller": 1, "##las": 1, "funktionieren": 1, "Kor": 2, "##ktive": 2, "fehler": 7, "##haft": 7, "Korrektur": 2, "Monitor": 10, "##ona": 4, "wiederholen": 4, "kalt": 6, "Metall": 3, "##platte": 3, "ert": 3, "##rinken": 3, "dauern": 29, "Sekunde": 29, "Hand": 5, "##bewegung": 5, "Heb": 5, "Augen": 5, "##bra": 5, "##ue": 5, "aufmerksam": 5, "Studium": 9, "bisher": 14, "vorgehen": 0, "##lehr": 2, "he": 0, "##mmen": 0, "Umstand": 6, "Foss": 0, "Abbruch": 9, "Sta": 0, "##gna": 3, "erworben": 0, "##brechen": 2, "demnach": 11, "werfen": 0, "verde": 11, "##utlich": 11, "gleicherma\u00dfen": 4, "Defizit": 2, "St\u00e4rke": 2, "Ressourcen": 5, "##blick": 5, "sch\u00e4r": 10, "##\u00fcler": 0, "##freundlich": 0, "##verh": 0, "##alte": 0, "etablieren": 0, "Einsicht": 5, "durchsetzen": 5, "dokumen": 1, "Studie": 2, "Zweit": 1, "Kas": 2, "##bau": 0, "beeinfl": 1, "##rate": 0, "##gie": 0, "Auge": 9, "##\u00e4u\u00dfer": 0, "beurteilen": 11, "herange": 10, "##dia": 10, "##ose": 10, "Ann\u00e4herung": 0, "regelm\u00e4\u00dfig": 5, "neutr": 0, "gegen\u00fcber": 17, "x": 19, "##nor": 0, "##ient": 0, "flexibel": 2, "Fol": 24, "##ien": 12, "##ly": 12, "##ruf": 12, "Kriterien": 12, "verf": 0, "##\u00e4l": 0, "unum": 12, "##g\u00e4ng": 12, "kritisieren": 3, "Zielsetzung": 2, "anpassen": 0, "cu": 0, "##rr": 0, "##ic": 0, "##ular": 0, "davon": 2, "Erhebung": 11, "Anregung": 11, "le": 11, "##hre": 11, "##rf": 11, "##ort": 11, "22": 11, "##orientierte": 0, "E": 11, "Aller": 1, "Verw": 0, "##enden": 0, "basierend": 6, "auswirken": 0, "registrieren": 6, "V": 3, "2007": 3, "##verst\u00e4ndlich": 3, "erinnern": 7, "R\u00fcckgabe": 7, "Klaus": 7, "Schulzeit": 7, "##f\u00f6rder": 0, "Auseinander": 0, "eil": 3, "##tiert": 6, "##abelle": 3, "real": 1, "Halbjahr": 4, "melden": 5, "##art": 5, "sodass": 5, "##zu": 5, "##wachs": 5, "ausgehen": 5, "##inn": 0, "probieren": 3, "##abell": 3, "Transparenz": 0, "Memor": 12, "L\u00f6sungs": 2, "Y": 2, "Leg": 2, "##esp": 2, "##iel": 2, "Realit\u00e4t": 2, "Math": 2, "Zahl": 2, "cle": 4, "##ver": 4, "##wand": 8, "Behauptung": 13, "aufeinander": 4, "enden": 4, "Schw\u00e4che": 4, "Papier": 5, "gelegentlich": 4, "Mangel": 0, "##tigen": 1, "##zentrum": 1, "Anspruch": 1, "Er\u00f6ffnung": 1, "Sorge": 1, "Haupt": 2, "verraten": 1, "Philosophie": 1, "Sache": 1, "Sens": 1, "Erm": 1, "##angel": 1, "Standard": 1, "beeindruckt": 3, "pr\u00e4": 3, "##grenze": 3, "verdienen": 3, "au\u00dferhalb": 3, "Absatz": 3, "ausschlie\u00dflich": 3, "##\u00fcss": 1, "Fett": 1, "Auftrag": 1, "gro\u00dfartig": 1, "##imi": 1, "##nier": 1, "Linie": 1, "Philosoph": 3, "interessant": 0, "inform": 0, "Theo": 6, "##ret": 6, "##iker": 6, "##ana": 6, "anwenden": 6, "##s\u00e4tzlich": 6, "Standpunkt": 6, "unterm": 6, "##auern": 6, "Vorsicht": 0, "wa": 0, "##lt": 0, "Hed": 0, "##ging": 0, "Schluss": 0, "Mitarbeiter": 1, "ausbauen": 6, "bed": 2, "##\u00fcrf": 2, "wohin": 3, "Organisation": 0, "Le": 0, "##\u00fcre": 0}, "Feedback_Criteria": {":": 134, "ye": 0, "##llo": 0, "##w": 0, "_": 60, "cir": 0, "##cle": 0, "3": 0, ")": 378, "Analyse": 41, "##rahmen": 23, "zur": 0, "Sprach": 724, "##lichkeit": 19, "des": 69, "Fach": 300, "##lernen": 0, "##s": 23, "(": 378, "angel": 0, "##ehnt": 0, "an": 162, "Ta": 0, "##jm": 0, "##el": 0, "&": 0, "Voll": 0, "##mer": 0, "/": 144, "Th\u00fcr": 0, "##mann": 0, ";": 0, "Lo": 0, "##hs": 0, "##e": 132, "1": 0, ".": 38, "Gibt": 0, "es": 28, "sprach": 1688, "##liche": 106, "H\u00fcrden": 15, ",": 345, "die": 37, "das": 0, "fach": 164, "Lernen": 52, "beh": 0, "##indern": 0, "k\u00f6nnten": 0, "?": 0, "2": 72, "Lern": 361, "##gelegen": 20, "##heiten": 15, "in": 505, "der": 1186, "Stunde": 26, "f\u00fcr": 206, "typische": 69, "\u201e": 183, "Ritu": 15, "##ale": 15, "\u201c": 183, "Unterricht": 117, "##liches": 38, "##handel": 38, "##n": 297, "Typ": 0, "##ische": 0, "Disk": 306, "##urs": 306, "##funktionen": 38, "Materialien": 38, "Rezeption": 44, "Mittel": 197, "Produktion": 44, "Zu": 61, "erstellen": 55, "##de": 210, "Texte": 38, "\u2022": 0, "Muss": 0, "m\u00fcnd": 145, "Unterrichts": 249, "-": 246, "inter": 48, "##aktion": 209, "gest\u00fctzt": 76, "werden": 71, "M\u00fc": 0, "##ssen": 0, "SU": 38, "##S": 38, "Informationen": 38, "besch": 66, "##affen": 66, "eine": 54, "Ergebnis": 168, "##pr\u00e4sent": 82, "##ation": 86, "##lich": 1832, "Ist": 0, "Met": 82, "##ako": 62, "##mm": 123, "##uni": 62, "##kat": 72, "##ion": 161, "\u00fcber": 89, "##prozess": 38, "geplant": 48, "Wie": 0, "gehe": 38, "ich": 151, "mit": 283, "Fehler": 213, "um": 47, "K\u00f6nnen": 13, "##er": 18, "im": 27, "Laufe": 0, "##funktion": 261, "ein": 374, "##\u00fcben": 83, "Etwas": 0, "beschreiben": 0, "erkl\u00e4ren": 36, "diskutieren": 0, "aus": 58, "argumen": 0, "##tieren": 0, "oder": 87, "bewerten": 12, "Spiel": 40, "##t": 160, "Text": 359, "##sor": 121, "##te": 31, "Rolle": 27, "deren": 0, "Merkmale": 0, "explizit": 0, "gemacht": 0, "m\u00fcssen": 6, "re": 30, "##zept": 53, "##iven": 27, "Kern": 38, "##wort": 74, "sch": 45, "##atz": 51, "unbekannt": 0, "ist": 0, "Stehen": 27, "bestimmte": 27, "##begriff": 116, "Wort": 174, "##feld": 45, "Zentrum": 27, "Welche": 0, "konkreten": 27, "##schatz": 108, "ben\u00f6tigen": 27, "Sch\u00fcler": 220, "Aufgabe": 109, "zu": 802, "l\u00f6sen": 0, "Art": 50, "Bereitstellung": 56, "domin": 12, "##ante": 0, "gra": 61, "##atische": 37, "Form": 116, "ben\u00f6tigt": 37, "wird": 37, "typischen": 37, "Rede": 159, "##mittel": 144, "meines": 37, "##es": 37, "k\u00f6nnte": 37, "fokuss": 59, "##ieren": 285, "und": 500, "##fordern": 65, "Wird": 0, "bestimmtes": 37, "Register": 40, "erfordert": 37, "einzu": 37, "##halten": 50, "struktur": 57, "Kann": 0, "Erste": 81, "##llen": 81, "von": 390, "##ko": 81, "##h\u00e4re": 87, "##z": 84, "\u201a": 81, "rote": 37, "##r": 37, "Faden": 96, "\u2018": 81, "einge": 37, "##\u00fcbt": 37, "Wann": 0, "##bilden": 225, "##d": 301, "planen": 12, "identifizieren": 26, "sie": 56, "Aspekt": 48, "schwierig": 24, "sein": 107, "nennen": 0, "daraus": 0, "folgen": 0, "m\u00f6glich": 6, "##ziel": 80, "=": 0, "Bedarfs": 135, "##analyse": 182, "+": 0, "##bestimmung": 12, "erl\u00e4u": 0, "##tern": 0, "wie": 35, "dieser": 101, "Schwerpunkt": 35, "konkret": 42, "umgehen": 46, "welche": 167, "Hilfs": 10, "##angebot": 9, "bereits": 45, "##telle": 41, "Zusatz": 2, "##material": 33, "denkbar": 0, "*": 18, "innen": 146, "k\u00f6nnen": 87, "Kurz": 0, "anhand": 0, "selbst": 0, "produziert": 0, "Plak": 0, "##at": 0, "begr\u00fcnden": 0, "warum": 0, "Milch": 0, "##ku": 0, "##h": 0, "Nutz": 0, "##tier": 0, "Te": 0, "##acher": 0, "fe": 17, "##ed": 17, "##back": 228, "che": 0, "##ck": 0, "mark": 0, "mich": 0, "jetzt": 14, "Teil": 22, "Einheit": 0, "spannend": 0, "noch": 116, "sehen": 10, "kommen": 0, "Ziel": 88, "Klasse": 0, "gemeinsam": 16, "Informations": 17, "##text": 0, "Thema": 71, "lesen": 26, "dabei": 18, "besprechen": 38, "Vor": 163, "##wissen": 157, "aktiv": 93, "Haltung": 11, "Herstellung": 0, "[UNK]": 1004, ">": 0, "hier": 19, "man": 27, "nochmal": 18, "genau": 21, "schauen": 0, "was": 78, "!": 0, "sich": 19, "vorstellen": 19, "einfach": 7, "Plen": 0, "##um": 9, "eher": 6, "Lese": 21, "##stra": 21, "##teg": 21, "##ia": 21, "Leser": 19, "##out": 19, "##ine": 19, "Kind": 65, "eigens": 30, "##t\u00e4": 80, "##nd": 30, "##ig": 95, "Erl": 0, "##esen": 0, "vermitteln": 0, "Artikel": 24, "bei": 50, "Begriff": 288, "denken": 78, "Schlei": 7, "##fe": 17, "##bauen": 37, "euch": 0, "Verlauf": 70, "##produkt": 80, "nun": 0, "gegenseitig": 0, "nutzen": 18, "gern": 0, "##hilfe": 226, "Material": 81, "##the": 0, "##ke": 0, "Stufe": 0, "einzeln": 20, "erst": 25, "dann": 0, "Ende": 0, "produzieren": 0, "herstellen": 0, "Us": 0, "differenz": 49, "##iert": 53, "Satz": 2, "##baus": 0, "##in": 19, "##anfang": 0, "L\u00fccken": 0, "Vorber": 0, "##eiten": 0, "Pr\u00e4sentation": 188, "nicht": 117, "falsch": 41, "aber": 37, "individ": 0, "##ualisiert": 0, "auf": 167, "Differenz": 55, "##ierungs": 75, "stehen": 29, "sollen": 17, "so": 42, "jed": 0, "passend": 52, "Sc": 101, "##aff": 191, "##old": 245, "##suchen": 0, "Aufgaben": 178, "##stellung": 201, "erstmal": 0, "Ok": 0, "wichtig": 13, "wo": 8, "finden": 16, "Hilfe": 280, "Z": 0, "B": 5, "einst": 19, "##eigen": 19, "auch": 58, "##sa": 71, "##ktiv": 71, "##ierung": 275, "n\u00f6tig": 0, "einzig": 0, "relevant": 2, "daf\u00fcr": 0, "ebenfalls": 0, "ob": 12, "wirklich": 0, "Unterschied": 0, "unterschiedlich": 0, "Reihenfolge": 0, "kl\u00e4ren": 9, "ganz": 18, "transparent": 51, "Vari": 4, "oben": 0, "In": 0, "Zwei": 0, "##erte": 0, "##am": 0, "jeweils": 0, "vorgegeben": 0, "Bild": 0, "Pfeil": 0, "Verf\u00fcgung": 33, "stellen": 76, "##\u00fcte": 0, "diver": 7, "Lebensmittel": 0, "quasi": 0, "Proze\u00df": 4, "Produkt": 63, "gut": 31, "Idee": 349, "hoffentlich": 0, "##riften": 0, "lassen": 9, "doch": 0, "super": 0, "Vorgang": 0, "nochmals": 0, "schon": 27, "zeigen": 29, "als": 22, "zus\u00e4tzlich": 0, "wer": 0, "brauchen": 0, "nehmen": 0, "einig": 17, "reichen": 0, "vielleicht": 0, "nur": 18, "##sprach": 112, "Verb": 0, "verstehen": 65, "nach": 11, "Ein": 48, "Partner": 0, "##arbeit": 0, "pr\u00e4sentieren": 93, "also": 0, "klar": 232, "Wiederholung": 0, "##ss": 12, "##ch": 40, "##lei": 0, "gleich": 0, "Auf": 0, "##schreiben": 0, "anfangen": 0, "##ams": 0, "Anordnung": 0, "bestimmen": 10, "##ordnen": 0, "erwarten": 14, "Antwort": 9, "Begr\u00fcndung": 0, "gerade": 0, "fallen": 0, "mir": 0, "schwer": 8, "Mehrwert": 0, "erkennen": 52, "sehr": 46, "anspruchs": 0, "##voll": 0, "ba": 0, "##na": 0, "##l": 84, "weil": 0, "Kuh": 0, "geben": 33, "damit": 9, "K\u00e4se": 0, "machen": 9, "unklar": 56, "Muster": 50, "##l\u00f6sung": 44, "aussehen": 12, "Stelle": 49, "sinnvoll": 12, "Fazit": 0, "insgesamt": 33, "gehen": 0, "richtig": 29, "Richtung": 13, "vorhanden": 49, "allerdings": 6, "kurz": 0, "wieso": 17, "Tier": 0, "fehlen": 0, "stark": 38, "##bindung": 29, "M\u00fcn": 29, "##dlich": 29, "##keit": 46, "ab": 4, "##zielen": 0, "alle": 0, "Fest": 0, "durch": 100, "paar": 0, "Austausch": 41, "##runde": 15, "locker": 0, "ausf\u00fchrlich": 17, "Diskussion": 13, "indem": 0, "Recherche": 0, "Beitrag": 0, "Rinder": 0, "##haltung": 0, "Klimawandel": 0, "usw": 0, "Pod": 0, "##iums": 0, "##disk": 0, "##ussion": 0, "zwischen": 0, "Bauer": 0, "Klima": 0, "##aktiv": 10, "##ist": 0, "Veg": 0, "##aner": 0, "gegeneinander": 0, "vorbereiten": 0, "st\u00fctzen": 95, "nat\u00fcrlich": 0, "da": 0, "Potential": 45, "ihr": 129, "Dreier": 33, "##gruppe": 45, "knapp": 142, "De": 0, "Fac": 0, "##to": 0, "drei": 0, "##aufgabe": 35, "w\u00fcnschen": 0, "##swert": 0, "haben": 31, "Planung": 150, "aufnehmen": 0, "##isieren": 15, "plus": 0, "weit": 21, "Person": 0, "mindestens": 0, "wirken": 33, "etwas": 76, "z": 59, "##\u00f6ger": 59, "trauen": 0, "ruhig": 0, "kre": 0, "##ativer": 0, "innov": 0, "##ativ": 15, "lebendig": 0, "solange": 0, "zentral": 72, "##bildungs": 84, "##prinzip": 70, "Inter": 138, "Ans": 0, "##cha": 0, "##uu": 0, "##ng": 0, "##sm": 3, "##aterial": 0, "Map": 0, "inspir": 0, "https": 0, "mo": 0, "##od": 0, "##le": 0, "##lab": 0, "hu": 0, "ber": 0, "##lin": 0, "de": 0, "mod": 15, "ur": 0, "view": 0, "ph": 0, "##p": 0, "id": 0, "111": 0, "##arbeiten": 0, "Umsetzung": 17, "Se": 6, "##quenz": 6, "Entlastung": 9, "sowie": 0, "\u00c4nderung": 0, "Sozial": 80, "##form": 117, "viele": 0, "umsetzen": 3, "Station": 0, "G": 16, "##gf": 16, "Check": 0, "i": 15, "Warm": 0, "up": 0, "bevor": 0, "verteilen": 0, "dennoch": 0, "vollst\u00e4ndig": 18, "##bildung": 26, "##nu": 18, "##tz": 18, "##en": 90, "##kart": 0, "vorrangig": 0, "##halt": 29, "ohne": 18, "diese": 18, "Formul": 5, "helfen": 15, "meist": 0, "wissen": 40, "ja": 0, "versprach": 0, "##g\u00e4ngig": 0, "all": 27, "Opera": 268, "##tor": 268, "schreiben": 26, "Definition": 4, "el": 4, "##ement": 4, "##ar": 4, "starten": 0, "Karte": 0, "Funktion": 0, "zumindest": 0, "liefern": 0, "versammel": 13, "enthalten": 0, "##speicher": 25, "Bruch": 0, "##teil": 0, "eindeutig": 23, "gr\u00f6\u00dftenteils": 0, "allein": 0, "einige": 0, "Bananen": 0, "##oper": 0, "##ator": 0, "ihnen": 14, "einsch": 9, "##mu": 0, "##gge": 0, "##ln": 0, "\u00fcberhaupt": 62, "keinerlei": 0, "Aussage": 0, "##kraft": 37, "v": 5, "a": 0, "meinen": 0, "passieren": 0, "##zw": 5, "wenn": 0, "Vergleich": 0, "Fall": 0, "dringend": 0, "##raten": 0, "analysieren": 0, "eigen": 25, "Sche": 0, "##ma": 0, "durchge": 0, "##hen": 4, "betrachten": 0, "kritisch": 2, "L\u00f6sung": 0, "lauten": 0, "wiederum": 0, "H\u00fcr": 90, "mein": 0, "vermutlich": 0, "form": 6, "##ulieren": 6, "irgendwie": 0, "vor": 3, "##sal": 0, "ander": 7, "Formulierung": 77, "##shi": 41, "##lf": 41, "\u00dcber": 49, "##legen": 11, "aufs": 17, "##reiben": 17, "erfolgen": 14, "Schrift": 49, "##sprache": 157, "not": 0, "sp\u00e4t": 0, "O": 0, "\u00c4": 0, "wozu": 0, "denn": 0, "sonst": 0, "daran": 0, "schlie\u00dfen": 0, "letzt": 0, "Punkt": 6, "wann": 17, "Feed": 211, "erkennbar": 17, "mittels": 0, "##ta": 0, "##rk": 20, "n\u00fctzlich": 0, "weniger": 0, "Sicht": 8, "schwach": 12, "unsicher": 0, "immer": 0, "gro\u00df": 0, "Herausforderung": 28, "##karte": 0, "Liebe": 0, "Kir": 0, "##sten": 0, "##idee": 34, "viel": 55, "leider": 13, "deutlich": 60, "Beschreibung": 0, "Vogel": 0, "erreichen": 0, "Schwier": 3, "##igkeit": 23, "Deutsch": 0, "hierf\u00fcr": 0, "##sehen": 0, "kn": 0, "##iff": 0, "##lig": 5, "komplex": 0, "vorge": 0, "##ben": 20, "wegen": 0, "hoch": 33, "##an": 69, "##forderung": 30, "sondern": 0, "klein": 56, "arbeiten": 0, "Farbe": 0, "ohnehin": 0, "Farb": 0, "Bestandteil": 0, "minim": 0, "##al": 17, "Anzahl": 0, "Feder": 0, "n": 0, "Schnabel": 0, "Brust": 0, "Steck": 0, "##brief": 0, "wollen": 0, "spontan": 0, "falls": 0, "##stehen": 0, "hoffen": 0, "ber\u00fccksichtigen": 23, "ansonsten": 0, "'": 0, "s": 0, "kla": 0, "##ppen": 0, "vorne": 0, "##weg": 35, "kein": 0, "Entwurf": 0, "4": 0, "mehr": 0, "5": 0, "6": 0, "fr\u00fche": 0, "##stens": 0, "sowohl": 0, "Erwart": 10, "##ung": 261, "anbieten": 6, "vieler": 0, "eingest": 0, "##\u00e4ndig": 0, "anschauen": 0, "vorher": 0, "intensiv": 0, "zurecht": 0, "vollkommen": 0, "au\u00dfen": 0, "##lassen": 0, "Wissens": 30, "##aufbau": 27, "woher": 11, "Info": 0, "Kopf": 0, "dort": 0, "bestehend": 0, "Wissen": 103, "vern": 0, "##etzen": 0, "Problem": 0, "Aus": 23, "##gan": 0, "##listen": 0, "##sicherung": 16, "##besch": 17, "##affung": 17, "hei\u00dfen": 0, "dass": 11, "Rest": 0, "##leiten": 10, "aufbauen": 34, "vergessen": 5, "##dr": 0, "innerhalb": 0, "Gruppe": 0, "Klassen": 0, "##stufe": 0, "Inhalt": 18, "zusammen": 0, "##fassen": 0, "erz\u00e4hlen": 0, "Ebene": 0, "neu": 52, "direkt": 16, "auffallen": 0, "Lesen": 62, "stattfinden": 0, "Versp": 15, "##rach": 15, "Alltags": 24, "statt": 120, "Unterst\u00fctzung": 56, "Bildungs": 38, "Gef\u00fchl": 0, "Moment": 0, "inner": 0, "##sens": 84, "##ib": 72, "daher": 0, "mechan": 0, "##isch": 118, "leb": 0, "##los": 0, "gl\u00fcck": 0, "zer": 0, "##spl": 0, "##ittern": 0, "abstra": 3, "##kt": 8, "Ah": 0, "##a": 20, "verbinden": 0, "Empfehlung": 0, "versuchen": 0, "rund": 0, "Ganze": 0, "Teils": 0, "##ritt": 0, "##orientierung": 8, "verste": 0, "##if": 0, "f\u00fchren": 9, "eben": 0, "Eindruck": 12, "au\u00dferdem": 0, "rau": 0, "##mg": 0, "##reifen": 0, "wir": 16, "gar": 0, "fast": 0, "nichts": 0, "sagen": 0, "bleiben": 10, "dargestellt": 0, "Vorgehensweise": 43, "Hinsicht": 21, "allgemein": 21, "heraus": 28, "##uliert": 3, "Kooperation": 16, "##vern": 15, "##etzung": 15, "Umgang": 53, "Ab": 0, "Drei": 0, "##eck": 0, "Gemeinsam": 0, "vorn": 0, "##oti": 0, "##eren": 0, "m\u00f6gen": 0, "spielen": 0, "gew\u00e4hlt": 0, "zudem": 0, "Vie": 0, "##ee": 0, "R\u00fcck": 9, "##meldung": 5, "grunds\u00e4tzlich": 0, "\u00fcberlegen": 4, "Einstieg": 40, "gestalten": 50, "Aktivit\u00e4t": 3, "inhaltlich": 44, "rot": 59, "bis": 0, "fortsetzen": 0, "h\u00e4ngen": 0, "los": 0, "Raum": 0, "mal": 72, "##be": 24, "##zug": 21, "Fokus": 25, "r\u00fccken": 0, "welcher": 49, "Themenk": 0, "##omp": 0, "##lex": 87, "passen": 22, "danach": 0, "##reihe": 0, "ober": 0, "##fl\u00e4ch": 0, "punkt": 0, "##uell": 23, "betreffen": 0, "Vis": 7, "##ualisierung": 7, "dazu": 0, "Symbol": 0, "Arbeits": 135, "##auftrag": 70, "hinter": 0, "stif": 0, "##ten": 0, "Sprech": 36, "##bl": 0, "##ase": 0, "Einzel": 0, "w\u00e4hlen": 12, "Modus": 12, "Geschichte": 0, "Merkmal": 10, "Jahreszeit": 0, "themat": 0, "unbedingt": 0, "##auf": 12, "##nehmen": 12, "Beispiel": 0, "suchen": 0, "unter": 40, "##ziehen": 0, "legitim": 0, "##ierbar": 0, "ta": 0, "##uschen": 0, "aktiviert": 0, "##lichen": 0, "experimente": 0, "##ll": 0, "Erf": 0, "##ors": 0, "##chen": 0, "##helfen": 0, "Taschen": 0, "##lam": 0, "##pe": 0, "Licht": 0, "##quelle": 0, "Glob": 0, "##us": 16, "Ball": 0, "Information": 28, "Videos": 0, "Tafel": 0, "##bild": 0, "##ungs": 66, "##hor": 4, "##izont": 4, "erg\u00e4nzen": 0, "umf": 0, "##orm": 18, "best": 0, "Methode": 81, "Kontext": 24, "zwei": 0, "Buch": 0, "##seite": 0, "wobei": 0, "Vorbereitung": 0, "Lieblings": 0, "##jahres": 0, "##zeit": 8, "##x": 0, "Sitz": 0, "##kreis": 0, "d\u00fcrfen": 0, "Anfang": 0, "Ursache": 13, "beide": 12, "lau": 0, "##schen": 19, "Hintergrund": 0, "Umlauf": 0, "Kreis": 0, "je": 0, "nachdem": 0, "m\u00f6glichst": 35, "vis": 0, "Syn": 0, "##onym": 0, "Erkl\u00e4r": 0, "experimen": 0, "S": 0, "8": 0, "Seite": 0, "durchs": 0, "##chi": 0, "##mmer": 0, "offenbar": 0, "Experiment": 0, "##ein": 0, "##beziehen": 0, "Experten": 0, "b": 20, "Frage": 128, "verschieden": 24, "Zeit": 0, "anderer": 0, "Suche": 0, "ideal": 9, "sprechen": 22, "Bilder": 0, "##folg": 0, "ggf": 0, "\u00dcbertragung": 0, "Heft": 0, "Abschluss": 0, "Reflex": 19, "##schritt": 85, "di": 45, "##da": 45, "##ktisch": 45, "T": 0, "unten": 0, "anf": 0, "##\u00fcgen": 0, "Kommentar": 0, "ignor": 0, "En": 0, "Klarheit": 28, "dar\u00fcber": 0, "insbesondere": 0, "M\u00f6glichkeit": 0, "Wasser": 0, "##lauf": 8, "verd": 0, "##unsten": 0, "flie\u00dfen": 0, "tats\u00e4chlich": 0, "Denken": 46, "seit": 0, "wenig": 8, "Monat": 0, "lernen": 0, "Kritik": 0, "##punkt": 0, "zwar": 15, "##fertigt": 0, "##mat": 0, "Stichwort": 0, "F\u00fcll": 0, "leisten": 0, "entsprechend": 0, "defen": 5, "##siv": 5, "Motivation": 0, "verlassen": 0, "einmal": 0, "##komplex": 0, "beantworten": 0, "recht": 0, "##ent": 22, "##lastung": 0, "Gruppen": 18, "##dehn": 0, "ents": 0, "##leun": 0, "##igen": 0, "ent": 0, "##lasten": 0, "ansprechen": 0, "Planungs": 3, "hinein": 0, "##schauen": 0, "achten": 0, "einsetzen": 22, "jewei": 5, "Ern\u00e4hrung": 0, "Ding": 0, "Lebe": 0, "##wesen": 0, "Mensch": 0, "essen": 0, "Frucht": 0, "Inse": 0, "Maus": 0, "Fisch": 0, "Nu": 0, "Blatt": 0, "Katalog": 0, "Kategorie": 23, "Lebensraum": 0, "Ort": 0, "leben": 0, "Vorhaben": 0, "ans": 0, "##weise": 27, "jedoch": 0, "ausb": 0, "##\u00e4h": 0, "##wie": 0, "##fern": 0, "urspr\u00fcnglich": 0, "jetz": 0, "k": 20, "##ind": 20, "##gerecht": 20, "motiv": 36, "##ierend": 52, "br\u00fc": 0, "##g": 0, "Komp": 20, "##osit": 20, "Lehr": 53, "##werk": 0, "sch\u00f6n": 0, "\u00dcbung": 0, "No": 0, "##me": 0, "bilden": 0, "Wald": 0, "Am": 0, "##eise": 0, "##ame": 0, "##ise": 0, "fro": 0, "##nt": 6, "##iv": 22, "##aw": 0, "##isse": 0, "win": 0, "##kin": 0, "fac": 0, "##pers": 3, "##pekt": 3, "##ive": 3, "mus": 0, "##ter": 48, "##g\u00fcltig": 0, "Blick": 45, "gelingen": 0, "Darstellung": 34, "Vorgehen": 22, "abl": 0, "##aufen": 0, "ben": 0, "##ennen": 0, "angemessen": 17, "soweit": 0, "doppelt": 0, "gr\u00fcn": 0, "w\u00e4hrend": 20, "##werkstatt": 0, "Grund": 15, "##voraus": 0, "##setzung": 13, "mater": 0, "##ial": 0, "##side": 8, "\u2192": 0, "##igungs": 0, "##stunde": 0, "entstehen": 25, "Zahlen": 0, "##geschichte": 0, "h": 0, "##\u00e4n": 0, "##seln": 0, "sieben": 0, "Leb": 0, "##kuchen": 0, "Gre": 0, "##tel": 0, "25": 0, "Gleich": 0, "aufstellen": 0, "7": 0, "Achtung": 0, "Peer": 8, "##feed": 0, "entfallen": 0, "dir": 0, "heute": 0, "unser": 56, "\u00dcbungs": 25, "Woche": 0, "schlecht": 0, "genauso": 0, "leicht": 0, "hervorragend": 0, "getr": 0, "##ost": 0, "Per": 0, "##fektion": 0, "##ism": 42, "##u": 34, "verb": 3, "##uchen": 0, "Fin": 0, "##et": 0, "wertvoll": 0, "##stand": 110, "besonders": 0, "f\u00e4l": 0, "##len": 0, "string": 22, "them": 0, "##bedingt": 0, "reduzieren": 14, "mathemat": 29, "weiterhin": 0, "versch": 7, "##rift": 0, "Besch": 0, "Reis": 0, "##haufen": 0, "perfekt": 0, "s\u00e4m": 22, "##tlich": 22, "aussch": 22, "##\u00f6pfen": 22, "abweichen": 0, "krei": 0, "mitten": 0, "Wanderung": 0, "##zimmer": 0, "Weg": 0, "sammeln": 0, "Erfahrung": 0, "Plan": 0, "halten": 12, "##stu": 0, "Re": 18, "Orts": 0, "##plan": 0, "Legende": 0, "z\u00e4hlen": 0, "strukturiert": 9, "fein": 9, "Abstra": 0, "##ktions": 0, "##verm\u00f6gen": 24, "Arbeit": 0, "##beschreibung": 0, "Ausflug": 0, "drau\u00dfen": 0, "schlie\u00dflich": 0, "##igung": 18, "Audio": 0, "##aufnahme": 0, "st": 0, "##\u00fcndig": 0, "##einheit": 0, "##fach": 0, "##handlung": 57, "fragen": 0, "Entschuldigung": 0, "links": 0, "rechts": 0, "##biegen": 0, "##as": 0, "Himmels": 0, "##richtung": 0, "n\u00f6rdlich": 0, "\u00f6stlich": 0, "feststellen": 9, "fest": 0, "u": 0, "un": 37, "##kon": 37, "##kret": 37, "g\u00e4ng": 0, "Schritt": 0, "##pro": 54, "##ze\u00df": 54, "vier": 0, "Ablauf": 15, "##arbeitung": 0, "erf\u00fcllen": 3, "Kriterium": 0, "Kreativit\u00e4t": 15, "Bereich": 15, "angehen": 0, "Ideal": 0, "##erweise": 0, "Impuls": 0, "Klein": 0, "bearbeiten": 27, "anschlie\u00dfend": 0, "ord": 0, "##nen": 11, "Herz": 0, "erfassen": 0, "##kod": 0, "zusammengefasst": 0, "hinsichtlich": 0, "kooper": 9, "komplett": 0, "weg": 0, "Doppel": 0, "##seit": 0, "grob": 0, "Aufbau": 31, "traurig": 0, "##heitlich": 18, "##fahrung": 18, "Ha": 0, "##pt": 33, "##ik": 10, "bas": 0, "##teln": 0, "pr\u00e4zise": 18, "##sch": 8, "##k\u00e4": 0, "##rt": 0, "##blatt": 0, "Block": 0, "Prinzip": 0, "erwerben": 5, "Ritter": 0, "##schlag": 0, "Herr": 0, "Page": 0, "##sf": 37, "Lan": 0, "##ze": 0, "Schild": 0, "Mittelalter": 0, "kennenlernen": 0, "erweitern": 0, "beob": 18, "##acht": 18, "##bar": 24, "men": 0, "##tal": 0, "Was": 0, "Verhaltens": 18, "verwenden": 13, "pass": 0, "spezif": 0, "Koll": 0, "##oka": 0, "##tion": 33, "erhalten": 0, "\u201d": 0, "Land": 0, "besitzen": 0, "christ": 0, "Glauben": 0, "erz": 0, "##ieh": 0, "hm": 0, "gew": 9, "##i\u00df": 6, "##sie": 6, "##rung": 6, "##bei": 0, "##gehen": 0, "merken": 0, "spieler": 12, "kombin": 0, "Funktions": 0, "##verb": 0, "##gef\u00fc": 0, "##ge": 0, "Work": 0, "##sh": 0, "Live": 0, "##work": 0, "##ts": 36, "com": 0, "Da": 0, "kinder": 0, "Pr\u00e4": 0, "##itu": 0, "##ms": 0, "Pr\u00e4sen": 0, "##\u00fcbung": 6, "dies": 0, "Gramm": 25, "##atik": 37, "liegen": 12, "mg": 0, "Aktiv": 6, "f\u00f6rdern": 22, "einsam": 0, "##mel": 0, "Sach": 0, "##buch": 0, "gerne": 0, "Kita": 0, "Jahrgang": 0, "##sst": 17, "##ufe": 0, "niedrig": 9, "erm\u00f6glichen": 0, "darauf": 0, "gr\u00fcndlich": 0, "Rollen": 0, "##spiel": 0, "Lebensweise": 0, "Stand": 0, "Verk": 0, "##leidung": 0, "schl\u00fc": 0, "##pfen": 9, "Lebens": 0, "##ums": 0, "##tan": 0, "Beginn": 7, "##gruppen": 0, "ausf\u00fchren": 0, "Rahmen": 0, "Qu": 0, "##atsch": 0, "##phase": 18, "Niveau": 34, "fordern": 0, "ad": 0, "##\u00e4qu": 0, "dienen": 0, "okay": 0, "gefallen": 0, "##nach": 0, "sichern": 29, "am": 0, "Zusammenfassung": 0, "\u00fcbers": 0, "einbringen": 0, "##laufen": 0, "wahrscheinlich": 0, "Vorschlag": 0, "Mal": 0, "dein": 0, "Figur": 0, "##sagen": 0, "verhalten": 0, "ausgest": 0, "##alten": 0, "Dialog": 0, "euer": 0, "Smart": 0, "##board": 0, "darstellen": 49, "typisch": 12, "Ausr\u00fcstung": 0, "##steil": 0, "Pferd": 0, "Schwert": 0, "hac": 0, "##ken": 0, "Schwein": 0, "Getreide": 0, "##durch": 0, "vergleichen": 0, "Variante": 0, "Platz": 0, "Tabl": 0, "klass": 0, "la": 0, "##min": 0, "somit": 0, "unbe": 0, "##wu": 0, "rein": 0, "##bringen": 6, "\u00dcberblick": 0, "##up": 0, "##id": 0, "Team": 0, "##sr": 0, "##ollen": 0, "erarbeiten": 35, "recher": 0, "##muster": 3, "Bauern": 0, "mehrere": 0, "Auswahl": 16, "\u00e4": 0, "analog": 0, "sitzen": 0, "\u00e4hnlich": 0, "Tabelle": 0, "fertig": 0, "##f\u00fcllen": 0, "jederzeit": 0, "holen": 0, "wieder": 0, "unterst\u00fctzen": 26, "Alters": 0, "##pla": 0, "erledigen": 0, "Hin": 0, "##f\u00fchrung": 0, "##enken": 0, "Mega": 0, "##poten": 0, "##tial": 0, "reden": 20, "##denken": 0, "wor": 0, "##h\u00f6ren": 0, "gen\u00fcgend": 0, "##f\u00e4higkeit": 7, "##h\u00e4ngen": 0, "verlieren": 0, "diagnost": 8, "n\u00e4mlich": 0, "##frage": 0, "Reihe": 0, "h\u00f6ren": 26, "##\u00fcchtern": 0, "Kollege": 0, "bezahlen": 0, "##eli": 0, "schl": 0, "##au": 0, "Gespr\u00e4ch": 31, "##anteil": 37, "L": 0, "antworten": 0, "mi": 0, "##\u00df": 0, "##brauch": 0, "Reiz": 0, "##geber": 0, "antwor": 0, "erlauben": 0, "Interview": 0, "Fernsehen": 0, "##regen": 0, "Vortrag": 0, "weiter": 23, "##f\u00fchren": 4, "##tragen": 0, "entdecken": 0, "ind": 11, "##uk": 35, "##tiv": 11, "Tisch": 0, "pro": 0, "bringen": 0, "fassen": 0, "darin": 0, "vermuten": 0, "10": 0, "Min": 0, "Zeitungs": 0, "##artikel": 0, "Aussch": 0, "##nitt": 0, "100": 0, "%": 0, "I": 0, "Mur": 0, "##f\u00e4llig": 0, "##aus": 0, "bestehen": 7, "Leit": 0, "Befra": 0, "##gte": 0, "befragt": 0, "tun": 6, "K\u00e4r": 0, "##tchen": 0, "Chance": 0, "ausmachen": 0, "##schlei": 10, "##arbeitungs": 0, "##m\u00f6glichkeit": 0, "\u00fcben": 0, "##satz": 0, "##lesen": 0, "runter": 0, "##bet": 0, "bereit": 15, "wider": 13, "##spiegel": 13, "##and": 13, "Seminar": 0, "##uns": 0, "##ens": 0, "bauen": 0, "##leistung": 0, "akzeptieren": 0, "umfangreich": 0, "Gedanke": 11, "##splan": 0, "Schilder": 0, "wonach": 0, "Denk": 62, "Holz": 0, "##stern": 0, "Mathematik": 0, "##unterricht": 87, "Anf": 201, "##order": 201, "Forum": 0, "Praxis": 0, "[": 22, "Nur": 0, "Mo": 0, "]": 22, "f\u00fc": 0, "##gen": 0, "For": 0, "##beitrag": 0, "hinzu": 0, "festgestellt": 0, "Element": 24, "gelangen": 0, "24": 0, "Modell": 115, "Kommunikation": 28, "##alisieren": 3, "Sprache": 78, "Sachver": 10, "nachdenken": 0, "Rechn": 20, "kommunizieren": 42, "Rechen": 20, "##ae": 20, "uns": 0, "sorgen": 0, "\u00dcbersch": 0, "##u\u00df": 0, "problematisch": 0, "##liste": 18, "##arbeits": 18, "Kommun": 18, "##izieren": 18, "Summe": 0, "Tee": 0, "##licht": 0, "Ausgabe": 0, "Brett": 0, "add": 0, "verf\u00fcgbar": 0, "Verf\u00fcg": 6, "##mach": 6, "professionell": 0, "erfahren": 0, "Abschnitt": 0, "Sp": 0, "##ick": 0, "##zettel": 0, "Glo": 0, "##ssa": 0, "darum": 0, "H\u00e4lfte": 0, "verbringen": 0, "bild": 50, "F\u00e4higkeit": 16, "ausw\u00e4hlen": 0, "alter": 0, "##sg": 9, "##erecht": 0, "Kurs": 0, "praktisch": 0, "m\u00f6chten": 0, "beitragen": 7, "Erwerb": 7, "Jahr": 0, "Angebot": 0, "##schul": 0, "##bereich": 0, "stetig": 0, "steigen": 0, "scheinen": 0, "nei": 0, "schul": 0, "Alltag": 0, "angesichts": 0, "hor": 0, "##ren": 0, "##ff": 54, "##kos": 0, "Schul": 0, "explod": 0, "frei": 0, "verk": 9, "##\u00e4uf": 0, "Internet": 0, "detaill": 7, "fund": 7, "notwendig": 0, "beschrieben": 0, "##l\u00e4nge": 0, "Problems": 4, "##tell": 4, "##veranstaltung": 0, "pra": 0, "##xis": 0, "##orientiert": 13, "Verkn\u00fc": 0, "##pfung": 17, "9": 0, "##si": 50, "diskrimin": 45, "##krit": 45, "Diver": 43, "Diskriminierung": 146, "Klicken": 0, "herunterladen": 0, "##oo": 0, "##men": 0, "Zusammenhang": 0, "Mehr": 8, "11": 0, "Komponente": 0, "beding": 0, "Sinn": 23, "Bezug": 29, "National": 0, "Repertoire": 0, "##welt": 0, "Familie": 20, "Medium": 0, "##ref": 87, "##ktiert": 0, "ster": 22, "##eo": 22, "##typ": 22, "##geleitet": 0, "Handeln": 23, "Schuls": 4, "##ystem": 4, "##faktor": 0, "sozial": 0, "Herkunft": 0, "nachweisen": 0, "Beh": 7, "##err": 7, "akadem": 11, "Haushalt": 0, "##system": 26, "erfolglos": 0, "\u00dcberzeugung": 22, "auseinander": 22, "##setzen": 22, "Selbst": 155, "Rassismus": 61, "##bezogen": 13, "institution": 10, "##ell": 39, "##literatur": 0, "h\u00e4ufig": 24, "Ausdruck": 0, "tief": 0, "systematisch": 0, "rass": 16, "##istisch": 13, "Struktur": 62, "ansehen": 0, "heu": 0, "##tig": 0, "pla": 0, "Jahrzehnt": 0, "weshalb": 0, "jemand": 0, "zahl": 0, "##reich": 0, "##konstruktion": 4, "Vielzahl": 0, "##dimension": 15, "Individ": 0, "##uum": 0, "Identit\u00e4t": 0, "pr\u00e4gen": 0, "aufgrund": 17, "##behandlung": 4, "##sse": 0, "Ag": 0, "unters": 0, "##agen": 0, "straf": 0, "##rechtlich": 0, "verfolgen": 0, "Rasse": 3, "Ethn": 0, "##ie": 0, "Geschlecht": 0, "Religion": 0, "Welt": 0, "##ans": 0, "Alter": 0, "Behinderung": 0, "sexuell": 0, "Quelle": 0, "##ese": 0, "Berlin": 0, "Gesetz": 0, "Ausgrenzung": 0, "Ph\u00e4nomen": 0, "Ben": 18, "##achteil": 18, "12": 0, "ergeben": 0, "##rel": 30, "##ev": 30, "##ant": 42, "##eg": 10, "##orie": 10, "gezielt": 0, "\u2014": 0, "Tu": 0, "Dresden": 0, "tu": 0, "dre": 0, "##sd": 0, "d": 0, "Schule": 14, "hinaus": 0, "Dimension": 10, "Brand": 0, "Hab": 0, "Beg": 0, "##abu": 0, "Leistungs": 0, "bedeut": 0, "##sam": 0, "He": 0, "##ogen": 0, "##it\u00e4ts": 0, "##merkmale": 0, "2017": 0, "20": 0, "beachten": 6, "Leben": 0, "13": 0, "Lehre": 0, "Position": 16, "##ner": 0, "gesellschaft": 16, "Verh\u00e4ltnis": 0, "##linie": 0, "Methodik": 0, "zumeist": 0, "setzen": 15, "oftmals": 0, "verg": 0, "##egen": 0, "##w\u00e4rtig": 0, "inwieweit": 0, "##real": 0, "##it\u00e4t": 0, "Mit": 0, "weiterer": 0, "korre": 12, "##sp": 12, "##ond": 12, "Folge": 16, "lern": 29, "verh\u00e4lt": 16, "##nis": 16, "ausreichend": 16, "refle": 23, "##ktieren": 23, "##format": 0, "schlimm": 0, "sogar": 0, "Nad": 0, "##ol": 0, "##ny": 0, "Stefan": 0, "2021": 0, "##sek": 0, "##tional": 0, "politisch": 0, "15": 0, "ersch": 7, "##weren": 7, "##kommen": 0, "stets": 0, "Kombination": 0, "auftreten": 0, "##r\u00e4nkt": 7, "geschehen": 7, "Online": 0, "H": 0, "##ttp": 0, "www": 0, "ro": 0, "##ux": 0, "publ": 0, "##ikation": 8, "375": 0, "##78": 0, "##ita": 0, "zuletzt": 0, "pr\u00fcfen": 0, "01": 0, "07": 0, "Besch\u00e4ftigung": 14, "gelten": 0, "P\u00e4dagog": 0, "besch\u00e4ftigen": 0, "Zugeh\u00f6rigkeit": 0, "Spannungs": 7, "##verh\u00e4ltnis": 7, "individuell": 7, "Faktor": 7, "Herrschafts": 7, "##ef": 7, "##fekt": 7, "Mart": 0, "Busch": 0, "\u00ab": 0, "Sub": 0, "##jekt": 0, "\u00bb": 0, "Pers\u00f6nlichkeit": 0, "##sent": 0, "##wicklung": 0, "Lage": 0, "Er": 7, "##achten": 0, "Kompetenz": 46, "Komplexit\u00e4t": 30, "Viel": 24, "##schicht": 0, "Anlehnung": 0, "Andreas": 0, "Fo": 0, "##itz": 0, "vielmehr": 0, "eleg": 0, "scheiter": 0, "14": 0, "Handlungs": 34, "trotz": 0, "##icherheit": 0, "p\u00e4dagog": 0, "Weise": 14, "f\u00f6rder": 0, "Angst": 0, "mei": 0, "##den": 20, "Deb": 0, "Katharina": 0, "Stu": 0, "##ve": 0, "Olaf": 0, "Scheitern": 0, "##heit": 25, "gegen": 6, "Neut": 0, "##ral": 0, "##anst": 0, "##o\u00df": 0, "Wert": 0, "##freiheit": 0, "Grundsatz": 9, "##verst\u00e4ndnis": 0, "metho": 0, "##dis": 0, "Dog": 0, "dauerhaft": 0, "aufta": 0, "Ungleich": 4, "##heits": 0, "priv": 0, "##ileg": 0, "\u2013": 0, "Kosten": 0, "gesteckt": 0, "Regel": 7, "##sprechen": 7, "##uss": 0, "##folger": 2, "zun\u00e4chst": 0, "Wider": 7, "##here": 0, "offen": 24, "Verhalten": 0, "18": 0, "23": 0, "beziehen": 0, "Privileg": 0, "bew": 0, "##ussen": 0, "##ierte": 0, "luxuri": 0, "##\u00f6s": 0, "Situation": 0, "Reduzierung": 0, "Ster": 0, "##isierung": 25, "Gewalt": 0, "Marg": 0, "##ina": 0, "##li": 0, "##rte": 0, "Gut": 0, "lustig": 0, "f\u00fchlen": 0, "Un": 0, "konvention": 0, "Ice": 0, "##rd": 4, "1966": 0, "Haut": 0, "##farbe": 0, "Abstammung": 0, "national": 0, "Ursprung": 0, "Volks": 0, "##tum": 0, "beruhen": 0, "Unterscheidung": 0, "##lie\u00df": 0, "Beschr\u00e4nkung": 0, "Bevor": 0, "dadurch": 0, "##berechtigt": 0, "An": 0, "##erkennen": 0, "Genie\u00dfen": 0, "aus\u00fcben": 0, "Menschen": 4, "##recht": 0, "wirtschaftlich": 0, "kultur": 0, "\u00f6ffentlich": 0, "ver": 20, "##eite": 0, "beeintr\u00e4chtigen": 0, "abs": 0, "bemerken": 0, "Kategor": 0, "entlang": 0, "sog": 0, "aufrechter": 0, "sub": 12, "##jektiv": 24, "Wahrnehmung": 0, "verh": 0, "##\u00e4rten": 0, "impl": 0, "##rasse": 4, "wissenschaft": 0, "halt": 0, "Nach": 0, "##ew": 0, "##erk": 0, "Susan": 0, "Arn": 0, "##dt": 0, "##ja": 0, "Of": 0, "##ua": 0, "##y": 0, "al": 0, "##azar": 0, "vorschlagen": 0, "17": 0, "definieren": 4, "ra": 0, "##cis": 0, "##m": 0, "Pre": 0, "##ju": 0, "##di": 0, "##ce": 0, "Power": 0, "Rass": 17, "##ismen": 9, "##stuf": 0, "Bewertung": 0, "Macht": 0, "##ismus": 3, "geh\u00f6ren": 0, "##willig": 0, "##urteil": 0, "handeln": 4, "echt": 0, "vorliegen": 10, "ungleich": 0, "behandeln": 0, "##leich": 0, "er": 0, "Wei\u00df": 0, "##sein": 0, "bestimmt": 3, "genie\u00dfen": 0, "kontro": 0, "##vers": 0, "unterscheiden": 0, "Abbildung": 0, "Ali": 0, "Val": 0, "##jen": 0, "na": 0, "##zi": 0, "net": 0, "##ap": 0, "Ex": 0, "##kurs": 0, "positiv": 36, "19": 0, "eng": 0, "ethn": 0, "verwandt": 0, "Konzept": 5, "\u00f6fter": 0, "is": 0, "Look": 0, "Aussehen": 0, "##ili": 11, "Gesundheit": 0, "Ad": 0, "##ult": 0, "jung": 0, "Antisemitismus": 0, "Klass": 0, "Schicht": 0, "Tran": 0, "feind": 0, "##kei": 0, "Sex": 0, "Gen": 0, "##der": 0, "##eis": 0, "Alte": 0, "anti": 0, "##mus": 0, "##lim": 0, "Islam": 0, "##feind": 0, "Hom": 0, "##oph": 0, "##obi": 0, "Anti": 0, "##zig": 0, "##ani": 0, "Rom": 0, "Sin": 0, "Lin": 34, "##gu": 34, "##iz": 34, "gewalt": 0, "gering": 0, "Liter": 0, "##alit\u00e4t": 0, "##serfahrung": 0, "nieders": 0, "##lagen": 0, "##weisung": 57, "##f\u00f6rderung": 0, "irre": 0, "##lev": 0, "Ak": 0, "##zent": 0, "Aussprache": 0, "##gew": 0, "##ohn": 0, "wesentlich": 8, "Ot": 10, "##her": 10, "##ing": 221, "Kultur": 12, "##alisierung": 12, "Mech": 0, "##eri": 0, "Dir": 0, "##im": 0, "Mel": 0, "2010": 0, "42": 0, "det": 0, "Erkl\u00e4rung": 16, "Handlung": 27, "Einstellung": 0, "Konflikt": 0, "##sweise": 10, "Dich": 0, "##oto": 0, "##mi": 10, "Zweite": 0, "##il": 0, "Gesellschaft": 20, "Zuge": 0, "##h\u00f6rige": 0, "Nicht": 0, "zuge": 0, "verst\u00e4rkt": 0, "Zusch": 0, "##reibung": 0, "##produz": 0, "bedeuten": 20, "Ru": 0, "ko": 21, "Ne": 0, "##o": 0, "Datei": 0, "vielf\u00e4ltig": 0, "Dialekt": 0, "##\u00e4tzen": 17, "##tritt": 0, "##sem": 0, "##pfe": 0, "##hl": 0, "Gymnasium": 0, "erteilen": 0, "101": 0, "hinweg": 0, "Anerkennung": 12, "mitgebracht": 12, "##ibel": 12, "agieren": 12, "bek\u00e4mpfen": 0, "##pr\u00e4": 14, "##gung": 14, "annehmen": 0, "potenzie": 0, "##eh": 6, "##\u00f6r": 6, "dr\u00fccken": 20, "ohn": 20, "##m\u00e4chtig": 20, "Opfer": 20, "##rolle": 20, "##erb": 36, "##zwei": 20, "##fel": 20, "best\u00e4": 20, "emp": 20, "##ath": 20, "kompens": 20, "Betroffene": 20, "Verfasst": 20, "Fortbildung": 0, "besuchen": 0, "Gesellschafts": 0, "##zusammen": 0, "##hang": 0, "##\u00fcr": 20, "dem": 20, "r": 35, "wecken": 20, "Hoffnung": 20, "sit": 0, "##ui": 0, "##ert": 15, "Lehrer": 15, "##arm": 0, "##losen": 0, "2016": 0, "stand": 0, "web": 0, "p": 0, "##df": 0, "##tu": 0, "do": 0, "or": 0, "wirksam": 0, "Werkzeug": 0, "beispielsweise": 0, "Id": 0, "##b": 0, "##tage": 0, "##freie": 0, "|": 0, "Institut": 0, "Bildung": 8, "generell": 0, "Anlauf": 0, "##stelle": 0, "##klus": 0, "Demokratie": 0, "Wirtschafts": 0, "##unternehmen": 0, "Bew": 0, "##usste": 0, "##reh": 0, "F\u00f6rderung": 0, "sau": 0, "##ul": 0, "##able": 0, "derjenige": 0, "Landes": 0, "##anti": 0, "##rimin": 0, "##gesetz": 0, "62": 0, "##1": 0, "##fu": 0, "##bi": 0, "fu": 0, "bit": 0, "##stream": 0, "hand": 0, "##18": 0, "##8": 0, "169": 0, "##70": 0, "##dg": 0, "se": 0, "##quen": 0, "Isa": 0, "##we": 0, "y": 0, "##sk": 4, "##rit": 4, "unterrichten": 4, "beginnen": 0, "folglich": 0, "kolle": 0, "##gia": 0, "Beratung": 0, "Ereignis": 0, "nachtr\u00e4glich": 0, "k\u00fcnftig": 0, "inkl": 16, "sensi": 16, "##bel": 16, "Gegenstand": 16, "beinhalten": 27, "Schulen": 0, "##tw": 0, "##lung": 0, "demokrat": 0, "Stimme": 0, "##zieht": 0, "bef": 0, "##ragen": 0, "verringern": 5, "Mehrfach": 6, "anerkennen": 6, "oft": 0, "##wirken": 0, "organisieren": 6, "Erzieher": 0, "ihm": 0, "Zugang": 0, "verschaffen": 0, "wert": 8, "##\u00e4tzt": 0, "wahrnehmen": 11, "hin": 0, "##usst": 0, "##sei": 0, "##binden": 0, "fot": 0, "enorm": 0, "beschr\u00e4nken": 0, "21": 0, "sp\u00e4testens": 0, "Sekundar": 0, "bal": 0, "treffen": 0, "meiste": 0, "##rn": 21, "Ausbau": 11, "##kompetenz": 19, "verf\u00fcgen": 0, "gewinnen": 17, "Mithilfe": 0, "Schm": 0, "##\u00f6lzer": 0, "eib": 0, "2006": 0, "179": 0, "Lauf": 0, "sechs": 0, "kon": 32, "##zeption": 9, "vertraut": 9, "separ": 0, "heran": 0, "aufweisen": 0, "##spezif": 0, "erweitert": 0, "Res": 3, "##so": 42, "##urce": 42, "zur\u00fcck": 0, "##greifen": 0, "##alisch": 12, "Bestimmung": 9, "Hindernis": 4, "##planung": 44, "beanspr": 0, "unge": 0, "warten": 0, "Anzeichen": 0, "Ges": 0, "##agte": 0, "##ulierung": 15, "##uen": 0, "stattdessen": 0, "sk": 0, "##izz": 0, "solch": 0, "bew\u00e4ltigen": 8, "Autor": 0, "vorlegen": 0, "##ungsbereich": 27, "##decken": 10, "Ausf\u00fchrung": 17, "Video": 0, "Zweck": 0, "Feld": 7, "##grenzen": 0, "W": 24, "##dh": 0, "Ba": 0, "Genre": 40, "Verst\u00e4ndnis": 6, "schriftlich": 10, "f\u00fcnf": 0, "vorgeschlagen": 0, "##inter": 33, "Vert": 0, "##ief": 0, "##gn": 17, "##itiv": 15, "Operation": 11, "2014": 0, "bezeichnen": 0, "ausgel\u00f6st": 0, "Verbindung": 0, "dahinter": 0, "##struktur": 5, "verarbeiten": 0, "##geben": 0, "invol": 0, "##vier": 0, "##ichern": 0, "dementsprechend": 0, "Festlegung": 9, "festlegen": 0, "##antwort": 6, "erforderlich": 0, "s\u00e4": 0, "vorkommen": 0, "deswegen": 0, "integrieren": 0, "welches": 0, "existieren": 0, "##uster": 3, "##iell": 0, "ka": 0, "##usa": 0, "multi": 0, "Wirkung": 0, "Qualit\u00e4t": 5, "erh\u00f6hen": 0, "Nomin": 0, "Pass": 0, "etc": 0, "pl": 0, "##uri": 0, "##lit": 0, "##era": 0, "##ci": 0, "ec": 0, "##ml": 0, "at": 0, "port": 0, "##als": 0, "54": 0, "##utt": 0, "app": 0, "##ro": 0, "##ach": 0, "into": 0, "##ctic": 0, "##erst": 0, "nah": 0, "bedienen": 0, "Schreiben": 42, "Sprechen": 48, "##p\u00e4dagog": 0, "##ener": 9, "Bearbeitung": 9, "initi": 9, "lenken": 0, "2019": 0, "D": 0, "R": 0, "erfordern": 6, "Chron": 0, "##ologie": 0, "Versuchs": 0, "zuerst": 0, "Vordergrund": 0, "hinten": 0, "ausdr\u00fcck": 0, "Regelung": 0, "Versuch": 0, "##ordnung": 23, "pr\u00fc": 13, "##fungs": 13, "Rep": 24, "##rod": 24, "Transfer": 24, "##organisation": 0, "sicherlich": 0, "Lehren": 0, "verst\u00e4nd": 0, "##bahnen": 0, "gew\u00e4hrleisten": 0, "theoretisch": 23, "Fund": 23, "Referenz": 25, "realisiert": 23, "etwa": 0, "2002": 0, "Tax": 0, "##onom": 0, "##i": 0, "grundlegend": 0, "verschw": 0, "Realisierung": 5, "untersuchen": 0, "indirekt": 0, "##izit": 0, "erscheinen": 0, "meistens": 0, "erwartet": 0, "Inst": 0, "##ru": 0, "##ktion": 0, "16": 0, "Projekt": 0, "Merc": 0, "Zeichen": 26, "int": 0, "vornehmen": 0, "##merk": 12, "##mal": 12, "bewusst": 0, "##sch\u00fcler": 8, "Ca": 0, "zusammenh\u00e4ngen": 7, "##zip": 0, "diesbez\u00fcglich": 0, "erw\u00e4hnt": 0, "##se": 9, "einher": 9, "##gehend": 9, "##\u00fc": 26, "Nam": 0, "Statistik": 0, "Lex": 0, "##ikon": 0, "##eint": 0, "##rag": 0, "W\u00f6rter": 0, "Bra": 0, "##inst": 0, "Mind": 0, "Des": 0, "##cr": 0, "Inhalts": 0, "##wieder": 12, "##gabe": 13, "Sum": 0, "##mar": 0, "##erz": 0, "##\u00e4hl": 0, "Gebrauch": 0, "##san": 0, "Anteil": 0, "User": 0, "Man": 0, "##ual": 0, "diskon": 0, "##tinuier": 0, "Dia": 0, "##gramm": 0, "Bericht": 0, "Zeitung": 0, "Radio": 0, "Fe": 0, "##ature": 0, "Protokoll": 0, "##modell": 0, "Bewerbung": 0, "Expl": 0, "##ain": 0, "Grafik": 0, "Refer": 0, "Hypoth": 0, "begr\u00fcndet": 0, "Vorher": 0, "##sage": 0, "Conc": 0, "##ep": 0, "Argument": 3, "Arg": 0, "##\u00f6rter": 0, "##tat": 0, "Ess": 0, "##ay": 0, "Tra": 0, "Quellen": 0, "Bes": 0, "##innung": 0, "##sau": 15, "##fs": 0, "ev": 0, "##iden": 0, "##zb": 0, "##asi": 0, "Natur": 0, "##wissenschaft": 10, "Interpretation": 0, "##utung": 0, "fik": 0, "viert": 0, "##ige": 0, "##\u00fcndel": 0, "Bachelor": 0, "##re": 3, "##strategie": 4, "Koh": 3, "##\u00e4ren": 3, "Int": 0, "Strategie": 41, "\u00fcblicherweise": 0, "lin": 0, "korrekt": 5, "endlich": 0, "tauchen": 0, "auff\u00e4llig": 0, "##atisch": 12, "kommun": 3, "##ikat": 3, "##sb": 3, "##erei": 3, "##ktik": 0, "##fertig": 6, "Fertig": 11, "m": 0, "##dl": 0, "H\u00f6ren": 24, "gelungen": 0, "ausgehend": 0, "Pl": 0, "A": 0, "Fak": 5, "C": 0, "inne": 0, "##tik": 0, "e": 0, "eignen": 0, "F": 0, "worauf": 0, "legen": 0, "##termin": 0, "Tipp": 0, "zum": 0, "verbessern": 0, "Beweis": 18, "Gelegenheit": 7, "##reichte": 7, "##fort": 20, "messen": 3, "Erg\u00e4nzung": 0, "Gel": 0, "##ernte": 0, "Vermittlung": 13, "##rufen": 0, "steuern": 0, "mer": 0, "##cat": 0, "##or": 0, "con": 0, "##tent": 0, "##lo": 0, "##ads": 0, "allen": 0, "fa": 0, "##ech": 0, "##ern": 0, "Not": 0, "begegnen": 0, "Tag": 0, "Sport": 0, "kennen": 0, "Name": 0, "Begriffs": 0, "##kl\u00e4rung": 0, "zeitlich": 0, "begrenzt": 0, "##ziell": 0, "Unterst\u00fctzungs": 6, "##ker": 0, "f": 0, "2015": 0, "84": 0, "Ger": 53, "##\u00fcst": 53, "selbstst\u00e4ndig": 19, "bewegen": 19, "Pauli": 0, "##ne": 0, "Gib": 0, "##bon": 0, "\u00fcbertragen": 0, "Josef": 0, "leise": 0, "28": 0, "kalk": 0, "hingegen": 0, "##ozi": 0, "Fr": 0, "##ustr": 0, "Zone": 0, "##versuch": 0, "##f\u00fchl": 0, "So": 0, "##das": 0, "optimal": 0, "##situation": 15, "eigentlich": 0, "Aufrechter": 13, "Development": 0, "Offensive": 5, "##praxis": 0, "prinzip": 0, "Instrument": 0, "Erwerbs": 9, "voran": 0, "##melde": 4, "##technische": 4, "zweit": 0, "##ebene": 0, "durchaus": 0, "st\u00e4ndig": 0, "##person": 0, "Reduktion": 0, "zugunsten": 0, "Um": 0, "##kehr": 0, "Front": 0, "lang": 0, "##put": 0, "Mikro": 113, "Mak": 54, "##ros": 54, "##ca": 54, "Phase": 0, "neben": 0, "hierzu": 0, "verst\u00e4ndlich": 11, "##erium": 11, "formuliert": 11, "Teile": 0, "##ment": 0, "Bedarf": 4, "##stands": 15, "##let": 0, "##zt": 0, "aktuell": 5, "ermitteln": 17, "behalten": 17, "genannt": 0, "Geben": 0, "umfassen": 0, "Gesamtheit": 0, "##technik": 95, "##st\u00e4ndigkeit": 13, "Methoden": 0, "##vielfalt": 0, "##sc": 71, "plan": 0, "##gespr\u00e4ch": 15, "unvor": 0, "##gesehen": 0, "##schwier": 6, "Ho": 0, "##c": 0, "reagieren": 0, "hierbei": 0, "Technik": 18, "##kommun": 8, "mitge": 0, "##stal": 0, "unvoll": 0, "##st\u00e4ndig": 0, "Ahnung": 0, "##vor": 0, "vertrauen": 0, "Grundlage": 0, "bieten": 0, "Sog": 0, "##ding": 0, "The": 0, "Lang": 0, "##uage": 0, "Cur": 0, "##ric": 0, "##ulu": 0, "##gl": 0, "121": 0, "##f\u00fchrende": 0, "##rw": 16, "Beachtung": 0, "entwickeln": 0, "wof\u00fcr": 0, "bedenken": 0, "geleitet": 0, "\u00dcbersicht": 0, "Goethe": 0, "inst": 0, "##itut": 0, "Be": 0, "Et": 0, "Al": 0, "35": 0, "beherrschen": 0, "eingesetzt": 0, "Schreib": 0, "besonder": 0, "##verk": 17, "langfristig": 0, "Zuwachs": 7, "bewirken": 0, "##n\u00f6": 0, "sicherstellen": 0, "##disziplin": 0, "Zir": 0, "##kel": 0, "Leistung": 14, "Falle": 0, "Poly": 0, "##ium": 0, "##handen": 0, "Bedeutung": 7, "Kunst": 0, "Ge": 0, "##ometrie": 0, "umso": 0, "Kl\u00e4r": 12, "##\u00e4ltigung": 0, "gerecht": 0, "Tool": 0, "##entscheidung": 0, "Kasten": 0, "gesamt": 0, "##vorgang": 3, "M\u00fcnster": 0, "Wa": 0, "Verlag": 0, "49": 0, "##instrument": 0, "erw\u00e4hnen": 0, "berichten": 0, "Studierende": 0, "Master": 0, "parallel": 0, "laufen": 0, "gestellt": 0, "anders": 0, "inten": 0, "##die": 0, "System": 0, "Konkret": 0, "##isierungs": 0, "##ras": 48, "Hilfsmittel": 0, "geeignet": 0, "sogen": 0, "##annt": 0, "vorab": 0, "Rast": 0, "altern": 0, "befassen": 0, "n\u00e4chst": 0, "Unter": 0, "Grundschule": 6, "sim": 4, "##pel": 4, "Zwischen": 0, "Modul": 0, "##abschluss": 0, "##pr\u00fcfung": 0, "\u00fcbersehen": 0, "Abgabe": 0, "Vorteil": 0, "##proben": 0, "##eignet": 0, "lo": 0, "##hnen": 0, "Verwendung": 0, "Erfinder": 0, "ebenso": 0, "durchf\u00fchren": 0, "verkehren": 0, "Bord": 0, "Erl\u00e4u": 0, "##terung": 0, "##verw": 10, "##endung": 10, "Publikation": 0, "##bene": 0, "Neben": 5, "##s\u00e4tz": 5, "Trick": 0, "##best": 0, "Englisch": 0, "Franz\u00f6sisch": 0, "Erst": 0, "pl\u00f6tzlich": 0, "Deutsche": 0, "##h\u00fc": 4, "herausfinden": 0, "Unterseite": 0, "hilfreich": 0, "##wn": 0, "ar": 0, "##row": 0, "Nutzen": 42, "ange": 0, "##h\u00e4ngt": 0, "P": 0, "dat": 0, "##eie": 0, "Hinweis": 0, "Kollegin": 0, "Dr": 0, "Maria": 0, "Gro\u00dfe": 0, "##gaben": 0, "link": 0, "ti": 0, "frage": 24, "Konzentration": 24, "Schacht": 24, "##els": 24, "Eind": 24, "##eu": 24, "##tigkeit": 48, "##deu": 24, "##fra": 24, "##cht": 24, "Ei": 0, "Erinnerung": 0, "##sw": 15, "ausgew\u00e4hlt": 0, "sc": 19, "Bitte": 0, "Pr\u00e4z": 25, "Zug": 0, "##zwang": 0, "Ziels": 0, "##tr": 8, "##tur": 0, "Kontrast": 38, "##vergleich": 0, "##ingu": 0, "##ling": 0, "##kunft": 0, "\u00c4u\u00dfer": 0, "wiederauf": 0, "korrig": 11, "Wieder": 0, "##holen": 0, "ziel": 13, "##cast": 18, "##wahl": 0, "Aufforderung": 97, "##kor": 96, "##rektur": 96, "Verweis": 0, "Eliz": 12, "##iti": 12, "##erung": 23, "##holung": 12, "Einsatz": 21, "Mi": 10, "##k": 10, "Gest": 10, "26": 0, "Folgende": 0, "Einf\u00fchrung": 3, "##sv": 0, "##ideo": 0, "Daniela": 0, "Rotter": 0, "ow": 0, "##ituation": 12, "##altern": 4, "##ative": 4, "Motiv": 4, "o": 0, "##sz": 15, "##ena": 0, "##rio": 0, "Ma\u00dfnahme": 8, "F\u00fchrung": 8, "erleichtern": 8, "##\u00fchrung": 19, "ber\u00fchren": 0, "veran": 0, "##schau": 0, "gleichzeitig": 0, "person": 0, "Steuerung": 0, "Lei": 0, "##iede": 0, "Nacht": 0, "Unsicherheit": 15, "##wissenschaftler": 0, "Knapp": 0, "beobachten": 0, "vielfach": 0, "\u00fcbersch": 0, "konzentrieren": 0, "##sich": 0, "orientieren": 0, "##tre": 0, "##tags": 15, "nett": 0, "l\u00e4": 0, "##che": 0, "ni": 0, "##cken": 0, "schnell": 6, "unent": 6, "Version": 0, "voll": 0, "par": 0, "##aver": 0, "##bal": 0, "##tem": 8, "##po": 8, "Beton": 8, "##pause": 8, "Beziehung": 0, "##sebene": 0, "Gestaltung": 14, "##gst": 9, "##frei": 9, "##gebung": 9, "ermu": 21, "##nte": 21, "\u00e4u\u00dfern": 8, "ak": 0, "langsam": 0, "gew\u00e4hren": 0, "Werkzeuge": 0, "##schullehrer": 7, "40": 0, "einer": 0, "ziemlich": 7, "zust": 8, "##ehen": 8, "Perspektive": 0, "##arch": 0, "as": 0, "##ym": 0, "##met": 0, "##ris": 0, "sozio": 0, "##kultur": 19, "##theorie": 0, "konstru": 7, "##l\u00f6sen": 0, "erzeugen": 0, "anscheinend": 0, "##erg": 0, "frag": 0, "konstruiert": 0, "traditionell": 0, "##\u00e4g": 8, "##sver": 8, "bitten": 0, "##10": 0, "ver\u00e4ndern": 0, "Zeitpunkt": 0, "verhaf": 0, "##ier": 0, "Vermutung": 0, "Kon": 0, "##junkt": 0, "##11": 0, "Schwe": 0, "##nk": 0, "Akte": 0, "##ur": 5, "natur": 10, "##ug": 15, "Erkenntnis": 15, "verp": 15, "##acken": 15, "Br\u00fccke": 0, "pers\u00f6nlich": 13, "allt\u00e4": 0, "##glich": 0, "Erk": 0, "##skon": 0, "##struktion": 0, "##information": 0, "ann\u00e4h": 0, "##elli": 15, "##atten": 0, "sinn": 15, "##stift": 15, "##end": 15, "vorgestellt": 0, "##xi": 0, "Entwicklung": 0, "einerseits": 17, "konfron": 0, "andererseits": 0, "kaum": 0, "produ": 0, "trennen": 7, "##zeigen": 9, "Cor": 3, "##ction": 3, "eventuell": 17, "blo\u00df": 0, "##stellen": 2, "Interesse": 11, "automatisch": 0, "Sicherheit": 0, "keiner": 0, "Regen": 17, "unauf": 11, "##dring": 11, "nebenbei": 11, "res": 39, "##ns": 11, "##cho": 11, "halb": 0, "Nenn": 0, "anstelle": 16, "Prom": 33, "zufrieden": 0, "bekommen": 0, "anstatt": 0, "Nutzung": 16, "du": 0, "##und": 13, "Themen": 0, "##gebrauch": 0, "##rieb": 0, "##med": 0, "##w\u00e4l": 0, "##zen": 0, "##\u00e4r": 0, "##fen": 0, "##echsel": 15, "Option": 0, "empfehlen": 0, "Periode": 0, "##auer": 0, "Schau": 0, "##ions": 7, "##bewusst": 0, "Aufmerksamkeit": 0, "##sl": 0, "##enkung": 0, "Inner": 0, "Di": 0, "##\u00e4t": 0, "Abgeordnete": 0, "##andt": 0, "##schaft": 0, "Alkohol": 0, "Chemie": 0, "End": 0, "Suf": 0, "##fi": 0, "##quis": 0, "##it": 0, "##ki": 0, "##tt": 0, "##dest": 0, "##ph": 0, "##on": 0, "begleiten": 0, "Sprachen": 0, "##omen": 0, "wel": 0, "Komposition": 0, "Der": 0, "##iva": 0, "aller": 0, "##las": 0, "funktionieren": 0, "Kor": 0, "##ktive": 0, "fehler": 0, "##haft": 0, "Korrektur": 10, "Monitor": 0, "##ona": 0, "wiederholen": 0, "kalt": 0, "Metall": 0, "##platte": 0, "ert": 0, "##rinken": 0, "dauern": 0, "Sekunde": 0, "Hand": 0, "##bewegung": 0, "Heb": 0, "Augen": 0, "##bra": 0, "##ue": 0, "aufmerksam": 0, "Studium": 0, "bisher": 0, "vorgehen": 5, "##lehr": 0, "he": 6, "##mmen": 6, "Umstand": 0, "Foss": 11, "Abbruch": 0, "Sta": 9, "##gna": 9, "erworben": 9, "##brechen": 0, "demnach": 0, "werfen": 11, "verde": 0, "##utlich": 0, "gleicherma\u00dfen": 0, "Defizit": 0, "St\u00e4rke": 0, "Ressourcen": 14, "##blick": 0, "sch\u00e4r": 0, "##\u00fcler": 18, "##freundlich": 5, "##verh": 5, "##alte": 5, "etablieren": 5, "Einsicht": 0, "durchsetzen": 0, "dokumen": 0, "Studie": 0, "Zweit": 0, "Kas": 0, "##bau": 2, "beeinfl": 0, "##rate": 4, "##gie": 4, "Auge": 0, "##\u00e4u\u00dfer": 9, "beurteilen": 9, "herange": 0, "##dia": 2, "##ose": 2, "Ann\u00e4herung": 10, "regelm\u00e4\u00dfig": 0, "neutr": 17, "gegen\u00fcber": 0, "x": 0, "##nor": 28, "##ient": 28, "flexibel": 0, "Fol": 0, "##ien": 0, "##ly": 0, "##ruf": 0, "Kriterien": 44, "verf": 12, "##\u00e4l": 12, "unum": 0, "##g\u00e4ng": 0, "kritisieren": 0, "Zielsetzung": 0, "anpassen": 6, "cu": 13, "##rr": 13, "##ic": 13, "##ular": 13, "davon": 0, "Erhebung": 0, "Anregung": 0, "le": 0, "##hre": 0, "##rf": 0, "##ort": 0, "22": 0, "##orientierte": 14, "E": 0, "Aller": 0, "Verw": 4, "##enden": 4, "basierend": 0, "auswirken": 6, "registrieren": 0, "V": 0, "2007": 0, "##verst\u00e4ndlich": 0, "erinnern": 0, "R\u00fcckgabe": 0, "Klaus": 0, "Schulzeit": 0, "##f\u00f6rder": 13, "Auseinander": 13, "eil": 0, "##tiert": 0, "##abelle": 0, "real": 0, "Halbjahr": 0, "melden": 0, "##art": 0, "sodass": 0, "##zu": 0, "##wachs": 0, "ausgehen": 0, "##inn": 3, "probieren": 0, "##abell": 0, "Transparenz": 6, "Memor": 0, "L\u00f6sungs": 0, "Y": 0, "Leg": 0, "##esp": 0, "##iel": 0, "Realit\u00e4t": 0, "Math": 0, "Zahl": 0, "cle": 0, "##ver": 0, "##wand": 0, "Behauptung": 0, "aufeinander": 0, "enden": 0, "Schw\u00e4che": 0, "Papier": 0, "gelegentlich": 0, "Mangel": 4, "##tigen": 0, "##zentrum": 0, "Anspruch": 0, "Er\u00f6ffnung": 0, "Sorge": 0, "Haupt": 0, "verraten": 0, "Philosophie": 0, "Sache": 0, "Sens": 0, "Erm": 0, "##angel": 0, "Standard": 0, "beeindruckt": 0, "pr\u00e4": 0, "##grenze": 0, "verdienen": 0, "au\u00dferhalb": 0, "Absatz": 0, "ausschlie\u00dflich": 0, "##\u00fcss": 0, "Fett": 0, "Auftrag": 0, "gro\u00dfartig": 0, "##imi": 0, "##nier": 0, "Linie": 0, "Philosoph": 0, "interessant": 3, "inform": 6, "Theo": 0, "##ret": 0, "##iker": 0, "##ana": 0, "anwenden": 0, "##s\u00e4tzlich": 0, "Standpunkt": 0, "unterm": 0, "##auern": 0, "Vorsicht": 9, "wa": 9, "##lt": 9, "Hed": 9, "##ging": 9, "Schluss": 2, "Mitarbeiter": 0, "ausbauen": 6, "bed": 0, "##\u00fcrf": 0, "wohin": 0, "Organisation": 2, "Le": 5, "##\u00fcre": 5}}